#version: 0.2
h e
Ġ t
Ġ a
Ġ s
Ġ w
n d
Ġt he
e d
Ġa nd
Ġt o
Ġ b
i n
Ġ h
Ġw a
r e
o u
Ġ f
i t
Ġ l
Ġ c
Ġ d
e r
Ġ he
Ġ m
Ġ p
Ġwa s
o m
Ġ T
Ġ o
a y
a r
i s
in g
i l
Ġ g
i d
a t
e n
Ġ n
Ġs a
Ġh a
Ġ S
ĠT he
a n
i m
o r
o n
Ġ it
Ġt h
l l
l e
Ġ H
Ġhe r
o t
e t
i r
ĠS he
e s
ĠH e
Ġ in
v er
u t
o w
ĠThe y
c k
Ġ e
Ġ u
l d
Ġ y
o o
Ġsa id
i g
Ġ "
il y
Ġ r
Ġb e
a m
Ġs t
Ġ I
c e
k e
Ġs he
v e
p p
it h
Ġw ith
L ily
O n
Ġo n
Ġy ou
Ġo f
k ed
r i
Ġs o
n t
Ġh is
Ġp l
a d
ver y
Ġd ay
Ġth at
Ġu p
Ġpl ay
Ġha d
s t
Ġthe y
Ġw e
Ġ Lily
Ġm om
Ġf or
Ġ B
e l
u n
ou ld
' s
m y
T he
Ġl i
c h
en t
Ġha pp
Ġwa nt
it t
Ġs h
ou t
he r
Ġd o
l y
Ġn ot
om e
s e
Ġ very
ou nd
e nd
a ll
Ġw h
im e
itt le
Ġ k
Ġt ime
Ġl ittle
a l
Ġthe re
Ġn e
h t
Ġ M
Ġ re
Ġhapp y
Ġs m
Ġb ig
Ġ is
Ġ Ċ
ĠI t
Ġb ut
a ck
Ġa n
Ġsa w
ri end
. "
Ġf riend
r y
Ġa s
r a
On e
id e
a ke
' t
! "
u g
Ġl oo
v ed
t er
Ġwe re
o re
On ce
Ġl o
e c
Ġh im
Ġto o
Ġg o
Ġb o
Ġs e
ir l
Ġa re
Ġ j
ĠT im
ar d
Ġwant ed
il l
Ġg irl
Ġup on
Ġthe m
Ġ out
Ġa t
u r
i nd
Ġthe ir
f u
Ġs p
w ay
Ġ A
Ġsm il
Ġd id
Ġc ould
he n
Ġha ve
a in
ar t
Ġe x
he d
r om
Ġw ent
Ġa r
i c
Ġc an
Ġ J
l p
fu l
ĠB en
oo d
? "
h ing
Ġfriend s
Ġn am
ig ht
Ġa ll
Ġhe lp
Ġk n
u m
on e
ar k
Ġb ack
Ġs ay
Y ou
Ġf un
Ġc l
ĠT om
a re
Ġn o
Ġl e
o p
Ġsmil ed
Ġs c
Ġnam ed
Ġa l
ou g
Ġlo ved
s ide
el t
Ġ One
Ġm an
Ġas ked
i ck
Ġto y
Ġli ke
Ġf e
Ġf elt
Ġloo ked
Ġs ome
Ġar ound
Ġse e
Ġm e
am e
om et
Ġ W
Ġr o
Ġb r
u re
ĠTim my
Ġb ir
g et
i ce
Ġbo y
Ġw ould
Ġst art
on g
Ã ¢
â Ĥ
âĤ ¬
s s
Ġbir d
Ġs omet
Ġf a
d d
ing s
Ġa g
Ġw or
Ġwh at
ad e
Ġm ake
k ing
, "
i e
ĠB ut
ow n
Ġt re
Ġr an
get her
Ġ You
Ġa way
a g
ar ed
Ġsay s
Ġstart ed
ou d
i f
Ġm ade
Ġc ar
Ġsomet hing
Ġto gether
it ed
t her
Ġp ark
Ġc o
Ġsa d
Ġo ther
Ġne w
Ġex c
Ġp ut
Ġf rom
Ġp r
e ll
Ġ L
Ġl a
Ġh ug
b le
Ġm u
oo k
a ch
Ġag ain
Ġh ome
Ġw hen
Ġg ood
h at
e p
Ġwh o
es t
ri ed
Ġf ound
Ġf l
Ġthe n
Ġc h
Ġd ec
pp ed
Ġwa l
a s
Ġg et
q u
Ġplay ing
oug ht
p l
Ġ E
all y
Ġs w
ou s
n n
Ġth ings
Ġexc ited
Ġli ked
Ġg ot
u ck
r o
id ed
Ġdec ided
Ġb l
a ve
Ġc ame
Ġe very
ar a
Ġyou r
Ġ D
ĠM om
a x
Ġ v
Ġsc ared
u st
Ġon e
Ġdo g
Ġd own
ou se
n y
Ġf ind
Ġc are
Ġbe c
is t
Ġth an
Ġfe el
a p
u e
u dd
nn a
Ġd ad
Ġa b
The y
Ġm y
Ġloo k
Ġ ke
ou r
Ġw ill
ar n
Ġg r
u s
nd er
Ġg ra
way s
es s
Ġdid n
Ġp o
f e
Ġal ways
Ġtoo k
Ġab out
an t
b b
Ġl ot
Ġmom my
Ġtoy s
Ġkn e
er s
is e
it e
Ġout side
Ġtre e
Ġth ought
Ġb all
Ġ F
Ġm ore
ec i
ĠS am
en ed
c hed
Ġt a
Ġo ld
Ġh o
Ġle arn
re t
Ġin t
g ed
Ġkn ow
Ġla ug
Ġt ake
eci al
Ġsp ecial
Ġs or
Ġc at
udd en
Ġkne w
ĠM ax
i ve
i a
Ġp e
Ġan y
udden ly
Ġt r
f ter
Ġh ow
m a
Ġsh ow
in k
Ġsor ry
Ġt w
B ut
Ġmu ch
a u
is h
Ġr un
a nd
Ġha nd
Ġs l
v en
Ġh ouse
Ġo r
Ġo p
Ġs k
Ġm o
Ġcl o
Ġs un
Ġint o
Ġt ried
Ġin side
at e
Ġto ld
Ġwa ter
Ġth is
Ġ en
an k
Ġ if
Ġpr oud
um p
Ġ qu
Ġo ver
Ġcould n
T om
d y
Ġg ave
Ġhe ard
ĠS ara
Ġne ver
b y
Ġe ach
a ce
Ġro om
t y
Ġex pl
ĠE very
Ġe at
ĠW e
ot her
au se
Ġp ick
i on
Ġp ret
ĠA nna
M om
Ġplay ed
g e
et ter
Ġj ust
a k
Ġhug ged
Ġg re
he re
Ġof f
Ġc om
Ġwa t
ot h
Ġbo x
Ġn ice
' m
Ġst r
Ġbec ause
Ġne ed
il e
Ġman y
Ġf o
u c
Ġj o
Ġbe ar
Ġsm all
i z
Ġb u
v ing
Ġl ong
in e
g ry
im al
or t
Ġan imal
Ġs n
oug h
Ġt ry
Ġu nt
il d
s el
ur t
Ġunt il
ĠJ ack
s ed
Ġk ind
Ġlearn ed
Ġ im
Ġlo ve
Ġb etter
f t
Ġfl ow
Ġc all
Ġd on
H e
ĠJ o
Ġe nd
Ġa d
u ll
Ġb est
v ent
Y es
ar s
ur p
ad y
e m
re am
a ut
ur n
ĠM ia
Ġc le
ĠA nd
v es
Å ĵ
ard en
Ġ C
Ġg arden
Ġfa st
Ġcare ful
b er
Ġbe aut
ll y
T h
Ġe ven
p t
Ġb ra
i es
Ġthan ked
Ġf i
ĠS o
Ġc he
Ġlaug hed
Ġsk y
Ġb y
I t
ĠH er
Ġj ump
Ġg l
a se
Ġt e
Ġl oud
sel f
in y
Ġwa y
w n
Ġbeaut i
Ġc ome
le w
Ġl ist
Ġw o
Ġbeauti ful
Ġh ard
Ġlot s
Ġr a
Ġst ill
Ġf am
Ġanimal s
Ġ Ã¢
Ġh urt
Ġu nder
ĠThe n
ec t
Ġst ay
n ing
Ġl et
c t
Ġb oth
Ġc u
ĠH is
he s
b e
Ġsa fe
ĠF rom
oo l
re e
Ġco l
Ġtw o
Ġb ad
Ġb ook
Ġim p
op le
Ġre m
an e
Ġli ved
k ay
o ck
uc y
Ġwal ked
T im
a st
urp r
Ġbra ve
Ġsh ould
Ġit s
o b
is hed
Ġan gry
Ġs urpr
Ġfam ily
re ss
ig h
W hen
Ġpe ople
Ġf lew
Ġcall ed
N o
Ġr ed
Ġst or
i p
Ġso on
Ġf in
h n
L et
l ed
Ġke pt
Ġf ore
f ore
Ġd an
Ġsh are
Ġf ly
x t
is ed
dd ed
Ġp ic
âĤ¬ â
Ġdo or
Ġgo ing
Ġ P
ĠW hen
Ġpret ty
Ġke ep
Ġn ow
Ġro ck
Ġcle an
Ġd ra
ar y
Ġad vent
um my
Ġno ise
Ġop ened
Ġsh iny
ag e
Ġexpl ore
Ġw ind
Ġdo ll
Ġc ry
Ġc on
Ġ ide
Ġbe fore
i ed
B en
il ly
Ġre al
Ġst o
s o
W hat
Ġgr ound
Ġal so
le s
Ġt urn
Ħ ¢
âĤ¬â Ħ¢
Ġe y
T hat
Ġf ar
Ġide a
Ġf r
o on
Ġno dded
Ġcol or
Ġwa r
o y
Ġfeel ing
Ġu n
Ġpick ed
im b
t h
ĠL ucy
Ġne xt
Ġwal king
t hing
t ure
ĠD ad
Ġcl imb
Ġha s
u ch
Ġm a
Ġth r
Ġwh ile
e et
Ġb ed
Ġadvent ure
Ġsmil e
k es
ay be
Th ank
ic ed
g er
i ous
Ġ G
Ġbe ing
Ġd if
Ġw r
Ġclo s
Ġf ood
j oy
t ed
Ġg ive
Ġpic ture
Ġth ink
ĠS p
Ġloo king
Ġd el
f f
a c
Ġtr uck
Ġwa it
Ġey es
ug ht
Ġto w
t ing
Ġre pl
Ġbr o
Ġsto pped
Ġlist en
Ġa fter
Ġb re
Ġo wn
Ġv o
Ġwal k
em ber
ĠS uddenly
Ġwo nder
Ġgre at
Ġhand s
S uddenly
Ġsh out
Ġhe ad
Ġen joy
Ġimp ort
Ġflow ers
Ġe ver
Ġnot iced
Ġbl ue
Ġfore st
bb it
S he
iz ed
Ġa pp
ir st
Ġne ar
Ġqu ick
Ġd is
Ġd e
a ble
Ġimport ant
Ġrem ember
Ġf ish
ll ow
Ġs ound
Ġsl ide
Ġu s
ma z
Ġrepl ied
Ġa maz
Ġa c
le ase
Ġwor k
Ġwat ch
Ġr ain
Ġshow ed
Ġra bbit
Ġo kay
g an
Ġt al
by e
fe re
bb ed
Ġas k
Ġdif fere
Ġme an
Ġr ight
Ġy e
d ay
Ġwat ched
Ġbr ight
Ġfo llow
W e
ĠSp ot
S o
Ġevery one
Ġstr ong
Ġs qu
Ġst ick
Ġu se
Ġbe en
Ġm or
Ġvo ice
Ġt ra
er ed
Ġquick ly
at h
Ġ our
Ġw here
Ġy ell
Ġ N
ĠMom my
A nna
Ġdiffere nt
ĠB ob
Ġch ild
Ġcu ri
Ġbo at
n g
Ġs ure
ĠS ue
Ġbec ame
Ġgood bye
Ġfa ce
Ġpl ace
an ge
Ġh op
Ġh igh
Ġa m
L ook
a ught
Ġ R
Ġclos er
Ġst ore
Ġwar m
Ġdo es
Ġc r
Ġd ress
S ara
un ny
Ġcuri ous
Ġm ag
il a
J o
Ġc ook
Ġbe l
Ġfor g
Ġt ell
Ġfa v
nd ma
a ss
ou nt
c o
Ġth ree
le ep
Ġn ight
Ġop en
Ġc ake
m ore
Ġhe re
Ġany more
Ġbl ock
Ġf irst
it c
Ġb us
Ġp ull
is s
a ched
H er
ir ed
Ġbut ter
Ġ z
im es
ĠT h
or n
Ġsw eet
Ġp ain
Ġk id
Ġgra bbed
C an
Ġp u
is y
Ġon ly
Ġm on
Ġle a
Ġfe ll
Ġb a
Ġr u
Ġcon t
Ġbird s
Ġjump ed
Ġgl ad
Ġb it
Ġsa nd
itc hen
Ġk itchen
Ġhelp ed
Ġse es
Ġfi re
Ġp er
Ġfl o
Ġst op
ĠSara h
Ġhapp ened
Ġs ing
Ġgra ss
Ġb unny
Ġshout ed
Ġstor y
ĠL et
Ġt ri
nt s
Ġd r
a ir
A fter
ĠJ ane
pp y
Ġre ached
Ġbe h
Ġreal ized
Ġy ummy
Ġbr other
ĠD o
Ġl ady
Ġm um
Ġha ving
Ġpr in
in s
Ġfav or
ĠA s
' re
Ġm ess
Ġfavor ite
Ġdra w
Ġc re
Ġre st
Ġthr ough
Ġg ame
Ġh at
Ġat e
Ġl ess
Ġunder st
ak es
ĠEvery one
Ġso ft
Ġp are
z y
Ġth ing
Ġre ally
at her
Ġre ady
Mom my
Ġbe gan
w here
Ġpret end
ĠC an
Ġwor ld
ĠJo e
ĠT hat
Ġlook s
k en
Ġhim self
Ġmag ic
fu lly
Ġp ap
Ġd one
Ġbutter f
Ġma king
Ġc ut
Ġcom ing
Ġd uck
at er
Ġpo nd
Ġkid s
Ġwa ved
Ġwh y
Ġp rom
Ġt ired
Ġf ro
Ġfi x
o lly
st er
Ġm ouse
Ġwor ry
Ġp art
Ġcar s
Ġst e
Ġdel ic
Ġnam e
Ġflow er
ig n
Ġf ill
W ow
a isy
Ġto uch
ed dy
Ġfun ny
Ġcat ch
b o
Ġu sed
s h
Ġse en
Ġha ir
ĠJo hn
Ġta st
i ent
Ġto p
Ġpare nts
re l
Ġan other
Ġho ld
Ġho pped
Ġc ried
i ver
u ff
one y
m er
Ġdo ing
Ġc ool
Ġblock s
h y
" .
Ġp us
Ġsurpr ise
Ġl ight
Ġgre en
A s
Ġthan k
Ġless on
Tim my
at ion
Ġre ad
Ġflo or
Ġd in
Ġg i
Ġw ood
Ġf ull
D on
Ġd ri
ard s
Ġtre es
Ġrun ning
Ġwind ow
Ġwor ked
Ġye ars
Ġc ra
Ġd ro
Ġ -
Ġd ark
Ġbeh ind
Ġli kes
Ġsm ell
Ġsp ot
Ġw ished
Ġpap er
u ed
Ġyell ow
and y
Ġb ow
u l
re n
Ġsw im
Jo hn
Ġhapp ily
Ġb ag
Ġs at
Ġsh o
S am
Ġs leep
ar ing
Ġsurpr ised
el y
Ġfro g
Ġbutterf ly
i ke
Ġsw ing
Ġs et
Ġcare fully
ĠI n
Ġsl ow
Ġremember ed
Ġlo st
Ġco ld
Ġhe ld
ell o
H ello
Ġho le
Ġ ice
Ġlaug h
re w
Ġneed ed
Ġbu y
Ġper f
Ġle ft
on s
Ġmo ve
re ed
c ess
Ġany thing
Ġd ream
Ġt all
Ġenjoy ed
Ġwr ong
Ġar ri
u it
Ġhe ar
Ġfa ir
Ġa ir
Ġfollow ed
in ally
Ġbook s
ro ss
Ġe l
Ġchild ren
Ġh un
Ġdelic ious
Ġta ble
Ġfin ished
Ġcont in
Ġfriend ly
Ġd ir
Ġh ot
Ġsn ow
Ġher self
d s
l f
ĠA fter
Ġh ill
en s
Ġunderst and
Ġp lease
Ġclo se
in ed
Ġh id
Ġarri ved
Ġc ast
Ġel se
Ġar m
Ġba by
Ġwonder ful
Ġm ight
Ġg ent
Ġt ight
Ġforg ot
s p
ie ld
Ġb ug
ĠS ally
Ġcolor s
Ġre l
Ġbu ild
Ġbro ken
ĠD aisy
Ġa ble
Ġg one
a v
n er
ĠN ow
ĠBen ny
ĠL ila
Ġy es
at ter
Ġs ong
The n
i ch
Ġwa ll
Ġsqu ir
Ġfill ed
Ġag reed
Ġsome one
J ack
Ġcontin ued
ro om
Ġcre at
as ure
' ll
Ġc ount
Ġwant s
Ġsquir rel
ĠE m
Ġp ink
Ġlea ves
as k
Ġen ough
e y
ĠThe re
ĠTom my
Ġli on
F rom
am a
e e
O K
Ġmor ning
Ġv is
Ġmom ent
Ġfin ally
Ġget ting
Ġstay ed
Ġcook ies
Ġbre ak
a pp
Ġpo in
an ce
Ġbe ach
Ġ K
Ġfe w
ĠM aybe
Ġsc ary
Ġf ight
Ġsomet imes
r ow
as h
ri es
c ed
r ed
Ġturn ed
Ġhun gry
Ġf all
Ġdin ner
g on
Ġm other
Ġgra ndma
Ġj u
Ġw et
ĠW hat
Ġamaz ing
a pped
Ġtry ing
H is
Ġc ream
Ġdad dy
Ġperf ect
Ġp i
Ġm akes
Ġcast le
Ġother s
A t
Ġclimb ed
ke y
ou p
ĠTh is
Th is
Ġpicture s
ic y
Ġcom p
am p
Ġtal k
Ġm et
Ġmu s
Ġwh ite
o om
Ġlist ened
Ġsmil es
m an
Ġf ur
Ġball oon
Ġcl ot
or ing
ĠG ra
Ġal one
Ġclot hes
Ġpo l
ĠB illy
l c
Ġta il
Ġjo y
at ed
r ot
O h
Ġpu ppy
Ġsp l
en ce
Ġm ar
Ġwas n
Ġbr ought
Ġde ep
Ġevery thing
Ġp et
Ġse ar
Ġstr ange
is ter
ct or
Ġsp ark
d er
Ġs it
Ġwood s
Ġgr ow
Ġpull ed
l ing
Ġsa il
ĠT o
ot t
Ġw on
Ġpl an
Ġr ide
et er
Ġask s
Ġfo x
Ġp ie
Ġdan ger
Ġtre at
uff y
Ġro ll
Ġvis it
ĠA my
o s
Ġle ave
m ed
ĠJ en
Ġp at
uck y
Ġmus ic
Ġamaz ed
Ġwa ited
Ġt eddy
Ġh ide
m e
an g
e ver
Ġtow ards
M ax
ow er
Ġf ield
Ġla nd
Ġp re
Ġfly ing
z z
Ġp en
Ġs illy
Ġsh ared
Ġrun s
ain ed
Ġown er
Ġcl oud
ap e
Ġli ving
ug g
Ġqu i
am es
Ġjo b
Ġprom ised
O kay
Ġbel ie
ig g
Ġmor al
Ġg u
Ġs ide
g s
or m
Ġl ake
o l
Ġp a
Ġthink s
M aybe
ck et
op e
Ġpain t
Ġs ec
th y
Ġs ister
u ally
Ġpart y
Ġqui et
is es
Ġmu st
c le
Ġr ace
ĠJ im
av y
Ġm oney
Ġwe ar
s w
Ġwor ried
as ed
u p
Ġan sw
un ch
Ġslow ly
Ġp ot
ec es
Ġcolor ful
Ġfast er
Ġgr ate
Ġo w
Ġdan ce
Ġpi eces
Ġbr an
Ġb ott
Ġwe lc
Ġbro ke
Ġcu p
i x
Ġgrate ful
Ġg if
Ġs uch
Ġbig ger
z e
Ġtra in
p h
f ort
Ġsn ack
Ġch o
Ġre ach
Ġbl ank
ĠA ll
Ġmon ster
Ġpr o
Ġpl ant
Ġjo in
Ġr iver
Ġbl ack
le ss
Ġw in
Ġc andy
i re
Ġblank et
Ġsc ream
Ġtre asure
Ġmagic al
e ar
Ġ ve
Ġprin cess
Ġe le
Ġsm art
Ġb ike
Ġdanger ous
Ġs ign
Ġdra gon
Ġac ross
Ġmon key
S ure
Ġb ar
Ġevery where
Ġmo st
ĠDad dy
Ġhelp ing
Ġn ap
Ġfar mer
out h
Ġe m
Ġm outh
W hy
s et
Ġdis app
Ġwor ds
Ġj e
i pped
Ġst re
or ed
H i
Ġtow er
m ing
e ared
Ġth rew
Ġste pped
Ġhe avy
Ġdoll s
Ġp ass
Ġb ite
d e
Ġbow l
Ġdir ty
Ġtw ins
Ġsa me
Ġcry ing
Ġbe e
Ġsp r
e re
Ġdo ctor
id ent
ĠM olly
Ġac c
Ġbelie ve
Ġwould n
Ġb ath
Ġhe al
ĠF l
ch ool
Ġh ig
b ble
Ġclo sed
Ġcar rot
Ġhe art
M ia
Ġst uck
ck ed
Ġc our
Ġfr uit
Ġb uck
Ġm in
Ġat t
Ġte ac
Ġs chool
ĠM r
Ġbr own
Ġhop ed
ĠJ ill
ask et
it ing
Ġs uddenly
Ġb asket
Ġfeel s
Ġm ix
Ġch air
Ġeat ing
Ġto wn
Ġcour se
Ġcr ay
Ġcl apped
Ġco ll
Ġgent le
Ġfair y
pp ing
Ġbut t
Ġp ack
vent ually
Ġst and
i er
Ġdro ve
or s
Ġpus hed
b r
is sed
Ġwelc ome
t s
Ġsw ings
Ġwith out
Ġhig her
Ġto day
Ġne igh
Ġpo cket
or row
Ġh it
Ġteac her
Ġneigh b
Ġp ers
or d
Ġsm o
Ġg ames
our n
Ġpie ce
ra ct
Ġche ered
Ġw ings
Ġfor get
Ġb en
Ġexpl ained
Ġj ourn
Ġy ard
Ġlong er
Ġf ree
F inally
i ble
Ġc orn
Ġacc ident
h o
e ad
Ġd ry
Ġal ong
um b
ĠM ary
m ent
c y
Ġno ises
itt ing
Ġne ck
Ġsa ng
Ġin st
Ġl ate
Ġhapp en
Ġthr ow
Ġhug s
L ila
Ġyou ng
Ġturn s
Ġstor ies
ve l
Ġsho es
ph ant
Ġl on
Ġm iss
Ġadventure s
Ġsing ing
Ġtr ou
Ġwe ll
Ġse a
Ġl unch
Ġapp le
Ġup set
Ġlon ely
Ġke y
c hes
Ġbel ong
bb y
ou n
Ġd ist
Ġsec ret
Ġstre et
Ġpl ac
Ġele phant
Ġto m
Ġw ish
Ġf ence
Ġm ine
ount ain
Ġm at
e k
Ġsh ap
Ġsh ook
Ġexpl oring
Ġmo ved
Ġp urp
Ġye ar
aught y
Ġnear by
Ġn aughty
Ġst ar
Ġs oup
Ġsh op
Ġw ise
ĠGra ndma
Ġst ars
Ġow l
Ġbr ing
fu sed
Ġj ar
b ow
D o
ock ed
Ġin v
Ġex p
Ġw he
y ard
Ġc aught
Ġs u
w ard
Ġback yard
Ġsee med
a il
Ġ es
Ġrel ie
Ġdro pped
Ġp h
Ġrock s
ĠEm ma
aught er
ll o
Ġ 3
us h
Ġdr ink
Ġbuck et
Ġd es
Ġc a
ad ow
c es
Ġpurp le
Ġsw am
Ġfar m
Ġre sp
Ġta king
Ġma il
Ġor ange
Ġth ough
ion s
A nd
Ġshap es
Ġp ast
co l
Ġc ow
Ġst u
ĠTh ank
Ġwo ke
Ġben ch
Ġsound s
Ġa f
un g
it y
s y
Ġwonder ed
Ġbus y
Ġf it
Ġt iny
Ġo b
Ġno se
Ġs itting
Ġn est
Ġrain bow
es e
Ġd aughter
Ġta kes
Ġm ark
Ġm ad
f ish
Ġc ou
Ġk ite
t o
Ġ O
re ad
Ġhold ing
w eet
Ġnot hing
Ġcom es
Ġju ice
Ġarm s
th day
Ġp ig
Ġco at
o g
ĠFl uffy
in ing
Ġc ir
ĠIn side
Ġbran ch
ra id
Ġrelie ved
pp er
Ġaf raid
c ing
o se
id ge
Ġdri ver
Ġm il
Ġfore ver
ver ed
Ġsp oon
Ġcut e
Ġcar ry
Ġgif t
Ġs ick
Ġb oun
Ġli ft
st ing
Ġpe ace
O f
Ġprom ise
our s
ĠF inally
Ġhug e
Ġa ct
Ġto u
Ġtou ched
Ġpat ient
u nt
Ġk ing
Ġr ound
c er
s c
Ġhe llo
ĠC ome
Ġbir thday
Ġf ing
Ġl etter
Ġgra b
Ġint ere
Ġexc iting
le t
Ġsun ny
Ġche ese
et h
Ġon to
Ġlaug hing
Ġday s
bo ard
Ġjourn ey
Ġg igg
Ġb and
Ġcreat ure
Ġdis co
ĠM ama
itt ens
Ġbre ad
He y
ar p
Ġre t
Ġim ag
p ed
sh ine
Ġli fe
Ġk ick
Ġbus h
g ged
Ġhop e
Ġp ower
Ġcra w
Ġshe ll
Ġco zy
Ġswim ming
Tom my
Ġin c
Ġbott le
Ġm ist
Ġsh arp
Ġw ra
g g
Ġs uc
Ġcom fort
Ġinst ead
Ġwh ist
Ġmil k
Ġwatch ing
Ġret urn
Ġe ar
n ess
Ġsp in
al m
Ġaccident ally
Ġe as
Ġsun shine
t en
ĠSo on
Ġc ave
p a
ĠSam my
Ġsp o
Ġput s
Ġl ucky
Ġtal ked
Ġh oney
Ġp udd
Ġpoin ted
Ġgi ves
Ġcoll ect
Ġg ather
it ch
Ġro ad
Ġ ent
L ater
Ġsmil ing
Ġb ought
Ġany one
Ġh or
Ġsear ched
Ġl ater
Ġc e
Ġf an
Ġsand w
b all
r ound
itt en
Ġapp les
el s
ble m
ir t
Ġpro blem
Ġme et
iz e
B ob
Ġm ach
L ucy
Ġw om
Ġlo ves
Ġintere sting
G ood
Åĵ I
Ġwom an
Ġpl ane
ĠT weet
Ġk iss
Ġpre s
Ġheal thy
e b
Ġp ile
Ġtast y
Ġduck s
u b
Ġv ill
ĠJim my
o ve
Ġw ide
on t
am ed
a ur
Ġad m
Ġe ag
Ġsp id
Ġcle ver
Ġcray ons
Ġpr ot
Ġm atter
Ġtrou ble
er ly
nd pa
Ġz oom
Ġcloud s
ow ed
ĠW ith
Ġstor m
Ġpers on
Ġp ath
ck s
Ġp ill
Ġfe ather
Ġr ope
Ġp op
Ġsh ining
Ġprot ect
Ġsmell ed
Ġfr ont
Ġh on
Ġbutt on
Ġp ract
Ġspot ted
Ġscream ed
Ġz oo
Ġmin ut
ĠE ll
Ġpres ent
C ome
Ġa p
Ġmu d
Ġv al
Ġresp ect
Ġsa f
Ġdan ced
Ġche er
Ġor gan
J im
Ġp ar
Ġqu est
o nd
Ġapp eared
Ġwh ich
Ġpu zz
Ġse at
M olly
Ġte ach
Ġmy ster
Ġsnow man
J ust
is a
Ġsn ake
Ġth in
er t
a le
Ġw ild
Ġas leep
Ġlove ly
Ġs ur
Ġansw er
ep end
Ġwe aring
Ġgent ly
Ġneighb or
oo se
M um
Ġb ark
Ġhor se
Ġgi ant
Ġplac es
Ġgo es
Ġwho le
omet imes
Ġsear ch
Ġspl as
E very
S t
Ġcorn er
Ġimp ress
ul ar
Ġdir t
Ġm ed
Ġsh r
e en
Ġtri es
Ġtri p
Ġcon fused
ĠEm ily
Ġli ve
Ġm ind
Ġd i
at o
l a
Ġroll ed
Ġc ard
Ġsl id
Ġtast ed
n ic
ce an
Ġas h
Ġo cean
I n
Ġsu pp
Ġforg ive
Ġpic nic
Ġru de
Ġmach ine
e x
Ġsp ent
ĠG o
Ġdri ve
Ġte eth
Ġs er
ss ed
itt y
Ġph one
ĠH ow
Ġo ven
Ġp an
Ġp our
Ġla st
Ġc alm
Ġpretend ed
Ġdel ight
Ġcook ie
Ġfur ry
Ġspid er
iz z
Ġfe et
Ġfa ces
un k
Ġl ay
Ġwor m
Ġr ing
ĠC h
Ġre c
um ber
Ġhelp ful
Ġl ad
ĠM ittens
Ġe ventually
Ġw ip
Ġch ick
Ġwa ve
Ġm ountain
Ġsa l
Ġb an
Ġem b
Ġtal king
on es
Ġro b
Ġfo ld
Ġsh y
Ġc art
Ġtom orrow
Ġs el
Ġcho col
Ġt id
ĠJen ny
Ġsp read
Ġvill age
ar ge
if e
Ġrem ind
Ġ ign
Ġbu bble
Ġt un
Ġco in
Ġfo ot
Ġcou ch
Ġwr ite
Ġlad der
Ġbuild ing
Ġpus h
Ġfight ing
Ġsmo oth
Ġtreat s
h ile
Ġw ore
Ġch ased
Ġtoo l
ig hed
Ġb lew
Ġst ret
le x
M y
S oon
ar ra
Ġbug s
Ġemb arra
Ġhid ing
Ġp ool
Ġc ross
Ġwait ing
op h
Ġkne e
Ġrob ot
Ġneck l
Ġst ep
Ġpudd le
m o
Ġfin ish
Ġshe lf
Ġbe ll
Ġc oo
n ot
al s
Ġsong s
Ġst ir
at or
Ġwhen ever
Ġsel fish
Ġa nt
Ġm aybe
Ġcan not
Ġstr ing
Ġst ra
Ġchocol ate
ul t
Ġso l
Ġtast e
Ġsp e
Ġre p
Ġh um
Ġp le
Ġl arge
M ama
Ġpa w
Ġn et
ĠJ ake
bo x
Ġsa ck
Ġlea f
Ġsc ar
Ġfix ed
ĠS t
le br
Ġbar ked
Ġtid y
ump y
Ġban an
Ġwas h
ĠEvery where
ĠS ometimes
Ġspr ay
Ġst one
o ld
ĠJ ust
h nn
Ġce lebr
Ġg en
Ġcl oth
P lease
Ġcra b
ĠL e
D ad
Ġpeace ful
Ġcol our
ung le
ĠP lease
hnn y
Ġhe l
ir d
o in
l ice
Ġm issed
Ġd eter
Ġj ungle
Ġ '
ig er
ar m
N ow
Ġland ed
Ġdeter m
Ġfor ward
Ġembarra ssed
Ġneckl ace
Sara h
Ġhon est
Ġjump ing
air s
ell y
Ġb at
ĠThe ir
Ġdec or
d ge
Ġtr ust
Ġhe ars
Ġmo on
or ry
Ġstick s
ĠT V
Ġsh irt
Ġcreat ive
Ġsh aring
a king
Ġte a
mo st
Ġkn ocked
Ġcarrot s
Ġdisapp oin
Ġsuc cess
Ġme adow
y ing
get able
Ġwh is
Ġst ood
Ġgen er
Ġve getable
Ġb al
ĠD on
Ġme ant
Ġle gs
Ġtight ly
Ġbre ath
Ġpl ate
Ġal most
Ġash amed
n ed
Ġem p
Ġs our
Ġgr ay
d le
Ġgre w
Ġtell s
Ġemp ty
ĠS ome
Ġpill ow
g round
on y
Ġg as
Ġspl ash
Ġwhist le
Ġ On
i an
Ġunderst ood
B e
Ġshe ep
Ġb er
Ġcar ried
d en
ĠL isa
Ġyell ed
ĠW hy
T o
Ġle m
ĠT eddy
ust r
ar l
ĠA nn
Ġno ds
er p
v ous
Ġsa ve
Ġpol ice
Ġdisappoin ted
Ġsnack s
Ġh ours
Ġn ut
it al
Ġwhis p
Ġje w
W here
Ġthe se
h in
or k
Ġho sp
et s
Ġspark ly
Ġgo ld
Ġhosp ital
Ġk itten
ĠE ven
ĠM um
Ġsh ip
Ġp ay
in a
o bby
ĠTo gether
Ġb ored
ur se
Ġl ine
Ġgener ous
Ġfr ustr
Ġt est
Ġhid den
Ġta ught
Ġstand ing
Ġr ad
Ġscar f
if f
Ġche w
Ġreturn ed
Ġminut es
Ġp izz
Ġknow ing
Ġgr oup
Ġh ur
Ġplant s
Ġeas y
Ġbl ow
Ġbed room
Ġpol ite
Ġmyster ious
Ġwa ves
Ġgl ass
Ġs ighed
Ġsh ore
Ġp ri
Ġse ed
Ġwo lf
us ie
Ġsee k
Ġdeterm ined
ĠP eter
k in
St op
Ġpuzz le
Ġpower ful
Ġthank ful
J ane
f l
Ġcl ass
Ġn er
ĠB e
Ġp ir
Ġsandw ich
Ġf ig
Ġsleep y
Ġprin ce
Ġpass ed
Ġd rew
' d
Ġfing er
Ġj elly
Ġpizz a
Ġner vous
Ġfrustr ated
Ġsp icy
Ġg un
Ġspo il
Ġmat ch
Ġfan cy
Ġmess y
os aur
w ork
Ġg ate
The re
Ġbr idge
Ġlo ck
Ġk issed
Ġt ick
au l
Ġclos et
Ġfe ar
Ġre g
a f
Ġfe ed
Ġm ot
Ġso ld
Ġw is
Ġgather ed
oo p
Ġa v
Ġexc ite
Ġpo or
Ġcir c
ot e
Ġha ng
Ġcat erp
Ġcaterp ill
Ġes c
Ġfl ag
Ġp in
Ġgr umpy
Ġv an
id dle
ell a
Ġdin osaur
Ġyour self
an o
iss ors
u ce
Ġansw ered
Ġc ries
A re
Ġof ten
itt er
Ġ Z
Ġtw irl
sel ves
Ġche st
s ist
Ġsc issors
Ġho pping
Ġte ars
p ack
g ly
m b
S orry
Ġm ummy
ĠR ex
Ġu gly
er a
Ġb urn
Ġc and
ens ive
Ġde er
Ġdr op
ill ed
Ġf il
Ġexcite ment
iz zy
Ġcaterpill ar
Ġl it
Ġwor king
Ġm iddle
Ġexp ensive
Ġsc r
Ġsa ved
Ġta ken
ĠB r
Ġo k
Ġtr ue
Ġwa gged
Ġon es
Ġple ased
Ġcr own
Ġsp end
Ġb oring
Ġpick s
Ġle g
qu e
oo f
ug ar
Ġv ase
Ġt ent
Ġas king
bo dy
Jim my
u al
ĠB l
Ġbr ush
Ġt ie
at es
Ġvegetable s
eci ally
Ġgigg led
Ġbo ss
W ho
et e
The ir
Ġmist ake
Ġc age
s er
Ġget s
l ight
Ġrock et
Ġc ap
Ġm ir
ĠLe o
Ġcomfort able
Ġs ugar
Ġe ld
Ġst uff
Ġpack ed
S p
ĠJo hnny
Ġdan cing
p ecially
Ġes pecially
Ġwa nder
Ġcl own
Ġmed ic
Ġn umber
Ġp ress
Ġs ight
Ġkn ight
us hed
g gs
ot s
Ġfruit s
in ess
Ġe ggs
Ġl ying
Ġdr um
Ġf ake
Ġd est
r or
Ġmedic ine
Ġwalk s
Ġdist ance
ag ed
Ġgl ue
Ġsplas hed
Ġsweet ie
Ġb ake
Ġfl ut
Ġb one
Ġdraw ing
Ġmo ving
Ġdisapp eared
h a
Ġwe ek
Ġ OK
Ġle ad
Ġsmell y
Ġcl ap
Ġbec ome
Ġlem on
Ġch ange
Ġpr ay
Ġfeather s
Ġmom s
Ġlo se
Ġmo v
Ġli cked
Ġcall ing
ĠI f
Ġtw ist
Ġdog s
Ġbath room
Ġplay ground
or y
y al
Ġf is
M e
Ġla zy
en ny
S ally
Ġro ar
Ġeld erly
Ġwe ak
Ġinc red
Ġc ri
Ġg ar
?" .
Ġbo dy
Ġh orn
Ġex am
Ġcr ack
G ra
Jo e
Ġquest ions
Ġa dd
Ġwr ote
B illy
Ġy og
Ġyour s
Ġno isy
Ġf ather
Ġmir ror
ugg est
Ġm ic
Ġno d
Ġs uggest
el p
at ing
ee z
Ġfl uffy
Ġsk ipped
Ġ ed
Ġwhe el
Ġeag er
Ġlo yal
Ġl amp
Ġd ish
Ġex t
Ġcle ar
Ġfam ous
l and
Ġd ig
Ġst ones
Ġru ined
ĠA t
in ation
Ġr ich
Ġr are
Ġor d
ĠE nd
Ġt ape
Ġse ll
Ġdr ank
Ġcont ent
Ġfig ure
Ġqu een
Ġmar ch
Ġincred ible
Ġgl ow
Ġm ap
Ġshow s
h ip
Ġr id
t i
Ġche ck
Ġju icy
Ġso ap
Ġco vered
Ġ ind
Ġball s
Ġsail ed
im p
Ġrel ax
Ġa w
A my
Ġsho ot
ill i
Ġte am
at ely
Ġme asure
Ġdec ide
Ġreal ised
umb led
Ġdisco vered
Ġco ins
Ġneed s
Ġb orrow
Ġsw an
Ġstra w
f ic
Ġadvent ur
ĠBl ue
J ill
ce pt
Ġ No
H elp
Ġclean ed
Ġbran ches
Ġtow el
Ġboy s
Ġext ra
Ġha m
ĠL ittle
as ing
W ell
Ġbo ard
Ġchick en
Ġb arn
Ġmo d
Ġt iger
Ġmot or
Ġt ag
Ġadventur ous
Ġjo ke
Ġdif fic
Ġoff ered
Ġf ine
ke ep
Ġbal ance
Ġlift ed
i que
Ġbubble s
Ġcolour ful
Ġfr own
Ġt urt
Ġey e
Ġth ick
M ummy
Ġdiffic ult
Ġbott om
Ġtr ack
Ġto ug
al ous
Ġorgan ized
Ġco ver
Ġhappen ing
Ġun ique
ra g
Ġje alous
Ġdo lp
Ġho se
p ort
Ġkn ife
Ġwe ird
Ġis land
ĠS usie
c il
Ġgar age
Ġfr ight
Ġman aged
ll a
im ed
Ġhurt s
Ġpen cil
Ġwor d
S ue
j ect
Ġcraw led
Ġco st
Ġlearn ing
Ġar g
Sp ot
Ġcir cle
ĠM ark
Ġsay ing
Ġkind ness
ur ed
Ġber ries
Ġon ce
ol og
Ġmight y
Ġballoon s
Ġtoug h
Ġpoin ting
Ġch ase
Ġba ld
Ġfav our
re ady
Ġwa nd
Ġt er
l ies
keep er
Ġsh ake
u nd
i v
ĠB obby
Ġjew el
Ġloud er
ĠBr own
i pper
Ġa dded
ag es
Ġb atter
Ġs il
Ġh unt
Ġun us
Ġg uit
Ġhard er
Ġgu ess
Ġap olog
Ġed ge
he ad
Ġal ready
Ġf our
Ġan g
Ġsp un
Ġfavour ite
Ġf ool
Ġn orm
Ġwh ale
H ow
Ġunus ual
Ġli br
Ġval u
i pp
ra ge
al k
Ġenjoy ing
ĠK itty
Ġd izzy
a w
Ġhat s
Ġp ump
Ġbelong ed
Ġgra ce
Ġwra pped
Ġcheer ful
Ġsmo ke
ugg led
Ġimpress ed
Ġstraw ber
Ġtruck s
Ġrec ord
Ġgi ving
Ġsw ord
Ġmark et
Ġgr own
Ġre f
Ġlaugh s
Ġtr unk
Ġnorm al
an ged
Ġgra nd
Ġher o
Ġe ars
Ġguit ar
Ġloud ly
ol a
illi ant
Ġh arm
Ġturt le
He re
Ġbanan a
Ġproud ly
Ġbox es
Ġsc are
at ure
il t
Ġbr illiant
er y
Ġch oose
Ġbrother s
Ġcirc les
Ġter ri
Ġboss y
Ġdream ed
Ġagain st
Ġesc ape
y m
Ġgo at
Ġinv ited
Ġsk in
Ġca b
Ġhelp s
g y
c ient
Ġcomp et
Ġp il
ip e
Ġpain ting
Ġmean s
Ġm elt
Ġfright ened
Ġac cept
f ast
Ġpe e
Ġfl ash
Ġsaf ely
Ġd epend
Ġbutt ons
Ġsl ipped
Ġdes ign
Ġstu bb
Ġbird ie
Ġj ack
ĠD an
Ġwra p
Ġvalu able
Ġcab in
Ġcray on
ĠEll ie
Ġwa ke
Ġst ream
ĠF red
Ġwall s
Ġhapp iness
ous es
Ġbreak fast
Ġlo g
er ry
Ġan cient
ed ient
Ġstu dy
Ġsuccess ful
Ġcl ay
em o
or ge
Ġknow s
Ġfool ish
Ġto ast
Ġfall s
y e
Ġfr idge
Ġle an
Ġstubb orn
Ġun l
Ġnice ly
at ch
Ġsh ape
app ing
om ed
Ġfi er
Ġc udd
ĠP ete
Ġr ough
Ġdream s
Ġmov ie
Ġsp ace
Ġh ouses
Ġc ity
Ġno sy
Ġbl oom
Ġdelic ate
Ġob edient
Ġfier ce
ĠM y
Ġoff ice
Ġtom ato
Ġf at
Ġgra ndpa
ad o
la imed
a z
Ġ icy
Ġcompet it
Ġsuggest ed
ĠTo day
Ġsh ark
Ġde ad
Ġnot ice
Ġwa gon
p es
Ġexc laimed
Ġme m
Ġkind s
Ġmix ed
Ġwip ed
Ġc her
Ġuse ful
e xt
Ġpour ed
Ġshell s
ut h
Åĵ Let
Ġst ri
ĠBob o
Ġlight s
Ġtool s
Ġlo cked
Ġsound ed
Ġth u
Ġsto ve
Ġexcited ly
Ġexpl ored
Ġa unt
w ards
Ġe gg
ĠR ose
Ġf rag
e orge
Ġro se
!" .
Ġs on
o ppy
Ġsh adow
Ġt imes
ar ry
Ġc ro
Ġen c
ĠTweet y
Ġbag s
Ġf ountain
ent ion
Ġthem selves
o ot
Ġst umbled
Ġbus hes
Ġwe al
ac he
d om
Ġl ow
Ġshow ing
Ġspoil ed
Ġfing ers
Ġperf orm
Ġla b
Ġab ove
v ice
Ġthought ful
Ġre sc
Ġind epend
k n
Ġsmall er
Ġw itch
Ġd ough
E m
Ġfrag ile
n a
Ġdepend able
r ay
Ġra ced
Ġjo g
art h
Ġplay ful
in al
Ġsee m
Ġhel m
Ġspin ning
Ġen g
Ġte le
c orn
Ġclo ck
Ġbright ly
in es
Ġprin t
Ġro de
Ġstret ch
Ġpar rot
orm ous
Ġdelight ed
Ġbu ilt
Ġadm ired
Ġen ormous
Ġla w
Ġkick ed
Ġ U
Ġr oof
Ġcount ed
Ġj am
Ġsw e
Ġr at
Ġpract ice
re en
Ġor ig
Ġway s
Ġch anged
Ġsh one
Ġsun fl
Ġc op
ĠEll a
Ġremind ed
Ġtw ig
Ġac orn
it her
Ġc am
i ence
Ġsn iff
Ġz ip
ee ze
Ġham mer
Ġindepend ent
ĠYou r
Ġus ing
Ġb itter
Ġhand ed
Ġwhisp ered
Ġh oop
mb re
kn own
Ġcho se
Ġch ir
an ut
Ġlo ll
Ġjo lly
Ġu mbre
ĠMr s
Ġc one
Ġtun n
Ġsol ve
Ġstrong er
Ġbe es
Ġser ious
ip op
ĠM ar
Ġorig inal
Ġt ummy
Ġste al
Ġbe ak
Ġbra ce
Ġterri ble
Åĵ Yes
Ġm is
Ġpop corn
Ġf re
Ġloll ipop
Ġpain ted
Ġboat s
Ġall owed
Ġhair y
ic t
Ġmo der
ia ble
Ġsa uce
Ġclean ing
Ġun known
Ġlea ving
Ġd ust
ĠB ella
Ġgas ped
Ġfind ing
Ġjo ined
Ġgu ard
Ġsal ad
Ġpot ato
he t
Ġbe an
Ġpump kin
S ee
up id
ie w
ĠB u
Ġpick ing
Ġcl um
in ary
Ġdo ve
an ger
Ġb ump
ĠN emo
Ġha lf
Ġs ink
am ond
Ġcost um
ur ing
Ġy et
ro be
Ġmet al
Ġt ank
Ġboun ce
Ġrel iable
Ġpo st
Ġto r
Ġv iew
Ġdoes n
Ġth ose
Ġfor th
ag het
aghet ti
Ġdi amond
Ġdolp hin
Ġad vice
c om
ĠS n
Ġh ay
Ġbar ber
Ġmoder n
Ġst amp
Ġru bb
Ġthin king
Ġg em
Ġ ing
Ġhold s
g u
eb ra
ĠA lice
Ġpir ate
ug ged
Ġmar ble
Ġcre ate
Ġreg ular
red ient
Ġing redient
ĠGra ndpa
Ġclum sy
Ġsleep ing
Ġsearch ing
Ġst airs
Ġweal thy
Ġy arn
Ġr ushed
Ġst upid
Ġpre p
il ty
Ġtell ing
ĠWhen ever
Ġsp aghetti
Ġgu ilty
Ġche ap
Ġpe anut
Ġg oose
Ġch ar
Åĵ What
oph ie
Ġru b
Ġmag n
ation s
Ġf lex
ĠF r
Ġcomp ass
Ġopen s
Ġm ask
Ġpat ch
Ġst at
Ġar row
Ġz ebra
Ġeng ine
i o
Ġthu nder
Ġkn ock
Ġsqu are
ill a
eez ed
irst y
Ġang el
Ġc ur
Ġgrace ful
Ġcam era
Ġumbre lla
co d
Ġdri ving
ĠM ike
Ġbu ll
Ġcra zy
âĤ¬â Ģ
Ġsh iver
G o
Ġwas hed
Ġcarry ing
Ġst age
is k
Ġpop ular
Ġbe et
Ġd ull
umb ers
Åĵ It
Ġmiss ing
ĠD ucky
M ary
Ġspark led
Ġfriends hip
Ġtr uth
Ġme al
Ġseed s
f a
Ġflex ible
Ġimpress ive
Ġsn e
Ġt ied
Ġpe bble
t ime
Ġcare less
Ġlibr ary
Ġimag ined
Ġcom b
up er
Ġdel iver
Ġn ature
Ġshe l
Ġend ing
Ġp atter
Ġdest ro
Ġjack et
Ġpers ist
Ġre ward
Ġhand le
is ion
Ġfre sh
Ġru bbed
Ġingredient s
Ġdream ing
Ġsh ocked
ri c
Ġpri ze
oom y
ĠD ave
Ġs udden
Ġcro cod
Ġlo ad
Ġent h
ie f
i bb
Ġpig e
Ġpatter n
Ġcompass ion
Ġen vel
Ġflash light
Ġth irsty
Ġsad ly
Ġenc ou
Ġstr anger
Ġenth us
in ce
ĠF in
Ġwhe els
Ġdes k
ÅĵLet Ã¢
em ent
ars h
Ġread ing
Ġw ire
Ġdisco ver
Ġear ly
Ġmail box
Ġfor k
Ġs uit
Ġn umbers
Ġt em
Ġpee ked
Ġpen ny
Ġbutterf lies
a wn
Ġcry st
Ġsp illed
Ġbrace let
Ġtor n
Ġr ug
Ġg um
Ġstop s
l oo
Ġre ce
Ġen v
Ġcomp ut
Ġa head
Ġspr ing
b led
Ġor der
Ġtow ers
com fort
Ġsor ts
Ġob ject
ell ig
Ġw ing
Ġb ent
Ġc ere
Ġan x
Ġsur f
ĠB ear
Ġpen gu
Ġe arth
Ġint ellig
Ġwar ned
Ġwindow s
ĠM ummy
Ġspo ke
Ġp ow
ĠW hile
Ġpu p
g est
Ġhum ble
Ġun comfort
Ġav o
Ġp ant
Ġnot e
Ġuncomfort able
ĠM andy
Ġplac ed
Y ay
ic hes
Ġsunfl ower
O w
Ġpa le
Ġtra vel
Ġbad ly
Ġold er
Ġslid es
Ġanx ious
i kes
Ġbig gest
Ġsc ale
Ġcom pl
Ġcouldn Ã¢
Ġst ack
Ġflut e
Ġtra p
Ġstat ue
Ġsc oot
Ġcount ing
Ġgrow ing
Ġcoo king
ĠP e
Ġcomp let
Ġli z
Ġtunn el
Ġbeet le
Ġcelebr ate
ho st
Ġm el
Ġcup board
Ġmu sh
Ġso fa
ĠK im
Ġn ail
Ġharm less
Ġsc atter
ĠB ill
Ġbeaut y
Ġmo le
Ġde af
Ġval ue
Ġn urse
Ġs uper
Ġper m
Ġ er
ĠHe re
Ġsh ut
Ġpersist ent
Ġjump s
W hile
Ġcrocod ile
Ġhun g
Ġg host
Ġgif ted
Ġre fused
Ġchar ming
Ġtri ck
ĠG ive
Ġne at
Ġnam es
Ġcou rage
op us
Ġy awn
Ġfl our
ct opus
Ġcr ane
Ġc urt
Ġpretend ing
c ream
Ġp ony
Ġcere al
Ġb ase
Ġsandw iches
ic es
ĠL ola
Ġra ven
Ġsn uggled
ĠTo by
Ġcurt ain
Ġsupp ort
Ġdestro y
Ġt ur
Ġord inary
Ġch asing
u d
Ġun iver
a id
ĠL ook
Ġquest ion
Ġenvel ope
ac hes
Ġdraw er
Ġtri ang
Ġv i
Ġc amp
Ġset t
D aisy
us ed
Ġcomput er
Ġo ctopus
Ġatt ract
Ġru les
Ġcraw l
Ġlive ly
Ġs end
Ġgl oomy
A lice
Ġcart oon
a by
Ġun cle
Ġintellig ent
ip s
Ġm ay
Ġpi ano
Ġspe ed
Ġpack age
Ġblue ber
Ġsh aking
c u
Ġhelm et
Ġcryst al
Ġneed le
Ġmush room
Ġtur key
o e
ĠE ventually
Ġcoll ar
Ġpar ade
Ġcreature s
st ri
udd y
he art
Åĵ That
R e
Ġhur ry
Ġtwirl ed
Ġph ot
Ġliz ard
ill ie
er able
en ry
u bby
a ff
or ant
Ġal ert
Ġmis erable
Ġth ief
g ust
Ġst ation
Ġsold ier
Ġhunt er
Ġpe pper
ce ed
Ġt ask
arl ie
Ġany where
Ġd ug
Ġdis gust
Ġb icy
Ġfire man
Ġen er
c ut
Ġcar p
i est
Ġwis hes
Ġse al
Ġre sist
Ġl ed
Ġv ide
Ġbe ep
Ġign orant
Ġband age
Ġstick ers
co a
Ġsc reen
Ġrad io
Ġhelp less
Ġboun ced
t ter
Ġtra sh
G ive
Ġsec ond
Ġle ash
Ġrep e
Ġpract iced
Ġmu ff
Ġsh ine
Ġch ance
Ġletter s
Ġattract ive
Ġimp at
Ġm ill
Ġstir red
Ġcri cket
Ġje ep
Ġstret ched
Ġno body
ur b
Ġth read
Ġpast a
Ġcu be
Ġp and
Ġch ubby
Ġto oth
um mer
Ġf u
Ġpige on
s es
I f
Ġj et
Ġg ir
Ġcompassion ate
c col
ĠG eorge
Ben ny
Ġcl ub
ĠC l
ccol i
ar ian
ĠP olly
Ġtr ump
Ġdist urb
or able
Ġdecor ate
Ġco coa
Ġbright er
Ġj ug
Ġstep s
Ġimpat ient
Ġt ire
Ġcompetit ive
Ġfur ther
Ġo tter
Ġrespect ful
Ġsuc ceed
Ġtrou bled
Ġpress ed
ol in
Ġit self
a ked
Ġb et
Ġo stri
n oon
Ġcand le
Ġm ug
ĠW h
Ġafter noon
Ġatt ic
ĠA l
Ġrest less
Ġstart s
Ġp un
Ġt ap
Ġsome where
Ġr ibb
ĠA re
aur ant
st ic
Ġd ess
Ġqu ar
Ġcarp et
Ġany way
Ġshout s
Ġsho e
Ġdisgust ing
Ġad orable
Ġrest aurant
Ġsk ip
Ġle op
Ġfor t
g n
Ġpant s
Ġv ine
Ġtr ay
Ġnut s
Ġwa ff
Ġc ase
c ome
Ġg or
Ġfear ful
Ġsc rew
Ġenv ious
Ġsweet heart
op ter
Ġc ards
Ġall ig
ic opter
L ittle
ia stic
Ġdist ant
Ġbro ccoli
Ġenthus iastic
Ġh ipp
Ġfil thy
ĠS h
Ġgigg le
Ġexp er
Ġtrump et
Ġcoo ked
Ġhel icopter
Ġmonkey s
n ight
Gra ndma
Ġre co
Ġp or
ĠW here
ir it
Ġsand box
ar oo
ang aroo
Ġh ook
ĠW ould
gg ing
Ġb ri
ĠL ee
Ġadm ire
Ġnow here
Ġt en
Ġh arsh
Ġback pack
Ġso ar
ĠBrown ie
Ġs ent
Ġbel t
Ġbat ht
g ie
Ġexpl ain
Ġscoot er
Ġa nts
ll ie
Ġme as
op l
Ġpo em
er opl
Ġcount ry
cy cle
Ġbatht ub
Ġp ipe
Ġa eropl
Ġbark ing
Ġqu ite
Ġun pack
st airs
Ġcow s
p ar
Ġspe ak
Ġk angaroo
Ġl id
Ġsqu ash
Ġleop ard
Ġm ama
Ġhapp ier
Ġsp ell
Ġtem p
Ġrep air
Ġlisten ing
Ġbicy cle
Ġse par
im i
ĠEvery thing
Ġs ummer
Ġst ared
Ġc ush
Ġgrab s
Ġmess age
Ġbre at
Ġdidn Ã¢
uc t
Ġostri ch
Ġfire work
ĠA lex
Ġhum an
Ġloo p
Ġgi ven
Ġc omet
Ġmu le
h ood
ap a
Ġsor t
Ġimp ro
J enny
Ġgor illa
ĠJoe y
Ġmod est
Ġpa id
Ġfind s
y ear
Ġyog urt
Ġdess ert
Ġme at
Ġob ser
Ġvi olin
Ġu r
ĠS ophie
B ye
Ġhe dge
i pping
Ġsp irit
ĠS m
Ġpull s
Ġtri pped
s hed
Ġjelly fish
Ġmel on
Ġspl it
Ġpaw s
Ġallig ator
Every one
Ġresc ue
Ġs ize
Ġho les
Ġpro v
uck ed
Ġro ared
Ġf ive
Ġforg ave
ĠP at
Ġcat s
Ġwhe at
Ġp urse
Ġreco gn
Ġhipp o
Ġpil ot
Ġha ll
Dad dy
Ġt ax
Ġshe et
Ġp al
Ġca ct
Ġin se
Ġpus hing
oph one
Ġb ikes
Ġorgan ize
c i
Ġswing ing
Ġs le
Ġra ft
Ġsal t
Ġsc old
Ġstart ing
Ġsh ade
Ġbeh ave
Ġb in
Ġlight ning
Ġf le
Ġo at
Ġr ice
ĠSn ow
Ġhair cut
Ġtriang le
e er
Ġbu zz
Ġener gy
isk ers
ĠTweet ie
Åĵ You
Ġb ur
Ġkn ot
Ġfrown ed
b ul
Ġle ar
al ed
Ġlear nt
Ġe ither
Ġpor ch
Ġm ath
Ġrid ing
Ġp ed
Ġli p
lc ano
se um
Ġtra ins
eb ook
Ġend ed
Ġnot ebook
Ġstick er
il ing
in king
Ġl end
Ġwall et
Ġl uck
Ġeven ing
re ci
Ġpand a
Ġcact us
Ġjo kes
Ġch alk
Ġbanan as
Ġpap ers
Ġro d
Ġmu seum
Ġswe ater
Ġapp reci
Ġli ons
Ġpal ace
Ġtax i
Ġvo lcano
u be
Ġshop keeper
Ġch ain
Ġstrawber ry
Ġbear s
Ġroll ing
Ġbo ots
Ġer as
Ġhad n
ast ic
Ġneighb our
Ġbar rel
Ġsh akes
f fe
Ġmic r
ic er
ffe e
oo ped
Ġsil ver
ur ch
Ġla und
Ġal ive
Ġsmell s
Ġm ild
pl ay
Ġre ind
Ġso ck
ĠR ed
ĠJ erry
Ġlaund ry
Ġste ak
ĠAnd y
Ġavo c
Ġin k
Ġpo le
Ġstr ugg
ir on
Ġpus hes
ĠT r
Ġput ting
Ġvis ited
Ġgo al
Ġsoft ly
Ġmagn et
Ġju dge
ed y
Ġtri cks
Ġdraw ings
Ġmicr ophone
Ġcl apping
Ġp ad
Ġo l
Ġh ive
Ġsh ield
Ġt ube
Ġlean ed
Ġcol ours
Ġsail or
Ġsho vel
Ġair port
H a
Ġzoom ed
Ġfall ing
Ġr ag
Ġbelong s
Ġshel ter
ag gie
Ġunl ock
Ġspr ink
Ġche cked
el ery
ha ppy
Ġin sist
Ġpengu in
Ġquar rel
Ġam bul
Ġclimb ing
Ġmar ched
ĠP aul
Ġg ro
Ġdis play
Ġreind eer
c ast
hin o
Ġsa us
ĠB et
en se
Ġaeropl ane
Ġd ive
Ġdis hes
op hy
Ġpol ish
Ġbark s
g es
Ġav ail
Ġdon Ã¢
Ġfield s
Ġgra pes
Ġsand cast
Ġambul ance
Ġpe ek
a it
Ġapolog ized
Ġy ach
Ġso il
Ġco ffee
Ġsk ill
ĠP apa
sel y
Ġcostum e
Ġele v
Ġo y
Ġtr ophy
Ġfeel ings
Ġplan et
ĠO r
Ġhop ing
an ic
Ġfil m
Ġpr un
Ġar t
Ġrubb er
r on
Ġun happy
Ġdrop s
Ġshr imp
n ger
ĠB unny
Ġmed al
Ġk itty
âĤ¬âĢ ľ
Ġthank s
Ġrain ing
Ġm en
ch anic
Ġst om
Ġminut e
Ġelev ator
Ġc elery
Ġc ord
Ġon ion
Ġr hino
Ġavail able
ect ed
Ġeras er
Ġinc l
Ġp age
Ġsh ort
Ġyach t
ree ze
Ġshould n
Ġfis her
Ġperfect ly
Ġimag ine
Ġw ool
Ġmar ry
Ġwin ter
Ġbasket ball
Ġme chanic
ĠB uddy
Ġdi ary
n am
Ġbu l
Ġher b
Ġfl ies
Ġcomplet e
Ġre ver
Ġapp l
Ġclo sely
Ġcard board
Ġinse ct
Ġmag az
Ġeag erly
Ġplay er
ĠWh iskers
e ath
Ġjourn al
ĠW ill
Ġba king
Ġve nd
Ġqu it
Ġf urn
Ġgl ove
it ure
ĠSm ith
Ġdis ag
Ġfurn iture
Ġstuff ed
Ġt ub
Ġbreak s
Ġimag ination
Ġbul b
Ġtreasure s
Ġch urch
g en
ec ause
Ġcount er
an y
Ġw ife
Ġhead ed
Ġcool er
a zz
Ġp air
Ġfree z
Ġfrog s
Ġt ut
qu it
Ġsk ull
ma nd
or ies
Ġp it
Ġkn ob
w een
Ġfa ctor
st ead
r ight
Ġsw itch
Ġfoot ball
pl ace
Ġoff er
id es
Ġsun set
Ġbet ween
Ġli e
if l
aul ifl
Ġche ek
C h
Ġs ym
Ġsw ung
Ġfactor y
Ġcup s
ĠT ed
Ġmotor cycle
Ġchir p
Ġmo s
quit o
Ġfl ame
Ġtw ink
Ġshout ing
. .
nam ent
Ġpain ter
Ġgo lf
Ġpe ach
Ġor nament
ke let
Ġblow ing
Ġh ut
Ġsun g
af fe
Ġhot el
Ġsee ing
Ġc aulifl
Ġfold er
Ġvend or
c cer
ĠM imi
l ass
Ġvide o
Ġmix er
p e
a b
iz es
bo l
Ġthrow s
Ġpir ates
Ġcreat ed
ors es
Ġhead s
Ġo il
Ġk ay
Ġfr ame
Ġmos quito
ang u
Ġcush ion
m m
Ġso ccer
ĠMar ia
Ġfisher man
Ġco al
ĠB un
z zy
Ġsym bol
Ġh orses
Ġc able
cer os
Ġpo pped
Ġl angu
Ġwip e
Ġp ine
ĠB aby
Ġatt ention
Ġs kelet
Ġbatter y
Ġpow der
Ġcaulifl ower
Ġstu d
Ġla ser
e f
re nder
Ġforgot ten
Ġwe ather
ĠL illy
ro d
Ġli ves
Ġm op
os ie
Ġcelebr ated
Ġfis hing
Ġa x
Ġr ot
Ġs ince
Ġtra il
ĠI Ã¢
el come
Ġma ze
aw s
Ġphot o
ĠGo d
it es
Ġyog a
Ġsur round
ĠR o
Ġwa ving
ĠGra ce
Ġsle pt
Ġsne ak
Ġan ch
Ġde ar
un ately
Ġgir affe
Ġint rod
Ġrhino ceros
Ġpo ke
Ġsw amp
In side
Ġfle a
Ġpoin ts
Ġit ch
Ġpoin t
Ġglow ing
Ġit Ã¢
Ġfire place
Ġb reeze
n ey
lass es
You r
Ġsu b
Ġv et
Ġsung lasses
Ġking dom
ĠAnn ie
Ġmem ories
ĠCh arlie
Ġtut or
Ġstre ng
Ġtun a
Ġ iron
Ġre ve
Ġv est
sp ap
ĠS andy
Ġpet als
Ġfo g
Ġmist akes
Ġax e
Ġcompl ain
Ġbase ball
Ġdan cer
Ġchick ens
Ġpare nt
Ġ ig
her o
Ġnew spap
Ġstreng th
Ġgre edy
Ġce iling
ck ey
Ġsquirrel s
Ġho ckey
Ġig loo
Ġs ir
Ġgr in
Ġanch or
Ġskelet on
ro sc
Ġsniff ed
Ġgro cer
Ġsuper hero
Ġarg ue
ĠU n
Ġnap kin
ch ie
E ventually
Ġgold en
u es
Ġhang ing
Ġtra ve
Ġmusic ian
med i
Ġsk irt
ĠT ony
rosc ope
Ġst aff
Ġtemp le
Ġun if
Ġag ree
Ġsqu e
Ġbu ry
medi ately
Ġthe ater
Ġdis cu
Ġunif orm
Ġeat en
ĠJ ess
Ġsl ipper
Ġwelc omed
Ġse as
Ġshould er
Thank s
Ġz ipper
Ġquiet ly
ss ible
Ġmeet ing
Ġl ime
Ġinv est
ist ol
Ġmic roscope
Ġpin ch
ch air
Ġfl apped
Ġslipper y
Ġaccept ed
Ġf ought
Ġinvest ig
Ġp istol
er c
Ġdoor s
Ġmin er
ree k
Ġrad ish
Ġpl astic
Ġthrow ing
Ġcall s
Ġboun cing
t ress
To day
Ġmat tress
m en
ĠIn stead
Ġsur render
Ġco b
ac es
h ouse
Ġpe ar
Ġc reek
Ġv room
Ġkay ak
Em ma
t ain
Ġmo ves
Ġstick y
Q u
Ġlaw y
W ait
ĠH enry
Ġno vel
all ey
Ġcu b
Ġavoc ado
Ġc ared
Ġs uff
Ġfreez er
Ġlot ion
au d
c ase
l er
is on
ĠM illie
t e
w as
Ġfa uc
an ny
Ġarm chair
Ġwr iting
in ked
Ġre ef
Ġmake up
Ġmyster y
Ġv alley
w eb
Ġt ug
Ġinvestig ate
Ġnew s
Ġsail ing
Ġcher ries
Ġreg ret
Ġcri b
was her
im ney
Ġex erc
Ġoy ster
Ġfauc et
Ġag re
Ġsplas hing
ĠK ate
Ġtick et
Ġcollect ed
Ġwor th
Ġch imney
Ġto il
To gether
Ġpresent s
Ġdish washer
Ġmagaz ine
Ġhapp ens
Ġspray ed
Ġwa gs
ÅĵIt Ã¢
N ext
Ġpre vent
Ġcob web
Ġqu ack
Ġve il
Ġcast les
Ġent ered
Ġte ar
Sam my
Ġshr ugged
Ġh ar
Ġpass port
Ġappl aud
Ġche ss
Ġsepar ate
Ġscold ed
le nd
Ċ Ġ
Ġwe igh
Ġtoil et
Ġal arm
ĠDan ny
i ves
Ġblanket s
Ġr ake
Ġign ored
Ġt ucked
Ġlawy er
Ġcho ice
i ved
Ġhop es
Ġatt ach
Ġcoat s
Ġcand les
Ġfollow s
Ġkiss es
Ġapp ro
Ġclass room
ĠR u
e ve
r ing
Ġpudd les
Ġeas ily
Ġap art
et y
s it
Ġdisapp ear
Ġbee f
Ġchair s
Ġburn ed
Ġb other
Ġlet ting
Ġstra ight
ĠN ext
eter in
eterin arian
Ġy ield
Ġwar d
Ġdress ed
Ġcan e
Ġtrust ed
Ġlangu age
Ġs izes
Ġv eterinarian
Ġra z
Ġtele ph
ra ged
Ġcar ing
Ġplan es
Ġward robe
Ġjewel ry
at ched
Ġbl inked
id ay
Ġshow er
Ġr ise
A nn
Ġmiss ile
ĠS u
Ġkeep ing
Ġla wn
Ġre qu
Ġst able
Ġcabin et
Ġcross ed
Ġo ak
ĠH arry
Ġbooks he
v ision
M andy
Ġst ro
Ġteleph one
Ġnewspap er
m end
Ġcl aws
Ġroom s
r s
Ġs igh
Ġpuzz les
Ġa ut
Ġtr ade
Ġinc re
iv al
Ġc ell
Ġwhisp er
Ġtorn ado
Ġscr atch
un a
ang es
Ġbook case
Ġin f
amp oo
Ġblueber ries
Ġsn ap
Ġamaz ement
ĠM iss
Ġper fu
ct ion
om mend
Ġsqu eezed
Ġbookshe lf
B ecause
Ġrec ommend
Ġop era
ĠR osie
Ġsub way
Ġp ra
at ie
Ġg ym
Ġdel ay
Ġgr ill
ĠS ee
ĠA b
Ġraz or
Ġbl ouse
Ġrequ est
Ġcraw ling
ĠHe lp
Ġp ur
Ġpo ked
âĤ¬ .
Ġtele vision
Ġb ill
Ġho l
gg y
Ġfollow ing
om es
ict ion
Ġsh ampoo
ĠTr ue
Ġf ile
Ġli cks
Ġsp ear
Ġsqu eeze
Ġhol iday
Ġexper ience
Ġl umber
Ġimpro ve
Ġmin t
Ġperfu me
Ġser ve
Ġde mand
Ġste am
Ġcl iff
Ġring ing
Ġcr ow
fort unately
iction ary
I s
bb ie
Ġribb on
a h
Ġim mediately
Ġhelp er
Ġmuff in
Ġf est
Ġgrow led
Ġis n
Ġbe gged
Ġd ictionary
Ġmat ches
Ġshr ink
Ġwas te
Ġbl ood
Ġbird c
Ġpr op
Ġide as
Ġwarm th
i b
Ġmust ache
Ġsn eeze
ore s
ĠJ ul
Ġinv ite
h ic
Ġg ear
Ġbirdc age
Ġve hic
up s
Ġfu el
Ġal right
Ġrabbit s
uck ily
as is
Ġca lend
Ġwe ep
Ġy ucky
Ġflut ter
Ġinst r
Ġfall en
Ġmar ried
ĠR e
Ġber ry
l ier
Ġra il
Ġr ow
Ġpast ry
D id
Ġref re
uc ture
Ġworm s
Ġstr ucture
Ġlaug ht
Ġsurpr ises
Ġbrave ly
Ġbel ow
Ġcalend ar
Ġo asis
ĠCl ara
Ġwander ed
Ġb le
W ill
Ġw igg
Ġkne el
is ing
Ġd ire
Ġunderstand ing
Ġhurt ing
Ġlaught er
omed ay
Ġdra in
Ġp ages
O k
Ġheart s
Ġent er
Ġair pl
ink y
Ġit em
ĠI s
om ob
Ġhar b
Ġre aches
Ġap ron
as p
Ġsaf ety
Ġflo at
Ġcra sh
Ġaut omob
Ġbat he
Ġbu ried
Ġj unk
Åĵ No
Ġbuck le
Ġadm ir
Ġro ot
Ġcap tain
Ġstrawber ries
Ġmy self
ache l
Ġrelax ed
Ġsandcast le
or al
Ġign ore
Ġskill s
W elcome
Ġpl ates
L isa
' ve
Ġwh ip
ĠK ing
Ġsp ade
Ġmoment s
ĠF o
Ġrever se
ht ray
ĠW ho
ic ing
Ġqu iz
Ġas htray
Ġfest ival
ar i
Ġbe amed
' .
Ġsn apped
r iger
Ġs omeday
c akes
Ġref riger
Ġra ise
Ġrece ived
Y uck
Ġrefriger ator
Ġear lier
Ġto ng
Ġli c
ĠFr eddy
Ġwe ap
Ġv ac
Ġteach ing
Ġma ss
Ġharb or
ĠPe ople
Ġmod el
ĠSnow y
Ġspark ling
Ġspot s
ap ed
Ġinsist ed
Ġsa ving
Ġvan ished
Ġso cks
Ġbump ed
ĠIt s
Ġth umb
an na
Ġd ried
Ġsupp ly
iss ion
Ġblack board
ig ail
Ġprep are
Ġj ail
Ġjew els
Ġspend ing
Ġbal an
Ġscatter ed
ĠBe fore
x y
Ġto es
Ġsc ooped
Ġsett led
Ġperm ission
Ġspark le
Ġkn own
ct ly
Ġbreat he
Ġbo ot
Ġyawn ed
Ġre s
ĠM ay
W ith
am ber
ĠJ ames
Ġa chie
Ġdestroy ed
Ġbath robe
Ġte ase
Ġrem ain
Ġhard ly
Ġencou raged
Ġrepl ace
Ġwaff le
ant ly
Ġpr ide
Ġlemon ade
Ġd are
Ġha nger
Ġsit s
Ġpull ing
ĠH ave
Ġdecor ations
st ers
op s
Ġrem ove
P eter
Ġcudd led
Ġh ate
Ġd aisy
Ġlic ense
av id
Ġbean s
Ġs imp
Ġp ort
Ġresp ons
iz ard
Ġpra ised
s ing
re at
Ġchirp ing
Ġhit s
ent s
Ġe qu
Ġfast est
Ġsuff er
xt ure
Ġbuzz ing
Ġpatient ly
Ġdress es
Ġm ention
Ġble ed
s ity
Ġr hy
Ġautomob ile
n ies
Ġappreci ate
Ġpo ppy
Ġdest ination
Ġtall er
Ġm all
o sed
Ġh omes
Ġn ation
i um
Ġd igg
Ġfl av
Ġclimb s
Ġgu y
Ġwas hing
Ġp alm
Ġgl o
Ġsh ot
Ġlab el
Em ily
Ġbelie ved
Ġdigg ing
A ll
Ġappro ached
Ġhe sit
f ied
M mm
Ġn one
Ġto re
Ġdeep er
Ġw ine
Ġinf ant
u de
Ġrest ore
Ġsc ore
Ġher s
ĠT ina
r m
Ġm itten
Ġch amber
ĠO llie
Ġsaus age
Ġstrugg ling
Ġhe at
Ġdiffere n
Ġtong ue
Ġhill s
Ġhur ric
Ġpun ish
Ġpillow s
Ġbill board
Ġsn eezed
Ġsp ort
Ġw izard
ĠE ach
Ġup stairs
Ġthr illed
Ġprov ide
Ġbra in
Ġaw e
Ġdiscu ss
J ake
Ġpan ic
Ġwar ning
Ġtwist ed
Ġgl owed
Ġuniver se
Ġfire f
Ġthe rm
Ġvac ation
Ġwor se
Ġcr unch
Ġpo ison
Ġshe d
Ġsol ved
Ġpart s
os ity
ĠC o
be y
Ġe vent
Ġset ting
all en
Ġto ur
Ġrem ained
M ark
Ġairpl ane
Ġhurric ane
Ġtherm omet
Ġplay s
Ġexam ine
Ġspark les
Ġshoot ing
Ġinv it
Ġneighbor hood
Ġst y
Ġch ores
Ġor anges
Ġflo ated
Ġran ch
Ġch allen
ĠM aggie
th m
Ġweek s
Ġle ak
ĠEvery day
Ġuniver sity
Ġpaint s
Ġthermomet er
The se
Ġbit es
Ġrepe at
Ġb ang
ad ium
Ġflo ating
Ġfix ing
g ing
Ġmeas ured
S h
ĠBet sy
Ġst adium
Ġgrin ned
! '
d o
Ġd uring
!" ,
Ġsurround ed
Ġsupp osed
asp oon
Ġcon f
Ġrhy thm
Ġmass age
Ġbr ings
F l
Ġpa used
Ġcher ry
Ġgif ts
Ġf ut
Ġsprink les
Ġfa sc
Ġfut ure
Ġmem ory
ÅĵI Ã¢
Ġte aspoon
Ġgre y
r ise
Ġcollect ion
Ġsign s
J en
Ġmarble s
N ot
bble s
Ġj azz
W ould
Ġstom ach
ĠBu zz
em ember
Ġg ust
Ġwis dom
Ġact ually
Ġfl ood
Ġdisco very
Ġincl ud
Ġse w
Ġvehic le
Ġt ide
Ġl ily
Ġgirl s
Ġsun rise
ĠG ood
is hing
ĠL iz
v et
ÅĵThat Ã¢
Ġme owed
l s
Ġelephant s
Ġur ge
Ġexerc ise
Ġmail man
Ġl ugg
um ble
Ġdec ision
Ġchew ed
Ġr ush
Ġweap on
Ġstr ang
Ġobser ve
Ġlugg age
Ġun ite
Ġcartoon s
er o
Ġso re
Ġfasc in
Ġtomato es
i ers
Ġsc ur
Ġpo ssible
Ġto e
ĠL ater
all ow
c les
Ġsun light
it ies
Ġfold ed
Ġcur led
Ġ V
Ġchir ped
Ġr ust
Ġmelt ed
ĠRu by
Ġsp ill
Ġc akes
u ing
Ġs ip
Ġcollect ing
Ġ x
Ġgra pe
s on
ĠJo y
Ġminer al
e ed
ĠR achel
Ġbr us
Ġdifferen ce
Ġproblem s
Ġb ak
L e
Ġtrack s
Ġjo gging
Jo hnny
Ġwhere ver
ĠM e
Re ady
A l
Ġmountain s
ip ment
Ġb es
Ġslid ing
er ation
Ġman age
Ġequ ipment
et ch
Ġla id
Ġli ck
Ġadmir ing
Ġwater ed
c ious
Ġsat is
Ġcont ain
Ġbri cks
ĠSp ike
o ved
Ġtwig s
r r
ĠSome one
Ġpattern s
Ġkind ly
Ġpet ted
Ġsk ipping
Ġpotato es
Ġseat s
E x
b ers
Ġsold iers
Ġglo ves
Ġsp aces
z ag
joy ed
und ay
Ġrece ive
Ġkeep er
Ġco pper
Ġe mer
Ġsl ice
Ġlet s
Ġg ain
dd y
Ġcontin ue
Ġord ered
Ġstrang ers
w alk
Ġover joyed
Ġwat ches
Ġgot ten
Ġpig s
om as
Ġz ipped
m other
ĠS unday
Ġland s
Ġwhist ling
Ġg az
Ġbes ide
Åĵ Thank
Ġsaf ari
Ġbe g
Ġpray ed
ĠC at
S usie
Ġpe ered
Ġnet work
ĠSt eve
bb led
Ġsp it
Ġe ff
Ġinvit ation
Ġmarch ing
Ġour s
as es
Ġgl itter
ĠP enny
Ġwood en
Ġearth qu
Ġside walk
Ġeag le
ig zag
Ġdog gy
Ġdrink s
Ġgrocer y
ir p
Ġwe ight
Ġn avy
Ġacorn s
Ġatt ached
Ġra ised
Ġdisag reed
l oe
Ġwere n
Y um
ĠP oppy
ĠLet Ã¢
ĠM illy
Ġbe at
Ġcomp any
O uch
Ġm ister
Ġburn ing
f y
Ġon wards
he st
" ,
Ġw re
Ġhapp iest
ĠSp ark
M oral
Ġra cing
Ġbr id
Be fore
Ġcra shed
Ġspoon s
Ġf ed
Ġcrunch y
Ġpeanut s
Ġwhist led
ĠSh aring
Ġpri ce
se ek
Ġme ow
Ġhur ried
Ġhis t
Ġoff icer
ĠR a
Ġbri ck
Ġacc om
Ġtre mb
Ġrefre shed
Ġp ies
Ġrem em
Ġfl ap
Ġwork s
Ġcle aring
n ie
ĠS ad
Ġop eration
Ġprep ared
Ġbow ed
Ġscr atched
Ġremem bers
Ġhist ory
Ġex a
ad ed
Ġlip s
am b
Re ally
ĠK atie
Ġfirework s
Ġprun e
Åĵ We
Ġesc aped
R o
Ġdinosaur s
Ġmen u
ĠAb igail
Ġbrid ges
Ġtal ent
Ġplant ed
am ie
Ġbuild ings
Ġreve aled
Ġeas ier
Ġby e
Ġturn ing
Ġcom fy
Ġscream s
Ġol ive
Ġbra nd
ĠCh r
Ġ Qu
Ġhat ed
Ġc hat
Ġsell ing
Ġsnow ball
d ie
ĠL una
Ġrecogn ized
Ġwar n
Ġaccom pl
Ġcre pt
Ġpre cious
ĠZ oe
Ġland sc
omet hing
ĠF ro
Ġstri p
ĠN ot
Ġmu ddy
Ġpad d
Ġw id
Ġdr inking
Ġs ings
xy gen
Ġbed s
Ġpu pp
ect ure
Ġsett le
Ġearthqu ake
ĠM at
Ġsimp le
Ġeff ort
c c
ĠRe my
Ġremind er
Ġspaces hip
Ġmeas uring
Ġsl ip
Ġper ched
Ġl ecture
Ġb ones
Ġser ved
Ġapp ear
Ġwonder s
Ġshadow s
Ġwait s
Ġvo ices
Åĵ Can
Ġcudd le
Ġevery day
Ġped al
Ġp itch
Ġcomfort ed
Ġagre ement
Ġrespons ible
Ġcirc us
Ġrain ed
Ġve l
Ġo bey
ff ic
Ġv ict
Ġt ip
Ġso ared
Ġall ow
Ġany time
Ġtra pped
Ġc al
Ġwhat ever
Ġz igzag
Ġtast es
Ġapolog ize
Ġlandsc ape
Ġcut ting
Ġsucceed ed
Ġsho pping
Ġran g
Ġpet s
Ġsecret s
Ġvill ag
Ġfa sh
ĠD avid
Ġvel vet
Ġprin ter
Ġdisturb ed
Ġwa ist
Ġitem s
Ġswim s
Ġb un
Ġtra ffic
Ġpract icing
Ġste el
Ġbring ing
Ġoat s
Ġexa ctly
Ġsister s
Ġrest ed
Ġvisit ing
Ġsc oop
Ġact iv
L uckily
Ġcostum es
anna h
Ġansw ers
ĠFr ank
iz ing
Ġol ives
i en
m ble
Ġbr ushed
Ġsty le
Ġmouth s
ĠP r
Ġso ak
la ire
Ġcuri osity
is hes
Ġout do
n eath
Ġbre aking
Ġfash ion
ĠS unny
Ġre le
Ġown ed
Ġlady b
Ġencou rage
ĠN ut
Åĵ Don
Ġkn elt
Ġfascin ated
Ġle ather
m are
Ġim age
igg y
Ġvillag ers
om ing
Ġnail s
Ġben eath
ic orn
Ġunder ground
Ġwaff les
T weet
Ġun icorn
Ġsad ness
ent y
ter day
Ġunl ocked
ind a
Ġd ied
Ġrecogn ize
ĠIt Ã¢
Ġdown stairs
Ġcre ation
Ġcatch ing
ĠCh irp
Ġgrand mother
Ġo xygen
ist en
Ġmon sters
Ġtre mble
Ġche f
ĠJ e
Ġeat s
ĠThe se
Ġpup il
i k
Ġwant ing
Ġnight mare
Ġjo gged
Ġc ape
Ġstri pes
Ġdoctor s
Ġso aring
Ġblueber ry
le y
ĠHow ever
Ġstr uggled
Ġlem ons
ĠB eth
Ġwonder ing
Ġbleed ing
Ġpun ished
Ha ppy
Ġg ained
Ġfam il
ay la
d am
Ġf etch
ĠS omething
Ġexam ined
Ġn icer
Ġguess ed
Ġplan ned
Ġdra g
Ġc aut
Ġsit u
Ġmach ines
Ġmiss ion
F irst
Ġsteal ing
Ġarg ued
u ke
Ġare a
ĠF irst
Ġcomp le
Ġpil es
Ġs i
Ġherb s
Ġfree ze
Ġintrod uc
Ġstir ring
Ġr ipped
S ometimes
Ġs ix
Ġchallen ge
Ġt ugged
Ġstud ied
Ġfire men
U n
Ġbe nd
Ġb are
Ġwa gging
Ġzoom ing
O r
Ġaccident s
Ġvict ory
ĠO w
Ġsatis fied
Ġwre ck
ĠSu zy
Ġinstr uct
Ġprop erly
ag ull
Ġkey s
ul u
D ave
Ġwin ning
Ġshiver ing
ĠUn cle
loo king
Ġbun nies
Ġincre ase
u x
d ing
Ġgather ing
Ġtun e
Ġm ice
Ġex it
Ġfiref ight
Ġoutdo ors
Ġwin ner
Ġtwirl ing
Ġsl apped
Ġload ed
Ġte asing
Ġpe el
Ġdecor ated
ĠK e
ux u
Ġdes er
Ġsupp lies
Ġyell ing
Ġneighbour hood
Ġse agull
Ġunder neath
Ġperm it
Ġsight s
Ġtick ets
us an
Ġan n
Ġpan cakes
o h
Ġbeg in
Ġbur row
Ġpe arl
Ġrid es
Ġsi ren
Ġpe aches
ĠJ an
Ġmix ing
Ġrele ased
Ġdraw s
Ġwe ighed
ak y
Fl uffy
en a
ĠT w
Ġsne aked
ic a
ĠFl oppy
ind y
. '
Ġconf ident
Ġreal ize
Ġinstruct ions
Ġspid ers
Ġintrod uce
Ġl uxu
Ġd am
Ġmuff ins
s hing
L ola
Ġcont ro
C l
Ġlet Ã¢
Ġpin ched
Ġbu dge
Ġsol ut
Ġz ero
Ġcompetit ion
ĠL ucky
ĠJul ie
ĠNut ty
Ġprin ted
Ġstudy ing
B ella
Ġlo ving
Ġbeh a
Ġin ch
Ġpocket s
ĠCo co
Ġba ked
a les
Ġstr uck
Åĵ Look
ĠD id
ĠRa bbit
Ġshould ers
Ġb unch
Ġop in
Ġl ines
Ġfro sting
Ġre lease
Good bye
Ġdec ides
Ġgigg ling
Ġbro om
ĠL ike
Ġour selves
Ġwe b
Ġpast el
ll ed
ĠP ip
Ġstamp s
Ġcon es
n es
Ġemer gen
Åĵ Hello
Ġst air
Ġst itch
bb ing
G eorge
ĠO l
ĠSt op
Ġprun es
Ġladyb ug
Ġs ides
o ed
Ġgr ant
Ġscur ried
Ġstr ings
âĤ¬âĢ Ŀ
Ġt im
a is
Ġmark s
M ike
M r
Ġru ler
Ġpe ars
And y
g ers
T eddy
ed nes
ednes day
Ġrepe ated
Ġdri ft
Ġkeep s
Ġag o
Ġclap s
Ġpo king
ĠA m
ant a
Åĵ This
Y e
ay s
ĠB ig
Ġcrow d
ĠH op
Ġru in
Ġprin ts
k ins
l ow
Ġbrus hes
Ġkick ing
Ġstretch ing
Ġdemand ed
ĠTh omas
l en
Ġst ing
o dy
Ġneighb ors
Ġmention ed
ir a
Ġm ast
ow ers
Ġtouch ing
Ġto night
Ġprotect ed
ĠChirp y
Ġwr ites
Ġsweet ies
ĠJo sh
Ġgood night
ues day
Ġyou th
Ġbucket s
Ġribb ons
v a
j am
uct antly
ĠW ednesday
ti est
as hed
Ġpret tiest
ĠCh loe
Ġforg i
Ġv ent
Ġpar ked
ick y
ex p
Ġpro ject
Ġcamp ing
Ġso aked
z ie
ĠT iny
Ġbare ly
Ġhorn s
Ġboun cy
B obby
ick ed
b ies
M ar
ri age
A h
h ins
Ġdiscover ing
P ete
ĠA n
ĠB ir
E lla
ÅĵDon Ã¢
Ġ Once
Ġe ast
ĠS ure
Jo ey
Gra ndpa
Ġtwink ling
Ġres ult
Ġexp ect
Ġsurf ace
Ġsor ting
Ġd ent
Ġsto le
Åĵ Why
Ġw est
Ġintere st
Ġv owed
Ġte xture
Ġgaz ed
ĠG r
Ġpur red
ĠT uesday
Ġste ep
Ġguy s
Ġba bies
Ġsh ock
Ġbe ard
Ġmov ies
ĠC arl
ĠR ob
Ġcaut ious
exp ected
z en
Ġpow ers
Ġapplaud ed
Ġsil ence
F r
th ank
Ġpebble s
ĠBu bbles
Ġent ire
Ġloo se
Ġcontro l
Ġtick le
Ġgun s
Ġur ged
Ġdrag ons
Ġ 1
Ġact ed
Ġdra gged
Ġun expected
Ġluxu ry
ed ding
H enry
Ġcat ches
U h
as on
er n
Ġm ittens
Ġmus cles
Ġchew ing
Ġrock ing
Ġfl at
Ġfa b
Ġdolp hins
Ġcomple ted
Ġfab ric
Ġcurtain s
Ġemergen cy
M aggie
Ġbl ink
Ġintroduc ed
un e
Ġdire ction
u ly
Ġch ips
Ġhon k
Ġseas on
Ġpat ience
Ġstri ke
Ġimport ance
eez ing
Ġrel uctantly
Ġb ank
Ġe ight
Ġsl im
ust ed
Ġfig ured
Ġhig hest
Ġshiver ed
R emember
Ġfro zen
Ġlibr arian
ĠBet ty
Ġsolut ion
Ġcont est
Ġrock ed
Ġachie ve
Ġscream ing
Ġch ases
ĠZ oom
Ġrepl ac
Ġpour ing
R ex
Ġshel ves
Ġw ound
ĠJ amie
Ġtheir s
Ġcr umb
Ġrubb ing
es ome
Ġt i
Ġhug ging
Ġdri ves
Ġst aring
Ġsor ted
Ġsn ail
Ġro aring
Åĵ Oh
led ge
Ġincl ude
F red
Ġplan ets
ĠAnn e
Ġm ater
ĠS anta
Ġmater i
Ġsaf er
Ġpolice man
f it
Ġcur ly
Ġsitu ation
Ġfood s
Ġgre et
Ġaw esome
Ġcan Ã¢
Ġus ual
v in
Ġsigh s
Ġknow ledge
it ely
ir ts
Ġpass ing
Ġsh ined
Ġflag s
Ġex ha
Ġd ared
Ġbalan cing
Ġpl enty
Ġyou Ã¢
Ġmat ched
Ġtow els
Ġli ed
ul ts
Ġhome work
Le o
Ġout fit
th ough
Ġslim y
Ġbra very
ĠL ulu
Ġtr uly
Ġpretend s
ĠA unt
av i
Ġzoo keeper
ac ob
Ġcheer ing
Ġhe el
Ġw edding
ĠT illy
Ġgo als
Ġrainbow s
jam as
Ġsaus ages
J ames
cu se
ĠH oppy
Ġth reat
Ġaccompl ish
ĠMat t
D anny
ĠS usan
Ġpat ted
Ġca used
Ġpaint ings
ĠC laire
Ġreach ing
P aul
ĠC ar
Ġrest ing
Ġrad ishes
Ġarg uing
Ġpack ing
Ex cuse
.. .
ber t
Ġgrow ling
Ġbloom ing
ĠAl ways
Ġspray ing
Gra ce
Ġfo c
Ġwait er
Ġexha usted
i ar
Ġg e
Ġstrugg le
izz ie
a a
Ġsweet s
Ġstick ing
K itty
Ġp out
en ces
Ġmark ers
Ġmot ion
Ġwork er
Ġkneel ed
ĠJess ie
Ġpadd led
ĠL ou
Ġgrow l
Ġsl ed
im mer
Ġsu itc
Ġman e
ĠF or
Ġs way
Ġsn ugg
Ġstart led
ĠMom o
Ġcub es
Ġresc ued
Ġb oo
Ġsp ike
Ġwr itten
S ophie
Ġdust y
Ġtrave led
Ġinv iting
he llo
Ġexp ected
Ġbe ad
Ġsl ap
Ġcut s
Ġc ent
Ġbott les
Ġmatch ing
Ġgu est
Ġsing er
Ġflav or
Ġreve al
Ġlearn s
Ġhe av
le e
Ġprincess es
Ġcreat ing
Ġregret ted
Ġf art
Ġbloom ed
Ye ah
Ġtremb ling
Ġreplac ed
Ġf ir
Ġarri ve
Ġ Yes
Ġmar riage
y ou
p ite
Ġrecord ed
ais ies
Ġpencil s
Ann ie
Ġinclud ed
Ġla p
Ġch uck
Ġobser ved
Ġdisag ree
n joy
Ġd aisies
Ġpot s
ĠL inda
Ġactiv ities
Ġpray er
Ġfir m
Ġtim er
Ġpa jamas
Ch arlie
Ġroad s
Ġwire s
Ġrem oved
Ġdark ness
Ġwor ries
Ġus es
Ġvent ured
ĠM ad
Ġcountry side
Ġorgan izing
Ġst are
M rs
Ġcomplet ely
u zz
ĠB y
Ġwork ers
ĠH a
Ġopen ing
Ġfair ies
Ġrelie f
Ġwas ted
ang led
Ġle ap
Ġrep ly
Ġown ers
ĠA bby
Ġstore keeper
ĠB o
Ġc ott
Ġbe lly
ĠSad ly
ver s
Ġran ger
Ġfa ult
at y
Ġpart ic
ĠJohn son
Ġun f
ĠJ u
Ġquack ed
Ġpol ishing
Ġlead er
Ġst ern
or a
id ing
low ly
Ġbec oming
Ġfl ames
Ġl amb
ĠJe ff
Ġk ites
ct ions
Ġagre es
Ġpoem s
Ġpengu ins
Ġwasn Ã¢
After wards
Ġfa ced
ĠQu ack
ess ie
ĠO ut
Ġevery body
Ġsees aw
How ever
ĠP inky
Ġfold ing
Ġmelt ing
Ġsc ales
Ġsque aled
Ġth ro
Ġheal ed
Ġvan ish
ĠUn fortunately
Ġhelm ets
Ġw ink
ĠL uke
ĠB oth
Ġlo gs
ĠJ ones
ĠJen na
or ds
Ġcrab s
ĠĊ Ġ
Ġthro at
ĠM art
he ll
ĠLe ave
Ġus ually
Ġopin ion
Ġcrumb s
Ġtra ctor
Ġr ipe
Ġd ipped
op es
l ings
Ġsc ra
Ġseem s
Ġa st
Ġlollipop s
Ġtwink le
Ġc ash
Ġr isk
ĠChr ist
Ġteac hes
Ġcom m
ĠB ye
Ġgrocer ies
ĠFo llow
Ġd en
Ġknight s
H arry
i very
as m
Ġprov ided
Ġdent ist
Ġpol ished
Ġval ued
Ġstay ing
id s
ell e
Ġpee king
a ze
Ġsn akes
ĠA dam
Ġscr u
Ġinterest ed
Ġblow s
Ġrub s
ĠW atch
Ġcautious ly
ĠDo lly
Ġcrack ed
A lex
Ġr ings
Ġun ited
oph ia
ara way
ĠP ut
Ġf araway
Ġdes ert
ĠS orry
Ġwin ked
Ġmiss es
Ġprotect ing
Ġf reed
Ġmar ked
E llie
M ittens
Ġyou nger
Ġwr ist
Ġclos es
Ġwander ing
m as
Ġbalan ced
Ġchuck led
Ġfu zzy
Ġfore head
Ġlisten s
Ġpast ries
Ġsing le
ĠK ayla
Ġsign ed
g o
Ġro bb
ĠH annah
Ġbead s
Ġpartic ular
Ġro ses
b oo
Ġbo om
ĠFo x
A b
Ġact ions
Ġdire ctions
Ġhow ever
Åĵ Mommy
Ġcop y
ig i
ĠL izzy
ĠSu zie
Ġc ough
Ġsplas hes
Ġcrack ers
r ance
au ra
Ġbak er
Ġnap s
Ġc ous
pp ers
Ġro ots
Ġfill ing
Ġsnowball s
Ġyes terday
ÅĵWhat Ã¢
Ġrest ored
Ġflutter ed
Ġdel ivery
Ġroll s
ab el
ar ling
Ġst em
Ġcon n
Ġsw ooped
B ad
d ies
il es
Ġg aze
Ġsuitc ase
Ġwigg led
Un fortunately
Ġti pt
ĠN ina
il o
S andy
Ġsome body
ick ey
Ġb umpy
Ġitch y
bb ly
Ġref le
Ġsw irl
Ġsl am
ĠChrist mas
Ë ľ
Ġ Y
Ġphot os
âĤ¬ Ëľ
S ome
ol ine
Ġtw in
Ġpast els
Ġcelebr ation
Ġtrip s
Ġped als
ĠP ipp
at ches
Ġback ed
Ġtall est
Ġaw ake
ĠKe ep
Ġfro ze
Ġc ause
Ġcash ier
Ġne ct
Ġrem ote
Ġl ined
Ġdark er
Ġdeterm ination
Ġnect ar
il ity
Ġspe aking
Ġsec ure
or med
ĠDo ggy
ĠM any
Ġkne es
K ate
Ġw ow
ĠF riend
Ġp iggy
an es
Ġcomplain ing
Ġb ars
p er
Ġrecord ing
R un
Ġsneak y
Ġsil ent
Ġvide os
M ay
oy s
Ġheal th
Ġaccomplish ment
Ġli qu
Ġple asure
Ġact ing
?" ,
Ġent rance
Ġt y
ĠB ird
M illie
B un
Ġwe ars
Ġrock ets
Ġdeliver ed
Ġmil es
Ġg lee
Ġin sp
Ġh i
es mer
Ġcolour ed
Ġo pp
ĠPr in
Ġtri cked
ĠE njoy
Ġm esmer
ĠBe ing
se qu
bo at
Ġcheek s
ĠM o
y ond
Ġa ff
Ġbe yond
Ġafter wards
Ġno on
Ġs ib
Ġcon sequ
N ina
Ġhis sed
Ġstay s
c ited
Ġinsect s
Ġglass es
k y
Ġbowl s
T ime
um m
Ġjo king
R ose
To by
ĠNot hing
Ġso bbed
Ġtick led
Ġfart her
F ine
Ġcolor ed
Ġbur st
aff es
Ġsc aring
Ġsto len
Ġatt ack
Ġs ense
Ġsandcast les
Ġtrick y
Ġru le
Ġmask s
S ad
ar ter
Ġcover s
B l
ik i
Ġ ĠĊ
Ġde al
Ġgir affes
Ġinstr um
Åĵ Come
Ġcal med
Ġhand ful
? '
Ġtalent ed
ĠSpark y
Ġp ause
Ġt angled
Ġind eed
are n
Ġadd ing
Ġsm arter
Ġscar ves
Ġcand ies
th s
ĠJess ica
Ġl ung
Ġsh irts
Ġachie ved
Ġcho ices
P olly
Ġconsequ ences
Ġliqu id
o ssible
L illy
Ġyour selves
ri ous
Ġbeh avi
Ġlead ing
Ġbump s
Ġread s
Ġbatter ies
ig ers
ch oo
Ġhesit ated
Ġimp ossible
Ġbad ge
ĠT ara
ĠM on
ep t
Ġm i
Ġpad dle
Ġmi xture
Ġexplore rs
ĠTw o
Ġd arling
il ed
Ġmagn ets
ll ing
ĠM el
ou ch
Ġclown s
Ġkick s
ĠG et
Ġrecommend ed
Sh h
an a
Ġweep ing
Ġgrace fully
n ers
Ġexper ien
ĠC indy
ĠL izzie
ĠJ on
Ġseas hell
Ġseek er
Ġbak ery
Ġfirefight ers
ang ing
ĠJul ia
Ġsal ty
v est
br ush
Ġimpro ved
W he
r ig
Th ose
Ġsw ept
M illy
at ul
co at
Ġdeser ve
Ġstro ked
ugg les
ĠP andy
Ġfl apping
Ġwip es
Ġbegin ning
Ġcompl ained
Ġmushroom s
ur ry
ĠJ acob
ĠE l
y an
Ġhid er
R u
ob ody
itc hes
ĠS que
ĠS qu
ĠM ickey
Ġste er
Ġknock s
Ġc ust
Ġth orn
Ġse ven
Ġcan s
ĠHa ppy
Ġte ased
Ġobject s
Ġpart ies
D ays
Åĵ Do
Ġtrave lled
Ġth ird
ĠL arry
ĠG igi
Ġhe aring
ĠPrin cess
Ġbase ment
Ġt igers
Ġcup cakes
Ġhor iz
Ġcl ick
ÅĵYou Ã¢
Ġfe ver
Ġsn uck
Ġhead ing
Ġsecond s
Ġd ots
Ġrain coat
t le
ĠSn uggles
Ġsib lings
Ġhoriz on
el ia
Ġsmile y
Ġperform ance
Ġcust om
ĠP l
Ġart ist
Ġhall way
n o
Ġbe am
Ġmark er
Ġsn atched
Ġlight er
Ġyell s
Ġjack ets
Ġdrum s
Ġflutter ing
ind r
ĠL ena
Åĵ Hi
an s
st ep
p are
ĠL uckily
Ġru ining
Ġgem s
Ġbed time
ig ning
Ġwouldn Ã¢
Ġra indr
Ġwe e
Ġne ither
Ġcon cer
Ġbuy ing
rig ued
Ġpupp ies
ĠS lowly
Ġlet t
d ri
ĠW ater
ĠWith out
Ġpay ing
Ġscru bbed
Ġcelebr ating
Ġfamil ies
Ġdoll house
Ġann oy
Åĵ Wow
Ġcream y
Ġlett uce
b and
Ġam ong
umb ling
Ġpeace fully
Ġriver s
Ġscr atches
Ġwra pping
Ġwid ened
Ġdrift ed
Ġwa dd
Bob o
Ġr umble
T ina
Ġtask s
at ur
iv ity
ad es
Ġtree house
Ġhid es
Ġw ins
Ġre pa
Ġbeha ved
c ers
Ġrust y
al ph
Ġplay ers
ĠEvery body
Ġwon Ã¢
ĠBu zzy
Ġl un
D an
ĠJ azz
a el
Ġcudd ly
immer ing
f all
Ġun s
Ġfa ct
oun ce
Ġarrow s
Ġreward ed
Ġwill ing
Ġl ower
Ġneed les
A n
Ġsour ce
Ġcreat ivity
Ġshr inking
Ġc or
Ġlo sing
Ġtemp er
Ġe ch
Ġrepa ired
Ġpass en
Ġfe ars
ie ce
Ġgrand pare
Ġinclud ing
Ġch oo
Ġtipt oed
it ched
T r
Ġcre ations
Ġta pped
ĠA bbie
Ġgrass y
Ġchef s
Cl ara
ong r
ĠGood bye
Ġde f
d ed
Ġminer als
j o
Ġsepar ated
ĠEm my
Ġsprink led
Ġr ising
Ġimag ining
ĠJ une
Ġgrant ed
ich ael
Ġch op
Ġa ud
Ġg ross
ĠR ock
Ġtem pt
he w
Ġare n
G reat
ĠL aura
ĠS ophia
Ġswims uit
ongr atul
im on
ĠZ ip
Ġt iss
Ġpan s
Ġl imes
ho g
Ġstom ped
Ġscrew dri
Ġc oup
Ġgra bbing
ĠP o
Ġpout ed
Ġback wards
Ġsp ong
it ude
Ġdecor ating
Åĵ My
Ġdam age
ish y
Ġhesit ant
Ġe arn
Ġprin ting
H ave
Ġpe ppers
Ġto dd
Ġst ung
Ġsquare s
Ġunpack ed
c l
ment s
Ġtr amp
nt il
Ġslow er
Ġcow b
Ġdi ving
Ġplan ning
Ġbel oved
Ġon ions
P at
Ġmateri als
Ġheav ier
Ġch ip
ĠJ ay
ĠOl ive
Ġgrow ls
Ġraindr ops
Ġwr ink
Ġm er
Ġpoin ty
ĠR emember
Ġsnow men
c ope
Ġsurround ings
Ġprom ises
Ġavo id
Ġscrewdri ver
W h
Me ow
Y ummy
Ġrec ipe
Ġaud ience
Ġsail boat
Ġcous in
Ġrust ling
Ġforgi ven
Ġneighb ours
Ġblock ing
Q ue
Ġcent er
ke nd
Ġsl ices
Ġgo bbled
ed s
Ġwip ing
Ġwee kend
Ġtemper ature
Ġto uc
B ill
Ġhedge hog
Ġtramp oline
Que en
in t
Ġre fu
Ġar r
Ġhelp ers
Ġwo bbled
Ġr ip
Ġwind y
F or
K atie
p r
y es
Ġcoup le
Ġst ool
Ġdiscu ssed
a e
us hing
ĠP am
st y
F o
Ġdesign ed
ĠE arth
Ġornament s
Ġdream t
O ops
itt ed
Ġno ses
Ġcorn ers
ĠSt ella
ĠE ls
ch ild
Ġpe cked
Ġslam med
e al
u zzy
un ched
Ġswan s
Ġaff ord
ile y
Ġh us
E w
Ro ar
ĠR obby
Ġfe ast
Ġsport s
Ġh itting
o ey
Ġag e
ĠD r
Ġstreet s
ab ly
Ġwa g
Ġtiss ue
Ġdad s
Ġac he
Ġas ide
ĠM ira
cc oon
Ġra ccoon
Ġspong e
Ġst ain
Ġrequest ed
Ġme als
Ġcurious ly
Ġfork s
Ġsunfl owers
Ġrefle ction
Ġsnow fl
ar row
Ġwarn ings
Ġtail s
B aby
ĠN ick
Ġdan ces
Ġpret t
Ġplan s
J ul
Ġbow s
id o
Ġvan illa
Ġshap ed
Ġfamil iar
ĠB inky
Ġspark s
Ġd et
ĠRo bert
- -
ck y
Ġg ri
Ġlean ing
Ġdoll ars
F in
Ġcolor ing
Ġremember ing
Ġad ult
Ġbreat hed
Ġint rigued
Ġgreet ed
Ġsa le
Ġscrew s
us ing
Ġgrand child
n e
it ion
Ġduck ling
Mar ia
Ġforget s
Ġspread ing
os en
Ġgas p
ĠS c
Ġch osen
Ġast ron
Ġthr own
Ġshop s
P e
ĠB ee
ĠTh ose
Ġprett ier
Ġtw ice
Ġpray ing
ĠR yan
Ġtunn els
S urpr
ĠGr anny
ak er
Ġh our
Ġpot ion
ĠT ess
Ġenthus i
ll en
Ġtouc hes
Ġastron aut
Ġsw ords
Ġ Queen
Ġenthusi asm
Ġhus band
ara c
Ġsail ors
ert ain
Bl ue
Ġgarden er
ott en
Ġm oo
end y
W oof
Ġhop s
Ġz ipping
Ġsp ikes
Ġsuperhero es
Ġcor re
Ġre ason
B oo
Ġmagic ian
Ġwis hing
Ġd aring
Ġspoon ful
Ġgrandpare nts
m allow
Ġle ast
ĠBlue y
Ġm arsh
Ġsk unk
Ġre ass
ĠThank s
ĠO ur
Ġch anging
Ġdo d
ĠN obody
Ġborrow ed
Ġsc amp
Ġcount s
Ġp ens
Ġfl ight
Ġforget ting
Ġr otten
ĠChr is
Ġbo dies
Ġencou rag
Ġflav ors
Ġguest s
Ġ1 0
Ġhope ful
ent ly
Ġne are
ĠAb i
Ġw oof
ĠFin n
oun ced
Ġsnugg le
Ġmesmer ized
Ġsend ing
ĠFriend s
f ly
Ġhero es
Ġch arac
Ġcharac ter
Ġmus cle
st ick
ĠRo ver
on i
ĠM ilo
Ġbuzz ed
Fr ank
ĠSque aky
Ġsea w
Ġneat ly
Ġgrow s
O ur
t he
ĠC ra
Whe e
ĠMike y
w k
Ġwrap s
Ġste ady
Ru by
Ġpo ss
Ġn ibb
Ġfeed ing
ĠU ntil
Ġmarsh mallow
ĠL isten
Ġhands ome
Ġco nd
Ġmin ts
ir rel
Ġdeliver ing
Ġn ine
Ġo h
ant ha
Ġdi ved
bb a
Ġpol itely
Ġzebra s
M iss
T w
Ġon ward
Ġal ien
Ġsuffer ing
Ġnap kins
Ġwarm er
ar mer
ye ars
Ġsn eezing
Ġbath s
Ġhon ked
Ġpl ain
op sy
Ġde fe
Ġpl ucked
Ġcra shing
Tweet y
Ġmatter s
Ġembarra ss
Ġpo ster
ect ion
Ġthat Ã¢
me al
Ġlift s
B y
Ġrefre shing
Åĵ Mom
Ġuns ure
Ġseaw eed
Ġlun gs
ĠBir thday
Ġstud ents
Ġincre ased
ĠJu dy
Ġcre w
Ġjoin ing
Ġstand s
Ġtodd ler
Ġoat meal
ĠE x
ĠMart ha
Ġsc en
all owed
Ġprop er
Ġprep aring
Ġsw allowed
Ġd ip
Ġgl ued
Ġthu d
Åĵ But
Ġexp ress
Ġwhisp ers
Ġresp ond
S u
Ġwater ing
ast er
Ġam ount
Ġd ie
Ġr opes
ĠSt ar
Ġperf ormed
Ġtoast er
Ġstar fish
ĠH oot
Ġlead s
Ġtremb led
Ġpress es
Ġwo bbly
Ġtriang les
Sad ly
Ġha wk
Ġlesson s
Ġcush ions
Ġbit ing
w hile
Ġpost man
Ġge ese
Åĵ Well
Ġdan cers
Ġpop s
N emo
Ġpu ff
Ġtalk s
Ġsniff s
Ġresist ed
Ġfoc used
Ġscra ped
Ġm erry
B ack
Ġbu lly
Ġad ults
Ġpan icked
Ġcon fl
Ġr ushing
Ġneckl aces
Ġfreed om
v ant
Ġfl as
ĠMay a
Ġpupp et
Ġso fter
Ġsl ips
ĠK iki
Ġfirm ly
Ġwadd led
Ġtr ot
ion a
D ucky
ad os
Ġjoy ful
Ġfiref ly
Ġencourag ing
Ġtest ed
Ġwr igg
Ġdro pping
ĠS un
Åĵ Where
Ġdraw ers
Ġfrown ing
on na
B r
Ġtable s
Ġwater fall
Ġwor n
Ġwigg le
f ia
ĠZ oey
Ġe v
Ġbl ast
Ġnervous ly
Ġf aded
re y
Ġlift ing
b ird
Ġscamp ered
Ġr out
Ġdriver s
Ġhuman s
V ery
i ppy
le ts
Ġsp at
Ġexpl o
c ake
ĠOn ly
M imi
Ġappreci ation
Ġp ours
Ġfirefight er
Ġrobb er
Ġdra wn
Ġsque ak
Ġthought s
Ġpen nies
Ġrespect ed
Ġquarrel ing
Ġpige ons
Ġthrough out
Ġtwink led
Ġleap t
ret ty
B et
Ġo cc
ĠAl ong
Ġstack ed
ĠL ove
b ut
Ġdress er
ĠThat Ã¢
rr r
ĠFro sty
Ġsc ient
Ġfit s
Ġco c
ĠSt ay
ĠJan ie
Ġmast er
Ġscient ist
an while
ro ken
n ow
L isten
e ars
Ġbra vest
Ġavoc ados
Ġover come
Ġstrong est
Ġmon ths
Ġel f
Ġpol ar
Ġplay time
Ġsa n
ĠB aa
Ġnot es
Ġg onna
ĠAs h
ĠTo dd
f ire
Ġn ur
Ġc ertain
ĠT ake
Ġman ag
T ony
Ġwe pt
ĠMe g
Ġn ood
M ine
Ġm unch
Ġsp ins
Ġsc ored
Ġcold er
Ġech oed
b age
e el
Ġco sy
Ġcon vers
Ġwa kes
ĠSqu irrel
ĠMar ie
Ġgar bage
Ġplay room
Ċ Ċ
Ġdesign s
Ġperform ing
ĠFro g
pl ash
eez es
u rious
Ġpe ck
Ġpr ob
Ġsan k
Ġfl own
ĠSad ie
Ġtri cycle
c a
ĠF ido
Ġsweet est
Ġpro ve
Ġforgi ving
Ġprob ably
Ġmarshmallow s
Ġg est
Ġbeha ving
L ike
c her
im ent
Ġpump kins
o ke
ĠJack y
ĠB essie
ry ing
Ġexplore r
Ġgu ide
p lease
Ġsqu eezing
Ġrobot s
Ġsa dd
Ġto ssed
ÅĵI f
Ġbl inking
ĠQu ick
bb ling
Ġca using
K im
Ġbell s
und red
.. ."
b roken
Ġsh own
Ġcobweb s
Åĵ Okay
es pite
am my
Ġsqu ishy
ĠC he
Ġsp ices
Ġhair d
M ad
ĠF ire
Ġpassen gers
Ġc ongratul
Ġcra ft
Ġt ies
fu s
Ġtight er
Ġheal ing
ĠZ ara
Ġm ate
Ġang els
? !"
Ġyield ed
ad ing
Ġrever sed
ild a
Ġp ound
D avid
Ġa imed
Fo llow
Ġn apping
ĠF armer
Qu ick
E ven
Ġgigg les
u pt
Ġnear ly
Ġpay s
ĠOw l
Ġoff ic
D uring
Ġun w
Ġdist ract
Ġk ittens
Ġinstrum ents
Ġwid er
ĠM ouse
Ġre un
m ates
ay ing
Ġsew ing
allow een
Ġt il
Ġn uzz
Ġdoor way
Ġconfl ict
Ġcl ues
ĠU nder
Ġappreci ated
Ġin j
Ġpaint brush
f ound
ĠS imon
Ġbrus hing
W atch
Ġc oug
Ġ 2
Ġsh oo
Ġgrand d
Ġact ion
Ġy um
Ġe ase
Ġload ing
Ġbr u
Ġpassport s
an cy
Ġcott age
on ies
Al right
ĠH alloween
ĠJack ie
Ġpath s
Ġheart broken
Ġa is
Ġblock ed
Ġmer ma
ĠM abel
Ġlay ing
J erry
Ġsl ipping
ĠL i
in o
Ġswe ep
Ġres ults
Ġan ger
Ġbel ts
Ġrepe ating
Ġp ins
Ġfigure s
Ġbit s
is c
Ġev il
Ġso aking
ant astic
ĠT una
ide y
Ġmail ed
Ġwith in
ast y
Ġtwist y
Ġtwist ing
ĠW ell
Ġsuff ered
Ġstro ll
ĠP atch
Ġt uck
Ġconn ected
ĠW endy
Ġpuzz led
P oppy
âĤ¬ ,
Ġshovel s
Ġbus es
ĠAl i
Ġaccompl ished
Ġdam aged
Ġnood les
Ġu nd
Ġcross ing
Ġh undred
ĠM ichael
ight ing
Ġbreat hing
Ġse ver
Ġlick ing
Ġbehavi or
Ġro ars
Ġsever al
Ġt ying
Ġshr ug
Ġrespons ib
Ġbrace lets
T ed
Ġsurf ing
Ġsurrender ed
Ġrisk s
Ġfin ishing
ĠR alph
Ġdes pite
Ġfle as
ĠAm elia
Ġtow ard
an ie
Åĵ Please
Ġenc ount
Ġswe at
Ġlend ing
d a
Ġstream ers
Ġhaird ress
Ġhum ming
Ġdef in
V room
by es
l ves
Ġsupport ed
Ġsh ady
Ġoy sters
Ġclean er
Ġqui eter
Ġaw oke
St eve
Ab igail
Ġgood byes
Ġwho se
When ever
Ġluck ily
ĠBu bba
ĠRo bbie
Åĵ Of
ĠR ay
Ġign oring
Ġst itches
Ġrain y
Surpr ise
T ake
ĠH oney
Ġr ather
Ġtable t
is ions
Ġp onies
Ġed ges
Ġcudd les
ĠFl opsy
ĠMad die
Ġf antastic
un ity
dd ing
ec ca
er k
Ġsl ither
Ġcloud y
Ġfrown s
en ing
Ġhand ing
Ġfin al
Ġsnowfl akes
pp ies
Ġsp ed
Ġdr own
ag ic
Ġel bow
Ġhairdress er
Ġcott on
ĠH olly
Ġthorn s
ĠBir dy
Ġdefin itely
Ġc oral
Ġrain s
i el
Ġgest ure
Ġk ings
Ġsmall est
Ġsur v
Ġs y
Ġremind ing
Ġwis ely
ĠF uzzy
Åĵ Now
c row
Ġbat tle
ĠB ecause
ĠG reen
Ġcorre ctly
Ġv ines
Ġdec isions
Ġdrive way
ĠU p
Ġs ou
on nie
ath y
Ġpeel ed
Ġnew found
H annah
Ġsque aked
w he
Ġcho pped
Ġshark s
Ġpri ck
Ġstud ent
Ġsn ort
Ġwar ri
Ġgrand son
Ġsymbol s
Ġwe eds
Ġsimp ly
Ġfis hes
h il
Ġ X
Tr ue
c ent
Ġband ages
a bby
Ġgrandd aughter
Ġwo bble
on se
Ġresp onse
Ġn asty
Ġex cept
ĠK aren
Ġexerc ises
Ġsto pping
step s
Ġt ar
ĠFred die
Ġocc as
A dam
Ġaf ar
Ġban ged
ĠRock y
Ġd arl
Ġn i
Be ep
Ġinsp ired
Ġdarl ings
f ather
Ġtravel s
Ġt ipped
Ġdisturb ing
Ġfill s
Ġmast erp
Ġl ent
Ġfl ipped
Åĵ Hey
Ġfoot steps
el ie
w orm
Ġped aled
l ine
Ġbird house
Ġwindows ill
Ġpur r
Ġspit s
Ġtrave lling
ĠPipp in
Ġship s
Ġcon vin
Ġpresent ed
Ġscare crow
ĠAl though
J amie
so l
Ġadd ress
Ġpunish ment
Th omas
Ġplant ing
Ġapolog ised
cited ly
m ered
Ġchocol ates
Ġant ic
eel ing
ĠW elcome
Ġforest s
ĠR uth
Ġsurf board
m s
Ġcongratul ated
ĠI m
dd ie
Ġarr anged
Ġbelie ving
ĠMe gan
Ġreass ured
Ġtrot ted
Ġreun ited
Ġno dding
Ġencourage ment
Ġche ers
Ġli es
Ġimag es
Ġpo ppies
Ġre app
Ġcamp fire
iz a
Ġsuit s
Ġbus iness
S ince
Ġcl erk
ĠSp idey
Ġtar get
ook y
ĠJo jo
Ġmar ve
Ġsail s
Ġmagn if
iss a
per ate
ut ter
Jo sh
Ġoffic ers
Ġterri fied
Ġbackpack s
mand a
ĠG ina
Ġgri p
Ġcover ing
Ġy el
Ġkn ots
Ġfoc us
Ġactiv ity
ĠA ng
ink le
Ġyel ped
Ġsurpr ising
Ġwrink led
Ġsmell ing
Ġexp ert
r is
Ġm ood
Ġmasterp iece
Ġd ep
ĠF ighting
ott e
Ġch anges
Ġconcer t
B unny
Ġch illy
Ġspill s
Ġspeed ing
id er
Ġtest ing
ĠSnow man
Ġtast ing
Ġbra ver
Ġple aded
Ġsniff ing
art led
ĠL ia
Ġcomfort ing
Ġdelay ed
Ġge ars
Ġ Okay
Ġcalm ly
w e
at s
ac le
J ess
ac les
ash a
Ġlab els
arl otte
Ġmerma id
M at
Ġsuggest ion
P enny
Ġaw are
ĠA ny
ĠR ain
Ġdiscuss ing
Ġst umble
M ira
Ġj ars
Ġsp ies
Ġbelong ings
Ġmis chie
Ġworry ing
Ġmagaz ines
Ġbother ing
fl ies
Ġcrown s
Ġart work
Ġal though
Ġunderstand s
Ġdisplay ed
ĠLou ise
Ġmischie vous
ail s
Ch loe
Ġp uck
ĠT ry
Ġadmir ation
Ġeffort s
sc reen
Ġbury ing
Ġhe ight
Ġfox es
em ma
Ġun fortunately
p en
Ġsa v
Ġrefu se
Ġsell er
Ġh oo
Ġbasket s
Ġtool box
ri er
Ġb uddy
ig hing
Ġb itten
ĠA lly
Ġexperien ced
Ġdec l
Ġb less
in ted
Ġqu e
v room
Ġdragon fly
ĠDave y
Ġvehic les
w ise
b ell
w hat
Ġpack ages
Ġdis c
Ġsol ving
Ġd ump
i bbit
ugg ing
Ġpand as
ĠW ally
Ġannoy ed
Ġt umbled
Ġmom ma
Ġme mb
ip es
atur day
Ġmemb ers
Ġseashell s
Ġfire s
Åĵ The
Ġpo sit
Ġwarm ly
Ġweal th
Ġnibb led
ĠS aturday
Ġsun screen
ĠSo fia
ĠW il
ain t
Ġpe as
Ġtre ated
B eth
Ġtrouble s
Ġsqu aw
Ġrot ting
ĠE va
K e
Ġsc ent
Ġmateri al
Åĵ Sure
Me anwhile
ĠFro ggy
A ny
Ġcon qu
Ġstom p
Ġgaz ing
Ġco ach
ĠK aty
Ġinsist ing
Ġunt ied
D ear
R achel
Ġdis o
Ġpray ers
ĠO ther
Ġenv iron
Ġpart ed
Ġconvers ation
ĠD ory
Qu ack
G et
J oy
a ver
Ġcoll ap
Ġencount ered
Ġjo ins
Ġloop s
Ġra ces
ĠP en
Ġsew ed
Ġs ill
Ġteacher s
Ġenviron ment
Ġscur rying
ĠSam antha
atter ed
Ġwhisper ing
Ġjo ked
Ġarg um
Ġpurp ose
ĠPipp a
Ġtil ted
Good night
Ġstor ed
Ġord ers
Ġlo ses
Ġex ch
ort unately
Ġhoop s
Ġgen ie
Ġcowb oy
pp a
Ġshe ets
Ġsp ooky
Ġtw eet
ĠFl o
ĠPe pper
ĠD uck
ĠDo g
Ġto ss
or der
Ġperm itted
air y
a ven
Ġquar re
e edy
u el
Ġa im
ong o
ĠF iona
Ġdiamond s
Ġscr am
Ġty pe
isc uit
Ġpupil s
Ġantic ip
Ġglitter ing
Ġtr ans
Ġque ens
Ġturt les
illi am
Ġbeam ing
Ġneare st
ĠD espite
Ġend s
ĠSnow ball
Ġtub es
Ġm aker
ig ger
Ġser vant
Åĵ See
Ġwh imp
Ġdon key
Ġvisit ors
Ġfilm s
A m
Ġspell s
Ġopp ort
Ġg ap
Ġunt ie
ĠH ope
Ġcle ared
Ġfin s
Ġstro ke
Ġr in
ĠAunt ie
ĠB ounce
R osie
Ġta pping
Ġopp os
Ġwas ting
Ġcustom ers
Ġnur ses
ust y
Ġpri z
Ġsw o
Ġsh all
Ġhunt ers
Ġg er
Ġconvin ced
Ġwound s
Ġswo llen
Ġgoat s
Ġswe aty
Ġdress ing
Ġslow ed
Ġdecl ared
Ġd ot
Ġexam ining
or ter
el ope
ĠB ow
Ġoppos ite
Ġcharacter s
C laire
il ities
Ġfa iled
ĠQuack ers
Ġtid ied
Ġtrans f
Ġgrand father
ac y
Ġwarri or
Ġforgiven ess
Ġstern ly
Ġgood ies
Ġguess ing
Ġlip stick
Ġpe ep
Ġyoung est
Ġscratch ing
Le ave
Ġseagull s
C ar
m ies
re st
Ġinch worm
ĠR os
Ġbeep ed
em pt
Ġmeow ing
ri an
St ay
Ġresc uing
Ann e
Ġthan king
Ġquestion ed
ĠH old
Ġatt empt
Ġscram bled
ri e
ĠYou Ã¢
Ġgr at
Ġdri pping
Ġb ou
ĠS plash
Ġtire s
ĠKe vin
Ġbou qu
e ven
Ġact ive
Ġst all
Ġfor m
Ġanticip ation
r ily
ĠM aisy
Ġpicnic s
Ġni bble
Al ways
Ġais le
Ġbl ond
Ġfloor s
Ġrespond ed
Ġresponsib ility
ĠS w
Ġsh in
Ġsm ashed
Ġattack ed
Ġmate y
L ena
Ġfor ce
iv ia
Ġexplain s
ĠE lly
Ġknock ing
Ġemer ged
Tweet ie
Ġobey ed
Ġdiscover ies
Ġgrat itude
Ġt ing
Ġin ter
Ġju d
Ġvi br
c ie
Ġre ly
Ġr ays
Ġzoom s
Ġdecor ation
ĠM ina
Ġman ners
Ġch arge
Ġclass mates
Tw o
Ġspr out
Ġs ens
Ġsn ug
Ġvisit s
Ġs igning
in nie
Ġsp y
Åĵ Who
Ġaeropl anes
Ġso ot
Ġgirl Ã¢
Ġtwist s
Ġsurv ive
eb ecca
y l
Ġve gg
Ġinst antly
m unk
and a
Jul ie
ipp ers
Ġlo c
Ġwigg ly
Ġse als
Ġsel f
Ġbreath s
Ġunw ra
Ġr amp
Ġr umbling
ĠEll e
h ind
a ct
ĠL ion
Ġbuck led
Ġbright est
Ġhe n
Ġshr unk
J e
Ġm unched
Ġbo nd
Ġbee h
Ġincre asing
s m
Ġsh immering
ath an
Ġpur rs
Ġmanag er
id ence
Ġdoor bell
Ġflap s
Ġearn ed
Ġchat ter
g ain
C indy
B ang
o c
oo king
ĠW oo
Some one
ch ing
Ġmove ments
Ġlow ered
ud ged
Ġsway ing
i ens
ĠJane y
itt ered
Ġal iens
Ġhon king
Ġcrack s
Fr eddy
Ġargum ent
ĠJ ax
ss ss
Ġchip munk
Ġdiso bey
ing er
Ġwho ever
Ġwind ing
R ob
rom ise
ĠL uc
Ġann ounced
umm ies
ĠSp eedy
Ġprevent ed
Ġbe aver
ĠJo an
Åĵ Good
ĠK elly
Ġr owed
ĠM ae
it s
Ġsw itched
Ġbat hing
l ied
Ġmosquito es
ĠMad dy
Ġtap ed
ĠT aking
st orm
R ed
b elle
Ġpo ses
os cope
Ġoffer ing
Ġsw ap
ĠSt itch
ĠJon ny
Ġnuzz led
Ġcon s
Ġprick ly
are t
fl owers
Ġsway ed
Ġst eth
Ġfl ips
ĠSt an
Ġdestro ying
Ġla pt
Ġdes igning
Ġmind s
Ġcare s
be e
Ġbad ger
Let Ã¢
Ġjob s
Ġdod ged
Ġgl immering
Ġrat s
Ġcrawl s
J essie
Ġwhist les
l o
Ġsm elt
Un cle
Ġcr ops
r ink
Ġbeauti fully
Ġobser ving
Ġdan gers
y d
Ġbe ating
Ġsh ines
Ġexplo ded
ĠBe cky
Ġkn ives
Ġmill ion
Ġscold s
Ġcheck out
Ġscoot ers
Ġstamp ed
Ġsnap s
ang le
Ġcustom er
ĠSp ring
Ġgener osity
lp h
Ġgro an
Ġde ed
Ġlangu ages
bo ards
Ġger ms
o or
Ġrec order
Ġh ike
Ġhonest y
Ġt ummies
Ġsteth oscope
Ġrobb ers
Ġclos ing
Ġpadd ling
Ġcoc oon
l t
ĠA r
Ġdrown ed
Ġha ven
Ġpl ug
Ġcl icked
Mom ma
Ġexpect ing
ab ra
ĠRe ady
Ġlapt op
er ing
ĠFin ny
O ut
ĠTr ust
B uddy
ĠRu dy
Ġrout ine
A bby
am ma
Ġsupp lied
Ġastronaut s
ĠS k
Ġexpl or
Ġdisappoin t
Ġvegg ies
Ġcour t
u lp
l or
oo sh
ĠSpark le
Ġde ars
Ġsteer ing
C o
ot ch
Ġtidy ing
Ġadd s
Ġcond uct
Ġbouqu et
ĠB ongo
Ġbeeh ive
Ġ ill
le st
Ġsc ulp
Ġunpack ing
Ġnovel s
ĠT ime
Åĵ Maybe
ara ble
Ġcup cake
ĠPo or
B ear
Ch oo
ĠB ad
Ġstat ues
Ġt in
it a
ĠS weet
udd les
Ġchat ted
Ġparticular ly
Ġremind s
ud o
p it
y ler
udo lph
ĠP hil
Ġshort s
N ice
Ġhard est
Ġca w
T oo
ĠE ddie
Ġstret ches
Ġappl ause
Ġhealth ier
r up
w ater
Ġwis er
Ġfloat s
H oney
Ġghost s
Ġconduct or
ĠDon Ã¢
A rrr
Ġstr um
ĠIs n
Ro bbie
Ġhe aven
Ġaw ful
Ġdoll ar
Ġpl ugged
ĠK ay
pr il
ĠT ammy
Ġwild flowers
ĠEls ie
Ġsc ri
Ġele ct
ĠC la
ident s
id night
Ġtr aded
Ġover head
ll as
Ġsqu ished
Ġwhat Ã¢
Ġcomb ed
Ġcar ries
ĠMom ma
Ġnest s
Ġopin ions
ĠRob o
ĠEls a
e aring
Ġsy rup
Ġf aint
Ġfascin ating
an ced
Ġsw allow
ĠJe an
Ġexperien ces
K aren
Ġspray s
Ġbe ast
au la
Ġumbre llas
om b
Ġcontain er
Ġ ouch
Ġk illed
Ġreturn ing
Ġbother ed
elie ve
at ive
r ough
Ġg all
ĠA va
Ġlo cks
Ġprov iding
f ive
ĠA manda
Ġset s
Ġflas hing
Ġsh orter
Ġex amp
Åĵ Ok
ĠRo ger
Ġsculp ture
Ġfl ashed
ch y
Ġche cks
Ġweap ons
ren ch
M art
ou raged
Yes terday
Ġte les
Ġte aring
Ġboun ces
or king
Ġhot ter
Ġtest s
ord inary
ĠCra bby
Ġdefe ated
S now
Ġpap a
Ġin ches
Ġgr umbled
Ġgl ided
Ġfarm ers
Ġsprink le
ĠN ever
Ġnight s
Ġscr ub
Ġfa ith
ĠCh arlotte
cc idents
T illy
ĠZ oomy
ĠDan iel
Ġbur nt
cent r
at ors
ĠS asha
Ġcon v
Ġteles cope
Ġsadd er
A unt
i ving
Åĵ Be
Ġcon centr
Ġtrust ing
Ġapplaud ing
Ġconf idence
ook s
Ġtw enty
Ġser ving
Ġelect ric
M on
Ġhis s
Ġconv ince
P apa
c ar
ess ion
ĠC le
Ġgarden s
Ġche ated
Ġ icing
end ed
l ers
âĤ¬ Â
Ġblue bird
Ġneck s
Ġburn s
Ġaw hile
Ġcryst als
B uzz
le phant
ĠHe len
ĠN ancy
ĠPat ty
Ġinse p
Ġcub s
Ġvisit or
ĠPe ppa
âĤ¬Â ¦
ĠS ay
Ġpet ting
Ġteam s
v y
Ġra ising
C he
Ġcollap sed
an ces
Ġcheck ing
Ġextra ordinary
K ids
Ġinsep arable
P l
P ut
Ġbl own
Ġdry er
Ġg oo
Ġforg ives
Ġsiren s
F riend
ĠCh ick
Ġty pes
Ġmunch ing
Ġsoap y
Ġmem ber
Ġexamp le
Ġb orn
Ġo dd
ĠA na
Ġgrass ho
Ġimag inary
Ġinstrum ent
Ġb iscuit
Ġn atur
Ġbehavi our
Ġpriz es
Ġplay d
ĠL ina
b u
Ġmeow s
J on
ri ck
Ġsing ers
Ġwa ded
Ġbicy cles
v al
ĠZ ero
Br own
E ach
Ġk it
Ġmom Ã¢
Ġcomp an
B u
ĠB ang
ĠE ric
sh aped
Ġspr ang
Ġwater s
ĠR udolph
Ġfl ick
Ġsal on
Ġpeep ed
Ġup side
Ġdo ck
Ġl im
ĠT erry
Ġfl ip
ĠF airy
Ġopport unity
ad abra
Ġatt itude
Ġexplor ation
Ġin vent
ĠI zzy
Ġtrave ling
ĠAsh ley
B oys
ow ing
Ġlong est
Ġconqu ered
L iz
Ġunl o
Ġexpress ion
Ġdistract ed
Ġh ood
ad ually
Ġsand y
b l
Ġbr ide
Ġreal izes
ĠG ary
Ġhunt ing
Ġcheap er
c adabra
Ġdeser ved
Ġ Ġ
Ġen em
Ġflow ing
Ġenem ies
Ġf et
Ġun able
Ġwrigg led
Ġtr igger
Ġpill s
Ġcoo lest
Ġsweat ers
Ġmom mies
ĠW illiam
ĠFrank ie
Ġfl ock
Ġeng ines
ĠA nt
Ġenvel opes
get ic
ĠL a
Ġotter s
ĠM agic
ĠP retty
Ġb omb
st r
Ġgu lp
Ġclear ly
ĠF el
Ġdisc ouraged
Ġbur ger
Ġrow s
ĠS mo
Ġswim mer
f ree
Ġwh ales
Su zy
whe l
Ġcl ip
Ġcomp ete
Ġreapp eared
er g
Ġchat ting
Ġ 5
Ġt ips
ou ched
Ġgrassho pper
Ġcount ries
Ġpass es
Ġgl ittered
Ġquack ing
end ing
Ġsomet ime
Ġrob in
j est
Ġth ump
ap tain
Ġover whel
o ver
Ġun co
ball s
Ġtor to
ic ate
Ġab ility
ĠD e
Ġpat ches
Ġannoy ing
o ff
Ġmatter ed
ĠSt ep
Ġspill ing
Ġdet ails
J acob
ĠM other
Ġenjoy able
Ġstrip s
ĠWoo ly
ing o
sh ip
ĠJ illy
Ġtorto ise
Ġcomm on
Ġfo nd
Ġcrowd ed
Ġwh ined
ĠM ake
Ġche at
Ġsince re
ĠAm ber
Ġgall op
it er
Ġtre as
Ġthick er
Ġrelax ing
Ġuniform s
Ġappro ach
Ġdo z
Ġsound ly
Ġsure ly
ĠZ ack
Ġyawn ing
Ġcompan ion
Ġcheer fully
Ġhang ers
ĠIm mediately
Ġmark ing
Ġcur l
O l
ĠSh ow
ĠEl iza
o ard
Wh iskers
st and
Ġsk ies
io let
ĠPr ince
ĠPen elope
ĠW igg
ĠC r
ĠC urious
Ġpro d
K ayla
Ġst ur
Ġfor med
Ġca fe
ĠOl ivia
ĠTess a
Ġbec omes
ĠN ana
Ġwhis k
Ġnatur al
G ina
ĠJ ason
Ġoutfit s
Ke ep
Ġwas hes
Ġbeet les
Ġtreas ured
Ġnot icing
ĠBo bbie
in ts
Ġj ugg
Ġab oard
Ġbu bbly
ĠN ice
Ġvibr ant
Ġrepair man
Ġsque aky
Ġairpl anes
O llie
b ur
Ġmo at
G r
ĠSpark les
Ġwe ighing
el vet
Ġmoon light
Ġsh allow
sh adow
ĠA ccidents
ĠMat ilda
asm ine
Ġback s
igg ie
Ġhaircut s
Ġmel ody
Ġch in
ugg y
Ġha b
In stead
Ġple as
ĠAng el
o le
ĠP ick
Ġswirl s
H old
Ġ Yum
ĠBut ter
Ġstorm s
Ġnewspap ers
Mat t
Ġch ill
Ġbu nd
Ġcomm un
Ġmug s
Ġhum med
Ġfreez ing
Ġblond e
and ra
Ġsn eezes
ho le
Ġmir acle
Ġer ase
ĠFo xy
Ġcowb oys
h ny
Ġde v
Ġmess es
fa ction
Ġpepper oni
ĠS ir
ĠD ino
ĠR ebecca
ĠTw inkle
F eeling
Ġsatis faction
Ġl ump
Ġcompl iment
Ġcal mer
Åĵ Yay
Ġsqu inted
ĠV room
ĠB onnie
ight y
end ant
ĠP in
Ġscatter ing
Ġbl ushed
B ig
Ġs ipped
Ġcl ue
ven ir
Ġsuccess fully
ĠFl ora
L ulu
ĠS e
ĠB rian
ro ll
Ġlea king
Ġsitu ations
Ġsou venir
Ġoccas ion
Ġjoy fully
Ġcoug hed
ĠShe lly
Ġmod els
Ġposit ive
' ,
B oth
ĠM idnight
ĠW o
Any time
Ġglitter y
w are
Ġmeat balls
H op
Ġsmart est
Ġbru ises
Z oom
im mered
Ġy umm
ĠG us
Ġweigh s
Ġan k
Ġexplain ing
Ġscen ery
ĠQuick ly
Ġloc al
Ġanswer ing
Ġtick ling
ĠWho ever
L uke
b ank
am il
if t
ĠGra nd
Z oe
ĠR icky
Ġsnow y
ĠO ink
Ġscare s
Ġunf air
Ġbur gers
Ġre wards
Ġpress ing
L izzy
Ġtal ents
Ġpinch ing
Ġsh attered
Ġwelc oming
amb oo
Bet ty
N ever
ĠHe llo
etch up
Ġposs ib
s ie
ĠS ky
Ġbulb s
Ġte ap
Ġreward ing
Ġhis ses
Ġclean s
b elt
Ġro ast
ĠJen n
Ġrubb ish
H mm
Ġb ound
Ġpant ry
il i
Bet sy
H E
Ġsc ow
is p
Ġrow ing
Ġtrap s
Ġpract ised
Ġcrocod iles
y le
ĠSt ri
Ġbin oc
Ġdig s
ĠSee ing
Ġteap ot
Ġint ently
Ġfor ts
sp e
Ġstur dy
sc otch
Brown ie
Ġmind ed
Ġgroan ed
ĠN e
ĠR ight
Ġpil ots
ĠPe ggy
ĠP et
ĠZ ee
Ġcell s
Ġmarve led
M abel
Ġre bu
Ġball er
C at
S usan
Ġto pp
ĠC ara
be ep
Ġseat belt
Ġtempt ed
se y
ĠR ich
ic ious
Ġhor ri
ĠT yler
ĠH o
T ara
Ġp ipes
Ġstuff ing
Ġang rily
amil iar
Ġk etchup
Ġfin ishes
Ġsand pit
Ġtun es
Ġapolog y
Ġbend s
Ġunf amiliar
ĠPl aying
a i
Ġfun n
Ġsmo king
ĠBe hind
Ġmic row
Ġbu bbling
Ġdoor step
Ġfire flies
Ġcro aked
m el
ĠB oo
Ġinv ites
ĠSt ill
B o
Ġtent acles
j ack
Ġgood ness
Ġlook out
Ġmeadow s
Ġener getic
ĠG ray
Ġmicrow ave
ĠB ess
Ġrun ner
! '.
ac ock
Ġsweet er
Ġt ugging
Ġcl ut
Ġshy ly
O pen
Ġemb ra
Ġchew s
ÅĵWe Ã¢
Ġspoil ing
Ah oy
Ġexch ange
ĠB elle
if i
u dy
Ġact s
Ġmess ages
Ġc ages
Ġste pping
Ġshr ank
ĠMel issa
l ish
r upt
ĠA pril
Ġwater mel
Ġstro lled
Ġoverwhel med
ĠS ince
Ġr ipp
Ġwe Ã¢
Ġmo ons
ump er
Ġl ar
Ġbo ards
Ġsl apping
Ġche ating
Ġprotect ion
F ro
Ġhesit ation
Je ff
A choo
Ġcaterpill ars
Ġcr isp
Ġj ets
ul ars
Ġob st
Ġgasp s
Ġdefe at
Ġl ull
Ġd ou
Ġcho pping
ĠV elvet
Ġinj u
B ee
ĠS uper
ĠSt artled
Ġpops ic
Ġ Oh
ot ion
sc ar
Ġconn ect
Ġf ade
ĠW illy
ĠC aptain
Ġunder water
Ġmel ons
Ġfo am
Ġast on
Ġbinoc ulars
Ġplay house
Ġall ey
ĠDo es
Ġdemand ing
Ġcertain ly
h ow
ĠAnd rew
k a
Ġ 4
Ġp ouch
ĠM oo
Ġs ection
Ġshare s
Ġcr ouched
Ġballer ina
Ġcher ish
Ġslither ed
Ġmon th
Ġfish y
ĠB ra
ra cadabra
Ġloyal ty
Ġb amboo
ĠL ooking
Ġdifferent ly
L izzie
ch ief
Ġgu ards
ĠBun Bun
Ġp ounced
Ġhop scotch
Ġr ips
ĠĊ Ċ
Ġpe acock
Ġtransf ormed
Ġre cess
ant ed
Ġmean ing
ĠCar la
Ġdisappoint ment
ĠT iger
Ġf ist
Ġriver bank
ic iest
Ġpro g
Ġunwra pped
D anger
Ġsqu eezes
Every day
Ġ icky
Ġland ing
Not hing
ĠLi am
Ġplayd ate
Ġr ack
ĠJo dy
Ġstore s
St ill
Ġcoo p
Ġank le
Ġpo kes
Ġra king
Ġsweet ly
Ġf ries
all ed
ĠO f
Ġcher ished
Ġer upt
Ġnightmare s
ĠE lephant
Ġam used
cy cles
ĠCh oo
Ġwhimp ered
o ss
Ġar rest
Ġn apped
Ġth ie
ir ing
ĠW in
ĠL ight
Ġsnort ed
sol ut
, '
r um
Ġthr ill
ĠN ora
ĠGra cie
Ġbird y
M ilo
ĠC andy
Ġteam work
Ġjud ges
L ia
ĠW ait
ĠWe Ã¢
ĠMon key
Su zie
Ġa ctor
ĠCla us
ĠS leep
ĠB ert
get s
ul f
Ġcricket s
ed ic
ĠB a
Ġbl ades
re nt
Åĵ How
Ġma jest
ĠR at
Ġthunder storm
Ġmay or
Ġcent re
P ip
Ġsho el
u se
Ġg ates
ĠB arry
ĠP er
Ġtick les
Ġinj ured
Ġwatermel on
Ġsa cks
ĠW he
Ġmyster ies
Ġgroup s
Ġthie ves
M other
R alph
Ġsty les
M oo
e my
Ġsn apping
ĠA gain
ro b
oth y
Ġmill er
Ġlumber jack
May a
Ġr oo
Ġste w
Ġlean s
ĠHoot ie
R a
Ġcream s
Ġtempt ation
Ġt ant
Åĵ A
Jul ia
is dom
ust er
Ġbo il
Ġen emy
Ġkey hole
Ġcond ition
ĠS l
Every thing
Ġintellig ence
Ġstructure s
Ġchoo sing
u ess
Ġsp are
Ġfrustr ation
t hat
ĠSh are
Ġhundred s
Ġd ing
Ġch arm
H urry
ter n
Ġru ff
Mad die
uct ion
Ġscen e
Ġwh ir
ĠRu fus
Mad dy
in ct
Ġaunt ie
amb i
hing s
Ġhe els
ĠJen nie
Ġseas ons
Ġbang ing
ig e
Ġswimsuit s
Ġsleep s
Ġsupport ing
ic est
our ed
ĠJo anna
Ġben ches
ĠM ine
Ġweak er
Ġcomput ers
Ġtant rum
B aa
Ġrebu ild
Ġle vel
Ġle vers
Ġtexture s
st antly
ĠL enny
Ġcommun icate
s ers
Ġb as
Ġn icest
Ġtr ading
ĠSun shine
Ġhis sing
un o
ly n
Ġbo ld
ĠBe ep
Ġwigg ling
spe ople
Ġtown speople
Ġelectric ity
Ġluck iest
Ġtim id
Ġshin ier
Ġl ush
Ġalong side
ĠBr uce
Ġd art
Ġpl o
Ġcl aw
Ġspe ars
Ġtrust y
Ġcam el
Ġexper iment
Wh ich
g ar
Ġst un
ĠAnna belle
ĠF ly
Ġwarm ed
Ġto t
re g
ĠC are
Ġgl isten
Ġtrust s
Ġpedal ing
Ġpr ank
Ġsoft ened
Ġthumb s
ĠLiz a
Ġh udd
ĠL ife
ere my
Ġmagnif ying
ĠRos a
u nder
Ġquarre led
p ect
Ġkneel ing
Ġmoo ed
T HE
ĠD ot
Ġfo ggy
Ġwh ine
Ġtooth brush
Ġrever sing
pr ints
Ġdisapp earing
ĠGo ld
Ġcop s
ĠM an
Ġsk irts
ĠV ery
Ġaston ished
Ġd a
Ġhar vest
C urious
ĠAn other
" !
P retty
m ie
ĠT e
ĠT ears
Ġwor st
ĠO uch
Ġguard ing
Ġknob s
Ex citedly
Ġbo iling
ĠL ots
Ġwr iter
orm ation
Mike y
Ġcons ider
Ġg room
Ġtop s
solut ely
Jack y
Ġfet ched
J an
Ġy elp
ĠF ish
Ġcontin uing
Ġcomp ared
N ick
ais ie
Ġba a
Ġconcer ned
c at
ra p
Ġmotor cycles
F ortunately
T ry
Ġold est
Ġun less
Ġcre ep
ĠT ree
Ġmagic ally
ĠOl iver
Ã ĥ
Ġreveal ing
Ġbow ing
Ġimpro ving
Ġsens ation
Åĵ Thanks
Ġkangaroo s
L inda
P r
i al
Ġcan v
Ġcup boards
Ġlull aby
b arrow
ĠH ar
Ġwheel barrow
Ġcudd ling
gu ard
ĠH urry
al a
Ġpe ak
Ġdoesn Ã¢
ĠPe ep
ĠChick ie
ot o
Ġown s
Ġbus hy
Ġpoison ous
k er
w en
ĠT re
ĠW as
Ġpo pping
ĠM ighty
Ġembarrass ing
ag ine
Ġbra ins
Ġcool ed
Ġjourney s
Ġw rench
Ġdisag re
Ġsoot hing
o st
Ġwh irl
in ny
om p
ur ity
Ġal oud
Ġguard ian
ĠW oof
Ġbl ade
Ġsho ots
Ġdry ing
ĠOut side
Ab racadabra
D eal
S lowly
w ell
Ġn arrow
ĠS al
Ġreal ise
ib ly
Ġsh h
Ġsneak s
Ġallow ing
Ġt roll
if er
Ġinvit ations
Ġa rom
Ġcoug hing
ĠF ifi
Åĵ Welcome
ĠM a
ĠMart in
ĠBird ie
Ġfa cing
Ġcourage ous
ik y
Ġcanv as
Ġfact s
ver ing
Ġall erg
ĠWhat Ã¢
Do es
ĠFel ix
Ġlar ger
og o
Ġmind ful
Pe ople
Ġd ashed
Ġdeep ly
Ġcrack er
cut ter
Ġsled s
Ġheav ily
Jess ica
Ġbu d
Ġmust ered
ĠLe ah
Ġpupp ets
Ġdis aster
Ġang rier
Ġneare r
ĠEx citedly
Ġs us
ĠA lf
ĠE d
Ġ- -
Ġcur rent
m ark
Ġso bbing
Ġwh oosh
Ġbloom s
Ġqu ilt
Ġcost s
Ġhonk s
S ophia
Re my
Ġinst inct
M ichael
ing ing
ĠB ambi
Ġdri p
ĠAfter wards
Ġcap s
J une
Ġkn it
Ġfore shadow
Jack ie
Ġmed als
Ġcous ins
Ġho llow
Ġcomple ting
ĠR iley
Ġcirc led
Ġshrug s
ĠE ver
Ġreal izing
Ġzip s
Ġproper ty
S unny
ĠB oun
Ġrepeat s
Ġscoop s
T iny
Ġh ips
Ġloud est
Ġthr one
Ġcontent ed
ĠI ce
Ġmo ld
Ġwo lves
Ġwarm est
Ġhang s
Ġrepair ing
Ġflas hes
Ġwh ipped
Ġdep art
as hes
Ġcop ied
Ġattempt s
Ġt ill
ell ing
ĠL u
Ġla va
Ġsk ate
Ġsec urity
Ġcoo perate
Ġliz ards
ĠMon a
Ġplo pped
L ou
Ġne cess
Ġop t
th is
ĠR avi
Ġ' '
col ored
ĠWil bur
Snow y
Ġwa king
an tern
Ġwind s
s a
Ġwood cutter
c ri
ĠM ath
Ġsp iky
Ġpo se
Ġsoon er
ĠG abby
Ġcut ter
Ġharm ony
Ex cited
Ġhe Ã¢
ĠCh uck
Ġachieve ment
Ġpres chool
Ġfoot prints
Ġflood ed
Ġdoz ed
ĠBr ad
Ġallow ance
Åĵ There
Ġgl ared
Ġfight s
Ġkay aking
Ġrail s
Ġpleas ant
Ġhudd led
Ġlunch time
Ġcal ming
Out side
Ġthe at
Ġman Ã¢
Ġincred ibly
Ġisn Ã¢
u ppy
Ġju iciest
Ġmind ing
ĠD eal
Ġta le
Åĵ OK
Ġtick ing
rr rr
Ġhoo ves
bb i
Ġbuild er
J anie
ĠTom orrow
em on
Ġgrate fully
J ump
t led
Ġc ig
Ġother wise
Åĵ Would
Ġperf or
Ġdisagre ement
Ġarom a
P am
per ately
ĠRain bow
Ġsw apped
Ġhat ched
Ġbell ies
Ġserious ly
Ġglisten ing
Ġj ing
Ġstro kes
Ġp urch
Ġbo oth
ĠC D
ĠC ook
Ġmove ment
rey a
Ġso da
ĠB uggy
Ġsh ave
Ġspring ing
ĠPe anut
Ġspeak s
F ire
ĠM ila
Ġro be
Ġgr ump
Ġchallen ges
Ġcig aret
ĠP aula
ĠIs ab
Ġtheat re
c us
Ġab solutely
Ġlife guard
Ġquack s
Ġweb s
h and
ĠD ay
ĠZ iggy
Ġhab it
Ġpossib ilities
p an
Ġload s
Ġinter rupt
Ġen ch
Ġadm it
Ġocean s
ic s
Ġpersist ence
im ents
Ġst alk
ss y
Ġgl anced
gg les
Sp ike
Ġsniff led
Jen na
on ed
Ġowl s
Dave y
ĠJ asmine
ĠJo se
Ġlast ed
Ġcap ture
Ġbump ing
Ġda ily
On ly
Ġex h
ber ry
Ġbat s
ic ent
ĠC ould
Ġsque al
Ġle ver
Ġmusician s
ĠJan et
s itter
Ġbat hed
Ġsus p
c r
Ġbl amed
ĠAll ie
Ġsmooth ly
ĠPat rick
Ġgo ggles
Ġho ot
Ġrin se
Mart ha
ĠSmo ke
ick ing
Ġstir s
ĠK en
Ġspring time
Ġimagination s
O oh
ĠH ug
Ġpo llen
ĠG inger
Ġdes perately
ian a
ĠYes terday
ĠD ra
us hes
Ġover fl
ĠTh rough
ĠO ver
Ġcaut ion
ap s
ap er
ĠJack Ã¢
Ġra cer
Ġflo ppy
ĠSt even
Ġdesk s
ĠRat ty
Ġstain s
Ġunco vered
Ġdo lly
Ġdec iding
ĠO scar
Ġnet s
Ġmesmer ised
Ġpassen ger
Ġpound s
j ust
og a
Ġspeak er
Al ong
Åĵ Are
Ġwra pper
Ġstack ing
Ġhook s
Ġfold s
Ch irp
Ġprog ress
Ġro amed
Ġpri v
Ġnecess ary
Ġch ili
Ġmess ed
Ġpro cess
m ate
Ġwa x
Ġf ulf
Ġcut est
Ġpil ed
Ġrecommend ation
Ġintroduc ing
Ġpark s
Ġhat ch
Ġener g
ĠM s
Ġvine gar
B ird
on est
Ġtr im
Ġdes perate
Ġcoo ed
Ġfool ed
Ġdisobey ed
ĠHo pper
Ġobedient ly
Ġamong st
er ts
on ut
ĠD uring
Ġpe cks
Ġbaby sitter
Ġant en
Ġmap s
Ġund one
Al though
Ye ars
S imon
Ġch amp
Ġkind er
Ġyumm iest
an i
Ġho vering
Ġcon fus
ĠTh umper
Ġchain s
Ġshoo ed
Ġconfus ion
r ons
Ġho ses
ĠO ff
Ġkiss ing
Ġdess erts
Ġmagnif icent
D olly
b ed
ic ally
ast e
Sam antha
Ġap rons
Ġpur ring
Ġallerg ic
Ġd edic
Ġclub s
Ġgulp ed
Ġd ate
Ġla ces
Ġallig ators
Ġdifferen ces
Ġwid ely
Ġcoc onut
M el
is bee
Ġham ster
Ġsle igh
Ġhadn Ã¢
Ġinstinct s
um ed
keep ers
L arry
Ġwa nna
Ġsw at
ĠT oto
ĠPin chy
a ith
m ers
Ġgreat est
ĠThank fully
Ġchar ged
Co co
Ġbund le
Ġexh ib
Ġc uc
Ġr ic
Ġunt angle
ĠMar ley
ĠLi bby
Ġsc ut
Ġun z
Ġrin sed
ĠM amma
Ġcomp romise
Ġscratch y
sh irt
Ġrefle ct
Ġsilent ly
Ġostri ches
Ġcomet s
C arl
ark y
Ġroll er
ĠJo die
Is n
Ġnibb ling
ell ow
Ġvalley s
Ġbo lt
Ġar my
Ġdog gie
Ġlunch box
Ġcloth s
s he
ĠJ ump
Ġag es
Ġhead ache
Ġdr ill
Ġperform ers
Ġtempt ing
Ġdep ths
Ġdo ves
Ġborrow ing
f orm
Ġha lves
am ing
Ġbl ur
Ġsn oring
Ġglad ly
Ġfil es
Ġcraft s
Ġcre ak
Ġsquir ted
ĠT ra
ĠP ink
Ġrock y
Ġba it
Ch ris
yd ia
M ina
Ġlearn er
ĠB uster
Ġmust n
ĠPat ches
Ġli f
Ġke en
us y
ĠG emma
ĠFl utter
ĠWh ich
Ġhipp os
Ġunf old
o ors
Ġl il
Ġg ummy
Ġsl urp
ace y
Ġind oors
Ġchallen ged
ĠOther wise
ĠS itting
Ġr iddle
ĠC athy
Ġconfident ly
id i
Ġhand y
Ġcro ak
Sad ie
Ġcl uck
Ġgr adually
Ġpizz as
g r
Ġsc re
Ġtown s
? !
l os
o f
Ġro yal
and el
Ġrot ted
Ġgoo ey
uff in
B less
imb o
ĠB er
ĠM oon
Ġsoft est
Ġdet ect
ĠWo lf
A w
ĠK yle
Ġlaw s
Ġshoel aces
ĠJo sie
Ġesc ap
I m
r ings
Ġst ings
Ġbl oss
ĠV iolet
Ġappear ance
Ġgallop ed
Ġtopp ings
e or
ĠB ooks
ĠJ es
ous y
ĠBr uno
ĠS ummer
or se
ĠCh ar
Ġflav our
ĠLight ning
Ġt iring
Åĵ Will
b el
ĠH i
Ġste ered
Ġsend s
O O
z ing
A bbie
Ġs inking
Ġas s
ĠR ita
Ġtast iest
Frank ie
C are
Ġunicorn s
Ġech o
ongratul ations
f ived
Ġover he
Ġenjoy s
ĠN ate
R ain
in ner
Ġenc los
Ġfre ely
Ġenclos ure
ĠJon athan
Pl aying
L ucky
Ġsc ience
ĠE r
Ġho st
ĠC olin
Ġpeaceful ness
ĠCle an
Ġboy Ã¢
Åĵ S
izz a
Ġscru bbing
L aura
Ġbo iled
Ġho vered
Ġglo be
Ġrout e
G uess
Ġha re
Ġsp arrow
Ġcr ushed
Ġautomob iles
w hy
R ight
h h
Ġn iece
Ġbra kes
ĠDo ctor
Ġcart on
Ġpeck ing
Ġroo ster
g ood
ĠT hings
al ity
arn ing
Ġhat es
Ġear rings
Ġscr unched
Ġguess es
Ġg orge
Ġrisk y
Ġoccas ions
Ġm ashed
Mom o
Ġbeep ing
ĠAl an
a ly
Ġl ur
Ġd umb
ĠM innie
Ġfl uff
Ġstack s
Ġlil ies
ĠA very
Ġle aped
ĠF ortunately
Ġlight ly
Ra bbit
k i
Ġwh izz
cl oth
Ġas hes
Ġgo d
Ġma car
Ġfu ss
um n
Ġfa il
Ġhun ger
Ġdust ed
ĠCar ol
Ġsnugg ling
Ġpl umber
Ġrest oring
Ġwin ners
Ġpound ing
ĠStan ley
el ve
Ġsw oop
Ġfeather ed
Ġorgan ised
Ġtap s
Ġfashion able
Ġst inky
Ġgorge ous
Ġrid er
Ġdeser ves
ĠPl ay
Ġmacar oni
ĠN ell
Ġdri pped
Ġshort cut
ĠCare fully
G us
Ġlon el
Ġregular ly
ce ll
ĠG irl
St artled
Ġstroll er
Jon ny
Ġdepart ment
ĠT oo
Ġwh ines
Ġsoft ness
Ġhalf way
Ġenthusiastic ally
Ġwhisk ers
at form
Ġsc ores
Ġcare free
urp le
Ġbuild ers
Ġtent s
b s
c an
ĠT ell
ĠU se
Ġvent ure
en g
Ġpl atform
Ġsl ight
Ġhelicopter s
Ġhorri ble
l ook
Ġhandle b
c he
w orking
Åĵ Mummy
ĠR ia
Ġpeek s
Ġwo ken
Ġlisten er
Ġpet al
Ġdes cri
ud rey
ĠSk ip
E l
ĠR es
ĠK ids
Ġmis chief
ĠRob in
ĠBoun cy
L una
b ly
Ġbright ened
Ġgu ided
Ġfan c
Ġorder ing
Ġs uck
Ġl eng
Åĵ Go
St ella
Ġm ur
Ġn ug
an ish
Ġsh aky
Ġfan s
hnn ie
Ġrag s
Ġladyb ird
Ġsnowfl ake
k ind
Ġl antern
Ġn ations
ĠRa ven
a ving
ĠM ac
Ġro ds
Ġnight stand
Ġph ones
Ġdi ves
asp er
Ġmajest ic
Ġhand les
cream s
Ġsh ots
ur render
ĠF reya
ort h
Ġac cess
Ġzoo keepers
Ġinf ormation
Ġpearl s
ĠLuc as
Ġscow led
Ġinv ol
Ġfu rious
Ro bert
Ġa id
ill as
Ġcar n
ine ma
Ġmat s
is ible
ĠF ind
Ġunlock ing
nd ed
ĠG wen
Ġhoney com
ay lor
ĠW isdom
Ġcomm unity
Ġactor s
ĠS andra
et ah
ĠB ug
Ġdisplay ing
Ġexerc ising
Ġoverhe ard
Ġsl ot
ĠG ogo
Ġright ful
Ġinv isible
Ġdev ast
ĠJenn ifer
f ield
Ġc inema
ĠJ eremy
ous ly
It Ã¢
Ġsweet ness
or ious
ĠM ir
ĠM aisie
ĠJ elly
Ġtong ues
ĠEx cited
oor ay
cell ent
b ook
ĠO lly
Ġsquaw k
p s
Â ©
ar on
ĠF eeling
Ġtw elve
Ġche etah
Ġpro ved
Ġpra ise
Ġn udged
ĠW ow
ĠR usty
Ġpalm s
Ġsou l
ssss ssss
ĠW ant
ĠIn stantly
Ġboard ed
Ġp oop
ĠT oys
Ġst ate
Ġlight ing
ĠBl ack
Ġbeak s
Ġheight s
' ."
S n
t ock
Ġglow s
r it
Ġf ences
Ġm ound
Ġr ibbit
ĠB iggie
Ġcompet ing
ĠC ro
Ġcont ained
Ġdevast ated
Ġunt angled
Ġdedic ation
Ġm end
Ġstri king
Ġpant ing
Ġdin ing
Ġca ves
Ġfright ening
ĠGr umpy
cl ock
Ġcompliment ed
E njoy
Ġt end
Ġd amp
âĤ¬âĦ¢ .
ĠN ature
Ġpad s
Ġenter ing
Ġfunn iest
Ġla kes
Ġany body
Ġench anted
Ġat mo
urt le
ĠP uddles
sh op
sp here
Ġposs ess
Ġatmo sphere
ĠF aith
ret a
Ġpe els
ĠSt e
Ġservant s
Ġchamp ion
Ġg le
oo h
ous el
Ġoff ers
ear l
Ġfart hest
Ġchoo ses
Gr anny
Ġsh immered
Ġex ist
Ġvalu es
S weet
d ers
ĠA pp
Ġvo l
Ġthread s
Ġtrail er
Ġduck lings
Ġser vice
Ġsol id
Ġbat ch
Ġmush y
Ġca f
Ġpri est
With out
Ġnug gets
J azz
Ġtot ally
Ġcarn ival
u dge
Ġp airs
Ġsp ice
ĠP a
Ġpan cake
ĠAm i
Ġmanag ing
Ġb lend
Ġfarm s
gg ie
Ġfierce ly
s orry
re m
Ġback ward
Ġcrisp y
I ce
M ae
r idge
Ġcar ousel
ĠE ve
Ġsle eve
Ġd ips
se ed
ĠP anda
Ġtank s
Ġgor illas
T ess
Ġp ace
Ġr umbled
Ġpres ence
ĠRo ar
Ġweight s
D r
ing ly
Ġde ck
Ġwhe ther
Ġant lers
Ġvac u
Ġbless ed
Ġsquaw ked
t ured
w ood
Ġpl ank
as y
Ġtwirl s
Ġre a
Ġla sers
Ġsn ip
Ġpopsic le
R ibbit
Ġs izz
Ġbird seed
ĠJo Jo
Ġspirit s
Ġsusp icious
Ġexhib it
M ake
b elieve
A r
i et
Ġsmo other
Ġob l
Ġvest s
Ġsh uff
Ġwink s
Ġenerg ized
Ġleng th
d og
e at
i bbles
Ġpark ing
Ġcamp s
in ting
il ar
ĠL y
Ġtw itched
Åĵ Me
Åĵ Wait
Ġfr isbee
Ġsub ject
ĠT ri
Ġreal ity
Every body
ĠSunday s
Ġcorre ct
Ġconsider ate
Ġo ars
Ġat op
ĠP iggy
ead ing
Ġthreat ened
Ġcomm otion
Friend s
el sey
Ġloo s
Ġsk ips
ĠC hew
ĠLucy Ã¢
itc her
Ġtri pping
Ġcere m
K iki
Ġbird Ã¢
Ġsun b
ĠN urse
Ġpract ising
Ġattach ing
Ġwre cked
Ġhandleb ars
Ġhome less
Ġgrand k
Ġdesign er
Mar ie
Ġ 9
on fused
Ġripp les
Ġw ig
ri ce
ĠO stri
Ġsick ness
Ġdelight ful
mb ur
Ġskin ny
Ġsolut ions
Ġcerem ony
M o
y a
Ġsee king
ĠC ow
Ġnest led
Who a
Ġeld ers
Ġsell s
Ġscra pe
a ppy
Ġh ind
ĠM ousy
Ġre ck
Ġsuggest s
N ut
Ġha mbur
ĠMiss y
Ġh uff
el ine
Ġsp ied
Ġgr umble
th ur
Ġwork shop
ĠR andy
Ġadd ition
Ġcontent s
Ġcal f
Ġstud ies
Ġswirl ed
Ġchatter ed
Ġlonel iness
Ġh oof
Ġf if
ĠWigg ly
Ġpurch ase
Ġon line
ell er
Ġgl iding
Ġclot hing
Ġsuper mark
Ġt ink
ĠH ank
ĠB ar
ous and
Ġrun ny
Ġur ging
ĠMatt hew
ic ated
Ġla unch
Ġsupply ing
ĠSe an
Ġhoneycom b
Ġsupermark et
d ream
Ġne ighed
Ġcook s
Ġspe ck
Ġsne aking
ĠCl are
Ġreck less
Ġcr uel
Jo hny
Ġinju ries
Ġcamps ite
Ġpatient s
yl an
iss y
ĠBr other
Ġtrunk s
an n
Ġy uck
Ġst ained
Ġab ack
Ġdr oop
Ġpol ka
Ġfresh ly
ĠAny time
Bu bbles
Ġbound ed
Ġanten na
F iona
Ġdust pan
Ġavo ided
Ġswirl ing
S illy
Ġp itcher
Ġsqu ish
Ġpor ridge
Ġ2 0
w ing
ĠA f
Ġsc aly
Ġpudd ing
Ġexam s
ĠY oga
Ġlur king
oo ked
ĠC ars
Ġdart ed
ĠL ydia
Ġun st
ĠN icky
ĠBill ie
ĠSh adow
ul a
ĠSque ak
Ġposs ession
O ver
Ġt umbling
Ġhor ror
Am elia
E ls
Ġin no
ĠM us
Ġbl ame
Ġgarden ing
Ġpain ful
Ġbuck les
ure n
R os
Ġdes ce
Ġholiday s
ĠCo pper
S omething
Ġcl ips
Ġmeet s
Ġtour s
Ġproject s
Ġting le
Ġv oy
Ġatt endant
ĠO pen
To dd
ĠFriend ship
M ore
R uth
g aret
Ġday dream
ĠM uffin
P ipp
Ġp als
Ġab and
ĠP op
ĠR un
ĠTh under
ĠCh icky
ĠD el
Ġv ast
Ġsnow ing
Ġmar vel
Ġrec ipes
Ġresist ing
Ġdod ging
S leep
ic al
Åĵ Here
Ġhurt ful
ĠK enny
Ġhammer ing
C ra
Z ara
s aw
Ġto ad
Ġkn itting
Ġcar ve
Ġra ked
Ġfull y
ĠK at
Ġmass ages
utter ed
Ġrea ction
Ġw icked
Ġd andel
Ġeras ers
Sh ould
ay e
That Ã¢
Ġdi v
ustr ated
Ġdisagree ing
P oor
Ġth ousand
Ġstor my
Ġper se
N obody
Ġr is
Ġany ways
Åĵ Mum
Ġhair s
m ade
Ġw etter
Ġre el
Ġsc ree
ĠD V
ĠCar ly
Ab i
Ġexplo de
Ġgrandk ids
il s
Ġr ay
ic ia
Åĵ John
Ġbuy s
Ġtight ened
ĠFr an
ĠDV D
Z ip
Ġco de
Ġwo bbles
Do g
S ir
Ġgra sp
Ġsquir med
ĠO ak
ĠJoan ne
Ġto ne
ĠT ia
is her
Ġfor wards
ĠD ee
Ġdisapp ears
Ġstream s
Ġspeed y
Ġclut ched
Ġpossess ions
ar led
Ġsuitc ases
U sing
ĠP uppy
Ġslight ly
Ġisland s
Ġguit ars
pe ck
Ġdump ed
o d
ĠE ating
ret ch
aid s
Ġdisgust ed
Ġsa x
ild ren
Åĵ Remember
Ġped alled
Ġarr ange
S qu
ĠT urtle
Ġso ggy
Ġra cers
Ġarm or
Ġwin king
col ate
Ġvoy age
ĠM ic
Ġcon str
Ġpot ty
Ġspo ken
Ġvill ain
Ġperfor mer
t ling
Ġs im
ist ened
Ġhide out
R obby
o kay
Ġst iff
So fia
Be ware
Ġsett ling
ĠS id
Ġown ing
Ġstream ing
ĠChe ss
ĠAf ric
ĠM int
Ġra ises
ĠP urple
Be cky
Ġr ink
ra nd
Ġdiscuss ion
Ġbeg un
Ġpuff ed
Ġs ly
Ġbl ob
Ġun kind
Ġshe Ã¢
ry st
Ġgr uff
Ġgrandchild ren
A na
g re
it am
Ġg n
ĠW ise
Ġgl istened
Ġtut u
Ġscientist s
Ġsculpture s
Ġde vice
Ġstomach s
M agic
Ġr iches
ĠW orking
Ġgr anny
Ġhow l
ate ful
Åĵ Because
Ġgl immer
ĠG l
Ġsurround ing
ĠChe ese
Ġcar ved
Ġad op
Ġtooth p
Ġstud io
Ġobst acles
ĠOstri ch
S c
at ic
Ġta les
Ġwood peck
Dan iel
H ooray
S m
W ake
r iting
ĠJ am
ĠD oug
Ġad v
Ġquick er
ĠBe a
sm elling
Ġunlo ad
K aty
L i
Ġl itter
Ġp ave
ĠG reg
Ġcontent ment
Ġparrot s
Ġrust le
jam in
Ġembra ce
ĠJose ph
Ġas sist
ex i
Ġscoop ing
ĠMon ster
Ġadventure rs
ik a
ĠStep h
E ver
Ġv itam
Ġfloat y
ĠB ree
Ġac rob
Ġcap es
ĠWh ite
ĠY ellow
Ġaw a
Ġconn ection
ĠGold ie
Ġpave ment
ĠD ina
Ġtr ad
Ġshow ers
Ġsn arled
Ġru led
Ġmusic al
Ġpers u
Ġprotect or
Ġaut umn
ĠRes pect
n ings
Ġl umpy
app le
Ġyawn s
Ġarrest ed
ĠN ibbles
Ġpre f
Ġsign al
Ġunl ike
Ġinterrupt ed
Ġsh ame
ress ed
ĠP aws
Ġje ans
Ġpass ion
Ġchirp s
Ġsteam ing
Ġrefu sing
J ay
N G
ĠS il
ant s
ĠDo ll
ĠFl ash
Ġmix es
ĠNo ah
ĠMar cy
Ġres our
Ġreapp ear
ryst al
re et
But ter
Ġexpl an
ĠG ert
Ġpay off
Ġequ ally
Ro ver
Ġsadd le
ĠBer nie
R yan
re s
ĠC uddles
Ġham mered
Ġloving ly
Tr ust
ĠIsab ella
ĠB all
ĠSp anish
Ġjog ger
ĠOr ange
Ġcreep y
Ġsa uc
Ġbe gs
Ġthought fully
Åĵ Help
Th ree
Ġdr ople
Ġscold ing
Ġprod uc
Ġwoodpeck er
t to
Ġj igg
ĠR ick
Ġnight fall
Ġrespect ing
Em my
Sh aring
a fe
d on
ĠB oy
ĠM ag
ho colate
Ġting ling
Ġb ould
Ġmail ing
heart ed
Fin n
Ġscri bbled
Ġgod mother
ĠS usy
Ġbo bbed
Ġj aws
Ġaband oned
L a
Ġpo les
Ġpat ting
Ġpro f
ho e
Ġterri bly
E va
Ġw itches
ac her
Ġcur ves
rem ely
Ġf are
Ġp ec
Ġbra id
ĠR el
Gra nd
.' "
Ġdou ble
v ie
ĠA udrey
Ġext remely
Cl imb
G abby
Ġl imp
ĠT aylor
Ġtr udged
Ġshield s
Ġexch anged
Ġw il
Ġqu izz
ĠR oy
Ġinst ant
ĠAlex a
Ġund o
Ġruff led
S anta
c up
Ġche es
Ġmiss iles
Ġmist y
Ġaccept ing
Ġjugg ling
ĠClean ing
Ġpref er
Ġsp ades
ic o
Ġcart s
Ġindepend ence
Ġstretch y
Ġchar ity
a way
i or
Ġfriend Ã¢
Ġapp et
ĠCl ose
ĠBir ds
Ġsweep ing
M aisy
R ock
iz ab
Ġz ippers
Ġpin ec
ĠCook ies
Ġescap ing
Nut ty
izab eth
h i
Ġzigzag s
T urn
l ock
Ġo o
Ġsome how
Ġcon fu
Ġma c
ĠG ail
Ġspl itting
ĠSt and
Ġcap tured
Ġsucceed ing
n is
et ime
ĠIs la
Ġstare s
Whe ee
Pat ty
ĠCr usty
f riend
Ġbird ies
ĠSh ark
ĠMe anwhile
A ng
Ġcl ung
Ġpr ison
Ġharm ful
sol ved
Ġstomp ing
Ġinvent ion
Ġunlo aded
Ġsax ophone
F ly
Ġb udd
Ġl ens
ĠR eading
ĠZ igzag
Ġwigg les
g iving
Ġt ul
ri et
Ġro am
ĠP ig
ul iar
Ġchew y
ĠCar oline
Ġpec uliar
o es
Ġd im
Ġthey Ã¢
ĠA d
Ġgood s
ĠF ather
Ġta co
Ġsun s
ĠP ing
Ġjourney ed
Ġevent s
Sh oo
Ġtuck s
Ġjump er
ac ul
ĠK ind
Ġsharp en
Ġcompl icated
Ġlecture s
Ġstrum med
Ġexplan ation
ir ty
Ġcar riage
Ġgra ins
ĠP earl
Ġfavor ites
Ġlif etime
ĠAfric a
C onfused
h ill
ĠS urpr
ĠD uke
Ġfly er
ĠG eor
Ġgu ilt
G ot
H oppy
f illed
Ġp y
Ġp endant
Ġkind est
ĠJo lly
Ġrem o
ĠN ed
ĠR on
Ġjoy ous
Ġpro ceed
ĠWh ist
ĠWhere ver
U nder
a ld
r ope
Ġwo nd
Ġstri kes
Ġsnugg les
Ġbudd ies
ve y
ist y
Ġper ch
Ġmust aches
Ġprotect s
Ġcur ve
Ġfisher men
Ġrequest s
Mmm m
Fl oppy
Ġmotion ed
ump h
ĠR ory
Ġcomp are
Ġaccident ly
ĠEll en
Ġmot ions
Ġvolcano es
Ro ger
Ew w
Ġpan icking
Ġview s
Chirp y
Ġric her
ll e
ĠF ishy
ĠJo hny
ĠP ee
Ġmelt s
Ġcomb s
Ġquarre lling
Ġquizz es
G igi
Ġw it
re ck
le ct
Ġgl oom
imb a
See ing
Ġraincoat s
Ġwrink ly
N ancy
Ġre ct
Ġsneak ers
Ġconcentr ated
ĠM ix
Ġbl ush
Ġdri es
eal ing
Ġwrigg ling
ĠWil ma
Ġsubject s
ĠM ore
ĠSp irit
ĠSc r
Ġreass uring
ĠPet ey
H ope
W endy
ĠN ear
Ġcra z
Ġdef end
Ġab ilities
Ġsqu ashes
Ġchick s
M ove
ow s
Ġnot ices
Ġkne els
Ġapp ears
Ġz ig
ĠFl appy
unt ed
Ġbirthday s
Ġpost ers
Ġsepar ating
ĠMo le
Tw inkle
Ġconcentr ate
ĠB oom
Ġlo bby
pl ed
Ġwra ppers
Ġstret cher
Ġcross es
Ġstri ct
Ġsupport ive
Ġcable s
ĠAn imal
Ġconvers ations
Ġdrople ts
w ar
Ġch unk
Ġclo ver
Ġdest r
Ġspell ing
H el
H olly
P er
ĠT urn
Ġor ch
Åĵ Stop
Ġgl imp
ĠP aw
Ġwait ress
ĠR ani
Ġhope less
Ġshouldn Ã¢
Ġbleed s
ĠMo st
Ġsh ades
Ġlad ders
Ġgrin ning
Ġpa il
Ġband s
Ġdi aled
ti v
Ġstri ped
Ġcur ved
ĠCl imb
S que
om ers
Ġseal ed
Ġbank s
ĠBa iley
Ġf ading
at ted
st op
ĠJ un
Ġop er
Ġtight rope
ĠJust in
Ġstro lling
Ġcrunch ing
Ġscut tled
D espite
T e
W o
h aps
id dy
Ġfl ippers
Ġflow ed
Ġimag in
Ġcap tiv
Ġhurry ing
Ġappro val
Ġunfold ed
' ?"
R icky
n et
ent ial
Ġimportant ly
ĠN orth
ĠSarah Ã¢
Ġsu nd
Ġnumber ed
Ġstem s
Ġcigaret te
P en
P aula
ĠS inging
Ġra is
Mum ma
Me gan
Ġmoder ation
Ġscoot ed
K elly
Ġst itched
Ġfl akes
Ġsand als
Ġjugg le
in nam
ser y
Ġstri pe
sm art
Ġoverfl owing
Ġdetect ive
innam on
Ġs ite
am s
ĠL ady
Åĵ Mama
Ġwarm ing
Cl ose
il st
Ġe c
Ġdo dge
Ġdes ire
Ġm itt
am i
ĠJ umpy
Ġpick les
Ġsquir t
Ġphot og
Sh rink
ĠY et
Ġbiscuit s
Fro g
Ġbould er
? ,"
ke lly
Ġplay fully
ĠTim othy
Ġout er
ĠF urry
ĠMar garet
ĠSh all
Ġnur sery
: "
Ġc innamon
Ġd azz
ber ries
ĠZ ippy
ĠAl ison
ĠAl bert
ĠMat ty
Ġproceed ed
S plash
Ġcl ucked
Ġcu l
Ġlamp s
Ġfour th
com ing
Ġcur ls
Ġrust led
Ġann ounce
ĠJu ice
Ġbru ise
Ġais les
ĠChar les
Ġshuff led
x ie
ad a
Ġgr umbling
ĠP ast
ey ed
ĠO ld
Ġleap ing
hell e
Ġvitam ins
Ġs omers
Ġfor ced
ĠB op
ĠW est
Ġnew ly
Ġtrain ing
Ġrep airs
ĠMum ma
Ġgrown ups
Ġfriendship s
Ġdod ges
Ol ive
ĠMus ic
Ġsomers aul
R iley
Ġst ump
st atic
Ġwe ed
Ġset up
ĠCh ip
Ġrep ort
Ġenv y
ĠAlf ie
Ġfare well
p hew
Ġth irst
Ġin ched
Ġup s
Ġbo omed
Ġse ated
Ġsn atch
Ġgiant s
ĠSh ould
Ġstalk s
a ved
e ves
or is
Ġne phew
Ġch ugged
Ġem pt
ÅĵI s
Ġham mers
ĠSn ap
Ġlim its
Ġcontented ly
Ġre jo
Ġout ing
ĠC her
Ġfire wood
Ġsle eves
Ġtipt oes
ĠRos y
Ġfist s
at t
Ġsw itches
Ġbl ed
Ġtrail s
Ġtimid ly
Ġcul ture
b ec
Ġlo ser
Ġhard working
ĠG illy
ĠG reta
ĠN ia
Ġlow ers
ĠAny thing
Ġex cellent
Ġsn ipped
Ġfr ames
Ġun sc
Ġbal c
Jane y
Ġsalad s
Ġpost c
Ġstun ning
J ason
Ġn anny
Ġthin ner
Ġinsp ected
Ġt ang
Ġbo bbing
um e
Care ful
Ġdesce nded
Ġchees y
C ongratulations
r ous
is app
Ġsp ee
ĠL ayla
Åĵ you
Ġsleep over
Ġlay er
Ġstun ned
ĠDra gon
Ġec static
v ious
Ġc ities
ig her
itt ers
Ġother Ã¢
Ġjo gs
ĠG u
ĠSw im
Ġobst acle
Ġbloss om
Ġwit ness
Ġf itting
er ris
Ġr ises
Åĵ Just
Ġpar amed
Ġsurrender ing
ĠNe ither
Im agine
P hew
h ave
Ġo gre
id ance
ĠS on
Ġbe gging
arn ey
Ġcom mand
Ġtri umph
Ġbeh old
Ġgu idance
Ġeld er
Ġbang s
Ġtarget s
Ġfulf illed
Ġloos en
D e
M ila
Ġbo ast
ĠJ emma
Ġdra gs
Ġde eds
Be ing
Ġstair case
Ġsurprising ly
Ġdou b
Ġspee ch
L uc
ut e
ep eat
Ġclothes line
Ġcomb ing
Al i
ĠStri p
v o
ĠBut t
Åĵ Daddy
ĠFl op
Ġexper iments
Ġti ara
Ġantenna e
Ġwond rous
Ġorch ard
! ,"
d est
ĠL and
ak en
uc cess
Ġread er
Ġtick ly
C ool
m ill
as hing
ĠF aye
Ġcle are
ha b
Ġguard ed
Ġconfu sing
R A
Ġp ounce
ĠDo ing
Ġmis be
Ġleop ards
Ġpine apple
Ġs up
st ack
al ia
Ġsk ating
Ġwo bbling
ĠG oose
Ġbar bec
ĠBl ink
Ġanxious ly
ising ly
Ġexa ct
Ġbalc ony
J udy
ĠA men
Ġball et
ait lyn
Ġres umed
ĠI vy
al f
Ġch a
Ġsn oo
Ġpast or
Ġsal sa
Ġshore line
Ġcrack ing
Ġcur sed
Aunt ie
A manda
S ay
Ġsm ash
Ġout smart
ĠE at
ĠC ass
Ġgreat er
Ġcr ust
Ġpart ner
Ġarri ves
ĠBe es
Ġsty lish
ĠJan ice
ĠBra ve
Ġopt ions
Ġacrob ats
Ġg al
ĠB elieve
Ġwh oo
ĠM in
Ġdis ob
Ġbright en
Ġwrist s
Ġsecure ly
ĠCra b
Ġroast ed
P hil
Ġpl ow
ist ory
Ġprom ising
Ġtable cloth
Ġti ppy
Ġvacu um
L ina
c ies
ĠD en
Ġstr ay
What Ã¢
Ġturkey s
Ġlawy ers
ĠCat ty
B le
Ġk ill
Ġpri ces
Ġdelay ing
p ie
s hes
Ġsh immer
Ġback ground
Ġun h
Ġsick er
Ġ1 2
hoe be
Ġcaptiv ated
E ric
F ido
Ġw oo
Ġhe ated
ar ies
ĠP up
Ġprop s
Ġreplac ing
ĠMel ody
Ġtoothp aste
p o
vent ure
ĠC ream
Ġadventure r
ĠSp ider
ĠN elly
Ġfold ers
Ġsmooth ie
Ġflav ours
Ġemergen cies
Ġtr an
ank y
Ġspr ung
Ġreco vered
Ġbarrel s
ĠAr thur
ĠHug o
w ow
Ġt ack
ar ked
ĠI nt
ĠD ylan
Ġgl immered
Ġfix es
Ġpri cked
Ġiron ing
Ġrele asing
Ġcuc umbers
Ġfanc iest
ĠJ imbo
Ġch ann
Ġra iling
ĠG en
iver sity
ĠThanks giving
k s
Ġ 8
it ive
Ġl ately
ĠF ore
Ġsmo ky
Ġhon or
Ġyield ing
S un
w ed
Ġsk ates
Ġpra ises
Ġremain s
in ter
Ġr asp
ĠM uch
Ġun e
Ġcoll age
Ġrec ords
Ch arlotte
Ġdet ail
ĠPer cy
Ġdestr uction
Ble ch
Ġpl un
ĠL o
Ġsqu atted
Ġinf ection
Ġearthqu akes
ĠTuesday s
N ear
u ri
Ġc ords
an ked
Ġout come
ĠL exi
Ġhow ling
Ġspr ings
Ġplac ing
Ġflashlight s
ĠPe ace
Ġur ges
Ah h
T en
i ant
Ġsc an
ĠW illie
ĠC ount
ĠN one
Ġduck ed
Ġcorn field
Ġshrimp s
Ġslither ing
Ġforeshadow ed
D el
ay a
Ġbill s
Ġinno cent
N ana
P inky
al thy
Ġbl urry
Ġcr ooked
Bo bbie
r uck
Ġgo bl
us es
Ġper ked
Ġret rie
Ġclass es
Ġpony t
Ġglimp se
E at
M ouse
ĠP ark
ĠK ai
een a
Ġhay stack
ĠCar rie
ĠLa uren
Ġwhirl ed
M ickey
Ġd izz
or gan
Ġli ar
as c
Ġmor nings
ĠR oo
Ġdirt ier
Ġpin ches
Gra cie
Ġcareless ly
Ġposit ion
ĠS ister
Ġher d
ĠDaisy Ã¢
col oured
Ġgain ing
H ar
t alk
ĠS a
Ġbu bbled
Åĵ Jack
ĠG erry
Ġrat tle
Ġchallen ging
Ġwarn s
Ġcaf Ãĥ
Ġthere Ã¢
Ġad vant
ĠR uff
ĠO tto
oin t
Ġsnugg ly
Ġlun ged
N e
Ġsaw ing
Ġho bby
Ġtw itch
Ġselfish ness
Ġswe ating
Ġappet ite
v ia
it i
ĠBen jamin
Ġqu ality
ĠBr ight
Ġroof s
Ġvict orious
Ġinvol ved
Ġfif ty
B ert
U se
Ġm id
Ġpl um
Ġtrump ets
L ove
ĠHe idi
Ġte ch
Ġuse less
Ġcre aked
Ġtast ier
ray s
ĠCl oud
Ġelbow s
lor ia
Ġembra ced
Ġobl ig
Ġretrie ved
il ot
Be hind
ĠHelp ing
Ġweren Ã¢
Ġladybug s
Ġclut ching
gr ateful
Ġrais ins
ĠB ro
Ġgra in
ac on
Ġmot ors
Ġnotebook s
Ġheav iest
Ġbru ised
ĠRich ard
l ike
un ate
Ġk ern
ĠM ara
Ġrece iving
Ġsnail s
Ġawa ited
B uzzy
g ra
l ife
at rice
oo o
Ġbl ues
Ġqu iver
ĠP romise
Ġfr ant
Ġsqu igg
Ġcool ness
Ġrare ly
Ġpistol s
Ġgal ax
Ġhe y
on k
Ġth irty
ĠM ister
Ġdad Ã¢
Ġsl ime
th an
Ġspot less
ĠPl us
An other
Ġbarbec ue
t es
il k
ac ing
John Ã¢
Ġcho ke
ĠDan cing
Ġbeep s
Surpr ised
Ġinju ry
Ġwhir ring
ĠJes us
R andy
Ã Ĥ
ĠS kelly
Ġfe ared
Ġfix er
Ġbull ies
ÅĵYou r
Ġblink s
Ġsunb urn
Ġscree ch
M amma
S on
t les
ĠM ars
Ġste ad
ĠJu les
Fo x
Ġconstr uction
Ġb ust
ce l
ĠD izzy
Ġhow led
Ġsun k
Ġend ings
Ġstar ry
Ġrad i
Ġsummer time
Ġhurried ly
Ġbend ing
Ġyelp s
Ġscre ens
Ġaccess ories
1 1
B C
h adow
all ing
Ġeyes hadow
Ġclum s
ĠSc ott
Ġembarrass ment
Ġadvant age
Ġoblig ed
Ġt ed
Ġsaw ed
Ġloo ped
ĠD ora
Ġclo ak
Ġad just
umb s
Ġbread cr
Ġclever ness
ĠSm all
Ġbroom stick
Ġf ired
ĠHe l
ĠB ones
ma ker
Ġra w
ĠP ol
Ġwalk ie
ĠTh ough
Ġadm itted
Ġsil k
Ġvi ol
ĠCl ub
ĠAng ie
E r
c ip
w elcome
en ess
Ġmo les
Ġgl inting
Ġun grateful
ĠK athy
Ġpack et
ĠMe ow
ĠPr une
ĠWhe e
Ġgle aming
E E
f ect
w ho
ĠS ugar
Ġco ast
Ġhome made
Ġsor row
ĠJohn Ã¢
Ġcra shes
Ġremain ing
Ġinsp ect
Ġunsc rew
A sh
Ġu nn
Ġre nt
ĠA BC
Ġgl ide
Ġdra gging
Ġskelet ons
Ġris en
Ġhand led
Ġscr unch
ĠEl izabeth
Ġ9 11
B ra
F ree
Ġsp ir
Ġdri ven
Ġpot ential
Ġband aged
ĠCar rot
Ġhoo ked
lo at
Ġted dies
B rian
N ora
T erry
Ġc y
Ġsw ift
ĠD inner
Ġaf loat
Ġcons id
acul ously
ĠS chool
ĠP izza
Ġun p
ĠN athan
ĠSt u
Ġsuggest ing
ĠUnder neath
ĠS imba
im a
ĠA da
ĠSt retch
u h
w h
Ġ ic
Ġs ons
Ġla ce
Ġpoin ter
Ġcl amber
Ġprin cip
Ġmin i
ale b
Ġsniff ling
Ġsurf er
Ġwag ons
ĠWigg les
A very
P ick
gn es
Ġslam s
Ġmarve ling
Ġtoss ing
Ġchatter ing
ĠTre es
Hel en
? '.
S H
l iest
Ġt ending
Ġb on
le an
ood le
ĠG ia
Fred die
ĠDr op
Ġlim ped
Ġrejo iced
Ġbreadcr umbs
Ġb umble
el a
Ġtr ous
ĠC ake
ĠAs ked
Ġsil ky
Ġluxu rious
ĠIm agine
rob es
Ġd ut
Ġm ended
Ġal b
Ġch ances
Ġgra zing
Ġstr ut
Ġend less
Ġcr anky
Ġmag pie
ĠBl oom
Ke vin
Ġerupt ed
ĠKind ness
S w
oo ke
Ġpl ump
ĠDo ve
Ġcrack ling
Ġwil ted
Ġdisob edient
C andy
E n
F ound
Z ero
Ġ Yay
Ġd u
Ġg ad
Ġpl us
ĠD i
ĠD ream
Ġmust ard
Ġfing ert
Every where
St an
Ġcomb ined
Ġmur ky
Ġtrous ers
F reeze
O ff
Ġ .
Ġo ink
ĠC rystal
Ġprevent ing
Ġsav ored
Ġfond ly
ĠSil ver
Ġimagin ative
W oo
m es
v or
Look s
Ġpriv ate
Ġgobl in
ĠB arky
Ġfl ipping
Ġwhizz ed
J ax
ar med
ĠLily Ã¢
ĠSam Ã¢
Ġele ven
oph ies
Ġsink s
Ġgesture s
yl via
Ġpopsic les
ĠSteph anie
Z oey
t w
id y
Ġcl im
ĠW ake
be ying
Ġcolour ing
Ġfre s
Mon a
Ġprincip al
W illiam
g ling
ĠH im
Ġre ins
You ng
Ġqu itting
Ġbu ds
Ġimp act
Ġground ed
Ġam use
Ġcre aking
Ġdrift ing
Ġgreet ing
Ġsim ilar
d led
ĠJ asper
Ġcr anes
ĠJane Ã¢
Ġspeed s
Ġaff ect
Ġtrim med
Ġass ured
p ing
r ant
Ġbo oming
ĠW orm
Ġtr ophies
Ġnight light
Ġstre ak
Ġgrown up
Ġwaste ful
Ġremo ving
ĠAnimal s
Ġp es
ock s
Ġtired ness
ol o
ĠSt ealing
ĠPip er
Ros a
C atch
n ut
Ġs ession
ĠW ink
ĠD iana
ĠP ir
Ġmess ing
Lou ise
Ġli king
Ġexpl os
Ġrepl ies
ĠBe ary
Gra b
Ġstall s
B rrr
Ġ (
Ġfor ming
Ġre solved
Ġsn ore
ĠN an
Ġmum s
Ġrhythm s
Ġcaw ed
t able
ac ed
up ert
Ġcop ies
ĠBu bble
Ġpadd les
ĠBeth any
ĠMon ica
Ġexist ed
Ġoo hed
Ġalb um
g ent
m ar
Ġs ucked
Ġwh ining
ra w
Ġco aster
ĠL ast
Ġun iting
Jo se
Ġunlock s
Ġapart ment
Pipp a
D ing
Ġsh aker
ĠM ill
ĠL ance
Ġpass age
Ġpast e
Ġcalm s
Ġlock ing
ari um
Ġeff ect
ik ki
Ġforeshadow ing
hand ed
Ġadop t
Ġresour ces
Ġcleare r
Ġfrant ically
Ġamuse ment
O P
S asha
Ġs ips
Ġr umm
al ter
ĠW riting
Ġsound ing
Ġprot est
Ġchalk s
Ġachie ving
ĠLou ie
Ġsqueak s
Ġnuzz les
Ġgn ome
Ġcha os
uri osity
R ay
R ebecca
m ind
r am
Ġsa ves
Ġpl uck
ĠB ack
ĠB urt
Ġlo lly
Ġad ored
br ushes
Ġmast ered
ĠAngel a
r un
y la
et tle
ir affe
Ġst ations
Ġrun ners
Åĵ Bye
Ġstor ing
ĠTh ree
Ġrecord ings
Ġunz ip
Tess a
C athy
it z
on ight
ĠM ild
Ġco cked
ĠD own
Ġgl ory
Ġcr umble
ĠEm mie
Do ggy
Ġspread s
Ġspoil t
Ġmeasure s
aw k
ĠMar cus
ĠJul iet
!' "
ĠPing u
G irl
H o
p ill
p ole
ĠB arney
Ġdis m
ĠSpot ty
Ġmess ier
ĠFl uff
Ġsmo ot
Ġscur ry
Ġgrandpare nt
Ġempt ied
I zzy
ed ience
ĠM ick
ĠM indy
Ġgo bble
oin ted
ict ory
Ġregret ful
ĠGr adually
Ġcutter s
A lly
Ġs ul
re x
Ġst umbling
Ġprin ces
ĠTo oth
Ġhung rier
Ġsque aking
st ret
Ġfast ened
Ġclos est
Anna belle
Ġdi al
Ġcart whe
.' '
ĠPo le
K enny
h orse
if ted
Ġla z
Jo hnnie
ĠJoe Ã¢
ĠAfter ward
ĠK ara
ever se
Ġunwra p
Ġhuff ed
Els a
Ġd il
ĠR ibbit
Ġdi als
Ġcoo per
kn ob
Ġimpatient ly
boo s
Ġopport un
ĠPa ige
ĠGert ie
A R
L ife
P atch
d es
Ġd iver
ĠT oni
um pled
Ġro sy
Ġgre ed
Åĵ They
Ġdoor knob
Ġun pl
Me g
ĠMart y
Ġsqueal ing
Ġopportun ities
in n
Ġha irsty
Ġj ig
Ġpe a
Ch ildren
now ing
ĠNell ie
A P
Ġh yd
Ġdon ate
Jan et
Ġdazz ling
Ġwhoo shing
T ell
Ġa h
Ġa lp
Ġbra ke
ase y
Ġcu pped
Ġbelie f
Ġcro aking
ĠDr ink
ĠStep hen
ĠStrip ey
Ġit ches
Ġre v
Ġex ting
ater pill
Ġfair ly
Ġdish onest
Ġjack s
Ġstrugg les
Ġfest iv
ĠCarl os
Bu bba
Ġclamber ed
Ġexting u
er as
ĠS ale
Ġground s
ĠN at
Ġban ner
Ġthoughtful ness
Ġcompl iments
Ġvend ors
Ġoutdo or
Ġskate board
Ġblend ed
ĠBar b
J u
Ġn in
ĠB ull
Ġman go
Ġcat cher
Ġsl edding
Th rough
ĠAs k
Ġfig uring
ĠWill ow
Ġpinec one
G reet
b ag
e ers
Ġsh aken
ec ess
ĠE ng
Ġsharp ened
U p
r imp
id get
Ġdon ut
Ġow e
Ġmeet ings
ĠCo al
Ġsnort s
Ġdescri bed
Ġunst uck
F uzzy
ĠA maz
Ġdeep est
zz ly
Ġskull s
ĠAny a
ĠSweet ie
Ġrect angle
Ġsup erp
Ġunn ecess
stret ched
Ġdil ig
F armer
o k
ĠH ippy
st alk
Ġwh ilst
be at
oy al
Ġlight house
Ġrat tling
Ġgoal ie
Ġpad lock
Je an
ĠGrand ad
Ġjing le
ĠMic helle
Ġparamed ics
S urrender
Ġg umb
Åĵ Sometimes
llow ed
Jo jo
Ġz one
Ġspr inted
Ġsecret ly
Ġret ri
Ġtravel er
Ġer rand
ĠRo xy
ĠIs abel
Ġbless ings
Ġthousand s
Ġgumb all
Ġout stretched
ĠP ain
ĠG or
Ġcomfort ably
Ġnorm ally
ĠMel anie
Am ber
ĠEr nie
D rink
ĠB an
ĠJ et
Ġcr umpled
sp ass
fl ower
Ġfeed er
ĠV al
Ġuns afe
Mat ilda
Ġsund ae
D own
a nder
Ġhe ed
ĠS oup
Ġmommy Ã¢
ma ster
ĠP iggie
ĠWo nder
Ġkern els
Ġfingert ips
C ara
C aw
P o
P ush
Ġs ug
Ġd emon
ĠH ipp
ĠM iles
ĠJ ade
Ġmo ist
Ġlay ed
ĠLe arning
ĠBe atrice
Ġwadd ling
Ġbless ing
ĠButt ons
Z oo
Ġ 7
ar is
ĠB ark
Ġcl a
Ġrun way
ven ge
Ġbed side
Ġz ag
Ġrid den
ĠWednesday s
Mon key
Ġclim ber
ver se
ĠP hoebe
Ġstory book
ĠBr ooke
Ġcam eras
Che ese
Ġtaco s
isapp ointed
ĠInt rigued
Ġunnecess ary
E ddie
a ves
Ġs ipping
Ġb ins
Ġm ain
ĠS pl
Ġch ant
ĠMax ine
Ġchild hood
Ġcr itters
ĠO p
ĠU sing
Ġsunset s
Ġdear ly
ib i
Ġhorri fied
Ġpriv acy
Ġslurp ed
Ġpostc ard
P op
h op
v an
Ġ $
ed ro
Ġh int
ĠH onest
Ġre venge
Ġse vent
Ġco ck
Ġpot ions
isc illa
Ġdandel ion
L iza
N ate
ll er
ĠB el
ĠM ust
ĠM erry
ĠW ork
Ġv ows
Ġdad dies
ĠP ot
ĠP uff
She lly
Ġarri ving
Ġjealous y
Ġcabin ets
Ġpost s
Ġteaspoon s
ĠWin ter
Ġcigaret tes
I Ã¢
Ġy anked
Ġsp ine
Ġtra pping
ph ones
Ġhope fully
Ġmailbox es
Ġmoo ing
ĠWhist le
Ġtang y
talk ie
P andy
Ġs ighing
in ning
Ġf ate
Ġd ice
or get
Ġin s
st one
ĠK it
ol k
Ġsu pper
Ġdes p
to ed
Ġter rit
Ġrecommend ing
!' '
Ġpriz ed
ĠAlf red
ĠBug s
Ġhambur ger
Ġdemon str
id en
Ġre act
Ġbr ats
Ġco iled
Ġscared y
Ġbra g
ĠSo cky
br ina
Ġprotect ive
Ġwand s
Ġsquaw king
Ġvol unt
t a
ĠS low
ĠM oney
ers on
Ġover night
Ġsheep ish
Ġmatch box
ĠMar co
Ġbri ef
Ġsent ence
Ġinterest s
Ġunw ell
Ġecho ing
hab et
ĠH anna
Ġsp itting
ĠJ em
Ġtal ons
Ġbath robes
Ġstu bbed
Ġcap able
Ġmeasure ments
Ġharsh ly
Ġtil ts
Ġshin iest
Ġprefer red
Ġdoub t
Greet ings
z oom
ra in
ĠJack son
ĠC uriosity
ĠP ingo
Ġmum Ã¢
Ġworld s
Ġrel ation
ĠK elsey
Ġpar ades
ĠKay lee
Ġcuc umber
Ġscre ec
ĠJun ior
Ġsug ary
K ay
W ant
f ty
Ġd ue
Ġm ower
ĠT ippy
ĠH ot
Ġexc use
Th ough
ĠG iant
Ġlad ies
Will ow
Ġboo st
Ġunf orget
Ġconqu er
Ġflick er
Ġchann el
Ġponyt ail
Ġc it
Ġwas p
Ġr ash
un es
Ġbl ind
Ġlong ed
ĠR ino
ĠTh ink
Ġdi aper
Ġsurf ed
Ġinsist ent
ĠBo bbi
Ġsurv ived
ssssssss ssssssss
Ġalp habet
A va
ig inal
Ġch ugging
ma il
ĠJo hnnie
Ġflo pped
Ġthank fully
Ġter ror
Ġcomb ination
Ġinclud es
Ġthrill ing
ĠSal t
Ġgrump iness
Ġunforget table
Ġt umble
Ġs umm
or ty
own er
Ġcr itter
ens es
app iness
ĠStri pes
Pen elope
U ntil
z o
or i
le as
Ġy ay
Ġsh aving
ĠM atch
Ġpo nder
Ġsnow ed
Ġwild ly
Ġser ves
ha w
Ġprep ar
ik o
Ġassist ant
Ġune asy
B ir
E lle
n s
re r
Ġc ents
ĠL ying
Ġfight ers
Ġswings et
Sp ark
aff y
Ġhi ked
Car la
ĠPick les
ĠNe w
R el
Ġt iles
Ġd ong
ĠH igh
Ġplay mate
st ream
Ġwet ness
Ġforget ful
Ġben ef
ĠAl icia
Ġhesit antly
ĠQuack y
Ol ivia
ĠEd ward
Ġunz ipped
Ġterrit ory
B inky
G row
f ying
s ure
Ġsp ect
ĠHer o
Ġrem ark
Ġtra ce
ĠSt acy
Go d
Ġequ al
ĠCro cod
A gain
j i
u nts
ĠTom Ã¢
ro y
Ġsho ve
Ġvalu ing
Ġunl ucky
Ġmath s
Ġdemand s
ĠEl i
Ġ10 0
ĠEr in
Ġdizz iness
G inger
S andra
ĠM ason
ĠF aster
And rew
Ġdrum mer
ĠFr ustrated
Ġattack ing
Ru fus
Ġstomp s
ĠDe bbie
ĠAd venture
E d
O ld
P ass
ĠB iscuit
ra ph
ĠW innie
Ġgra ve
ĠG loria
Ġcrack le
Ġtoug hest
Ġdisturb ance
ĠFly ing
Ġdroop y
Ġexplos ion
Ġdism ay
Ġd ash
Ġha lo
Ġlittle st
Ġlo ss
if fere
Ġtight en
ĠK aitlyn
Ġtid ier
Ġpout s
Ġouch y
B elle
Ġthe rap
Ġfe ature
Ġro les
Ġv ari
ĠSp eed
Ġhead phones
St ep
ĠSt r
Ġbean stalk
Ġsteak s
Pl ay
Ġstead ily
F ive
Ġb ay
in ic
Ġl at
Ġo int
Ġsome place
Ġfro l
ĠGood night
Pe ggy
Ġmitt s
Ġgad gets
N AP
S k
T ammy
ent er
Ġdec re
ĠF uzz
Ġgreen s
Ġpaw ed
Ġbeat en
Ġstitch ing
ĠCla w
Ġfaith ful
iffere nt
re verse
Ġj ay
ĠA bbi
nn ess
Ġsl ippers
Åĵ hello
ĠP ine
Ġped alling
Ġreplace ment
rrrr rrrr
z es
Ġt ad
er ie
ill s
Ġar cher
Ġsn atches
Åĵ C
Ġdra ped
ĠK nowing
ott ie
ĠFl owers
Ġcactus es
Ġclick ing
ĠJes se
Ġvol ume
Ġpes ky
Ġcit iz
Ġhe ater
am ole
Ġqu en
ĠEvery time
ĠG reat
ac amole
ĠN avy
sp ect
Ġattract ed
ĠCl own
ĠPat ience
Ġfloat ies
ĠY ummy
ĠBee f
Ġretri eve
Ġoint ment
p ilot
ĠM anny
ĠW anna
Ġevery time
ip ed
Ġcalm ness
Ġign ores
Ġreg ister
Ġpoison ed
ĠLy nn
b ang
am ent
ĠW ar
Ġun ison
ger y
ĠG inny
iff y
Ġchest s
Ġlic enses
Ġreflect ing
ĠGu ard
Ġtech n
B ow
F our
P izza
g irl
ĠA choo
ĠE than
Ġapp oint
Jo an
Ġpond s
Ġgu acamole
Ġfarm house
ĠCh ina
ĠDon na
ĠCo dy
Quick ly
Ġscri bbles
Ġsizz le
Sque aky
d les
f reeze
h ot
Ġ 6
Ġwa vy
Ġp ry
ĠT abby
ag ing
Ġwind mill
Ġapp earing
ĠR upert
Ġgu iding
Ġtoug her
Ġsurf ers
Ġtap es
ĠTr uck
ĠCher ry
C RA
F ather
or nness
Ġsp atul
ĠL acey
Ġv ases
Åĵ Alright
Ġgarden ers
ĠBe an
Ġperm itting
Ġcact i
Ġdisplay s
Ġpit s
Ġprop eller
ĠMad eline
Ġwarri ors
Li am
Ġscreec hed
H ours
L enny
ld erly
ast ian
Ġmost ly
Ġob edience
ĠO xygen
eb astian
Ġshy ness
ĠZ e
Ġpainter s
ĠBa ld
Ġtack le
tw o
ĠMust ache
t re
Ġb acon
ĠB ell
al king
ug s
ĠF un
Ġfo ss
Ġim it
ĠJo el
ĠC ol
Ġsmart s
Ġkey board
Ġsur ge
Ġcarp ets
Ġinsist s
Ġchuck le
Ġcough s
ĠMo llie
Ġwrigg le
Ġjigg led
at hing
Ġcan n
Ġsc oring
ĠD ing
Åĵ When
Ġwild life
ĠTre vor
Ġopt ion
ĠChew y
Ġbumble bee
Ġlat est
H ank
Ġd ates
Ġp ure
an cing
ĠA ri
ĠL ions
Ġsw er
ĠDo gs
Ġent ertain
Ġwild er
Sp ring
Ġstubb ornness
Ġbuzz es
Ġ1 5
Ġglee fully
Ġhab its
K en
K ara
M a
T una
t here
ve nder
Ġla vender
Ġsw ell
ĠAnna bel
Ġun ra
Ġcr ad
Ġbee keeper
Ġph ra
Ġpast ure
Ġbreat hes
Ġprun ing
Fl opsy
Ġsib ling
Ġrefu ses
ĠStand ing
Ġphotog rap
Ġspatul a
M ister
et ti
Ġtre et
Ġgl ues
Ġun b
Ġsniff les
Pe pper
Ġstrut ted
u le
Ġp ang
ir ation
ĠB ecca
Ġare as
ĠA gnes
ret ruck
Ġcle ve
Åĵ Ah
ĠHer b
ĠP edro
Ġpre y
Ġdig ger
Ġtax is
ab out
Ġraz ors
Ġbeam s
Pr in
Ġhoot ed
ĠOff icer
Ġsomersaul ts
Ġfestiv als
' ,"
K elsey
L ion
S al
Ġwas her
Ġcl inic
Ġnew est
ĠL oop
Ġfl icked
ess or
Ġrun g
Ġover c
Ġbear Ã¢
Ġde ath
Ġpart ied
Ġpi er
less ly
Ġpack s
Ġround ed
Ġsprink ling
Ġzigzag ging
Ġsprout ed
rink les
A nt
Ġb id
Ġg arl
Ġfi retruck
Ġpeople Ã¢
Ġsur gery
ork s
Ġstro king
ĠOw en
ÅĵWho Ã¢
Ġcoconut s
Ġgrasp ed
Ġremark able
A pril
G l
H oot
M ix
w oo
Ġto ot
ĠM ail
Ġlo af
Ġcl am
Ġsea horse
Ġvan ishing
Ġlap s
Ġscra ps
ĠMel inda
Ġarr anging
Ġpuff y
Mart in
Ġprod uct
Ġbas il
hill ip
Ġic ic
Ġvari ety
T yler
c ling
Ġm uttered
Ġout run
Ġsw ished
ant ic
Ġsun be
ĠC ott
ĠC ora
ĠBob Ã¢
Ġru by
Ġcoll ars
Ġcollect ions
Ġrecogn ised
Ġreind eers
Ġconf etti
Ġsimple st
Ġthreat s
ĠCr ane
Ġbust ling
S e
U m
p her
Ġp oo
Ġk o
art y
Ġfl itting
Ġgr ade
Ġneed ing
Ġmother s
ere st
Ġgold fish
ĠZ og
Ġwheel ed
az el
Ġspell ed
ĠPr iscilla
ĠHar old
Ġfulf ill
Ġconsid ered
ĠHipp o
j a
Ġk i
Ġmo an
Ġmo pping
ĠC on
ĠSp icy
Ġband aid
Ġpath way
Ġrep ay
Ġple a
Ġpersist ed
Ġdare s
Ol iver
bel ief
ĠApp le
Ġg own
Ġwh inn
Ġk ettle
Ġj er
ĠA aron
ĠL acy
iz mo
Thank fully
ĠDo do
Don Ã¢
ul ty
Ġfrog gy
ĠK n
umb ly
Ġtor ch
Ġpun ched
Fl o
Ġslap s
Ġfet ches
Ġappoint ment
Ġwhinn ied
B arry
M innie
r ors
ĠM ond
ĠM oe
ĠF our
Ġhelpful ness
Ġmen us
Ġcraft ed
Car ol
J asmine
J imbo
i rew
Ġh ula
Ġd ying
ar r
ĠM aking
ĠR olly
cer tain
ĠMar ch
Ġtwink ly
Ġencount er
ĠT ad
Ġpr ed
Ġfl am
Ġgr unted
Åĵ These
Ġduck ie
Ġyellow s
Ġmark ings
Ġtick lish
Ġgrand ad
Ġbull ets
Ġscra pes
Ġting ly
Ġunco ver
Ġwhizz ing
ĠJelly fish
Ġa qu
ĠHe Ã¢
Ġwe ave
ĠB iggy
Ġse lect
ĠL ara
ĠF anny
Ġte ases
Ġwonder land
Ġbuy er
Ġarri val
Ġbat tles
Ġpeel ing
Ġpuck er
Ġcollap se
Prin cess
t ract
om i
Ġg ig
ĠB ibi
ĠD ara
Ġeat er
Ġcom ment
ĠC hocolate
Ġun certain
Ġtra ined
ĠR ound
ĠSally Ã¢
ict or
ĠCl ar
Ġrow boat
Ġtweet ing
Ġyumm ier
Ġcraz iest
Ġculture s
B oom
M ick
Ġc urse
ĠH enny
ver ance
ĠW ood
au ce
Åĵ He
Ġdan gling
Ġdis belief
Ġmother Ã¢
Ġtail or
Ġspin ach
ipp ee
ĠFr iday
isk y
Ġluck ier
Ġagree ing
Ġzigzag ged
Ġapproach ing
ift een
Ġhambur gers
ĠS NAP
ĠShe ll
ĠShe ila
ĠI nd
Ġfor ces
ĠB est
Ġcarp enter
ĠCook ie
ĠIsab elle
Ġtink ling
Ġdiv ided
ĠClimb ing
ĠABC s
ou ble
Ġp est
ir ley
ĠShe ep
ic ity
ĠL illie
ap es
Jo sie
ash ion
Ġvill ages
Ġperse verance
t ie
Ġb ased
Ġc av
Ġth aw
Ġst ressed
Ġfor ty
ĠD awn
ĠSam i
Tom orrow
Ġun c
Ġgentle man
Ġ3 0
Ġteam mates
Ġappl ied
ĠGr ump
ĠHar riet
ker chief
Ġtherap ist
Ġflam ingo
er ri
ĠS ylvia
Ġj uggled
Ġbr im
ĠE ag
Ġhand kerchief
iz er
ĠN umber
ee e
Ġwis est
Ġpump ed
Ġbull et
Ġhandful s
Aw w
Ġtrad ition
ĠGen ie
c are
or othy
ĠB re
ĠD are
Ġfamily Ã¢
Ġclos ets
Ġmin ty
Ġinc ident
Ġfeed s
Ġrecogn izing
Ru dy
Ġtodd led
Ġsy ring
Ġni bbles
Ġscri bble
Butter fly
Ġannounce ment
Ġin qu
Ġr ins
ĠB es
Ġsm ir
Ġlo sers
Ġar c
Ġtre spass
Ġco ax
Ġpo ll
ĠC aleb
Ġflut es
ha ved
Ġbend y
l ie
r op
Ġm oose
Ġco z
Åĵ Yum
ĠG aby
Ġcontin ues
Ġcomp ost
Ġdi et
Ġstra p
Ġeager ness
rag ile
ĠDan ger
Ġgolf er
Ġwadd le
ĠButter fly
Ġdilig ently
Ġphotograp her
Q uit
S low
ar ch
ĠS ail
Ġwe aving
Ġne g
Ġfl ush
ish a
Ġsn arling
Ġad j
ĠC aterpill
ĠR iding
sp ecially
Ġperson ality
lex ible
iv id
Ġengine er
Ġsuit able
ĠRob ot
otch a
ĠPet al
Ġsheepish ly
N O
ĠH en
ĠA ren
Ġcan es
ĠD eer
Ġquick est
Ġam b
Ġstory t
iver s
Ġgreen er
Ġspl inter
Ġdiffic ulty
ĠMond ay
Ġsyring e
G ary
R ick
in osaur
im ate
ĠM ack
ĠM ilk
ive ly
ull y
ĠC ut
th ree
Ġfew er
ĠJu dge
ĠButter flies
Ġtran sp
G reg
T re
W il
W illie
ar rot
ad dy
Ġday Ã¢
Ġk il
Ġch ug
Ġmo ss
Ġpick y
Åĵ One
Ġde w
Ġround s
Ġround about
Ġshoot er
Jen n
Ġprod uce
Ġbund led
Ġreel ed
ĠEng lish
Ġadj usted
S oup
Ġa ward
ĠS eth
Ġwater y
He idi
ĠC elia
Ġdist ress
Ġcheer y
St upid
Ġleaf y
Ġscar ier
Ġdire ctly
Ġpy jamas
EE P
A A
B essie
i us
p itched
r ite
Ġso bs
al ities
ĠJ ed
Åĵ Did
ac ular
Ġfruit y
Ġpers pect
Ġsaf est
St even
Ġrug s
Ġer ased
Ġfort unate
Ch ick
Ġrhy me
Ġmerma ids
Ġprof ession
ĠSurpr isingly
ĠBro ccoli
y um
Ġs is
al i
ĠW or
ell ie
Ġfin est
ĠBe ars
ĠSm iling
Ġaccomplishment s
Ġartist s
Ġgap s
Ġjud ged
Ġwhir red
Ġvillain s
Ġspect acular
Ġaqu arium
B ounce
G emma
w ear
Ġf ifteen
ĠT igger
ound s
ious ly
Ġwood land
ix ie
St ar
Ġsilver ware
ĠMe i
Ġpound ed
Ġund erest
sm ith
Ġbon fire
D uck
on ce
Ġmean er
Ġmilk sh
Ġent ert
Le ah
Ġtul ips
Ġcitiz ens
Ġgig antic
Ġentert ained
G otcha
J illy
z ed
id ers
an as
Ġin ser
Ġre cy
ĠL oyal
bb ies
ĠC omet
Ġeven ly
oon s
ĠG lass
Ġduck ies
Ġpol it
ĠLe go
Ġrestaurant s
ĠLou is
Ġsav oring
Ġaim s
yd ney
Squ irrel
mind ed
Ġerrand s
' !"
B onnie
r ina
s n
Ġo ar
Ġsp out
Ġch ief
Ġv ar
ĠTh inking
ĠDo lp
Ġstra nd
Ġoctopus es
pr int
Ġgri nd
Ġwhimp ering
Ġflick ered
Ġdaydream ing
R everse
h am
w is
ĠH igher
al ie
ĠM isty
Ġint r
Ġfo il
Åĵ Give
Ġwatch ful
Ġru ins
Ġblack smith
ho ot
Ġdrum ming
Ġfright en
Ġcop ying
Ġfort une
Ġsav annah
reck les
Ġcock pit
R ory
S T
W isdom
l se
ĠW ild
ĠW aff
ĠTimmy Ã¢
ĠD ri
Ġv ig
Ġtr ades
Ġsl iced
Ġmo pped
Åĵ Goodbye
Ġnight time
St ir
ork y
illi est
Ġcrow s
Ġcontain ers
Ġric hest
Rain bow
El iza
ĠGeor g
Ġunscrew ed
Ġinser ted
A lf
R ing
g ies
t op
Ġm ash
ĠS illy
ĠS issy
ĠB oris
Ġla unched
Åĵ Max
ĠC all
Ġbright ness
man ces
Ġside ways
Ġash ore
ĠSh rimp
Ġclip board
che ck
Ġpersu ade
alf way
B all
T oys
g a
o dies
Ġsm eared
Ġpe aked
Ġfar my
ĠG iraffe
ĠN ikki
let t
Ġmel odies
Ġsub tract
Ġble ated
ĠMo ley
ĠSc ar
Pe ppa
ĠCle o
Ġperfor mances
V iolet
Ġf izz
ig uel
Ġne ared
Ġbr ist
as er
ak ers
Ġlong ingly
Ġhas n
co vered
ĠK arl
Ġatt end
Ġcow girl
ĠSome where
Ġfear less
Ġmir rors
Ġbet ray
Ġadmire s
Ġfasc ination
ĠTw ist
Ġpout ing
Ġinsp iration
Mel issa
Stan ley
Ġfarmy ard
C r
M arry
M any
T onight
W as
b aa
Ġs illiest
Ġto urn
Ġl atch
Ġn ick
ĠThe o
Ġsh ifted
ĠA round
ĠL ana
Åĵ Today
Ġcon so
Ġpat ched
ier ce
Ġexerc ised
ĠCo ffee
Ġwhimp er
ĠAr chie
Ġmajest y
F ind
b ecause
Ġw ilt
Ġp oof
Ġg ur
Ġlo cket
Ġsp ool
Ġmean ie
Jo Jo
Ġlead ers
Ġnail ed
Fr ustrated
the y
Ġconfl ic
ĠCass ie
Ġunpl ugged
Ġhairsty le
n or
Ġwa ry
ĠT y
ht aking
ur r
Ġpr anced
Ġla pped
ĠR ad
Ġmed ium
Ġpress ure
Ġbrilliant ly
Ġrat tled
Ġbreat htaking
Ġsprink ler
Sh all
ĠGreen y
Ġinter net
Ġsens ible
Ġlim it
ĠTra cy
Ġsauc es
Ġscan ned
Ġgalax ies
D inner
F el
K athy
e ather
g ive
Ġcan ce
Ġal as
Ġho bbies
ĠMax Ã¢
ĠC ongratulations
ere k
Ġmotor b
Ġharb our
Blue y
ĠMir anda
ĠTri xie
Te acher
ĠPot ato
Ġko ala
i qu
Ġto ns
ĠT ip
Ġsa les
Ġfor mer
Ġal ike
ĠF erris
iz ation
Ġad ver
Åĵ Tom
ast ing
zz le
Ġpig let
Ġcollect s
Ġsupp ose
Sp arky
Sh ut
Ġvillag er
Ġtransf orm
Ġdesp air
Ġvar ious
J eremy
O ink
O AR
m ine
ve re
ĠM ika
Ġre eds
Ġpo sed
ort hy
ĠP uffy
Ġbar bers
ĠMolly Ã¢
Ġatt ent
Ġpun ishing
Ġbeat s
Ġlimp ing
ĠGor illa
B oy
M ath
m atch
Ġd itch
Ġbo l
Åĵ Ready
Åĵ Great
Åĵ yes
Ġlion ess
Ġvis ible
Ġpol icy
Ġtrain er
ale y
cept ion
Ġgem stone
Ġkayak s
ne w
h ony
Ġwa iled
Ġfe llow
ny ard
Ġmean ings
Ġpu bl
Ġpro ven
Ġbar nyard
Ġspin ner
Ġwrink les
ĠDuck s
shadow ing
Ġcroak s
Sn ap
Ġoverc ame
l ove
m on
Ġsa m
ir ly
Ġbe aches
Ġst a
Ġas se
ĠF ar
Ġpe ering
eter n
Ġpre c
Ġob vious
Ġpar lor
Ġlay ers
Ġsuggest ions
ud ges
ĠTr ina
Ġaddress ed
Ġdandel ions
Ġspeech less
ĠFore st
E lly
W ally
Ġ ir
ĠH ouse
Ġclo cks
Ġche m
Ġgl orious
Ġunder wear
ĠR az
Ġba les
Ġcast ing
ĠFl ap
ĠZ ipper
Ġtag s
bul b
ĠUn iversity
Ġty ping
Ġraindr op
Ġbold ly
Ġprof essor
ĠScr uffy
Ġunh armed
Ġfeature s
irew orks
g um
Ġ etern
Ġd ise
ot ions
ĠB umble
Ġne ater
Ġsqu ashed
Ġleft over
ĠTo ot
Ġpaint brushes
Ġsmooth ness
Ġmedic ines
Ġbill boards
ĠSw an
Ġill ness
Matt hew
Ġtot al
Ġhandy man
ĠShark s
Ġtul ip
En ough
Ġrins es
Ġt it
Ġg iddy
or ance
ent ions
Ġre ception
ĠL emon
Ġshow ered
Ġel ves
Ġhide away
Ġem otions
ho ld
to gether
ĠSh irley
ĠV o
Ġjig saw
N ed
a omi
i ya
t est
ĠB iff
ĠW ool
Ġbad ges
No ah
Ġz ap
row s
az zy
ĠCl ucky
Ġprov ides
Ġsteam y
Ġscen es
Ġdump s
Ġspir al
m ary
Ġ ome
Ġ Yuck
ĠS ha
st em
ro l
ĠG as
ĠSp rinkles
igg les
Ġheart beat
ĠBr ady
any a
erc ise
Br other
ĠLuc ie
ĠBess y
ĠGeor gie
Ġplum s
ĠDream s
F un
F ish
P ark
P romise
w orthy
Ġwa ggy
ĠH ome
ĠD ays
ĠC e
Ġbra ids
Ġcr umbled
Ġple ading
Ġpolice men
Ġcur ry
Ġafternoon s
ĠV iv
Ġyouth s
ĠHa ving
Ġdescri be
Jose ph
Ġtransp ort
Ġbrist les
Ġbetray ed
C ook
L ast
M ara
S l
W ater
t ails
Ġc ack
ĠT am
ĠM ove
ĠA ly
ĠW anda
ro lled
ĠG izmo
me ow
ĠO tter
unt er
Ġbedroom s
Ġraven s
Ġpor cup
Ġcheek y
ĠCo le
Ġleak s
Ġhumming bird
Ġplug s
Ġfunn ier
Fro ggy
Ġgrump ier
R ita
Y ippee
he lp
Ġf ished
Ġwe aved
Ġsm udged
ĠE specially
ged y
Åĵ Not
Ġdream land
Ġhesit ate
ĠJu an
Ġtwitch ing
Ġsmoot hed
tre ating
F ore
L u
W arning
d own
Ġb ared
Ġc ork
Ġc ases
ĠH istory
Ġr um
ur ray
um bo
Ġfl ipper
ĠP ump
Ġmight iest
Ġpass er
osaur us
ĠBl ood
Ġeld est
Ġble nder
ĠCo coa
Jen nie
Ġflood ing
Ġbeg ins
ĠSc issors
Pe ace
Ġstumble s
Ġheaven s
Ġharvest ed
Ġreflect ed
Ġblossom s
Ġbenef it
ivers ary
Ġprofession al
A NG
B ess
m it
m aybe
Ġn umb
ĠH ay
Ġdog house
Ġpick le
Do ll
Ġflag pole
Ġsix ty
ĠLa ila
good bye
ĠDen nis
Ġwoo lly
Ġtourn ament
C hocolate
m i
ĠS aid
ĠJ uly
Ġch ore
ĠSam uel
ĠC omp
ĠJen kins
Ġca bb
Ġrec ently
Ġtag ged
Ġtoast y
ĠRe ggie
Ġmass ive
Ġsoot he
ĠMir aculously
L emon
Ġ ident
ĠS ebastian
ĠI gn
ĠG uess
ĠR hino
Ġcr op
ĠTh row
Ġgrass es
Ġlight bulb
Ġdri bble
Ġear ring
Ġwash cloth
Ġhunt ed
ĠSn ake
Ġmechanic s
Ġlandsc apes
ĠJeff rey
Ġocc ur
Els ie
ĠDoll s
ĠSa brina
Bra vo
Ġperspect ive
' !
ĠS at
ĠH ard
Ġe erie
Ġre se
Ġbo ssed
Ġold s
Ġover all
sh ips
Ġtrust worthy
Ġshiver s
Ġhelpless ly
ĠCl ay
bul ous
Ġped dled
Ġfabric s
ĠWoo lly
ĠSmo key
Ġproduc ed
Ġtreet ops
R epeat
il ia
ĠH appiness
Ġup coming
Ġcan ary
Ġpe w
ĠP ass
Ġspl attered
Ġlay s
ject ed
Ġobser vant
Ġchess board
ĠGrand mother
Ġconflic ts
K ai
R uff
c red
f or
ĠS af
Ġst ash
Ġsaw s
Ġfa bulous
ĠD ifferent
ĠD orothy
ĠC onnie
Ġfree ing
Ġcro iss
Ġshoe box
Ġmeaning ful
Ġadver t
Ġporcup ine
J elly
K ing
un s
ur ly
Ġbl ouses
Ġsk ated
Ġproud er
Åĵ Follow
ĠC elery
Ġarm our
Ġpig tails
Ġcollect or
ĠFr ance
ĠPe ach
ĠSm iley
Ġseatbelt s
Ġshoel ace
Ġpubl ic
T hings
p aper
Ġs id
nd a
in ated
ĠH orse
ĠF reckles
Ġsl ings
Ġcr an
Ġsea side
ĠZ ac
Ġapolog izing
ĠBo ssy
Ġblast ed
Ġdemonstr ated
Ġcleve rest
M ail
M erry
c um
Ġh ired
en sed
ĠM ind
Ġre fe
Ġbo b
Ġcl ient
Ġdis re
Ġjoy s
Ġbelie ves
Ġbubble gum
?' '
ĠListen ing
ĠĠ ĠĠ
Ġcluck ing
Ġplank s
Ġcooper ative
CRA SH
Ġrefe ree
Ġw iz
ĠS it
ĠB al
ĠB and
Ġab s
ĠMia Ã¢
Åĵ Sorry
let e
Ġimag ines
Ġent ers
ĠLe a
Ġchalk board
Ġmattress es
Sh ow
Sh are
ĠRock s
Ġbound aries
cr ack
Ġrumm aged
Ġome let
L ost
t ale
Ġb urp
ĠS ing
ĠHe ather
ĠB eet
Ġbut cher
ĠL aw
ĠD ale
Ġgr illed
ess a
Åĵ Dad
ĠG low
Ġfro st
ĠSt ory
Ġbull s
Ġclub house
Ġquarrel s
Ġmer rily
yl ie
ilar ious
Ġvolunt eer
M anny
Ġs ensed
Ġp unch
se e
ĠM itch
Ġsp arked
Ġmu lt
Ġeven ings
ier re
ĠO il
ĠO at
Ġsent ences
ĠTr ouble
Ġann iversary
ĠSl im
ĠDi ane
s ized
Ġh ilarious
Ġc ure
ĠS ari
Ġgo ds
Ġran cher
ret t
ĠR est
ĠR epeat
bo om
Ġclever ly
Ġspeak ers
Ġconvin cing
Ġswoop ing
Ġfanc ier
Ġspeck led
ĠPee king
ĠSwim ming
Ġpolit eness
Ġcabb age
Ġwiz ards
P ol
R ich
Y ield
b un
g h
Ġbe ady
Ġsm ashing
ack ed
ur f
Ġcl ang
Ġman ner
ĠW ind
Ġeach other
aut iously
ush room
ĠCl uck
Ġigloo s
Ġgrill ing
Ġglo ssy
Al most
Ġpartic ip
ĠCra zy
Ġtransf ormation
Rock y
Ġcartwhe els
Ġslings hot
B elieve
T a
r id
Ġy ards
ĠM al
Ġsl ope
Ġcre aky
Ġcoo ing
Ġweak ly
Ġgri zzly
Ġresponsib ly
Ġsoot hed
ĠPast a
Ġextingu isher
Ġheed ed
Ġphra se
M aisie
b aby
Ġt ilt
Ġf urt
Ġdo cum
se at
ĠM eena
Ġrabbit Ã¢
ĠR ace
Jo dy
Ġdelic ately
Ġsquir m
ĠWhat ever
Ġfarmer Ã¢
Ġsharp ening
Ġpract ise
Ġed uc
ray ing
Ġrip est
Mon ths
Wo ah
A pp
B an
O scar
P ay
t on
Ġm ow
Ġr ushes
ĠW ine
Ġbr ow
Ġsk illed
Ġsn ored
Ġunt idy
Åĵ thank
Ġfi ery
ĠGrandma Ã¢
ĠEll i
Ġgener ations
Ġnumber ing
Ġavo iding
Ġsplit s
Ġjudge ment
stick s
Ġramp s
Hmm m
Ġplun ge
Ġrev ved
ĠBes ides
Ġfurt hest
G reen
he althy
Ġb i
ĠT uck
es ter
ĠM uffy
ĠA c
ic ole
ĠE ast
ty ard
ĠC ooking
Ġduck y
ĠLila h
Ġlow est
Ġcaulifl owers
Ġcomplain ts
Ġtopp led
Ġbrief case
Ġconso le
v ation
uc ted
Th row
Ġey eb
Ġper haps
Ġspoon ed
ub s
Ġrep res
Ġstamp ing
ĠV icky
Ah hh
Luc as
K n
s k
Ġt art
ĠT ur
ĠT rying
Ġn av
ĠH azel
ri cket
ent ed
ĠW alter
ĠF rench
ort ing
ĠP ige
ĠBl ake
ĠWh ale
Ġencourag es
Ġscow ling
Ġripp le
Ġprison er
B a
R est
f our
y ay
Ġa ched
Ġtr ink
Åĵ Lucy
ĠSo ap
Jo anna
Ġmum bled
Ġdelicious ness
Ġwhist ler
Ġbored om
ĠBr ing
ĠBu d
Ġsym p
Ġthreat ening
ĠRel ax
C lean
G wen
J emma
M iles
r ated
Ġh uh
ĠT iti
Ġsp a
ĠL unch
ĠE aster
Ġgr ades
Ġhand ling
Ġeveryone Ã¢
Ġcount ers
Ġpink s
Ġcour tyard
Ġpath ways
Ġneighbor Ã¢
St ri
ĠCh ildren
oph ones
ĠSt art
Sp icy
Ġmem orable
Ġhung rily
Ġhi king
Ġconcer n
Ġsy stem
Ġexcept ion
Jon athan
ĠFel icity
Ġcoop eration
OO M
Ġfluff ed
Ash ley
Ġstoryt eller
Ġmotorb ike
M ind
P uppy
T ra
in i
Ġf les
Ġp om
Ġo val
Ġdo ze
if ic
ĠL aser
Ġover coming
Åĵ it
Ġflower y
uff s
Ġsho ved
Ġslow s
Ġsear ches
Ġrace car
Ġschool s
Ġmad der
Ġpool s
ĠCl over
Cl are
Ġclick s
Ġdev oured
Ġsouvenir s
ĠJem ima
ĠCrocod ile
Ġbol ts
Ġfles h
N icky
b ack
p ot
id den
Ġdown stream
Ġhand c
Ġfr illy
Ġun even
Ġfight er
Ġsnack ing
Ġfairy tale
Ġsaf aris
Ġstraight ened
Che ers
ĠBra nd
A maz
E lephant
is itive
ĠS el
Ġr ap
Ġfriends Ã¢
as ons
ĠF ive
em ons
Ġfish ies
Ġstrong ly
ather ine
Ġslow ing
Ġsnow s
Ġpa uses
Ġcho king
ĠAll ig
ĠLe ila
Ġstubborn ly
Ġjug s
Ġquar ter
Ġmop s
Ġanch ors
ĠBo at
ĠEl isa
Ġresponsib ilities
Car ly
Fro sty
Care fully
ĠLy la
Ġsul ked
Ġponder ed
ĠCaterpill ar
Ġetern ity
Ġnav ig
G as
Ġd ents
Ġg inger
ĠS eal
ch a
Ġback seat
Ġle ashes
Ġmu les
ĠP u
Ġma zes
eter ia
ĠFl ip
Ġcelebr ations
Ġpoor ly
ĠTr udy
Ġstrang ely
Ġbes ides
Ġflick ering
Ġcaf eteria
Ġperse vered
Ġproduc ts
ĠCount ing
Ġinqu isitive
Ġf ain
Ġm mm
il le
ir us
st age
el ines
ma king
Mom ents
Åĵ Those
ĠP al
Ġbro ad
Ġdark est
Ġpar ach
ĠLe arn
ĠFr isky
ĠSnow fl
Ġchimney s
Mar ley
Any thing
Ġtend er
Ġrasp berry
Near by
Ġpasser by
Ġsid elines
B er
M an
M ild
l i
Ġt attered
Ġh y
Ġf itted
Ġday care
Ġro le
Ġcar ving
Åĵ let
Åĵ Time
Ġtra gedy
Ġboat man
ĠO y
ĠZ oo
Ġappreci ating
kelet on
aa ah
the less
ĠPen gu
Ġgallop ing
ĠScr atch
po les
gra ndma
K at
d ad
h oo
i eces
p op
Ġf erris
Ġg ut
Ġn ook
ra gon
ump ed
Ġlong ing
ĠP ri
ĠN ight
Ġmin ers
Ġtick ed
Ġrelax ation
Ġaw ait
Ġscatter s
Ġrecommend ations
Miss y
Ġtrot ting
Rob ot
Ġoutsmart ed
ĠMill er
Ġrecy cling
c co
d ely
Ġs ooo
Ġh ars
om ped
Åĵ what
Ġfi ves
ĠG ently
Ġru dely
Ġadventur ing
Ġprice less
Ġreply ing
Br ad
ĠMa jest
ĠPop corn
Ġsnoo ze
Ġdut y
C olin
M s
re a
ĠS ydney
Ġon board
ĠA ddy
art en
be ar
Jack Ã¢
Ġmeant ime
Ġpay ment
ĠBl ocks
Is ab
ĠWatch ing
Ġtuck ing
Pipp in
ĠPir ate
Ġtad poles
Ġunderest imate
Ġo oh
ir ds
Ġr aged
st ar
The o
Åĵ Yeah
ĠP ixie
ĠN ala
Ġdr unk
ord an
ĠMary Ã¢
Ġshap ing
Ġring master
ĠMar c
Ġjeep s
Ġtipt oe
ĠLu isa
Ġfail ure
Ġdash board
M ir
T iger
t een
Ġt v
Ġs ke
ig o
Ġal together
Ġman t
ĠD ark
ĠD isappointed
Ġv irus
Ġjust ice
Åĵ Take
Ġparents Ã¢
Ġcool s
Ġband ana
Ġscar iest
era ld
Ġloop ing
Ġitch ing
Ġbaseball s
ĠAm ie
ĠDe an
ÅĵThere Ã¢
Ġcann on
ĠMajest y
A rr
G old
S ix
l iness
n old
s ometimes
oo oo
all ory
pl er
Ġv irt
ĠR ub
ĠThere Ã¢
Ġju ices
Ġdragon flies
Ġbrown ies
Ġwild est
unk y
Ġjew ell
Ġboss ing
Ġresc u
Ġthunder ing
Ġax es
Ex cellent
Ġfash ions
Mat ty
Ġaim ing
ĠStri pe
Ġgarl ic
C ould
J am
N urse
S ounds
V al
l ot
w ee
Ġa a
Ġw ed
Ġp ity
ar ly
Ġshe pher
Ġsh rie
Ġgr ime
Ġye ah
We e
ĠFl ower
ĠZ ebra
Ġpost ed
ib ility
Fl ora
ĠLuc a
ĠPhil ip
w oof
Ġth or
ĠThey Ã¢
ĠB EEP
ist a
ĠC op
oy d
Ġhead band
ĠR ing
Ġhospital ity
Ġmot iv
Ġorder ly
aff od
ĠJess y
Ġbak ers
Ġsatis fying
Ġweekend s
Ġroast ing
Ġbloss omed
Ġimit ate
Jenn ifer
Ġdisre spect
y ield
ĠH ors
ĠB erry
ĠM os
ĠE vie
Ġsw arm
ĠIn k
zz z
Ġbelong ing
Ġpar cel
St and
ĠFr uit
Ġmicr ophones
Ġamount s
erg arten
Ġjing led
Ġmisbe have
C ir
d i
m oo
s ix
ĠB on
ĠJ ada
ĠL ord
ĠE n
ĠF ierce
Ġint entions
Ġsn out
Ġgl ance
Ġstor med
Ġkeep ers
Ġclean est
ang les
Ġclass mate
ĠBe aky
Ġimprove ment
ĠApp les
Ang el
ĠWorm s
ĠPain ting
ĠBel inda
Ġjer sey
ĠClar issa
I NG
T ree
r ude
v able
ĠS ack
Ġno is
ro ve
Ġv ivid
ĠF ix
ĠP uzz
ĠP aper
Ġsqu ishing
Ġtreat ing
ĠSome how
Sp idey
Ġshut ting
Ġhall ways
Ġinf ected
Ġflood s
Ġsi xt
Ġtoss es
Ġsuck ing
ĠMix y
uccess ful
organ ized
Ġoverall s
D oug
W illy
Ġt ipping
Ġl ure
Ġre asons
Ġsp an
Ġv ain
ĠC ont
Ġdra ined
Ġbutter y
Ġswim mers
Ġcho ked
Ġcho ppy
Ġwhe e
Ġsharp er
Be a
ĠDan ie
Ġfrag rant
Ġaff ection
Pat rick
Ġgest ured
Ġbaa ed
Ġobl ige
Ġradi os
! !
e ight
w i
ĠH ide
ĠA iden
ĠF eather
Ġqu alities
Ġgl int
ĠP aint
Ġey el
Ġhat ing
ĠDon ny
Ġang le
Ġcompet ed
Ġtruth ful
ĠAm elie
ĠUp on
Ġwealth ier
Ġroo ft
Ġinvol ve
ĠLance lot
Ġdecre ase
Ġquen ch
Ġcrad led
ĠPump kin
Ġeduc ation
Z oomy
Ġrain storm
bo ve
Ġpat s
irt een
la ze
Ġdust ing
ĠV ictor
ĠAnt hony
oss om
ĠJump ing
Ġvacu umed
Ġtriumph ant
Gl ad
Ġbarbers hop
Ġtit le
Ġshepher d
A ha
M int
O W
S it
s uit
Ġl itt
ĠM icky
ĠF ood
Åĵ Excuse
ĠP orky
Ġwonder fully
fere n
ĠAmy Ã¢
ere sa
Ġstra pped
Sp ray
keep ing
ĠKim my
Al an
Ġfif th
ĠAmaz ingly
Bir dy
ĠCon nor
H ot
Ġ `
Ġ vers
Ġm ould
im id
ot ic
Ġfor ms
Ġcar rier
Ġhouse work
be haved
ĠP addy
ĠP urr
Ġcool ing
ire s
Ġneigh s
Ġspend s
ĠSh aron
Ġrag ing
Ġunf reeze
Car oline
ĠDe af
Ġjing ling
Ġswat ted
Ġescap es
Er in
Ġkil os
a vers
g reen
v oc
Ġto ck
Ġd awn
Ġhe ap
id a
ic als
Ġcar go
Ġint imid
ĠN apping
Ġcr unched
Ġcomp art
ĠSt ars
Ġfil th
Ġorig ami
Ġflex ibility
Ex it
Ġentire ly
Car rie
ĠButter cup
ĠBar ber
Ġadv is
ĠLast ly
Ġah hed
Ġmilksh ake
Ġcance lled
ĠBrand y
H oo
P ink
S ky
n ine
z el
Ġc ert
ĠT en
ĠS keleton
Ġsee ming
Ġtree Ã¢
ĠP ep
Ġun healthy
ass ion
Ġlea ked
St itch
Ġrec ital
Ġham m
Ġquestion ing
Ġten nis
Ġshort ly
ĠCat s
Ġantic s
ĠChick en
Per fect
Ġsnoo zing
Er nie
Ġdise ase
G reta
e lderly
Ġd un
pp ly
se ven
op ard
Ġdog gies
Ġgra ze
Ġgl inted
Ġcol ony
hn ess
Ġcon cl
ĠG ill
Ġwalk er
Ġba le
Ġamazing ly
Ġstra nded
Ġhonest ly
ĠV era
Ġswallow s
Ġprank s
ĠBlack ie
ĠMag gy
raw berry
Ġhyd rated
0 0
H istory
R ia
b ling
Ġd ren
Ġbe avers
ĠA head
Ġjo gg
ob i
Ġey ed
Ġshr ugging
Ġang les
Ġpil ing
ĠMar la
Ġthunder cl
Ġspeed ed
Ġbur sting
Ch ild
Ġsting ing
Ġnuzz le
Ġdiso beying
Wheee e
ĠCloud s
Ġchem icals
Ġvirt ue
V ictory
Y ep
Ġto ken
il izer
Ġbe ck
Ġst ock
if act
ĠC atch
ĠP ierre
ĠG uns
ĠSp aghetti
Ġcr u
Ġacc ur
Ġrep orter
Ġapolog ise
Ġgraceful ness
ĠRo llie
Ġrhy mes
ĠBo zo
ĠPrin t
bl ue
ĠSte am
nut s
Ġvig or
ĠScar lett
Ġeyeb rows
O U
g ant
z er
ĠS and
ĠM iguel
." .
ĠBen ji
ĠD erek
ist ic
ĠP hillip
Ġapp ly
ĠN eed
Ġcold ness
app ily
ĠNo vel
Ġcamp ers
Ġopp on
ative ly
ĠDot ty
Ġnin ety
ĠBark ley
Ġsevent y
Ġcowgirl s
Ġshrie ked
A llie
H igher
L ight
f olk
s al
w w
ĠT ink
at a
pl ing
Ġsw ish
ĠD ella
ĠF ast
Åĵ Little
ĠC asey
ĠR ina
sh rink
ĠFl ick
Ġsplas hy
Ġext ended
Ġart ifact
ĠV an
Mar ch
Ġtiss ues
cher s
ĠHonest y
ĠWaff le
Ġrese arch
Z ack
ay ed
Ġn udge
Ġu g
Ġr akes
Ġst am
Ġst ooped
ĠM or
Ġfl ushed
Ġfly ers
co aster
Ġdin ners
Ġgentle men
Ġdepend ing
Ġgir ly
Ġconf ron
ĠDuck ie
Ġconnect s
Bird ie
Ġmarvel ous
Turn s
ĠSnowfl ake
B ooks
K yle
R R
c est
i pt
l ist
n as
o vers
ic an
Ġch omped
ax i
Ġho pper
Ġdis p
ĠN aomi
Ġdi pping
Ġwheel chair
Ġcrow ds
Ġport al
ĠPr unes
ĠKe ith
Ġeight y
ĠSw ans
Ġjud ging
Ġbas ics
ĠNear by
Ġfres hest
Ġreception ist
c ra
i work
t aker
Ġt us
Ġwa ft
re pe
Ġd affod
ĠT anya
Ġst ink
ĠA corn
ĠL ula
Ġch or
as ped
ĠE van
Ġhand iwork
Åĵ Yummy
Ġreal ising
br idge
Ġnervous ness
oop ing
Ġmarket place
Ġeng ulf
ĠSn akes
ĠJul ian
ĠRe g
Ġcontro ls
Ġnood le
ĠSk ye
Ġinvent ed
ĠLa zy
Ġscut tling
Ġtowns folk
Ġsizz ling
ĠDel icious
Ġdiv ide
Ġprepar ation
Chick ie
C K
E R
E S
O p
Y up
p erson
on ica
le ction
itt ies
ĠA h
Ġback up
Ġsn or
Ġwar s
th a
ila h
Jo die
Ġdri bbling
Ġrel uct
ee zy
Ġban ners
ĠLe on
Who ever
ĠPaul ine
Ġclassroom s
Ġraccoon s
Am i
Ġthump ing
Pr ince
Ġphotog raph
Ġviol ins
leas ant
ĠCott on
Alf ie
Fore shadowing
Ġske pt
Ġjewell ery
repe at
D ino
Ġd read
ĠS ec
ĠB umpy
ĠM ushroom
op ed
Ġch am
ĠF uel
ĠC al
Ġun ity
ĠG host
Ġlight est
Ġelse where
Ġgrow th
Ġpa using
Ġacc ord
Ġremind ers
Ġyach ts
ĠRe al
Ġboom s
Fin ny
Ġpleas antly
Ġanten nas
Dr op
Ar thur
Ġdren ched
Ġsnor ke
! ?"
M oe
S ummer
i ful
Ġn orth
ad s
ĠB ab
ap ers
Ġint ense
em s
Åĵ P
Åĵ W
ĠC orn
Ġfast en
ob ble
ĠP arrot
Ġpre vious
ĠJimmy Ã¢
Ġhon our
Ġlast s
Ġign orance
Be es
ĠDan i
kn owing
Ġraft ing
Ġregret ting
ĠSqu are
Fo xy
Ġpuff ing
ĠTe ach
ĠWas hing
Sweet ie
Ġadop ted
Ġadv ised
Ġselect ed
Åĵlet Ã¢
Ġhamm ock
o ken
t asting
Ġf ero
Ġsa cked
ĠH ad
ĠM ist
Ġre cycle
He aring
Åĵ but
Ġun att
Ġopen er
Ġru bble
Ġsnow storm
ĠK ari
Ġpre feren
ugg a
ĠGo ing
Ġpin ned
ĠZ ane
oof y
Ġstri ve
Ġcheap est
ric ia
Ġsuper vision
Ġtray s
ĠSh op
mm m
Ġtug s
Ġexha ust
Ġexpress ing
Ġsnug ly
Ġstrum ming
Ġshimmer y
Ġsuperp owers
ĠBeet le
Ġfain ted
F ighting
P et
ou rage
Ġf rench
Ġo beying
at ops
Ġn or
ĠB ri
Ġk itties
ĠA mer
ic ier
Ġfe at
Ġsw ore
ĠD inosaur
Ġsk id
Ġjump y
ĠN ap
cer atops
iff any
ĠFr anny
Ġimpat ience
Ġmodest ly
ĠBun bun
Ġlime ade
Ġwaist s
ĠMouse y
Ġpuck ered
Ġill um
ĠWhe ther
Ġmold y
Ġroller coaster
ĠBan anas
Ġcla im
ĠSat urn
Ġconfron ted
Y oga
f ives
o ise
p om
w ist
y uck
Ġn on
Ġth irteen
ĠH unter
Ġbe ings
ĠB ingo
ch or
ĠA llowed
ĠTom i
Ġsc ents
Ġtre k
It s
Ġsafe keeping
Ġred dest
Ġstore owner
ĠGra b
Max ine
Molly Ã¢
St e
ĠLe wis
ĠBl inky
Who se
Ġpost box
Ġcur b
Ġrece ipt
Ġmarry ing
Ġliqu ids
Surpr isingly
Ġoffic ial
Ġquarre lled
Ġattempt ed
udy ing
ĠWhe at
Ġprotest ed
ĠSha wn
Ġvigor ously
L o
d el
w ord
it or
ĠT affy
Ġre ne
Ġse lection
Ġkn itted
Ġcl asped
ĠW ords
ss a
Ġsl umped
Ġkind ergarten
ĠC and
Tim othy
Ġdraw bridge
ĠTommy Ã¢
ĠK ip
Ġtower ing
Ġjourn als
Ġcam els
ĠFr ances
ud ging
Ġtrumpet ed
Ġambul ances
ĠPo ison
Ġfeast ed
Ġconcentr ation
Ġreassuring ly
Sque ak
Ġcommand s
Ġclums ily
Ġunp leasant
Ġrelation ships
Se an
Ġpred ators
Ġhandc uffs
Ġchor us
knowing ly
Ġfero cious
Ġrene wed
P a
c is
Ġin ner
ad ise
bb er
Ġunt wist
ĠC am
Ġcon stantly
ĠSp iders
ĠR ep
ster y
Ġpol ishes
Ġspin es
Ġstream ed
Ġfrag rance
Ġstrength s
Ġargum ents
Ġtroll ey
Ġdetect ives
ĠSte ak
Cra bby
Ġresour ce
ĠStr ong
Ġaa hed
! !"
' '
A Y
L ad
Ġs outh
Ġm akers
ĠT ick
ĠS our
Ġth ri
ri ff
ag ged
ĠF le
ĠAnna Ã¢
ĠP erry
Ġdark en
Ġbuild s
Ġow ie
ĠEmma Ã¢
Ġcompetit ions
Ġdeliver ies
Ow l
Ġmention ing
ĠBo ots
ĠSk ipping
Ġpossib ly
Ġgrump ily
Ġpinec ones
Ġrasp berries
ĠCarrot s
Ġtrespass ing
sn ap
Ġpreferen ces
M aking
Ġ ,
Ġb ases
Ġf ert
it ions
ing erly
Ġha unted
ĠS urrender
Ġ" '
Ġco y
ess ed
Ġhold er
Ġhot dog
oun ces
Ġpar adise
ĠBl ossom
Ġtoast ed
Ġsupport s
Ġinstr ucted
ĠJe w
Ġlamb s
Ġcor rid
Ġmer cy
Ġexplo des
Ġmatey s
ĠRun ning
Ġclums iness
ĠGeorg ia
ĠTur key
D ory
G ently
M uch
P L
r d
Ġf ame
Ġbe llowed
ĠM oral
ur s
ĠF isher
ĠF lexible
Åĵ Lily
Ġdaughter Ã¢
ĠGo lf
Ġfoolish ness
Ch oose
sol ve
Ġscri bbling
Ġrack et
Ġchunk s
Ne igh
ĠNat alie
Ġins ides
Fel ix
w ould
ĠT eresa
ĠI an
ic he
Ġgr unt
Ġstr ate
Åĵ F
ĠC ricket
ĠSo ft
Ġmar ches
Ġspark ler
Ġrec ite
aw r
Ġfre es
Ġgaz es
Ġspoonful s
Ġbas king
ĠTe acher
ĠDina h
Ġpy ram
Ġdut ies
Ġsumm it
Ġsunbe am
ĠPige on
D iana
D ylan
L ooking
m om
s ue
y er
Ġf idget
ĠS y
Ġbo ing
Ġse vere
ĠA bove
Ġsw iped
Ġbl u
ĠD ash
Ġfind ings
Ġcare taker
Ġra c
ĠP ippy
Ġdri bbled
ĠK itten
Ġsec ured
Ġheal er
Ġstraw s
az ing
Ġcur ling
Ġperfu mes
Ġwre st
Ġcent im
ĠY ield
ĠEx ercise
ĠWil son
Beth any
Quack ers
Ġaccess ory
Sun shine
Sk ip
ĠRaz or
Ġparach ute
D ream
b ug
Ġt amb
en e
ĠS er
ĠS is
Ġr ipping
Ġst uffy
Ġwh ips
ĠM er
Ġar ch
You Ã¢
Ġbr at
pt ion
Ġred s
Ġun knowingly
ren ce
Ġfair ness
ract ice
ĠCh ad
Ġscr uffy
ha ving
Ġaw oken
Ġdifficult ies
aulifl ower
An imal
ĠFire man
Ġdisc ount
Ġassist ance
Ne w
Ġsuperp ower
Ġcla imed
Ġdisrespect ful
Ġcert if
Ġtus ks
A udrey
B ro
B ring
G ray
M ack
U gh
r ont
ĠS omeday
ight ed
Ġbl aring
Åĵ Bob
Ġru lers
Ġdr ool
Ġlady Ã¢
Ġcre st
Ġel ated
Ġsign ature
Ġreturn s
ĠSt reet
Ġmap le
Ġfour teen
ĠMar vin
ĠSh ake
ĠSh iny
Ġrecogn ise
ĠRo cco
Ġhurric anes
lves ter
Ġplayd ough
Ġdoz ing
Ġoverfl ow
Ġtran qu
Ġdu o
Ġfrol icked
Ġsmir k
Ġoccur red
Ba iley
Ġreluct ant
Ġunatt ended
Ġcertif icate
c atch
n el
Ġf al
Ġl ane
ĠB athing
Ġar f
ĠL il
uck le
Ġsl ug
Ġsun ning
Ġen sure
Ġsn arl
ĠP ush
Ġschool work
Do ctor
ĠSt acey
Ġfavour ites
Ġsurf aces
Ġer asing
Ġbun s
Ġwrink le
ĠHold ing
Ġsens itive
Ros y
Ġwitness ed
Step h
ST OP
Ġsta bbed
Ġjogg ers
A d
B ongo
D ay
N umber
Z ap
l by
Ġb oop
Ġn ooks
Ġsh aved
Ġbo ar
ĠL umber
ĠL ili
qu ack
Th under
Ġice ber
Ġelse Ã¢
eter red
ĠO ctopus
Ġgate keeper
Ġboard ing
Ġiron ed
Ġjunk yard
Ġdeser ts
Ġinsp iring
Ġsill ier
Ġhoot ing
ssssssssssssssss ssssssssssssssss
Ġarcher y
Ġpest s
Ġcentim et
? !".
a be
w in
Ġa ah
at ers
at ty
le af
ri but
Ġso le
ind eer
are nt
Ġch omp
Ġgr ouch
ĠF air
ĠG ret
Ġdark ened
Ġgent ler
ang s
ord on
Ġfeather y
Ġrose mary
ric ate
Ġreco ver
Ġregret s
ĠAng us
Che ck
Ġdroop ing
Ġscree ching
Ġcraz ier
Sw im
Ġicic le
ĠNovel s
Ġengulf ed
u a
op en
ĠL ala
ant ing
Ġde vel
Ġrain water
ĠR ice
Ġrest ful
Ġsquir ming
app er
Ġspark lers
Ġblack bird
ĠWith in
la f
ĠMar gie
Ġobser ves
Ġachieve ments
ĠMad ison
ĠEl mer
Ġspong es
Ġwrigg ly
ĠDe ep
Ġgalax y
Po ison
Ġpoll ut
ĠRhino ceros
Ġtamb our
1 0
C ow
G erry
v is
Ġf atter
ĠT ap
ĠH ilda
Ġplay mates
Ġsc hed
ĠD es
ĠD illy
Ġint ricate
Åĵ Listen
ĠC urly
Ġtow ered
Ġafter ward
ĠR ingo
Ġpi an
Ġfoot ing
Ġreg ard
ĠJoy ce
ĠMatt ie
ĠKay a
Ġscow l
Ġprog ram
Ġdrip s
ĠStu art
Ġrelation ship
Ġfoss ils
Ġswer ved
Ġvers ion
Lad ies
A da
C her
D ora
G ail
b a
l antern
n Ã¢
Ġc ore
ĠS uccess
ĠHe el
ĠB ry
ĠB aking
ĠB laze
if ied
Ġv iolet
Ġtw ine
Åĵ And
Åĵ Molly
ĠG row
Ġchild Ã¢
ĠR ico
iv a
Ġmen acing
Ġcaptain s
Ġspaceship s
Ġsteep er
Ġunf ro
Ġcor als
Ġsnort ing
Ġtin iest
Sweet heart
rop ri
G inny
N ope
P in
W ork
ĠT own
ĠB art
ĠB ucky
Ġsh atter
Ġar ose
ĠJ up
op her
Ġlike ly
ĠF ireworks
Ġunt ouched
ĠC ell
ct ic
ast le
ĠG e
Ġbright ening
Ġste als
ĠTo ast
Ġsmo ked
Ġstra ined
den ess
ĠPe aches
Ch ar
ĠRo d
cl ick
Ġrespond ing
Ġcongratul ate
Ġmarve lled
ĠRel iable
ĠMin ty
olo getic
Rel uctantly
Ġunra vel
Ġartifact s
ĠJup iter
A ly
A aaah
B uster
F ifi
L ydia
N ellie
Â Ń
ĠL izard
ist le
ĠP ie
Ġfr ills
Ġru deness
Ġcont ra
hy s
Ġfull er
av in
Ġsomeone Ã¢
Ġpass word
Ġcow ard
St retch
ĠZ ach
iv y
ĠSh arp
Ġsub mar
Ġcliff s
Ġcontro ller
ĠDra wing
Ġsauc ers
La uren
Har riet
Ġcy cle
ĠVo lcano
Ġabs or
B illie
L ee
R OAR
T ri
c led
t weet
Ġm owing
Ġp oodle
ĠH onk
Ġsp iciest
Ġro aming
Ġch urn
Tom Ã¢
ĠC ube
Ġte en
be es
Ġun imp
ĠG reed
aught ers
arp er
Ġsword fish
ĠAl ina
ĠKing dom
ĠRa j
len ess
?' "
Ġplain s
Ġbouqu ets
Rob o
ĠLuc ia
ooh oo
Del icious
Ġsam p
Ġcran nies
Ġtrink ets
H onk
v ices
z ip
â Ģ
Ġh umbly
ĠH an
Ġwe bbed
ĠA ut
Ġex ited
ĠJ a
Ġgra cious
Ġpo d
Åĵ we
ĠC ally
Ġdra ins
ĠSp inning
og urt
Ġap ologetic
Ġhero ic
na ppy
ĠFr itz
Ġrecogn izes
Ġsub st
ĠMiss ile
ĠRe ach
ĠAn cient
Ġinsp ection
ĠAr nold
ĠSal ad
Ġsquigg ly
Ġsquigg les
Ġhyd rant
ĠSaf ety
ĠElli ot
f oot
f ashion
p ow
Ġb alm
Ġo inked
ĠS ign
ĠTim Ã¢
Ġcl inked
Ġran ge
ĠL es
ĠL olly
Ġla sting
Ġch ime
Ġch andel
au nt
Ġcut er
Ġpart ing
Ġhair brush
ren e
igg ly
Ġshut s
ĠOr gan
Al ison
uxu ry
Pat ience
Ġbomb s
Mo llie
Ġtrad er
Ġlaz ily
Åĵhello Ã¢
ĠCont est
B est
I nt
O xygen
R on
b irds
d ong
g rand
Ġm ending
st ore
Ġfriend lier
ĠL ori
ĠD is
Ġpo et
Ġkne ad
Åĵ Tommy
ĠC ir
ĠC ate
Ġgl uing
Ġcr ink
Ġcr anny
ĠCan ada
ĠK night
Ġpro dded
Sp ider
Ġham per
Ġdepend s
Ġindependent ly
Ġgum mies
Ġtooth ache
Ch uck
Ġdelivery man
whe el
Ġdoz ens
Wo nder
Ġswift ly
ĠPir ates
Girl s
rrrrrrrr rrrrrrrr
Ġstam mered
ĠSy lvester
A ccidents
C le
C hip
D ead
H ide
I vy
T aylor
m ond
p re
Ġa uth
Ġl ou
Ġl ink
ĠT oy
Ġso b
ĠM acy
ind er
ĠJ ordan
Ġback stage
Ġme Ã¢
ĠW itch
Ġch art
our ing
Ġapp ropri
Ġdis gu
ĠMommy Ã¢
Ġleft overs
Ġcomp lex
ĠFl ame
ĠO laf
Ġround er
Ġstra ps
Ġsuccess es
Ġtent atively
Sp eedy
Ġcrack led
Ġtravel ers
Ġpit ched
Ġgolf ers
Ġhesit ating
ĠV ictory
Ġdisagreement s
Â© .
Ġinno c
Ġradi ating
lean or
ĠDolp hins
Lemon ade
Kn ock
Ġresource ful
H ug
Ġf ried
ly de
Ġwh om
ĠL in
Ġsw ishing
ump t
Ġstr ung
Åĵ Sarah
ĠG ri
Ġmess en
ĠSt ore
ĠSt ret
Ġchar med
Ġdelay s
Ġpur ses
Ġappear ances
ĠEl ena
Ġcraft ing
Ġgrandd ad
Ġ5 0
Ġmold s
Through out
Ġsales person
Ġadvert ise
ĠTuck er
ĠAc ross
D ina
M ole
M uffin
N ia
O ther
f ight
Ġf angs
ĠS et
Ġy olk
Ġre arr
Ġla pping
Ġch anted
Ġpe gs
ĠJo gging
Ġgl are
Ġrest s
Ġflower bed
sh irts
Ġcold est
Ġbreak able
Mia Ã¢
col m
Ġpract ices
Ġmuff led
Ġtwink les
Ġconnect ing
Ġoper ator
Ġzag ged
Ġcroiss ant
Cir cus
Ġskept ical
Ġcham bers
A T
D aughter
M ighty
N at
S usy
k ward
Ġhe d
om a
ĠH ood
ĠShe Ã¢
Ġshe riff
Ġwith stand
ĠM op
Ġal er
Ġman s
ag on
Ġclo gged
Ġim men
Ġlove liest
Åĵ Sam
th rough
ĠG er
ĠR ow
ere al
Ġent r
Ġaw kward
ĠBrown y
Re lease
Ġrhinoceros es
Ġprop osed
Ġconf ront
ĠMat ches
Ġsting y
Ġrefle ctions
ĠMo dest
Ġmoo s
ĠPer fect
ĠBoun cing
Ġslurp ing
Ġris king
Ġfoss il
Ġgur g
ĠSlim y
Ġauth or
Ġimmen sely
C H
C hew
M eet
M acy
N an
N elly
R awr
S a
S ing
a ac
i ety
m oon
r us
Ġa hold
Ġw ither
Ġto pping
ur ther
Ġcar ri
ĠF ear
ven ess
ort ant
ĠJo ke
Ġtri ceratops
fort unate
Ġupset ting
Ġsu ds
Ġemb ark
light s
aw are
Re al
ĠOr iginal
Ġbasketball s
quit os
Or der
Ġgrant ing
Ġtouc an
Ġsav or
abra cadabra
ĠCle ver
Ġgle amed
Ġsizz led
Ġsharpen er
Ġtriumph antly
Ġprepar ations
Ed ward
Ġunra ve
Ġgrouch y
Ġsubmar ine
R ace
Y ellow
Ġp el
ĠS ave
Ġu lt
ĠM allory
Ġme wed
ĠL illi
ĠE nt
us k
ild ing
Åĵ no
ĠG il
ng ing
Sam uel
Ġner ves
Ġed ged
Ġscoot ing
ĠCl ap
Ġwid th
Ġexplor ations
Mon ica
Ġbud get
Ġenerg ised
Im mediately
ĠPol ice
wh oosh
Ġstrand s
lse a
Ġtambour ine
C aptain
F reya
J ade
M oney
S id
f r
Ġ ess
Ġt arp
ĠT ouch
ĠT roy
Ġdo omed
Ġsm udge
ĠW illa
if y
ĠL ottie
ĠD ance
ĠC astle
ock ey
ĠN ation
ĠN icole
Ġcook book
Ġele gant
la im
ĠLe af
Ġwhis ked
ĠMar io
Ġeras es
quito es
ab ility
Ġreef s
ah h
Ġlabel ed
Ġwre ath
Ġinstruct or
Ġproject or
Ġthroat s
Ġast ound
Ġmagician s
Ġloc ation
Ġoverwhel ming
Ġalley way
Ġhabit at
Ġsim pler
ĠGert rude
Ġcav ities
D awn
G illy
T ia
Ġa ching
Ġl ack
Ġd usk
om an
ĠS PL
ĠH ours
Ġy ow
ĠI ron
ĠP ay
amp s
Ġtreat ment
ang o
Ġdi apers
ĠSt ick
Sp in
ĠFr isbee
Ġanx iety
Ġearth worm
ĠSh ade
Le ft
Fr an
ĠEl ise
Pe ep
Pe anut
Mart y
Ġcreep ing
Ġmur al
Ġmisbe having
ĠOp al
Ġki wi
ĠEag le
ĠDri ver
Ġmult ip
Ġcoy ote
I gn
S ister
g row
p ol
t r
ĠB ook
ĠB ally
Ġsh ack
ec or
Ġcl ink
ĠL emons
ĠD ar
ĠJo in
Ġun aware
ĠG erald
Ġsees aws
After ward
Ġspot ting
Ġdes ired
ĠSt ir
Ġgener ation
Ġseed ling
Ġapolog izes
Ġmill ions
Ġport s
ĠJan a
ĠKeep ing
ĠSc out
Co ffee
ĠWigg le
ĠMa ia
Ġintr ud
Ġbi king
Ġsixt een
Light ning
Ġfert ilizer
Ġiceber g
Ġcentimet ers
Ġmessen ger
! .
D ot
H alfway
P anda
p y
at he
Ġsa cri
ĠH airy
Ġup right
ĠB it
un ia
Ġne ighing
Ġcl en
ag s
Ġfo l
ĠAnd rea
Åĵ Always
ĠC oop
Ġun fortunate
Ġtra ced
ass y
Ġslow est
ĠEm i
ĠK irsty
Ġfox Ã¢
Ġcou ches
ĠSt ories
ĠLe opard
ha ired
Ġfest ive
Ġdire ctor
Ġashtray s
do gs
Ġreass ure
the se
Ġprick les
Any a
Ġunlo ading
ĠCD s
ĠPee k
ĠSon ia
Ġcartwhe el
Ġsched ule
Ġhed ges
C ount
D isappointed
d aughter
w reck
Ġl ing
ĠS nappy
Ġr oug
st on
art z
ag gy
ĠL amb
pl oy
Ġfind er
Ġsun hat
Let s
ĠG um
Ġent ry
ĠEmily Ã¢
Ġjelly be
Ġcirc ling
Ġmem or
Ġfountain s
Ġthread ed
Ġbookshe lves
Ġgym n
Bun Bun
Bl ast
Ġsav anna
ĠOther s
lest e
ĠWin ning
Ġwhirl ing
Ġcourageous ly
ĠFran cis
ĠBall oons
ĠSurpr ised
po ison
Ġplun ged
Pop corn
Ġlou nging
C ake
I nd
M ac
O ooh
P ig
P earl
p ost
ĠT obi
at het
ĠS im
Ġe mail
ĠB rett
ight ened
ure en
Ġtw ittered
ĠP ret
Ġdoll ies
ĠG arden
ĠG ear
Ġsqu int
ĠN ad
Ġhere Ã¢
Ġkid do
der n
Ġatt aches
ĠO k
ĠCh oose
ĠU gly
ĠMar go
ĠFr ightened
Ġpow ered
Ġhall s
Ġleak y
ĠSl ide
Ġmur m
Ġtink ering
Ġpersu as
Butter flies
organ ize
iqu es
Ban ana
c ul
v i
Ġ ou
Ġt ended
Ġf erry
er al
Ġg ingerly
ĠH al
ĠH umble
ad en
Ġfa ire
pl oring
Åĵ All
ĠC amp
ĠSo ck
ress ive
ĠN or
Ġcr ush
Ġlight ening
Ġmight ier
Ġpol isher
Ġgen ius
Ġbat ted
Ġloll ies
ĠSmith s
ĠRo ss
Ġtrave ller
Ġsew s
ĠPr un
Ġcrumb ly
Ġmotion less
ĠJay den
Ġskunk s
ĠRich ie
ĠHar vey
Ġpurch ased
ĠRel uctantly
Ang ie
Ġcav ity
Ġtransport ed
Ġcompart ment
Ġappropri ate
D es
L ayla
R avi
V o
f as
m n
Ġ ut
Ġp ooped
ĠT erri
Ġsa pling
ĠH at
oo ch
Ġst uttered
Ġex otic
ap le
Ġwill ow
Ġcom f
Ġbra gging
Ben jamin
ĠG rey
ĠSp ud
Ġcr ime
ĠK ira
Ġdinner time
Ġmeasure ment
Ġbull do
Ġyogurt s
ĠFro gs
Ġunexpected ly
Ġexperien cing
ĠSqu eeze
ĠPl an
Ġhen s
ĠSwim my
gra ndpa
ĠCol ors
Ġicic les
Ġasse mble
Ġastound ed
L ots
P ull
i veness
re ak
er ous
Ġn udges
Ġit ched
ry er
ĠA ir
ĠJ ungle
Ġro bbed
Ġla ss
Ġgr ins
Åĵ To
ĠC ory
Ġun rolled
Ġdr ooped
Ġdri er
Ġem otion
Ġmix ers
oun cing
ek s
Ġorgan ization
ĠCh ubby
ĠOn ion
Ġgenerous ly
Ġweak ness
Ġrid dles
Ġcheck up
rag ons
ĠDan a
Ġfoolish ly
Ġcareless ness
Ġled ge
Ch r
Ġleap s
ĠEl mo
Ġger m
Rob in
Ġcaw ing
ĠBer tha
Ġawa iting
Ang ela
Ġboast ed
asc al
Rel ax
cred ible
ĠAllig ator
Isab ella
A ri
G ert
I T
J un
P atches
W ednesday
Z ee
Ġh unts
Ġf id
Ġd aughters
en us
Ġsa p
ĠS orting
am ous
ce y
Ġfor ked
Ġar ray
Ġno zzle
ro g
Ġpu lp
Ġtri o
orm s
to es
ĠSt arry
Ġknowing ly
ĠMar ian
Ġtrick ing
ĠAl so
!' ,
Al bert
Or ange
Ġluxu ries
Ġaren Ã¢
Ġlar gest
ĠBra in
Ġbas ked
Ġsomersaul t
ĠKn ives
Ġillum inated
Ġsole mn
C autiously
M ic
M ason
R E
W alter
c ord
p ay
u u
Ġh ull
Ġh ives
ĠT igers
id ly
nt h
ch ug
ĠM arsh
ood les
Ġfl u
bb ey
Ġtw irly
Ġjo ll
Åĵ H
ĠC asper
ĠP ower
What ever
Ġbre wing
ĠR em
ĠR ee
Ġhot dogs
Ġwet ting
Ġteac up
og raph
ĠSt inky
ĠSt eel
ĠBl ow
Ġexam ination
Ġsle ek
Ġstrang est
ĠJe ep
ĠSc ared
Ġscamp ering
Ġreun ite
Ġlump s
ĠPer haps
Ġlevel s
Ġdesce nd
ĠRon ny
ĠWhist ling
Ġrect angles
Ġlaz iness
Ġcack led
Ġrescu er
ĠJew el
D ee
F aster
M oon
b ra
in ished
Ġh ire
Ġwa de
ĠShe r
Ġy o
Ġy ipped
Ġr age
Ġpl iers
ĠJ ing
ag ious
ĠL ong
Ġla ir
Ġch illi
Ġch ords
arn ed
ret s
ine a
Åĵ Joe
ĠC aw
ĠC act
ĠN O
Ġcont ribut
Ġcont agious
ĠAll en
ĠFl our
Ġinst alled
Ġwom en
Ġnut rit
Ġsoap s
Ġjewel er
Ġcab oose
Ġcro c
gen cy
Sh ark
ĠAm aya
ĠMo ira
Ġdef ended
ĊĊ Ċ
undred s
ĠSw ing
Ġcommun ic
Ġoverfl owed
Ġass ign
Cra sh
Sc ott
ĠGuard ian
ĠWood y
ĠOy sters
Val ue
Ġaccord ing
fashion ed
Ġentr anced
Ġnutrit ious
! ?
A ye
D i
J em
S hoot
st upid
Ġdo cked
ĠM ud
Ġsm acked
as hy
ĠE ddy
Ġbl ister
ĠF ake
ĠF ancy
Ġgreat ly
Ġcr ate
Ġflower pot
Ġdin er
Ġbaby Ã¢
Ġfur row
Ġmouth ful
ail able
epend able
St acy
Ġimpress ion
Ġmysterious ly
Ġmos quitos
ĠUn known
Ġfauc ets
Ġbalan ces
Cl ap
Ġboo ed
Ġgri pped
Br uce
ĠGreen ie
Ġsav oured
Car rot
val ue
Pr int
ĠChar ley
ĠGl ue
Ġdesire s
Ġdonut s
Ġchant ing
ĠAri el
Ġdocum ent
Ġmotiv ated
Ġbeck oned
Ġexhaust ion
ĠFisher man
Ġregard less
M os
b read
c re
l ong
y ummy
ĠT reat
ĠH undreds
Ġin iti
ĠM u
Ġloo ser
Ġj aw
ĠL au
ĠF izzy
Ġsun Ã¢
Ġqu artz
by n
ĠG ilda
Ġtra iling
ĠR eddy
Ġdream y
Ġspl int
Ġgu inea
Ġpa wn
Ġem ploy
Ġpurp les
Ġexp and
oop s
Ġcompetit ors
Ġbump er
Ġcomb ine
Ġinvestig ated
Ġbrid le
Ro xy
ĠGr ant
ĠLou isa
ĠSqu awk
Ġsadd ened
Pip er
ĠCro c
Li bby
Ġsauc er
Per haps
Ġsnatch ing
Ho pper
Ġmans ion
Ġbulldo zer
B on
D ragon
O il
b oy
p ter
Ġwa ding
Ġl l
ĠT ape
en nel
Ġher mit
ce pter
out s
ĠJ ude
Ġch ap
ĠE st
ĠD usty
ĠF ay
Ġfo e
Ġad am
ĠC y
Ġbra ked
ĠP ieces
Ġde fl
Ġfull est
Ġfrog Ã¢
ĠGra ham
Ġpro ving
ĠJill Ã¢
Ġshr ubs
Ġlock er
Ġpray s
Ġelev ators
aud ia
Ġveil s
Cl uck
Ġfoc using
ĠSc amp
Tw ist
Ġhaird ryer
ĠHug s
ĠTri angle
ĠKat rina
Ġpostc ards
Ġsunbe ams
Ġattent ively
Ber nie
iche ver
B ar
E llen
F aye
M ika
W in
t ocked
Ġ ...
Ġl inked
ĠB OOM
." ,
ĠW ay
ĠW orry
Ġag ile
ag er
Ġgra zed
ĠSp in
Ġcr ed
Ġba bbling
Ġbrother Ã¢
Ġspr ite
Ġign ition
Ġspoil s
ict able
Ġcur vy
Ġreve als
ĠSee k
ĠAn chor
Ġscamp er
Br uno
Ġsprout s
ĠSweet heart
Ġinvent ions
Ġoccasion ally
ĠSl inky
Ġdart ing
Jan ice
ĠLu is
Ġlif el
Ġloos ened
Ġwil ting
Ġeffect s
Ġsymp athet
ĠPengu in
Ġeducation al
Ġpel ican
H anna
J asper
L L
M in
O lly
T ick
T aking
W oohoo
b ie
d is
i ally
z i
Ġd ies
ar la
is m
ĠS auce
le gged
ĠShe lby
ow nt
Ġsh ri
ĠM ountain
ĠA le
ĠTom y
Ġsc ars
Ġpr oof
Ġmu l
ĠD O
ĠF ern
Åĵ Timmy
Åĵ Honey
Ġye ast
Ġtop ic
ĠK ylie
Ġbar gain
Ġacc used
Where ver
Ġterri fic
Ġdust er
ĠSu ki
Ġpadd ed
Ġknowledge able
ĠChe ster
ĠAngel ina
ĠPin ching
Ġexhib its
Ġroyal ty
Ġjigg le
Ġprison ers
Phil ip
Ġstray ed
Ġcomment ed
Tre asure
ĠPu ss
Ġthor ough
voc ado
assion ate
urs day
ĠSis i
G eor
R udolph
S uper
a ctly
h an
m agic
Â ł
Ġa ye
Ġs cepter
re cord
Ġl imb
ar ma
Ġbe friend
Lily Ã¢
ĠB aker
Ġk ennel
ur ric
ĠA nts
ĠTom ato
Ġal t
ĠW izard
Ġagain Ã¢
Ġch ipped
Ġbl azing
Ġpo ds
Ġint rig
ĠP ow
ĠP ull
Ġsho ving
ĠK erry
ĠK angaroo
At t
ont ail
ĠJenny Ã¢
ĠMar i
ĠSh ampoo
Ġviolin ist
ĠUn i
Ġincre ases
Ġimprove ments
Ġallow s
ĠAny one
ĠSw inging
Ġfunn el
Ġerupt ing
Ġexperiment ing
ĠTra in
ĠSte vie
ĠDel ilah
Ġdu et
Ġomelet te
Åĵit Ã¢
Ġsubst ance
Ġdisgu ise
Ġling ered
nth ia
ownt own
D ance
P iggy
c hest
l in
p iece
Ġp hys
ĠH am
ĠH ops
Ġlo b
fu me
ĠA gent
Ġcl inking
Ġme ander
Ġbl ushes
Åĵ So
ĠP re
Ġkid n
ons cious
Ġpink y
ush i
Ġspin ny
Ġeag les
ĠFred a
Ġalarm s
Ġjail er
Mmm mm
Ex actly
Ġgaz elle
Ġwid en
Ġdef ending
Ġquiver ed
Ġquiver ing
Ġunp red
bag s
ĠTink er
umpt ious
Ġadam ant
E ve
L exi
T uesday
T oni
Ġ ver
re nts
Ġo ily
ĠS ly
ĠH alfway
et te
Ġday time
Ġpr edic
Ġgr an
Ġproud est
Ġim m
aut iful
Åĵ Really
Ġbook mark
ĠG ordon
Ġsqu inting
Ġhigh way
ĠTh ursday
Ġsand paper
Ġper man
ster o
Ġpaper work
Ġspl at
Ġtrain ers
Ġdoctor Ã¢
ĠCh ippy
Ġlad le
Ġsmooth ies
ĠBr idget
Ġtent h
Ġdire ct
Cl osed
Mar cy
Mar cus
ĠPet unia
ĠSleep y
Ġyelp ing
Ġench anting
gr oup
El izabeth
ĠSid ney
Ġextingu ished
Ġwilder ness
Sal t
Hoot ie
ĠHors y
Ġseeming ly
ĠAmer ica
Bro ccoli
Ġclen ched
Ġunpred ictable
A men
D en
W inter
c laimed
s urrender
Ġd owntown
ĠT id
Ġg ang
Ġcan oe
ĠW ren
Ġsw ipe
ise y
Åĵ Mia
ĠP ill
Ġbunny Ã¢
sp ecial
Ġwall ets
Ġcoll e
Ġcomfort s
Ġpres ident
hin os
oop y
Ġscr umptious
Ġencouraging ly
Ġocc up
Ġchipmunk s
Bee f
Ġfoam y
Ġremo ves
Ġgloom iness
ĠBarb ara
ĠBel ow
Ġparticip ate
Ġrooft op
B ecca
C elery
K iss
i ara
Ġa stero
Ġwa gg
Ġm as
Ġm idnight
ĠT an
ĠS ix
ĠS ully
ĠH aw
ĠH arper
ĠI ris
Ġre ch
fu ll
ĠJ ac
Ġhome owner
Ġwal rus
ĠE leanor
ara h
ĠF eel
Ġde b
Ġworried ly
Ġmat es
com es
Ġmel od
cu ss
Ġscrew ed
Ġfreez es
ĠRe indeer
do h
ne el
ĠLa ug
Ġshortcut s
ĠBlack y
Ġdim med
Ġboast ful
ĠBan ana
Ġcombination s
Bir ds
Spark les
Ġmoan ed
Ġneg lect
ĠViv i
Ġfurrow ed
chest ra
T ag
e ating
m ower
t hen
v ine
y o
Ġh ikes
ĠT iffany
im ately
Ġin h
ld a
ĠM orty
Ġlo oming
ĠJ ak
ĠJ umbo
ĠL otion
ap hn
Ġgr unts
Ġover t
ĠJo g
ĠP raying
Ġun be
ath a
ĠN aps
ĠR onnie
Ġpu lse
sh oot
Ġgent leness
ĠK id
sw er
Ġser ver
Ġship wreck
Sp aghetti
Ġrid ers
Ġenth r
ud ed
Ġlid s
.. ..
Ġlawn mower
Ġcalend ars
Ġsting er
Ġscra p
Ġlun ches
Ġwilling ness
ĠCra w
Ġshin ning
Danger ous
ĠLo gan
Wil bur
Åĵyes Ã¢
Ġobvious ly
ĠLes lie
aphn e
C ro
J es
T oy
Z iggy
b ones
f ragile
u bb
v ings
Ġd ense
er ved
Ġm am
ĠT ag
ot hes
ir i
Ġso cket
Ġso fas
Ġday light
Ġplay group
ack ing
ter y
Ġor chestra
Åĵ Jimmy
ĠC lyde
ĠSo ar
Ġbook store
Ġpic tured
Ġfr amed
ĠG abe
Ġcr aters
Jo el
Ġmon k
Ġmum mies
Ġlion Ã¢
Ġgrandma Ã¢
ĠFl oyd
Ġstar light
Ġph arma
Ġact ress
Ġcross ro
Ġhum or
Ġmedic al
Ġpow ders
Ġcompl ied
Ġsty list
Ġwaist band
ĠJon as
ĠChe lsea
ĠDe bby
Ġtechn ique
Ġamb ition
Ġaward ed
Ġattent ive
Ġtrek ked
fr uit
Ġintrig uing
Ġenthr alled
B ark
G ia
K aitlyn
M atch
o iled
p ut
p ool
he y
Ġb ask
Ġf ours
at ue
Ġha st
an ne
ll i
ĠH ooray
ĠHe y
ĠA ce
and om
ĠC ray
Ġloud spe
kay la
Ġde jected
ĠR oot
ĠCh omp
Ġaccept ance
Ġdeliver s
Ġgum s
Ġsurf boards
ĠCl ive
ĠWould n
Ġaut ograph
Ġconf essed
Al icia
Ġintroduc es
Ġburrow s
Ġinch ing
Ġmer ch
Ġvibr ations
Che ap
Ġinvent ing
Ġecho es
Sn ake
ĠFour th
Ġburp ed
Ġunfro ze
Mic helle
F airy
c aw
j ump
Â ´
Ġf izzy
Ġc oun
or ay
ĠH and
Ġr hinos
Ġr andom
Ġout comes
Ġsp lend
Ġsc or
Åĵ Next
ĠC ool
Ġbra gged
Ġwo ve
ĠN anny
ĠR ot
Sam i
Ġbaby ish
ĠK r
ĠO mar
Ġcard inal
ĠGo at
mo ving
Ġsol ar
Ġchar ging
Ġcamp ground
Ġcomplain s
ĠTony a
Ġrequ ires
Ġmass aged
Ġwre cks
Ġbare foot
ĠJosh ua
ĠJay a
ĠBa o
gr own
Grand mother
Wo lf
ĠLady bug
ĠDen ise
ĠZe ke
ĠDolp hin
Ġprec aut
Ġhars her
ĠDanie lle
Ġconcl us
Ġskid ded
ĠFle a
Steph anie
Ġroug her
B el
F aith
O tto
e in
g l
n umber
s me
Ġc au
ĠT ut
Ġpl ot
Ġwe ary
Ġdo cks
ĠM arry
ĠA ustr
ĠJ unk
Ġstart le
Ġfa wn
Ġexc laim
Ġpr ance
ĠL ill
ĠD ust
Ġone Ã¢
ĠF old
Ġpe er
Ġsn ipping
ars ley
ĠSo cks
ip ing
ĠP ia
Ġdis l
ross ed
Ġwet suit
Ġpi xie
Ġpat rol
Ġpro claimed
Ġve ins
Ġkick ball
Just in
Ġdi aries
ex it
Ġple ad
ĠBr ush
Ġmir acul
Ġsil very
Ġpump ing
Ġpatter ned
ĠSm art
ĠSm udge
Ġbuzz er
Ġneighbour ing
Ha ving
ab ri
Ġtornado es
do or
Ġvent uring
Mar garet
ĠGrand dad
Ġrebu ilt
ĠTe am
Ġhabit ats
od ore
Ġgn aw
Ġpersu aded
ĠButt on
ĠFore ver
ĠSa us
ĠBre nda
Ġasse mb
Last ly
Jelly fish
Ġadvis or
Ġchomp ing
Ġlifel ong
Ġmiracul ous
I G
R em
S cr
o pp
Ġ ivy
ĠT est
Ġo d
Ġpl ight
Ġpl ush
Ġfor b
ĠM arl
ic ient
Ġcl ump
ĠW et
Ġfl ung
ĠF reeze
ĠJack lyn
ĠC up
Ġun iqu
Ġchild ish
Ġbus ily
ĠIn ch
sp icy
to ot
ĠSome body
Ġfrustr ating
Ġtooth brushes
Ġsepar ately
ĠRo ll
Bl ack
Ġdedic ated
Ġtoothp ick
Ġparamed ic
De bbie
Bra ve
ĠVal ue
Kay lee
Ġtechn iques
Ġproduct ive
Ġcoz ier
Ġamb it
ĠCall ie
Ġnavig ate
Ġeyel ids
ĠVan essa
Wonder ful
Ġou chie
A ct
L unch
N athan
S mo
Y o
f ace
Ġ ĠĠĊ
Ġb ree
Ġc ement
ĠS hoot
ld ron
ri al
ur led
ĠA dd
ĠF leas
Ġgre ase
Åĵ T
Åĵ Have
be ing
Ġcr ouch
Ġcont ract
ign orant
iver se
Ġpaper cl
Ġperfect ion
ĠJen a
Ġmiss ions
Ġsoup s
sc ape
la ppy
Ġplayground s
ĠMy a
Ġmis ery
ĠSh ine
ĠPat ient
Ġknot ted
Ġpowder y
Ġtoil ets
Is la
ib s
Ġpadd ock
Ġdeser ted
Ġconsequ ence
Ġmer rier
ĠSun flower
ĠSquirrel s
Ġloc ated
ai i
ĠSleep ing
ĠSon ny
Ġsunburn ed
ĠOp era
Cook ie
Doll s
Ġrap idly
Ġawait s
Ġnois ier
Ġadvertise ment
Ġintrud ers
Ġcau ldron
D one
R ot
S eth
V elvet
s plash
w ind
Ġs ushi
Ġl oun
Ġy a
Ġst ress
ch o
Ġwh ipping
Ġj umbled
ĠJ azzy
Ġv owing
Ġbu rial
ĠC auliflower
ĠC ereal
Ġnight Ã¢
iss or
Ġmouse Ã¢
Ġtop ics
ĠEm ilia
Ġmar chers
Max Ã¢
Ġapples auce
Ġrough ly
Ġdisturb s
Ġvac ations
Ġsatis fy
Ġ2 5
Ġslither s
Ġdrown ing
Ġself less
lo ving
Ġharvest ing
Pen gu
Ġ12 3
ĠMail man
Ġfal se
ĠGil bert
Ġdisl ikes
Ġambit ious
L ana
L acey
M ost
P hillip
g atha
l aud
v ity
Ġs ourn
Ġto pped
Ġm ent
Ġm oth
ĠT ubby
il ings
et he
Ġin fl
ĠM Y
ĠM mm
Ġse qu
Ġj ung
Ġno ble
Ġtr ough
ĠWe ar
Ġjo lt
Åĵ Very
Ġte ary
Ġhard ware
Ġstill ness
Ġgreat ness
Ġcont act
hy thm
Ġcount ert
Ġcho ir
Ġsign als
Ġce ilings
Ġpin wheel
Ġflex ed
Ġflour ished
ĠIs land
Ġeight een
Alex a
Ġvegg ie
ĠHo pp
Ġexperiment ed
Ġlantern s
ĠHel i
Spark le
Wil ma
Ġdaffod il
ĠDinosaur s
Ind eed
Ġfid dled
Ġlob ster
Ġsourn ess
B ANG
C omp
N ature
O N
R oy
c ups
e getable
w hen
Ġp acing
ĠT iki
am er
am ily
Ġnam ing
ong s
Ġco ve
Ġco als
Ġch imp
Ġbl ub
ĠF ashion
Åĵ Amy
Åĵ Goodnight
ĠC om
ĠC onfused
ĠC atherine
Ġche ep
Ġrem arked
Ġstor k
Ġey ep
Ġclimb ers
ĠG ame
Ġbow tie
ĠGra cy
rot ect
Ġpuppy Ã¢
Ġpin es
Ġvan s
Ġterri fying
Ġorig inally
Ġrece ives
Ġreco very
ci al
Ġblood y
ien na
ĠTw in
Mar riage
ĠBo x
ĠMart a
ĠMon ty
Ġpuff s
ĠChe f
ĠCr ack
Ġswoop s
Ġsquawk s
Grand ad
Ġchann els
Ġviol ence
ĠDi amond
ĠCrocod iles
Ġunc onscious
ĠWor my
ĠCe leste
ĠAly ssa
urf ing
Ġintimid ating
Pa ige
Ġut ens
ĠHaw aii
L ady
R ub
d ough
d rop
f rog
i kayla
w ill
w atch
ĠT ank
ĠT onight
im ble
or iginal
le ven
Ġin hab
Ġsh udd
Ġis sue
Ġman es
Ġtoy box
ĠL uxury
ĠD ough
ĠD enny
Ġor ph
Ġen s
Ġdis rupt
Ġhigh ly
Jo in
Ġsoft en
orm al
Ġcross bones
Ġbat ting
Ġeng rossed
Ġmis under
Ġrestless ness
Ġhar med
ĠTw ig
ĠTw isty
Ġuns uccessful
ĠChe ap
lo Ãĥ
ĠFly nn
Ġnarrow er
Ġhoof s
itz i
ĠPain ter
ĠCott ontail
ĠOrgan izing
ĠGri zzly
Ġloudspe aker
B oun
F etch
M us
N ap
R ani
V E
e ak
p ipe
s qu
u is
ut es
Ġe el
Ġup stream
ĠM iley
ĠM aple
Ġsm ug
ĠJ umper
ĠL ung
ĠF ree
Ġho ard
Ġspecial Ã¢
ip er
ĠDad a
Ġru ling
Ġcre vice
Ġcool ers
Ġdelicious ly
Jack son
Ġcomp aring
Ġquiet ness
Ġblack berries
to e
St art
Ġcoo s
Ġunus ually
Ġpup s
ĠSm ile
Ġappreci ative
Ġsoak s
Ġflat t
ĠPo ems
Wh oosh
Ġrip en
ĠSk ippy
ĠIsn Ã¢
ĠNever theless
Ġbas ic
Ġsunb athing
ĠCher yl
Ġinspect ing
Sl ide
ĠNad ia
Ġlass o
Ġorph an
F ar
G ogo
S ell
W est
b or
f ork
w riting
Ġh arn
Ġf ry
it als
ĠJ ared
um sy
Ġcl ippers
if ting
Ġnew er
Ġdog Ã¢
Ġint act
Ġpret zel
Ġunt ies
self ish
ĠP hew
ĠP OP
Ġclean liness
ĠSp read
Ġdis organized
ass ie
Ġcreat es
Ġdragon Ã¢
Ġpower less
ĠSt udying
Ġdeter red
Ġmir acles
Ġdrum stick
Ġcheerful ness
Em mie
ĠSm arty
Ġfootball s
ab ies
Ġpinch y
Ġbalan cer
ĠCo ll
Ġcrumb ling
Ġtemperature s
ne igh
Ġdump ing
Ġsill iness
Ġpeep ing
Ġincreasing ly
ĠMa ureen
ĠGl itter
Woo ly
Ġstreak s
ĠAmaz ing
Joan ne
ĠRad ish
Ġident ify
Ġblu est
Ġunimp ortant
Ġchandel ier
ĠCoop er
Ġsolemn ly
Ġll ama
S ugar
m ma
v iew
Ġb order
Ġd ile
Ġm ourn
Ġn a
am ble
Ġwh ichever
Ġj azzy
ur ance
Ġcl atter
Ġcl ipped
Ġtre ad
ach ine
est ival
Ġv ul
and as
Åĵ this
Th umper
ĠP itch
Ġcon st
Ġcon sc
th ump
ĠSp ray
ĠR am
Ġbus ier
Ġcre vices
icy cle
la w
My a
Sarah Ã¢
Ġcreative ly
ĠNo elle
Ġdepend ability
Ġegg pl
Ġdelighted ly
Ġpopular ity
xy l
ĠV enus
Ro ll
ĠAm os
Ġty ped
Ġflight s
ĠEx cept
Ġflas hy
Ġwealth iest
Ġbeeh ives
Squ awk
Har old
Ġrumm aging
Ġquen ched
ĠBald y
Ġ` `
Ġwaft ed
ĠPlan et
Ġimm ense
Boun cy
Ġdile mma
E asy
S pl
S ylvia
T oto
d ling
g reat
Ġt ame
Ġw ick
er os
Ġ" .
ri ents
Ġup wards
un ches
Ġbl and
ĠF oot
ate o
ĠP an
ĠP ress
ĠP ony
Ġcon cept
Ġcon vey
ĠR ec
Ġbutter cups
Ġz apped
sp read
Ġwin ced
Ġbar rier
ĠFl ipper
Ġeas iest
Ġprot ein
ian s
Ġexam ines
Ġter rain
ĠTr unk
Ġstaff s
Ġrecommend s
Ġeff icient
ĠOl ives
Ġunf inished
Bl oom
ĠMon sters
Ġripp ling
Ġruff les
Cra zy
ĠMag net
Ġconsid eration
ĠCol or
Cook ies
ĠBal ance
Stri ke
Amaz ing
cha un
ĠPuzz led
Ġoppon ent
ĠSec ond
Ġutens ils
Ġharn ess
xyl ophone
F eed
I N
P hoebe
S imba
b ooks
f ed
f old
r ams
w eal
Ġ iced
Ġd immer
Ġwas ps
an king
on a
Ġher on
Ġlo ot
Ġbl iss
ĠF izz
ĠF eed
Ġeat ers
ĠC row
Ġstor age
Ġrock er
Ġcr im
Don ald
ee k
Ġsmo k
Ġpast ime
ĠO ct
ĠCh in
Ġselfish ly
ĠSt atue
Ġspray er
Ġnut rients
ĠBe aver
ĠBlue berry
Ġcur rents
ab lo
Ġequ ations
Ġhomes ick
Ġburrow ed
ĠFriend ly
?' ,
the l
Ġsav ouring
Joy ce
Ġconcentr ating
ĠElephant s
ĠGold y
Ġreflect s
Ġgle am
eat en
Ġdaydream ed
Ġdazz led
ĠCass y
Ġdizz ier
ĠMal colm
ĠVictor ia
Ġmultip le
F urther
L ong
L ara
M idnight
P urple
s ome
Ġl us
Ġc asc
ĠT axi
ĠH aley
ĠH urric
et een
Ġso ars
ĠB ath
Ġwh inny
ĠJ aden
Ġcl asp
est ack
Ġfl aming
ist s
ĠF unny
Ġcat Ã¢
ĠR anger
co ld
Ġbirds ong
Ġcreat or
Ġmet eor
Ġpat io
Ġblank ie
ĠDaddy Ã¢
ĠO ats
Ġpig lets
ĠSammy Ã¢
Ġhoney moon
Ġtrouble maker
In stantly
Ġweird est
Ġneighbour Ã¢
Sh adow
ĠV er
Ġtodd lers
Ġinter act
Ġfaith fully
ĠBert ie
Ġmold ed
Ġunst opp
ĠClaw s
ĠPep e
Ġaccur ately
Ġstrate gy
Ġabsor bed
Ġaler ted
Real izing
Chr ist
Ġperman ent
Ġcrossro ads
ethe less
Ġsmok estack
' ".
C oo
E than
G loria
P aw
S wing
p ower
Ġ xylophone
Ġd ye
Ġp arsley
ĠS hip
ĠThe a
ot ed
ck les
ĠB read
ĠM em
ĠM arge
Ġhappy Ã¢
ell ed
ĠL og
ĠF at
Åĵ Mmm
Ġche ater
ĠP udd
ĠG O
Ġwr it
Ġtra cing
ĠSue Ã¢
uff ed
Ġhill top
Ġclothes p
Ġstu nts
Ġperson al
Ġgas oline
Be have
ĠAnn y
Sp ace
Ġrece iver
Ġsuper star
ĠCl othes
ĠAl most
Ch ange
Ġchirp y
Ġdistract ing
Ġsav ings
Ġruff ling
Ġsuspicious ly
Sm ile
att ie
Ju an
Ju les
ĠTruck s
Ġunb uck
App le
Stand ing
Ġyow led
Vo ice
Ġod or
Ġlus cious
Ġunstopp able
A SH
M icky
M ousy
S il
S issy
W rite
Â ±
en ch
en cer
ot or
am el
ĠB us
el f
ime e
ĠM c
Ġan cest
Ġlo an
Ġcan cel
ĠTom a
Ġbr ig
Ġfl itted
Ġsw um
ĠD aughter
ax ter
Ġtw ister
Ġfo al
Åĵ Then
Åĵ Daisy
Åĵ Happy
Ġreal istic
Ġturn ip
ĠDad Ã¢
Ġhead lights
ĠR ara
ĠR everse
co ot
ĠIn chy
Ġbug gy
Ġmet er
ĠJim Ã¢
Ġbar ista
Ġrob es
Ġleg end
Ġmir aculously
olog y
Ġgrand mas
Ġinfant s
Ġstomach ache
ĠRa ja
Cl oud
ĠCar ter
Ġsens es
Ġcompanion ship
Gr adually
Ġank les
ĠBrad ley
Ġtrim ming
Ġoper ations
Ġponyt ails
des erved
Ju ice
Ġcann ons
Ġentertain ing
Ġfulfill ing
Was n
Ġbroad ly
Sa brina
Ġwither ed
Jun ior
Ġsplend id
Ġflatt ened
Ġtread mill
weal thy
C ody
C asey
F ear
G u
O oo
P ow
R eading
Z ebra
c ases
d anger
v ille
Ġh ust
Ġl ining
ĠT in
ĠH ill
ĠI cy
Ġpl aster
ĠB uffy
ĠB ub
ĠĊ ĊĊ
Ġsp ec
Ġback ing
ĠD avy
Ġv en
Ġdown wards
Ġgr ad
Ġmo b
Ġsn ooping
ft en
ĠR en
ĠAll ison
Ġmat ted
nic ian
Ġdeter gent
Ġreg ained
Ġfather Ã¢
Ġrelax es
az am
Ġshadow y
ĠPaul ina
right ened
Ġhut s
Ġpitch fork
ĠPl ace
Ġreun ion
Ġaddress es
ĠRos es
ĠMagic al
Ar chie
Cr ack
Rich ard
Ġpian os
fight ers
Ġjellybe ans
Ġmerch ant
Ġeyep iece
C all
C oming
F ragile
P ing
Y ee
f o
o de
p ad
s st
nd eterred
Ġf rying
Ġc ured
Ġg el
Ġg ag
ĠHe aring
Ġst ale
Ġpl op
Ġsh aded
Ġre solve
ĠA be
Ġal armed
Ġfe e
ĠW alking
ile en
Åĵ Tim
Ġfar ming
ĠSp ell
Ġbre w
Ġcatch y
os ing
Ġsnack ed
Ġpro spect
Ġfairy Ã¢
Ġsmo kes
ho gs
Ġdry ness
Ġhum ility
Ġhosp itals
ha les
ĠAt t
Ġcher ishing
ĠYour s
Ġbitter ness
Ġrubb ery
ĠCl audia
Ġvine yard
Ġten se
Ġprun ed
ĠGrace ful
Ġsque als
Ġregret ed
Ġpra ising
Fl owers
ĠSpark s
Ġdrift wood
Ġdeal ing
ĠPo ke
whe e
Ġdot ted
ĠAr t
Snow ball
ĠGrand father
ĠTe asing
ĠWoof y
Ġopt im
Ġtend erly
Ġwig s
ann on
ĠMic roscope
ĠGoose y
Ġdetail ed
Ġsumm oned
Ġtad pole
Ġsmir ked
Ġthundercl ap
Char les
Ġsamp le
Ġemploy ee
Ġcred it
Ġprecaut ions
Ġjung les
M ilk
S our
Y ES
a iting
h ouses
k ick
l isten
m arry
Ġd unes
Ġp ounces
ĠT uffy
ĠT iggy
en zie
ĠH air
ĠH ockey
ot y
Ġe p
ĠB am
ĠM iki
Ġj an
Ġsp ecially
Ġle pre
Ġgr oo
ĠF all
Ġpe ed
Ġhand writing
Ġcom ments
Ġsn ores
Åĵ Everything
ĠSo fty
ĠG ar
ĠR ascal
ĠR hythm
Ġz eros
Ġdaddy Ã¢
Ġmil king
ÅĵI n
ont osaurus
Ġsol ver
ĠTV s
Ġind igo
ĠSusie Ã¢
loo ked
Ġplanet arium
Ġcell ar
Ġbill owing
Ġshrink s
Ġthermomet ers
Ġdent ed
Ġseason ing
ĠHa iley
Kim my
ĠSl ither
ĠTre asure
Ġsunb athe
crack er
Ġginger bread
Ġsnorke l
Dream s
Ġdevel oped
Ġpersuas ive
Ġpharma cy
A gnes
B arney
E arth
E arly
F uel
P uddles
W ine
\ "
b ig
e w
h onk
s pl
Ġ &
Ġs ized
Ġl ather
Ġhe e
is fied
at ives
ĠS us
an cient
ll ey
Ġy ank
ĠB at
ĠW indy
Ġbr ontosaurus
Ġtogether Ã¢
Ġfeel ers
Ġmy stic
Ġtake off
Ġkind a
urp hy
Åĵ Ouch
fore st
Ġun solved
Ġtra g
ĠR ush
Ġba wk
Ġper p
Ġmum ma
uff ing
amp ed
Ġquiet ed
br own
Ġmail men
Ġeas el
Ġcap t
ĠU s
ĠMaria h
Ġrail way
ĠV i
ĠChrist opher
go ing
ĠY ear
ĠKeep er
ĠSqu ash
Wh istle
Che er
Ġpassage way
Sal ad
Ġgarl and
Ġgur gling
Ġfol ks
Ġalt ar
ĠAustr alia
Ġloun ge
Ġmob ile
A aron
D ri
K erry
K ari
Y ucky
j u
l ived
y ah
Ġb asis
ĠT ube
Ġ" "
un ning
um s
Ġcl ank
Ġme ek
ĠD ragons
Ġgra vity
Ġjo ey
Åĵ Jane
ĠC ec
ool ish
ĠP ort
ĠP ins
ĠP ray
Ben ji
Ġreal ization
ĠG iving
Ġright s
ĠR OAR
ĠR iri
Ġkid ding
Ġste amed
rel iable
Ġrel ented
av is
Ġatt ended
Ġrec ited
Ġeggs hell
Ġdrum sticks
Ġcost ly
ĠMy stery
Ġalert ness
lend a
Ġgrill s
Ġthreat en
ĠY ogurt
Ġaff ected
cl oud
ĠChe ating
Ġposit ions
ĠFlo ssy
bl ock
ĠAnt ar
Ġallerg ies
Mel ody
Sm all
Ġpassion ate
ĠPast els
ĠGu y
De af
Ġnin eteen
Ġsevent een
Ġswer ve
ĠGhost s
Ġgymn astic
Ġthorough ly
ĠLaug hing
Ġinhab it
A bbi
B oris
C on
D is
F rightened
V ictor
W ar
e ater
g ently
h is
h igh
Ġt att
Ġb ount
in ch
it zy
Ġc unning
Ġhe x
ĠT ower
Ġha sty
ĠS afe
ĠH um
ĠM oppy
ter s
ĠA rrr
ĠBut ch
Ġfl urry
as uring
ĠD ead
ĠD ependable
ĠF arah
Ġsl inked
Åĵ Sally
Åĵ Grandma
ĠC autiously
Ġcu bby
ĠP art
ĠP ilot
ĠG igg
Ġthree Ã¢
ĠEm mi
me asure
Ġtrou bling
Ġwoman Ã¢
ub way
St rawberry
lex ed
lebr ate
Ġhel ium
ĠOn ions
Ġones elf
ĠBl u
Me i
Ġdepend ed
Ġpatch work
ĠCl iff
Ġur gent
Ġraft s
Ġshelter ed
Ġhut ch
ĠUn iverse
Ġdisappear ance
Ġstraight en
ĠIs aac
Ġport ion
Ġcontain s
Shh h
ĠJon ah
elie ved
Ġvibr ate
ĠAr ctic
ĠMake up
ĠSe a
ĠPer fume
ĠSurpr ise
Ġfres hness
Ġsmoot hest
ĠWor ried
Rainbow s
ĠGeorg ina
Tra cy
Ġwed ged
ĠMos quitoes
Ġug liest
Ġinnoc ently
ĠRee f
Jes se
Ġconvey or
Ġancest ors
Ġbrig ade
Ġgrad u
Ġjan itor
Ġlepre chaun
S chool
S ale
l it
Ġt amer
re sh
it ual
ĠT ar
ĠS uch
Ġr itual
am us
ĠB uck
Ġwh iff
ĠM ammy
ĠBen nie
Ġno s
ĠW rite
Ġch ugga
ĠD ry
ĠD andy
ĠF ine
ĠF arm
Ġho ll
ish ment
Ġdon ation
ect ions
âĤ¬âĦ¢ ,
Jo lly
Ġcook er
Ġlesson Ã¢
ul ted
Ġdream er
Ġbutt s
Ġlife less
ĠCh ange
Ġant hill
old s
Ġmatch stick
elp iece
ĠMar ina
ĠMar issa
Ġing en
Ġpant ed
Ġgolf ing
ĠMe at
go ers
ĠRuth ie
Jess y
Ġrely ing
ĠNe igh
Bo bbi
Carl os
ĠMus cle
Sm iling
Ġunlike ly
Eww w
Ġtech nician
Ġadjust ments
Ġmango es
Ġdocum ents
Ġmant elpiece
cre ase
ĠSaus age
Ġforb idden
egetable s
B ug
E nd
I S
R ead
V anish
n eed
p oke
s l
u ary
u able
u der
w ith
Ġs ought
ĠT all
ĠT op
ĠT aste
ĠT idy
ĠS ab
Ġtime out
Ġgo pher
Ġse wn
ĠA bbey
ĠBen Ã¢
Ġme erk
ĠL en
ĠL on
est roy
ĠD oodle
ĠMom ents
Ġab rupt
ĠSam son
Ġlearn ers
Ġbu ff
Ġdon ated
He ather
ĠJo kes
Åĵ L
Åĵ Put
Åĵ Climb
ĠP ear
Ġcry baby
Ġfr ayed
ĠSp ace
ĠN ella
Ġhot els
Ġrel ia
Ġju icier
Ġprincess Ã¢
Ġseat ing
Sp eed
Ġrough ness
Ow en
ĠPe bbles
ĠAl arm
Ġsepar ates
Ġteleph ones
Ġshock ing
Ġ1 8
ĠY awn
ĠPl anes
Ġgasp ing
Ġconqu ering
Bu bble
ĠPin ch
Ġpossib ility
Ġthunderstorm s
ĠTra cey
ĠJam al
ĠHay ley
App les
Clean ing
ĠAle c
Ġoccup ied
Ġmystic al
B op
C elia
F ake
H urray
M al
M itch
P arrot
S ail
S car
T abby
V icky
Ġhe ave
Ġp itches
at hed
ĠH ana
ig ure
ĠB ern
ĠB IG
ĠM E
ore n
ore y
Ġcl inging
Ġstart ling
Ġag g
ĠF lex
Ġover looked
ĠJo di
em p
Åĵ Hold
Åĵ Anytime
Åĵ Never
ĠP ractice
Ġsand ed
Ġbow ling
Ġmet ho
Ġliving room
ĠAll i
Ġforever more
Lucy Ã¢
Ġspe cks
Ġburn er
Ġmic rosc
Ġbarn s
Ġsne ered
ĠPe ppy
Ġhedge hogs
ĠAb ra
Ġfetch ing
ĠChe ep
sol ving
ĠIm p
Ġcourt room
Ġnatur ally
Ġ4 0
Ġtroll s
Ġscut tle
ĠEve lyn
Ġshuff ling
La zy
Per cy
isapp ear
Luc ie
ĠAri a
Ġthaw ed
ĠMor ris
udging ly
Ġsnarl s
Ġassign ment
ĠLau rie
Ġuniqu eness
A iden
E ast
R aven
V an
s u
Ġs ections
Ġh ues
Ġm im
Ġm amma
Ġp itter
ĠS hy
ĠS av
ĠHe aven
ut o
ĠM au
ack s
Ġlo vable
ĠD ottie
Ġdown hill
ess on
ĠF a
ĠF og
Ġsk i
Åĵ G
ĠC ross
ĠSo ld
ct ica
ob web
Ġclean ers
Ġun selfish
Ġdis comfort
We ee
ĠR oom
ĠR acing
Ġmum bling
Ġhat ching
Ġfro sty
ctor y
Ġcorn ered
Ġcow ered
Ġtid es
ĠPeter Ã¢
itter ing
com p
Ġchar ges
Ġfu zz
ĠCl apping
Ġtire lessly
Ġrag ged
ĠOr der
Ġattach ment
Sh aron
ĠY OU
Ra ise
ĠSl iding
ĠTe a
ĠCow s
Åĵyou Ã¢
ĠAdventure s
Ġpier ced
Ġrepres ented
Animal s
ĠSPL ASH
Gert ie
Ġrech arge
ĠChin ese
ĠAntar ctica
C aleb
G iraffe
G obble
K arl
K ira
K ylie
N ell
P ress
R es
S omeday
h ide
h ire
k art
he e
he et
Ġb um
ĠT ino
ll ipop
ow el
Ġsh im
Ġsm other
Ġsc aven
Ġbr illi
Ġbr ooch
ro ar
ĠD aphne
Ġho ppy
Åĵ M
Åĵ Uh
Åĵ Whenever
ĠP ro
ĠG em
ĠO t
sc ri
Ġinc on
Ġadm itting
Ġorgan izer
Ġslid er
Ġsack ing
ĠLe aves
To ot
Ġrid ges
ately n
Ġaccept s
known st
Ġspring y
Ġshine y
Ġshelter s
Ġappl au
Ġoil s
Ġadmiring ly
Ġcal cul
Ġactiv ated
Ġpermit s
exp ensive
Ġinsp ire
Wh ite
ĠCra bbie
ÅĵWhere Ã¢
Ġev idence
Ġhaven Ã¢
Mon ster
ĠSe agull
Ġripp led
ĠRainbow s
ĠPeanut s
Ġmisbe haved
Ġzag ging
ÅĵHe Ã¢
ĠSail or
Ġess ential
Den nis
Ġmelod ic
ĠTut or
Ġgymnastic s
Ġbrilli ance
A N
J umpy
P ause
R ep
S ari
b ush
s un
il ary
ĠHe art
ck ing
ĠB one
ch irp
Ġdo Ã¢
al ance
Ġfun Ã¢
ĠL ime
ĠL ock
Ġhome Ã¢
ap t
Ġsl umber
Ġsn eezy
Åĵ Nice
Åĵ Jump
ĠC able
Ġte xt
ĠG avin
ĠN ico
ount ed
Ġpart ners
Ġhair band
Ġice cream
Ġvis ion
ugg le
Ġpro pped
Ġheart ed
Ġcorn s
ho nda
Ġinst all
Ġsea f
ĠCh ase
ĠCh loÃĥ
arra ssed
Ġant id
Ġnut ty
Jane Ã¢
Ġfig ur
ĠMar riage
ĠCl umsy
ĠWh ippy
Ġobser vation
Ġworth while
Sh iver
Sh rimp
ĠNut s
Ġbegin nings
ĠGr an
ĠGr ateful
Ġforehead s
Ġhealth iest
Ġlower ing
ĠSc ary
Ġoffic ially
Ġtweet ed
ĠSk ull
Bu y
ĠSmo king
Ġtantrum s
Ġgroom ed
Mel anie
ĠWolf ie
OO F
ĠFind ers
Ġacrob at
Ġtrad ers
La ila
Ġannounce ments
ÅĵThey Ã¢
Ġpoll in
Ġneg ative
Ġrum our
Ġcroiss ants
Ġmant el
Ġthundercl oud
ĠFlick er
Ġcorrid ors
Cher ry
Hug o
Ġunrave led
Ġcommunic ating
Ġunbuck led
Ġperp lexed
Ġinhabit ants
C e
F lappy
H ome
T est
t ta
v als
Ġ i
Ġ Quit
Ġto ll
ing es
Ġn urt
Ġha il
or ation
ĠH ook
ch airs
se ye
al t
Ġout line
Ġsp icier
ĠW inky
Ġco il
ĠL ind
ĠD ish
ĠF ia
Ġtw eez
Ġsl oth
Ġsun n
ak azam
ĠC ammy
Ġde gre
ĠR iver
Ġcr ut
co al
ĠLet s
Ġtight ening
Ġsong bird
ĠJim iny
ere r
Ġval ve
Ġrespect s
Ġteach ings
Ġoven s
ĠCh urch
Ġlad led
Ġtid iness
Ġchocolate y
Ġcrown ed
ser ve
Sp iders
ĠNo on
ĠBu y
ĠFin ley
ĠPe ering
ĠAl vin
Ġexper ts
Ġmild er
Ġtut oring
Ġfactor ies
ĠRo llo
Ġinvestig ating
Ġworth less
ĠRe ally
Le a
Ġwid ening
ĠRabbit s
Whe w
Ġund ressed
utter ing
ĠFel icia
Mel inda
Ġfluff iest
Ġunst able
ĠPup il
Step hen
ĠInd ia
Gold ie
Ġdun ked
Ġaccur ate
Ġrac oon
ĠEnt er
ĠPret ending
Ġsympathet ic
Mus ic
Ġhex agon
Ġantid ote
Ġdegre es
B urt
B uggy
B ambi
C ut
C ora
N one
P sst
R usty
T ouch
c ue
g osaurus
j ar
n ice
t ap
Ġt ens
Ġf er
Ġf iddle
ĠS ienna
Ġr ook
ĠI ggy
ri ch
ĠB ANG
un ken
al ing
Ġtoo Ã¢
Ġcan ister
ĠTom as
Ġsc ans
ĠW all
Ġtre nd
Ġcar amel
Ġexc l
Ġpr ow
us hy
Ġsun ken
Ġbu ries
Åĵ Billy
ĠP h
Ġnow Ã¢
Ġrain forest
ĠR ag
Ġcr ates
Ġbutterfly Ã¢
uit y
Ġwoods man
Ġmat ure
Ġowl Ã¢
Ġkick er
Ġpract ically
Ġshr unken
ato es
Ġham sters
Ġharm onica
Ġrub ies
Ġthunder ous
âĤ¬âĢ ¹
Ġanxious ness
Ġsuff ers
Ġdestination s
ĠSad ness
Ġscra ping
ĠCra ig
ĠCra bs
Co pper
Ġgall ery
Ġconsider ing
Ġnarrow ed
Ġsusp ected
Grand father
Ġmac aw
Ġtang les
Tre vor
Ġintr uder
Ġir ons
Ġphotograph s
Ġcorrid or
Ġpyram id
Ġpyram ids
Pin chy
Ġcontra ption
Ġmurm ured
Di ane
Ġlimb s
Ġphys ical
ĠCray ons
Ġcountert op
A W
F ood
F urry
K ick
M indy
S ha
W innie
Y et
b aked
c on
c ouraged
g iveness
h ift
n ets
p atter
s ister
u ra
Ġ :
Ġs in
Ġb akes
Ġh ump
ou l
Ġp ried
Ġp aced
Ġsa cred
ĠS ia
ll ous
ck now
ter ing
Ġthem e
ic i
ĠW ipe
Ġmake over
ĠD rew
ĠF amily
Ġsk etch
ĠC atie
Ġma id
Ġsqu id
Ġhigh light
Ġmakes hift
Ġland mark
Ġgu ides
Ġblack berry
Ġpack ets
Ġpocket ed
Ġsal ute
Ġrob ins
ĠDon ald
ĠMar g
ÅĵYes Ã¢
ĠBu bby
Ġsurf aced
Ġdeaf ening
ĠSh ut
Ġur gently
Ġmuseum s
Ġskill ful
Ġcomplain t
Ġtherm os
Fl ower
Ġcomm it
Che ss
Che ster
Ġding ed
Ġwhir r
che ese
Ar f
ĠDel ighted
ĠBree zy
ĠSil ence
Ġcleare st
ĠHel icopter
ĠHel ga
Ġrent ed
Ġdecre ased
Ġentertain ment
ĠHen ri
ĠPri ya
Ġdun ge
Check mate
Int rigued
Ġglare s
Nat alie
ĠEst her
ĠCy nthia
Ġmul ti
Ġmourn ed
) .
A ren
B ree
B arky
C ars
C ory
C rystal
L illie
N ight
S her
_ _
n est
p ass
p ey
t ac
w ine
Ġa cknow
Ġs oooo
in er
Ġhe irl
ĠT ami
Ġn aught
Ġin ject
oo shed
se ll
al ways
Ġsm udges
Ġat h
ĠJ orge
Ġme ment
Ġcar vings
ĠL ate
est ruck
ĠD iving
ĠMom Ã¢
Åĵ Stay
Åĵ why
Åĵ Friends
ĠP oo
Ġcon sist
ered ith
iss ie
Ġfell a
Ġfire ball
Ġhill side
Ġcount less
ĠK yla
br is
Ġexp ired
ĠSt one
work er
Ġeye ing
aw yer
Ġlog o
Ġfier cest
Ġmay onna
Ġgro ve
Ġbother s
With in
Ġrhy med
Ġsty led
Ġnetwork s
Or gan
ĠMo ving
ĠPl ant
Ġcoup on
ĠRobert a
Ġtuck ered
Ġstur d
Ġwhirl pool
Ġsparrow s
ĠPlay ful
Ġbust le
iped e
Ġunb elie
ĠInd ians
ĠBal ancing
li ked
Ġoppon ents
Ġmas se
Ġsequ ins
Ġtatt oo
Ġingen uity
Ġheirl oom
Ġmayonna ise
! ,
L yla
M orty
R ec
S ave
` `
g lass
o il
s urpr
t ons
z els
Ġt imb
Ġh arp
Ġha iled
ĠThe odore
es ame
ver n
Ġr im
st ay
Ġsh ift
ĠM ai
ĠA ma
ĠA yla
Ġcl ack
op y
ach t
arn ia
ĠF it
ĠF estival
Ġsl ing
Ġsk im
Ġover do
Ġpick er
Ġpret zels
Ġlove lier
Åĵ the
ĠP J
Ġsto ves
Ġbed spread
Ġju icer
Ġmet res
ĠBilly Ã¢
cle an
Ġheal s
asket ball
ho es
bow l
ĠMama Ã¢
Ġhon ored
epend ent
ĠCh alk
Ġsal mon
arl ene
Ġaw estruck
Ġrose bush
ĠFr ida
Ġtrick ling
Ġtur bul
Ġtur rets
ĠRo lling
Ġstreng then
Ġrequest ing
Fl ash
Fl utter
Ġbeha ves
Mar c
ĠAn ita
ĠY outh
Ġburst s
ĠPo st
Ġund id
Ġmarve llous
ĠJean nie
erg us
ĠCurious ly
Gr umpy
ĠPick ing
ĠWin ston
Lou ie
Ġass umed
Ġcheetah s
Ġspir als
ĠStu bb
Ġsul k
ĠBull y
Ġcoz iest
Amaz ingly
ĠDanie lla
Ġuntwist ed
ĠCube y
ĠAut umn
ĠStret ching
ĠTerri fied
ĠCact us
ĠDO NG
Bel inda
Ġtimb ers
B ugs
F ireworks
S uccess
W anda
W OW
d ragon
t ake
t ick
u ss
Ġs ue
Ġf ract
Ġd aunt
Ġm asc
ĠT er
ĠT ilda
il ight
ĠH appily
et urn
ĠB atter
un gry
Ġdo in
Ġlo ver
Ġsp ic
ĠA ddie
ĠA vocado
Ġal tern
Ġfa iling
pl ain
ĠE arl
ĠD oris
ĠMax i
Ġhand made
Ġsl unk
ort ly
Åĵ Anna
Åĵ Whee
Åĵ that
Ġfin er
ĠP arty
Ġflo atie
Ġcra fty
Ġju ry
Ġlate Ã¢
Ġbread s
St ealing
ĠLe g
Ġboss iness
Ġweek ly
Ġrare st
Ġind ivid
ĠSn ail
Ġcere als
ĠCl ick
ĠSh annon
Ġsprink lers
Ġyield s
Ġble ating
Ġcontro lled
ĠOl ga
Mar co
ĠAunt y
Ġaud ition
pr oof
Mad eline
Ġcongratul ations
ĠUnder stand
yl vie
ĠAnt on
ĠSe at
ĠDra ke
Ġperse vere
ĠMix ing
ĠMix ie
Te ach
ÅĵIs nÃ¢
Ġboast ing
Ġmid st
ĠBarb ie
Ġgrind ing
ĠWaff les
ĠMos es
ĠReg ular
pol ish
Ġdefl ated
Ġunbe arable
D uke
M ud
O M
P ray
b orn
f ake
m int
r ong
Ġt ic
Ġw its
re ly
Ġd ome
ĠT urt
ar ily
Ġg iver
Ġn aked
ĠS ubway
ĠH mm
ĠH alf
Ġr am
Ġst ab
pp o
Ġwh ooped
ĠM aster
ur ora
ĠA way
ic ol
ĠJ in
are r
ĠW ash
âĤ¬ !
ĠE lderly
ĠE thel
Ġball room
ĠF ur
Ġho ist
Ġint ended
Ġsl icing
Åĵ Mmmm
ĠSo f
be ard
ĠP ic
ĠP andas
ĠG abri
Ġde bris
We Ã¢
mer gency
ren a
Ġrel atives
Ġsquirrel Ã¢
ĠK ia
ĠK arla
de ad
Ġband its
Ġrespect fully
St u
St acey
ĠLe ft
Ġbreath less
Jimmy Ã¢
imp le
Ġdough nuts
Ġjam s
Ġyet i
gu ess
ĠPe a
Ġcrawl er
Re ggie
ĠSh oo
Ġfle e
Ġbur den
Ġvend ing
Ġinf ormed
ĠMe asure
Ġlecture r
Paul ine
Ġflavor ful
Ġpleasure s
Ġseaw ater
Ġsadd est
ĠRay mond
ĠHope fully
Snow man
Ġplayd ates
str id
Ġwicked ly
Ġconstr uct
Ġadv anced
ĠWhite y
Ġappet it
Har vey
ĠBro dy
Ġphra ses
Ġir re
ĠĠĠĠ ĠĠĠĠ
ĠAllig ators
ĠPal oma
ĠOy ster
Ġlitt e
ssssssssssssssssssssssssssssssss ssssssssssssssssssssssssssssssss
CH OO
Ġfaire r
Jem ima
Ġmeander ed
Ġwagg led
Ġmam m
Ġcoun sel
Ġcrouch ing
ĠHurric ane
oren ce
Ġincon ven
Ġdunge on
E D
F ishy
G e
G aby
M uffy
N icole
O stri
Z igzag
c oo
m et
re ated
Ġd ime
il thy
id st
et al
Ġe w
ĠI g
ĠB axter
op ot
ĠW on
ĠW ave
Ġtre mend
est yle
Ġch is
ĠD eb
ĠF ee
Ġsor ter
Ġunt ying
Åĵ She
ĠC ind
ĠC ave
Ġbra vo
Ġgl ancing
Ġlist s
Ġun cles
ff led
Ġdis liked
Ġam using
ĠR y
ĠR iya
Ġba ffled
ĠDo c
ĠDo vey
ster ious
sh ade
Ġsho pped
Ġsquir ting
ĠK iss
cle ar
Ġwell ed
Ġca uses
ĠO xy
unt ing
Ġcoin c
Ġant elope
ĠJake Ã¢
ĠZ ed
Ġdest iny
Ġlab s
io lets
Ġbull frog
Ch icky
ĠRo byn
Ġstable s
Ġglo ss
ĠV alley
Ġemer ald
ĠMel vin
Ġconcer ts
ĠBee bee
Ġdistract ions
Ġstrum s
ĠGrand son
Ġswat ting
Ġdetect or
Ġvitam in
Ġscan ner
Ġmilksh akes
ĠRad ishes
Ġmult icol
ĠHors ie
Ġinh aled
Ġcrim inal
Ġhust le
need ed
Ġdaunt ing
5 0
D are
H azel
H appily
L y
L ions
M ari
N ibbles
P ast
P aws
S itting
V era
w oman
Ġ Years
Ġh omet
Ġh ue
Ġd iversity
ig el
ri bbit
st ood
Ġre pt
ill ing
Ġar ched
ĠW ags
ĠL ie
nder son
Ġlot tery
Ġint ention
Ġhow ls
Ġcom ic
Åĵ An
Ġgl aring
Ġgl itters
Ġpeople s
ĠP ablo
Ġground hog
th on
Ġbed ding
Ġbed post
ĠG lenda
ĠSp y
ĠSp inny
Ġafter all
Ġde als
Ġac hes
Ġmor sel
ĠN est
Anna bel
Ġcr ushing
orn ado
uff le
Ġside kick
ol ves
Ġatt ending
col n
Ġperson alities
Ġsur vey
ĠLe fty
Be ary
Ġhur ries
ĠBe ans
Ġwis py
Ġfil ing
Ġaw ed
ĠNo a
ĠNo la
Ġtrack ed
ĠElla Ã¢
Ġtrick led
Ġped dling
Ġble at
Ġres ume
Ġflav ored
Ġgust s
Ġpitch ing
Ġfashion ed
Or iginal
Fr anny
Dan cing
Ġrefu sal
ĠWil f
Ġsprout ing
ÅĵWho a
Friend ship
Never theless
Ġsoothing ly
ĠCro co
riet ta
ĠRon ald
Ġsup r
ĠPol ite
Ġcy cled
Ġprotest s
Ġbenef its
Cr usty
ĠLaw yer
Op era
Ġult imately
ĠShoot ing
ĠMau rice
Ġapplau ds
Ġsturd ier
Ġmasse use
Ġhomet own
H H
L acy
M ai
M iguel
P up
R ad
R ise
b an
b eds
c ine
j our
l ter
l ion
p ee
t ry
v ailable
ĠT HE
Ġth y
ĠH anging
Ġr ibs
Ġbe acon
st ring
riend ly
ra ser
Ġlo ft
ĠA gatha
ook ie
ĠD ick
ess y
ĠSam mie
Ġhand stand
Ġsk ins
Ġsun r
uc ch
Ġcle ars
Åĵ Mary
Åĵ First
Åĵ Meow
Åĵ Should
ĠC ici
Ġfi ber
Ġred der
Ġdan g
ĠP ipe
Ġenjoy ment
She ila
ĠR ac
Ġbutter ed
Ġsand bags
Ġpi ec
sw eet
Ġpro sp
Ġsu ited
Ġret ra
Ġmed it
Ġbat tled
Ġpin ata
Sp read
Ġhorn et
Ġstri ving
Ġsauce pan
Ġpor cel
Ġregret fully
Ġpanic s
Fl op
Le arning
ĠFor give
Ġunf riendly
Ab solutely
ĠPl uto
Ġscrewdri vers
ĠPam ela
Ġafford able
Ġwhimp ers
ĠBow ser
Ġswallow ing
Ġboil s
Ġcondition er
Ġclaw ed
ĠHug h
Ġbloss oming
Sc issors
Ġlens es
Alf red
ĠIgn orant
ĠPass port
Pol ice
ĠSel ma
Ġthri ve
Ġteen y
ĠCir cle
rrrrrrrrrrrrrrrr rrrrrrrrrrrrrrrr
Ġlink s
Act ually
ĠOct o
Ġflaming os
opot amus
Ġporcel ain
D ra
D ale
D izzy
F illed
K ind
L E
W ise
d ings
y our
or my
ĠH arm
Ġbe gg
pp ort
ĠB amboo
Ġwh oop
ĠM iffy
ĠM ule
Ġj ester
Ġj agged
Ġsc issor
as ked
ĠE sme
ro lling
Ġbl ushing
nder s
Ġlot ions
ĠC ho
ĠP le
ĠP ap
ĠP aris
ĠG enny
ĠSp ecial
ĠSp encer
ĠN arnia
ĠR ead
ĠThere fore
Ġsister Ã¢
Ġdangerous ly
Ġbee Ã¢
ail ed
ĠO ften
Ġsal ut
Ġemb arked
Ġrobot ic
ĠSt ation
Ġlamp shade
Ġmotor boat
ĠRose mary
Ġdough nut
Ġbeak ers
ĠBu ilding
Ġghost ly
Ġmeat s
angu age
Ġsuff oc
Ġprevent s
Sh ake
Ex ploring
zag ged
ĠSpark ly
ĠQuack ie
ĠCra sh
Ġbully ing
Ġmasterp ieces
Ġmischievous ly
Ġdump ster
Ġloc als
Ġlull abies
Climb ing
Ġreport ed
Up on
Ġdoubt ful
ĠMatch ing
Ġcoax ed
ĠCut ting
Ġkil og
Ġprec ise
ĠRelax ing
ĠPengu ins
Ġwed dings
Ġintimid ated
Pet ey
Ġcrink led
ĠLin coln
Carrot s
ĠVer onica
Ġbount y
ĠAbra ham
Ġmement o
Ġcoinc idence
" ?
B OOM
C alm
D inosaur
F anny
J ed
M arian
P ot
P ain
R ow
W et
W iggly
W orms
k ers
m at
y ards
Ġhe ating
ing e
Ġg ushing
en ced
Ġn arr
ĠH attie
ily n
ith a
Ġplay thing
Ġdo e
ĠM ing
ĠM achine
Ġre jected
Ġfriend liest
Ġj ell
ill o
Ġthings Ã¢
ĠD u
ĠD ecor
ap or
Ġgr ated
Ġkne aded
Ġtr und
ĠJack i
He e
Åĵ May
ĠG oo
ĠG ator
We eks
Ġhappened Ã¢
ons ense
ott a
Ġsmart ness
Ġdist ances
ĠO b
Ġpan el
Ġtid iest
Ġaw fully
ĠMark y
Ġfier cer
Ġson Ã¢
Ġload er
ĠPat ricia
ab itha
ĠRo ary
Ġsub s
ĠSu pply
ĠSu zi
Would n
Cl ar
Ġkeeps ake
Jul iet
Ġdecl ined
lo ad
Co al
ĠAnt y
ĠMonkey s
Ġjing ly
ĠTra ffic
Ġoper ating
ĠPast el
Ġkill ing
Ġcooper ating
ok o
ĠSpl ish
Ġblind ed
Ġfrol ic
Ġtechn ology
CRA CK
Ġthor ny
ĠCal vin
Ġcarri ers
Ġcarri ages
Att ention
Ġassemb led
Ġens uring
Ġmicrosc opes
Ġchis el
Ġthy me
. )
K yla
R ice
T rain
W riting
c ont
s ay
u bert
Ġa jar
ed ge
Ġf ades
er gy
ĠT u
ar se
Ġg oofy
ĠH ilary
Ġsh ivery
Ġout going
fu sely
ic ense
Ġback yards
Ġfun eral
Ġcl ams
Ġsc roll
Ġfe ma
omet er
Ġag ility
if ier
Ġsomething Ã¢
ĠL oud
qu est
pl aces
Ġsw irly
Ġv iolets
ust in
Ġsl aves
Åĵ Y
Åĵ Emma
Åĵ Ooh
ĠC re
ĠC ari
ĠSo oty
Ġde le
Ġac qu
ĠN umbers
ĠR olo
Ġcr amped
Ġnight ing
Ġz ucch
ĠTh omp
Ġgrass land
ĠAs king
Ġflower beds
Don na
Ġchildren Ã¢
Ġmar cher
Ġpet rol
Ġpro fusely
Ġstre wn
Ġheart y
Ġexp osed
Tommy Ã¢
ĠCh ild
Ġfoot print
ator y
ĠSt upid
ĠLe an
Ġtent acle
Ġind oor
Help ing
Go al
ĠAlex is
ĠPaul ie
Ġpur suit
Ġrail ings
Ġres ulted
Ġgrandmother Ã¢
ĠCar ley
ĠY arn
Bl ake
ĠHoot y
Ġnur sed
Ġvibr ation
Ġgroan ing
Ġjugg lers
Ġbund les
ĠCare ful
Ġda bbed
Ġlif estyle
che ap
Ġlitter ing
ĠJun iper
Ġposition ed
Ġkern el
Ġmini ature
Sw inging
Ġbelief s
Ġfrol icking
ĠZe lda
Ġki bble
ĠWood s
ĠShell ey
Isab elle
Ġrooft ops
ĠJa ime
pow ered
Ġgurg le
Ġsacri fic
ĠTid dles
Ġcolle ge
ĠLill ian
Ġshudd ered
Scar lett
Ġagg ressive
obweb s
Ġbegg ar
ĠThomp son
B iggie
D erek
N eed
P ir
S even
T y
T ears
T aste
T erri
b ing
t urn
w o
Ġ Q
Ġto cked
er ve
Ġm owed
om en
ĠT our
ĠT ough
Ġo vals
ar rel
ĠS all
ĠS aying
Ġr uck
ce ls
ĠB B
el ina
Ġk ale
al p
ĠM unch
ĠIt sy
ra ined
Ġse ash
ĠA ct
Ġar ts
Ġal akazam
Ġag ent
Ġexc ites
ĠE asy
ĠE sk
Ġsw elling
Ġab und
Ġtr out
Ġsn ips
Ġun roll
ĠSp it
sh ield
Ġsnow pl
Ġwall paper
ĠK ris
Ġstre aked
ĠFl orence
Ġpast ed
Ġnest ing
Ġgigg ly
Ġpar cels
Ġdelight ing
Sp ell
Ġwander ings
Ġclown fish
iv ore
oot y
Ġdeaf ness
Ġneat est
Re g
Ġlend s
Ha ha
Ġbul ging
ĠUn pack
Ġshower ing
Ġlily pad
ĠLiz ards
Ġgrape vine
Ġemer ge
Ġsidewalk s
ĠRa e
Ġrang ers
aa a
Ġgross ed
ĠRock et
ĠPo key
ĠSc ore
Ġjud g
ĠEric a
Ġwhirl wind
ĠTri x
ĠFran nie
Sc ared
friend s
Ġoper ate
De ep
Ġgad get
Ġcack ling
Ġrescu ers
ĠBon ny
Ġdawn ed
cra ft
Ġdaffod ils
Ġshri ek
Ġpredic ted
Ġgran ola
Ġneglect ed
Ġtoothpick s
Ġpapercl ips
Ġven om
fo llow
lley ball
surpr ise
Ġspic iness
Ġseash ore
ĠEsk im
' ?
C aterpill
E ating
F air
G or
M atches
P ower
S end
S unday
S ebastian
W ay
W alking
X IT
b ility
c ret
j ay
p retty
u let
Ġh umbled
Ġh ints
Ġc ope
Ġhe aps
ĠT ori
ĠS coot
ot ty
et r
oo by
Ġbe llow
Ġso cial
st ones
al ise
ĠM eet
ĠIt chy
ĠA imee
ĠA strid
ĠJ ail
ĠW hales
Ġbr on
Ġbr ook
Ġbr oth
Ġpr am
Ġpr ancing
Ġfl op
pl aced
ĠD ex
ĠD umbo
ist urb
Ġgra vel
Ġtr am
Ġtw ilight
Ġjo ker
Åĵ Try
ĠP ogo
Ġwait ers
Ġtow ed
Ġtri be
uff ins
Ġsurprise Ã¢
Ġlight en
Ġspl atter
Ġteac ups
Do gs
ony a
Be atrice
ĠBr illiant
Ġthick est
ĠDan cer
Ġbounce y
Ġchar coal
Ġengine ers
Ġthunder ed
ĠMandy Ã¢
gust ing
Ġtemp les
Ġhar ming
ĠRu bber
Ġveterinarian s
Ġrequ ire
ĠCo by
Ġconf ir
Ġgust o
rr rrr
Ouch ie
Ġrele ases
ĠPip o
ÅĵHello Ã¢
Ġ1 6
Ġcent u
Ġcent ipede
ĠMo jo
aren ce
Ġwrigg les
ĠSw ift
oc us
Ġbound ing
Fro gs
Ġinterrupt ing
ĠHug e
Ġhandleb ar
Ġsuck ers
Ar t
ĠChew ing
ĠDel ivery
Ġjigg ling
ĠMag nets
Del iver
Pol ish
Ban anas
Ġrepres ents
Ġhy ena
ĠPri ze
ĠZebra s
Ġwaft ing
Ġstink s
catch ing
Ġgracious ly
grand father
Ġastero ids
Ġturbul ence
Ġsupr ised
Ġjell ies
Ġsnowpl ow
D eer
E leven
G ill
M or
S kelly
T urtle
e arned
l ittle
l ace
n i
p olog
s ign
Ġb ony
Ġhe m
Ġp ou
ar ate
ar ina
Ġha lt
ĠH uggy
ig old
Ġr ots
ad or
st art
ĠB iting
ch ugga
ĠM itzi
Ġis la
Ġsp ilt
Ġall ergy
ick er
ĠW ra
Ġwho Ã¢
qu akes
Ġsw oosh
uck oo
Ġpo cus
ĠF awn
Ġho oray
But tons
Ġor b
ĠWe althy
Åĵ From
Åĵ Everyone
Åĵ Some
Åĵ Hmm
ĠC RA
wn er
Ġcon co
Ġdel ive
Ġvo ila
Ġfish bowl
So ap
Ġstory books
Ġprom pt
Ġgreen est
Ġsho ppers
Ġarm ad
ĠK ite
Ġpre scri
Ġriver side
ĠFl ames
ĠFl ippy
Ġmin us
ment ine
oun cer
ĠO oh
Ġcreature Ã¢
Ġcross walk
ĠLisa Ã¢
head ed
Ġcab ins
Ġlab or
heart ened
Ġhipp opotamus
Ġloop y
Ġskill fully
Ġwool en
Ġrequ ired
ĠAb el
Ġroot ed
Ex ercise
Ġinstruct ion
Ġexit s
ĠAm ira
ĠPl ants
Ġartist ic
ĠEx p
ĠSun flowers
Ġmarve lling
rest ed
Co coa
Ġflick ing
bur ger
ĠTre spass
ĠMa isey
ĠEd win
Ġcaps ized
Ġcluck s
Ġstump ed
Ġcommand ed
Ġdoub ted
Ġune art
talk ies
Ġscrunch ing
Ġdilig ent
Ġponder ing
Ġcleve rer
ĠEag er
ĠDri ving
ĠNight mare
Ġapologetic ally
ĠStret chy
Åĵno Ã¢
Ign orant
Ġsacri f
Ġconclus ions
Ġeggpl ant
ĠMem ory
danger ous
Ġtrag ic
Ġseaf ood
Ġtremend ous
Ġfema le
Ġcentu ries
ĠTrespass ing
A M
C onnie
G um
K itten
K angaroo
L ate
M eena
P ony
R upert
h urry
p our
he el
Ġt angle
ed al
Ġto ler
re p
Ġp ouncing
Ġo vation
ĠH ang
Ġnot ed
ĠM elt
ĠM otor
ra il
Ġbo a
ind ing
ĠA ggie
ĠA nderson
Ġpark Ã¢
ĠL imes
ĠL ab
ess ert
Ġho bbled
Åĵ Yuck
Åĵ Grandpa
ĠC orey
Ġcareful ness
Ġvo lleyball
Ġrain cloud
Ġam ulet
Ġcr unches
Ġper k
Ġduck Ã¢
sh a
Ġsat ell
Sam Ã¢
Ġhot test
Ġsquir ms
ĠGra pes
Ġspl ish
ere sting
Lila h
Ġfing erp
Ġhoney bee
Ġspider web
Ġsol ves
ĠJust ine
ian ca
Joe Ã¢
Ġgrand baby
Ġjam med
Ġrat tles
Ġfre qu
Ġdestroy s
Ġtur qu
ĠAl ert
Ġmodest y
Ġrecogn ition
Ġintrod uction
Ġrefre sh
Ġble ach
ĠWho Ã¢
Ġaccom pan
Ġchat ty
ĠPr issy
ĠHop sy
Ġwound ed
Ġunf urled
Ġden y
ĠY acht
Bl ink
Tr uck
Tr uth
Ġposs um
Ġexpress ions
Ġbusiness man
ĠDoes n
edic ine
Ġplo dded
Ġpurch ases
Ġpriv ile
Ġproduc ing
Ġmid air
Son ia
Ġviol ent
Ġjer ked
AA AA
Ġstock ing
ĠNeed les
ĠRep air
ĠSav annah
Ġinconven ience
Ġsubs ided
Ġzucch ini
Ġfingerp r
A ddy
B rand
M ikayla
N aughty
T ad
T ippy
W ild
b ugs
b ench
f rom
g ae
l our
t ree
Ġ *
Ġt ile
re o
Ġf umbled
ĠT rey
il ant
ĠS urfing
ĠH oo
ĠH idden
st ool
ĠB ul
ĠM oose
Ġre ser
ter ed
ĠA dri
Ġsc alp
Ġman ages
ĠW r
ĠW reck
if le
Ġexc uses
ĠE gg
Ġbl aming
ĠD estroy
Ġv ow
Ġv ess
ers ist
Ġsor ce
ia h
Ġpe ony
Ġhand bag
Ġsl ick
ort oise
ĠAnd i
Åĵ Alice
Åĵ Hurry
ĠSo ccer
Ġsafe Ã¢
Ġdra ining
Ġma le
ĠG len
Ġrepl ant
Ġmean ness
Ġsqu a
ĠR ubby
ĠR honda
Ġwarm s
sh ut
Ġread ers
Ġarm chairs
Ġtight ness
Ġrel ied
ĠTo d
ĠTo ad
ol i
Ġbuck ling
Ġmin es
Ġben e
ead ow
Ġpar lour
ĠSt rawberry
Ġpay ed
Ġscarf s
Ġspoil er
ha usted
Ġed ible
Ġtag ging
Ġdesign ers
Ġfat test
ĠMar ching
Ġmis placed
ĠCl ass
Ġairport s
Ġwinter time
Is abel
ÅĵNo Ã¢
Le ila
ĠMe ggie
ĠQu iet
Ġwaist coat
ĠBig ger
Ġsting ers
ĠFollow ing
Ġslam ming
ĠRock ing
ertain ly
Ġreass urance
Ġmaster ing
Ġstroll s
we igh
str uck
Ġaston ishment
Lou is
Ġcaution ed
Ġmustn Ã¢
ĠRes cue
Ġhoneycom bs
Ġreckless ly
ĠBall oon
Ġlimp s
Under neath
Ġgloom ier
Ġtack led
Ġplun ger
Del ighted
Off icer
raw berries
ĠMild red
Ġhairsty les
Ġpred ator
ĠPal ace
Ġconcl uded
ĠBry an
Ġshatter s
ĠMu seum
Ġbree zes
Ġna ive
Ġconsc ience
ĠUs ually
Ġtens ion
Ġfer ret
ĠBB Q
Ġuneart hed
Ġturqu oise
F ill
G en
H igh
J et
M ammy
S af
e very
l ia
m ied
s ack
Ġ ÃĤ
Ġto nes
Ġh inges
ar ison
il ts
on ing
et ched
Ġu dd
Ġli vel
Ġwh ooping
Ġre ma
Ġgo bbling
Ġsp here
Ġcl anging
op er
ie go
ĠL abel
ĠL olo
Ġmu dd
Ġmu cky
Ġch ubb
Ġsl o
Ġsl opes
Ġover looking
Ġgre asy
Th ink
Ġrem edy
ĠP it
ĠSp r
ĠN et
Ġdin o
Ġarm ful
sp ell
Ġpi Ãĥ
Ġcomp arison
zz ie
Ġblanket ed
Do lp
Ġboun c
Ġpresent ation
ĠCh ain
Ġpri or
Ġmummy Ã¢
Ġboss iest
ĠMar ble
Ġyarn s
ĠWh is
Ġbur rit
Ġwid est
ĠJan ine
ĠGr amps
Fr uit
An swer
Ġfears ome
Ġwrink ling
Ġdet ached
ĠSc ale
Su pply
Ġund eterred
Ġaim lessly
Ġtopp le
Ġerupt ion
Ġdepart ure
Ġhost ess
Ġfluff ier
ĠGirl s
Ġfurious ly
Turn ing
Ġpy thon
Ġrais in
ĠFore shadowing
ĠRuff les
ĠCloud y
Ġunpl ug
Ġdesp eration
ĠComp assionate
ĠIgn oring
Ġclient s
Rest ore
Ġhars hness
ĠFix er
Ġcru ise
Ad venture
Ġorphan age
Ġconst ant
Ġclothesp ins
Ġshim mied
Ġfigur ine
ĠLeg os
arrel ing
Ġsorce rer
D ifferent
H ay
L emons
N aomi
R oo
Z e
b ad
n ame
Ġ ounces
om ino
ĠS O
ĠS even
im ated
or ah
ll ers
Ġu pper
Ġbe ards
ĠB ip
ĠM is
ĠM urphy
ry n
ug e
Ġgo Ã¢
are crow
ĠW ing
ĠW alk
Ġco s
ach ing
Ġwho a
ant elle
Ġho ver
Ġrun gs
Ġflow s
Åĵ please
Åĵ Keep
Ġsky sc
ĠHer bs
Ġjump ers
ĠP oint
ĠG rrr
ĠG iggles
ĠSp e
ĠSp oon
Ġlisten ers
Ġquick ened
Ġde ce
Ġwork bench
ĠN essa
ĠR ake
Her o
ĠTh ief
Ġfire places
Ġbow string
ĠGra pe
Ġquiet est
Ġmust y
Ġshop keepers
Ġspo kes
arm en
Ġwheel ing
Ġter ms
Ġmelt y
ĠSn uggle
Go lf
Ġer ror
ĠToby Ã¢
Ġresist s
Ġfu ssy
ĠSh ar
Ġtrumpet ing
Ġgro ans
Ġart ic
Ġbul ge
Ġswitch ing
pe ace
ĠKing Ã¢
reat ive
Ġann ouncer
Ġbroom s
ĠGr ill
Ġmesmer izing
ĠMel ina
cl imb
ĠChe er
Ġdistract ion
Ġbattle field
Ġsou ls
ĠRain y
ĠSaturday s
Ġform ation
Ġunwra ps
stand ing
Gr an
ĠPick le
ĠWhe ee
Ġunfold ing
hh h
Sn akes
ĠOstri ches
ĠGl ad
Ġconfu se
Ġoper as
Ġempt iness
Har ley
Ġfres her
Ġtreet op
Ġpoo rer
ĠBre ak
Ġneg ot
ĠCaterpill ars
ĠViv ian
Bess y
ĠRest ing
ĠScratch y
ĠFruit s
Ġjersey s
Ġnon etheless
Ġdevel op
Ġrearr anged
ĠFear ful
Ġcomf iest
ĠTinker bell
Ġtweez ers
ĠPassport s
B eet
C lass
C assie
F O
G erald
H enny
H aley
U N
e lephant
t ell
Ġt rove
Ġs oo
Ġc ider
Ġhe aved
ĠT H
ĠT ortoise
ĠS age
le ad
ĠH or
et ed
ĠHe ctor
Ġr ifle
ch ain
Ġsh red
ome o
ĠM urray
Ġsp uttered
ĠW aste
ag ue
Ġco ppers
Ġch imes
Ġbl ah
Ġbl aze
Ġdown ward
Ġgr ater
Ġgra vy
ĠF ergus
Ġho ly
ma kers
Ġsl oppy
Ġwater proof
Ġover grown
urt ed
Ġbetter Ã¢
Åĵ Jim
Åĵ Run
Ġgl um
ect ing
ĠP ico
Ġwind shield
Ġdis heartened
Ġmean est
ĠN iki
ĠN oodle
Ġam idst
Ġz ippy
Ġel astic
Ġteddy bear
ower ing
ĠJim mie
Ġteacher Ã¢
Ġspin ners
Ġdelight fully
Ġsal iva
Me asure
ĠNo se
ĠNo sy
Ġapolog ising
Ġfour Ã¢
Ġspace man
Ġstri pped
ĠU r
Ġtrick le
ud i
Alice Ã¢
ĠAl right
Ġfort ress
ĠPat sy
ĠTr ish
ĠTed die
ĠCo zy
ĠJe alous
ĠOw ls
Cl ick
Mar vin
Ġtractor s
ĠChrist ine
Ġblast ing
ĠBad ger
Ġhood ie
ĠSuper hero
ĠLight s
ĠTe le
Ġpeak s
Ġsus pect
ĠChar ming
Ġdiv or
De bby
Ġpluck ing
Ġgreed ily
Ġgumball s
Ġdismay ed
ĠHen rietta
ĠWor ld
Ġtrink et
Ġug lier
mom my
Ġtranqu il
ĠReach ing
ĠLeaf y
Des perate
Min ty
Geor gie
Con nor
Ġmim ic
ĠFa ctory
Ġlandmark s
Ġindivid ual
Ġsuffoc ated
Ġtrund led
Ġtram pled
Ġnegot i
* *
D ry
D ella
D arling
E N
H unter
K neel
M u
M op
P eek
R elieved
S afe
T ink
a fter
b es
b ite
i bby
m ets
n eth
Ġ 0
Ġa ids
ed ric
Ġh umb
Ġd em
ĠT alia
il et
Ġsa pp
Ġth us
ĠShe p
ĠB as
se en
end s
ĠM aker
ĠJ eb
ĠJ ellie
Ġpr on
ell ers
ĠE v
ĠE gy
ĠE arly
Ġsun rays
ĠWe e
Åĵ Susie
Åĵ Hooray
Åĵ Congratulations
Ġte e
Ġcol ander
Ġun re
Thank you
We igh
Ġsqu ats
Ġam en
orn a
Ġsleep ier
ĠThere sa
ere lla
br ary
to day
Ġinc omp
St udying
In credible
ĠHow ard
ĠCh ief
Ġhum id
lebr ating
Ġmatch sticks
Ġborrow s
Ġchar ger
ĠPe bble
ĠWh ilst
ÅĵYou ng
Ġbur gl
Ġped dle
Ġsneak ily
ĠUn ique
Ġtear fully
Un iversity
Cl over
expected ly
Ġ1 1
Ġspike y
Ab ra
Ġgri pping
fly ing
ĠEx pl
Ġill ustr
Ġwatermel ons
Curious ly
Ġmold ing
ĠLu ka
Ġchamp ions
Ġlonel ier
Sm ith
Fly ing
Ġsund own
Ġunsc athed
Ġcy cling
ĠYay a
Ġreact ed
Ġsplinter s
ĠBumble bee
ĠTam ara
Lu isa
Ġrepres ent
Mir aculously
ĠAh med
Ġpollut ion
Ġchurn ed
Ġcrink ly
ĠSim one
ĠSher ry
Ġcontribut e
Ġdirect ed
Pengu in
ĠColor ful
ĠPJ s
ĠSof ie
Ġnighting ale
ĠEgy pt
C ec
G rrr
M ill
O y
S ec
S ign
S ydney
T uck
Y AY
c hen
c ite
e ered
m ith
t or
Ġ ?"
Ġto n
Ġb zzz
Ġd ood
Ġd war
Ġp ac
Ġg utter
an che
Ġbe ware
Ġst ag
ĠI da
ce lyn
ĠM opsy
Ġout s
Ġout w
Ġhelp Ã¢
Ġback fl
Ġsc off
Ġal gae
ĠL amp
Ġfl it
as her
ĠE ileen
ĠE tta
Ġgr rr
Ġta bby
Ġho e
Ġover board
Ġend anger
Åĵ B
Åĵ Emily
Åĵ Get
Åĵ Someone
Åĵ Open
Åĵ okay
ĠC alm
ĠC ub
Th inking
Ġcu lp
Ġbook cases
ĠP au
Ġun cl
She ep
ĠR ap
Ġtight est
Ġsquir ts
Ġsmart ly
Ġelephant Ã¢
Ġsharp est
nic orn
ĠSt orm
Ġsleepy head
Ġcirc ular
Ġsniff le
Ġbull dog
Ġflour ish
ĠLook s
ĠSh owing
Ġtemp or
uct ive
Ch ad
pe w
Ġparent Ã¢
Ġdishwasher s
Ġtear ful
ĠAb racadabra
Mark y
do ll
ĠV ince
Ġgrape fruit
Ġemer ging
Mar go
ĠMo dern
Ġattack s
Ġscram ble
rest ore
Ġcompan ions
off rey
Ġoccasion al
ĠZee bo
Ġlur ked
El i
Ġblend ing
Squ eeze
ĠLo llipop
En couraged
Ġgrave yard
Ġunb uckle
Fel icity
ĠRaz ors
Ġsymp athy
ific ant
ĠFeather s
Ġeyel ashes
ĠMist akes
ĠBit sy
ĠMarsh mallow
Geor g
Ġhast ily
Ġgradu ated
Ġcommit ment
Ġunbelie vable
Ġsunr ises
Ġsalut ed
Ġrema inder
Ġpac ifier
A S
A dd
B ri
H ilda
I ris
M iley
P aint
P ractice
c oon
l oop
l oved
m ber
p ink
z ero
re lease
Ġf ant
Ġl y
ar f
Ġg a
Ġn onsense
ĠS outh
ut t
ow ered
Ġpl atter
Ġwe ir
ĠB ed
ĠB asketball
Ġwh ites
ĠM ask
ra re
um i
ĠW hip
Ġbr ittle
Ġwor thy
ĠE ar
Ġsw atter
ĠD ipper
Ġab racadabra
ĠF ishing
Ġmo ats
ort ed
Åĵ Jill
Åĵ Surprise
Ġbra ced
ase ball
Ġrem orse
Ġfore ign
ĠP ack
ĠSp ort
ĠSpot Ã¢
ee ase
Ġcomp rom
Ġmet ers
ĠTo e
Ġwelc omes
Ġdist ressed
Ġmist aken
Ġsharp ly
St ret
Ġshr ub
Ġchocol aty
Ġtun ed
Ġspe wed
Ġdetermined ly
ĠBe autiful
ĠZ eb
Ġboss es
Ġdrum med
fic ial
az ed
ĠGrandpa Ã¢
Ġbull seye
Ġdull ness
ĠPe ppers
ĠCl oe
Ġdisturb ances
ĠWh oosh
Ġtap ing
Ġtax es
Ġkingdom s
Ġshampoo s
Ġweep ed
Ġres il
Ġbun ches
Ġdam aging
Ġstair way
ĠGr ady
ĠZoom er
Ġden ied
ĠPl ane
Wh ilst
Ġcond itions
Tw enty
Ġwaterfall s
ĠLuc i
Ġtin ier
val uable
Ġflick s
jack et
ĠBra vo
ĠMac Donald
ĠMir ror
ĠBlack beard
Ġdestr uctive
ĠPark er
Pick les
Ġsevent h
Ġvolunt eered
Ġcrad ling
ĠKn ife
Ġunc ont
Ġadvert ising
Ste ak
Ġpian ist
ĠRow an
ĠStir ring
Ġjoll iest
Bar b
ĠJac qu
Ġscor p
Scr uffy
ĠBern ard
Ġscaven ger
Sha wn
Ġinject ion
Ġdang led
Ġjudg ment
Ġarmad illo
Ġincomp lete
E ek
F old
F ern
G avin
K irsty
L oyal
L esson
M allory
O VE
b et
b arrassed
f un
g own
m ined
n ered
v on
y on
Â ¢
Ġt ester
Ġa chy
Ġs esame
Ġh ip
Ġl inger
Ġd une
an ch
ĠI rene
Ġpl umm
Ġpl owing
The a
Ġli ars
se ct
Ġwh iz
al er
ĠBen son
Ġcl unk
ĠW olves
Ġbir th
ĠL ead
ĠD a
ĠF igure
Ġclo vers
ump et
ty le
ĠWe aring
He el
Åĵ Watch
Åĵ look
Åĵ Careful
ĠC arry
Ġgl ances
be knownst
ĠP ond
ĠP rotect
Ġun icycle
ĠSp ending
Ġblue birds
Ġfish Ã¢
We ar
Ġlight ed
Ġcra ving
uit ion
Ġrel ative
ĠK icking
ĠK neel
ĠK atelyn
Ġspark ing
eter mined
Hi ppo
Ġstar ving
Ġmail s
Ġzoo s
Ġrec iting
My stery
Ġpaw ing
ĠSt ormy
fl av
ĠZ ap
Sp inning
Ġind ex
Ġfre ckles
Ġpost master
Ġbull ied
cu ry
ĠCl osed
ĠAlex andra
ĠSm elly
Ġbul ky
Qu iet
Ġlumber ing
Ġhesit ates
ĠDid n
ĠAm ir
Ġexpect antly
Ġearn ing
Ġev apor
ĠFire fighters
Ġspy glass
ĠMagic ian
Ġjugg ler
ĠSuper man
Ġrack s
Ġwebs ite
che cked
ĠApp reci
Ġarrange ment
ĠTurn ing
Ġwhoo shed
Ġdisob edience
Bert ie
ĠMars ha
Ġpassage ways
Ġcooper ated
Ġshove led
ĠZe bby
ĠScar let
Ġsta pler
ĠCe lebrating
ĠThrow ing
ĠAc cept
ĠPuzz les
Ġwrest le
Cle o
Ġgurg led
ĠDar ren
Ġfaire st
ĠWay ne
ĠPill ow
ĠChomp y
ĠFold ing
ĠHopp ity
Ġwrit ers
ĠGar field
Ġrelia bility
ĠNightmare s
Brand y
Ġweir der
A D
C uddles
E van
E XIT
P ep
U M
a es
e v
f aced
j or
o lyn
Å ł
Ġa unts
Ġd re
ĠT ig
ĠT illie
ĠT abitha
Ġha l
ĠS ettle
et itive
ir k
ad dles
Ġup Ã¢
ĠB ing
Ġsc oured
ick ered
Ġtre m
ach a
ĠD affy
Ġgr im
us ual
ĠF ragile
Ġpe g
Ġtr op
Ġtr owel
Åĵ Dear
Åĵ Which
Åĵ Wheee
ĠC eline
Ġbra ved
Ġbra ided
Ġimp ul
ĠP age
ĠP ops
Ġrock in
ĠG ather
ĠSp arrow
Ġhands h
Ġus her
ĠN igel
Ġnight gown
ĠK atherine
man ship
ier ra
Ġpers ons
Ġkey chain
Ġmad am
Ġcheese burger
Ġret reated
Ġrep ut
ĠMum Ã¢
Ġvan ishes
Me at
Ġter m
ym bol
ĠCl ock
Ġrot ate
Ġtrail ed
ĠUn ite
Ġpur sue
ĠQu arreling
Ġvel v
Ġvict ories
Ġtremble s
ĠZoom ie
ÅĵDo es
Dan ie
ĠRalph ie
ĠRain a
ĠStri ke
ĠHo pping
Jeff rey
Ġdisagre es
ĠPig s
Ġgloom iest
Luc a
Ġdiver s
Ġfestiv ities
Ġshove ling
Ġtoot ed
ĠBes ide
ĠFar ley
ĠBab a
Ġrac etr
Ġwrest led
ĠFair ies
ĠGe ese
Ġsamp les
Ron ny
Ġinnoc ence
Dina h
Ġrearr ange
Ġmisunder stood
Ġoptim istic
Victor ia
Ġmeerk at
Ġsmother ed
Ġmulticol ored
Ly nn
Ġsurvey ed
Pain ting
Ġaccompan ied
Ġbene ficial
Ġscoff ed
B ath
B umble
C y
C omet
F eather
H ang
K ite
N ine
N anny
P OP
T iffany
U ndeterred
W ood
c ourage
l im
y s
y ellow
Ġb ib
id an
id ges
ĠS onya
Ġr asc
ĠB igg
ent i
Ġsh ushed
ĠM alia
ĠM ateo
ĠM eadow
Ġis s
ry a
ra it
Ġse rene
ard ed
ĠA k
ic ation
ĠJ ia
Ġback f
Ġcl apper
ĠW aiting
Ġbr ayed
Ġpr ongs
qu et
ro ck
ro ad
ĠD ull
ĠMom s
Ġgr itted
Ġgr ams
Åĵ Greetings
ĠC art
ĠSo l
Ġwo ven
ĠP ushing
Ġcon ch
ĠG ames
Ġdis s
Ġwork out
Ġpain s
Ġmess iest
bo ing
Don ny
ĠIn a
sp oiled
Ġgrateful ness
Ġwings pan
Ġmil ked
Ġhoney bees
Ġpill ars
Ġorgan ise
Ġwhisp erer
Ġfear fully
Ġfil ty
Ġweak est
Ġmotor cy
Ġvaluable s
ĠU FO
ĠSh ane
ĠSh ape
ĠSandy Ã¢
Ġappro ving
Ġweep s
Sh arp
Ġgain s
Ġweight less
Ġty re
Tr ina
Ġsailboat s
Tw in
Ġlocks mith
reg ular
Ġhudd le
Ġshuff le
Cra w
ĠDVD s
ĠAfric an
Ġsly ly
Ġrasp y
tre asure
Ma ia
Ant hony
ĠClar ice
eee ase
ĠMack enzie
Ġrecy cled
Ġvig ilant
ĠShrimp y
Ġnick ered
ĠRad io
Ġcance led
Ġir rit
Ġchem ical
ĠVo ice
Mir anda
ĠRep lied
Tri xie
Ġresourceful ness
Ġmemor ized
uu uu
Mos es
ĠHam mer
Ġment al
Ġefficient ly
Ġspec ific
Ġcapt uring
Ġmeek ly
vern ment
ĠTele vision
Ġuncont ro
1 2
B ry
B ud
B low
F ix
G O
R rrr
R onnie
S and
S orting
T anya
b reak
h urt
l ery
s ag
v ations
z a
Ġt u
Ġt amed
Ġs cept
Ġh ushed
it ney
er ome
er als
ĠT ory
Ġo x
ĠThe rm
ĠH are
ĠH ans
ĠH ubert
Ġst ages
ĠB ly
ĠB ump
ĠB ible
ĠB itter
ĠB ikes
ĠM ee
Ġj ut
Ġout look
ur l
ĠJ az
ĠJ ayla
op ards
Ġwor ship
ĠL ing
ĠL iv
Ġla sag
Ġfl ed
ĠD ress
ĠD elia
ĠF ull
ĠF udge
ven e
Ġsun sh
ump ty
Mom s
Åĵ if
ĠC ity
ĠC old
Ġcol umn
Ġdis solve
Ġam ends
Ġflo ss
Ġflo pping
Ġste ed
Ġste gosaurus
Ġsnow bank
Ġarm ed
av ailable
ĠEm il
app les
ĠK iko
Ġtalk ative
Ġmet als
Ġpat rolled
And rea
Ġact ual
Bob Ã¢
Ġwild flower
Ġmind fully
Ġsel ves
Ġemp owered
Ġsour ces
af raid
Ġcirc um
ĠBl ob
Ġaw ards
lla bly
ĠBu ild
ĠSn iff
ĠSn oopy
Ġalert ly
ĠGeorge Ã¢
Ġpun ct
ĠTr uth
Ġrever ses
Ġoil ed
ĠBun nie
ĠRu bbing
ĠMiss ion
Ġlumber ed
Did n
Ġunderstanding ly
zag ging
ĠRa bbie
len e
Ġexpect s
ĠBo ats
Some body
ĠEx ploring
ĠLove ly
we ight
Ġinter vene
ĠSmo oth
Matt ie
Ġembra cing
ĠEd gar
Pam ela
ÅĵS weet
rem ember
Ġbould ers
lect ric
Ġweed ing
Ġwoo ly
ĠMail box
ali yah
Ġunderest imated
Ġtransform ing
ĠSha un
ĠSel ina
ĠParrot s
ĠGret el
Ġpollut ed
Ġchap ter
Cro cod
Ġexclaim ing
uis er
Ġep is
ĠSold ier
Ġpollin ate
Ġath lete
ĠDex ter
Ġisla nders
Ġfingerpr ints
Ġvess el
Ġreput ation
Ġvelv ety
Ġuncontro llably
B itter
C re
D illy
G low
H onest
J ac
J ail
L in
L ori
M arge
O at
P ri
T axi
V iv
W alk
W aff
Z ippy
f air
m ouse
s ive
z il
he ets
it o
Ġl orry
Ġc ores
Ġd ashing
ĠT ornado
Ġn our
ĠS ear
ĠS hoes
ĠH anger
ĠShe ena
Ġr umbly
am ine
ri pe
ĠB ot
ĠB ink
ĠB roken
Ġsh ards
ĠM illi
ĠM aze
Ġgo vernment
Ġout ings
Ġcl attered
Ġal mond
ĠW ish
ĠW anted
Ġwal nuts
Ġgot ta
ĠD irt
ĠF reed
ĠF ork
Ġint uition
Ġspecial ness
Ġwater Ã¢
ĠC oo
ĠC obwebs
Ġcareful Ã¢
ber ly
Ġra bies
ect ious
ĠP illy
Ġright Ã¢
Ġmon arch
Ġper ching
Ġsoft ens
Ġste ers
ign ed
ign ificant
sh arp
Ġspot ty
Ġspot light
Ġsleep ily
ix ed
ho pped
Ġinv aded
Ġob s
og i
Ġcraw ly
Ġgather s
Ġhorse Ã¢
Ġrec alled
Ġdecor ator
ian o
ĠBe ck
Sally Ã¢
olog ist
Ġpump s
ĠHere Ã¢
Ġfort unately
ĠSh rink
Ġobser ver
Ġanch ored
ĠMillie Ã¢
ĊĠ Ġ
Ġinf ectious
Ġlumber man
ĠWho se
reat hing
Ġsty ling
ĠMe chanic
ĠJe anie
Ġpeel er
ĠTw iggy
Ġrepeated ly
Mar gie
ĠFor giveness
ĠMel on
An cient
cl ude
Ġgri ef
Blue berry
Ġrout es
Ġunw anted
Ġpuck s
Ġexamp les
ĠAna belle
Ġgrassho ppers
Jon ah
Ġcompliment ing
Ġbinoc ular
Ġconnect ions
,' '
Ġcondition ing
ĠSl apping
ĠWas n
Jump ing
ĠLy n
Ġtink er
Ġaband on
Ġgruff ly
ĠWise y
asc inated
Ġadjust ing
ĠPol ar
Ġbon us
Ġins ignificant
ĠShell s
Ġcoax ing
Tre es
ĠIgn orance
Ġsixt h
Ġcompart ments
ĠCand les
Ġthri ving
Ġstrate gies
ĠYield ing
Chew y
Count ing
Ġver b
ĠHand le
Ġhoard ing
Ooo oh
Ġabrupt ly
Res ist
Ġnurt ure
Ġexcl ude
Ġhoist ed
Ġkilog rams
Ġnarr ative
Ġabund ance
Ġsacrif ice
Ġburrit o
Ġdivor ce
Ġdwar f
Ġculp rit
Ġtempor ary
ĠAppreci ate
Ġhandsh ake
2 0
B EEP
C ertainly
D enny
D ana
E nt
G ret
G ather
G iddy
H ola
P oke
R oof
T am
T alk
b re
b ath
b itter
c ause
c ars
c ible
d ar
e ady
f ant
f ine
f irst
l an
l oyd
n ext
o xygen
s omething
u ki
z an
Ċ ĠĊ
Ġt ins
Ġwa iling
Ġp iped
ĠT ie
or ra
ĠH unt
et ition
ĠHe ar
Ġdo zen
ra ble
Ġsp ooked
Ġsp unky
ĠJ uno
um ing
are nts
Ġsc aled
ĠW rap
Ġbr amble
ĠL ost
Ġbl uffing
Ġbl urted
ess ions
ĠF an
Ġqu ake
ĠJack o
He althy
urn iture
Åĵ Once
Åĵ For
ĠC or
ĠC oming
Ġgl ade
Ġfin ale
Ġpic n
Ġde lete
We ird
Anna Ã¢
Timmy Ã¢
Ġarm ies
sp ray
Jack lyn
ĠK asey
man nered
Ġpat rolling
ang ling
Ġbar be
Ġspr inting
ĠFl are
ĠFl oofy
Ġdriver Ã¢
Ġboun cer
Ġround est
let te
Ġperson Ã¢
ĠBr idge
Sp rinkles
ĠJohnny Ã¢
Ġsell ers
ĠBlue bird
Ġhose pipe
Ġbarber Ã¢
Ġgem stones
Go at
Ġenv ied
Ġsett ings
Ġfu se
Is aac
ah lia
Ġbirdc ages
ĠRe ward
ĠV egetables
ĠCat rina
Un lock
Ġwreck ing
Ġ1 4
Bl ocks
ĠPl op
Ġrumble s
ĠPam my
Ġhus k
ĠSc arecrow
Ġmuscle man
ĠMeg han
Ġpeas ant
Any one
Ġinter view
ĠAr nie
ĠWhe els
El ise
ĠMir i
Ġmound s
Ġunst eady
Ġchees es
Ġchunk y
Ġimagin able
ĠPeace ful
Ġsquigg led
ĠVal ent
Ġmain tain
ĠBre aking
Åĵwhat Ã¢
Ġstock ings
ĠCom fort
Ġvul ner
ĠRec ord
ĠPudd le
Ġnos iness
Ġsin ister
Caterpill ar
Ġconco ction
Ġfrequ ently
cite ment
Ġracetr ack
B etter
E mergency
J ared
L au
L and
L olly
L ab
L ala
O ctopus
P raying
R are
R ingo
T igger
U T
b one
d id
i ance
p ark
p any
t reat
w ild
Ġ !"
Ġs essions
in as
Ġc owering
Ġp elt
ar ming
at able
en ix
Ġn imble
Ġha ired
ĠH orn
ĠH oop
ĠI van
st udy
ĠB usy
Ġsh akers
ĠM eredith
ĠM edicine
Ġbo p
ĠA ya
ĠA ustin
ĠJ ase
ĠW arm
Ġch imed
Ġdown pour
arn ie
Ġgr udgingly
Ġspecial ist
Ġsl ay
Ġsl ung
ĠSara Ã¢
uc ting
Ġbest est
Åĵ Jenny
Åĵ Our
Ġte as
Ġanimals Ã¢
ĠP erson
âĤ¬âĦ¢ !
Ġun int
ac u
ac ious
ĠN ails
ĠN ormal
ĠR iko
Ġcr owed
Jo gging
ĠTh om
air a
Ġlight ers
Ġair y
ol iday
Ġpa ils
Ġmouth piece
de le
Ġcour te
br ador
ho enix
Ġyoung ster
Ġadventures ome
Ġstu b
Ġret reat
St udy
Ġrep ell
Ġdisappoin ting
Ġshore s
Ġthankful ness
Ġfil med
ĠBr itt
Sp irit
Ġteam mate
Ġperform s
Ġwing ed
Daisy Ã¢
cut s
ĠSh ay
Ġtub s
ĠHenry Ã¢
Ġlawn s
ĠCo ins
Sh ine
Ġaccom pany
Ro byn
Ġcontro lling
Ġmast s
ĠGr umble
ĠChrist ina
Ġwadd les
Ġhawk s
ĠUp stairs
Ġthump ed
ĠPeep s
ĠThrough out
ĠCow boy
Ġtink led
Ġsnoo zed
Ġcrust s
Ġsorrow s
wh ite
ĠNat alia
ĠAmaz ed
ĠSpl ashing
Ġblind fold
Ġki wis
ĠEag erly
ĠCut ie
Chick en
ĠOtter s
ĠPu ppies
Ġmotiv ation
Ġmould ed
Ġadvis ors
ĠSand w
ĠNeed le
Op al
Ġsnorke ls
ĠCand ice
arent ly
Swim ming
Ġult imate
Ġjoll ier
ĠJak ob
Sil ver
ĠGigg ling
ĠOt is
ĠIg loo
Ġdele ted
ĠEskim os
Ġchubb ier
Ġrasc als
Ġcourte ous
A CHOO
B ell
B alance
C am
C ooking
E lli
F lexible
J a
K aya
P ear
W arn
a ic
d r
d ate
i wi
p in
p ick
p icking
Ġthe ft
Ġb ash
Ġwa re
Ġwa res
Ġl ame
Ġm ile
ĠT iana
ĠT alking
ĠT ango
at ically
en cy
Ġn uis
Ġsa ge
ĠS assy
ĠS ymbol
on zo
Ġth ra
ĠHe althy
Ġe ma
ce mber
Ġyou s
Ġpl a
ĠB oop
ĠB iddy
un zel
ent le
Ġsh aggy
all ic
al ent
ĠM ango
Ġre ar
Ġse am
Ġout age
hed dar
are well
Ġle is
Ġsc uffed
Ġfa erie
ag u
ĠL ake
ĠL uce
ĠL orna
Ġmu ck
Ġsw ooshed
ro cket
ĠD J
ĠD ax
ĠD asher
ĠF ascinated
Åĵ Quick
Åĵ Hop
Ġbra ss
Ġun le
th row
Ġthr ust
ĠSp rite
ac o
Ġrepl anted
So ft
ĠR aff
ĠR rrrr
Ġcr ater
ĠTh umb
Ġmon um
Ġcut lery
sh h
Ġwood ed
Ġsleep iness
Ġsnow fall
Ġmet allic
Ġspark liest
os es
Ġowner Ã¢
Ġpro dding
Ġbrown ie
unt y
unt il
St ars
ĠCh air
ĠCh ico
ian na
ĠBe have
work ers
Ġesc al
ĠBr uiser
Ġskin ned
Ġwitch Ã¢
ĠMar ion
ĠAlice Ã¢
Ġdiscover s
Ġtooth y
play ing
Ġtut ors
Ch ase
Ġhorses hoe
ĠRo aring
Ġprepare s
Ġport rait
All ison
Ġvict im
Fr ances
Ġglee ful
Bl ub
pare nts
Ġtramp ol
ĠJay ce
Ġdet our
Br idget
Ġrout ines
Ġhairdress ers
Am ie
Ġting led
Ġunwra pping
lo st
Ġscrub s
ĠNe il
ĠBra zil
ĠTe rence
Ġcreep ed
ĠEd na
Ġinterrupt ions
Ġtink ered
Ġvast ness
Grand daughter
ĠAlexa nder
ĠPast or
Ġcha otic
Ġunh ooked
Ġstead ied
Ġendless ly
ĠBan jo
Ġzag s
Ġmoan ing
Ġinqu ired
Ġabs ence
ĠPige ons
Ġnavig ated
ĠAcorn s
Ġshatter ing
Ign ore
Ġastero id
Ġhast e
Ġcasc aded
su pply
Ġpiec ing
ĠAct ing
isturb ed
AAAA H
Ġsapp hire
Ġtrop ical
Ġcircum st
Ġware house
Ġnuis ance
A nts
B iggy
C arry
C ricket
F amous
F oolish
J ada
J ordan
L en
L illi
L ili
M isty
P an
R ico
W inning
f essor
g al
k o
s and
t ruck
v ide
y y
Ġb ish
in als
in ating
Ġl ag
Ġd omino
er vous
ĠT ricia
Ġg ills
at isfied
ĠS ven
ĠH orses
Ġshe ar
pp ings
ĠB ite
ĠB ike
un iversity
ĠM ice
ĠM etal
Ġj iffy
ĠA J
ĠA polog
rom at
Ġman tle
if ty
ĠL ow
ĠL yle
ĠE ri
ĠE scape
Ġcare er
Ġover s
etter s
ĠJo h
Åĵ Close
ect or
Ġcon cret
Ġun broken
Ġun afraid
th ouse
ĠG re
ath ryn
Ġboat Ã¢
co gn
Ġtri cycles
Ġhair do
As k
ul ge
ĠIn credible
sp ring
ĠK ell
ĠTo ffee
ott le
Ġele ments
ĠFl ies
Ġcour thouse
Ġmail bag
Ġpower fully
Ġbutton ed
Ġdirt iest
ĠCh arm
ĠCh antelle
erp iece
Ġfinger n
ĠZ or
Ġfil ter
Ġwander s
Ġyog i
ĠBobby Ã¢
ĠPete Ã¢
Ġcamp us
Ġshort est
ab i
ĠChr issy
ĠHop ing
Mar la
Ġflat ten
Ġmane u
ĠBo ss
ĠY ork
ĠSqu ishy
ĠSqu iggles
ĠPo co
yes ha
Ġdefe ating
Ġcollap sing
Ġexch anging
Am elie
Ġloc ate
Ġodd s
bu ilding
ĠĠ Ġ
ĠDe cember
Ġshallow s
Bo ing
Bo at
Bo ots
ĠWhe el
Ġgroom ing
ĠHar ley
Ġdrill s
ĠRes ist
Â© ,
Ġexist s
ĠOrange y
ĠMin eral
ĠFluff les
Ġdemonstr ate
Ġsam pled
Ġbi ked
Ġquarter s
Ġhy g
ĠMor ning
Lo gan
Ġtranqu ility
ĠGret ta
Ġcontra st
grand mother
Ari el
Shark s
Ġblister ed
ĠPre cious
Pengu ins
Ġvul ture
ĠBub u
Ġgroo ves
ĠHum ans
ĠCliff ord
Rep lace
Ġsunn ier
Ġcrut ches
ĠGabri el
Stu art
ĠDecor ating
Reg ular
Ġburgl ar
Stret ching
Ġdre ary
Ġbarbe que
Ġvulner able
Ġrepell ent
Ġleis ure
Ġconcret e
B es
B ab
B ingo
E L
F ay
G oose
G izmo
H en
J ing
L il
M iki
N ame
N ikki
P ack
P ia
P addy
R eturn
T V
W ink
a bled
b uzz
b reathing
c opes
p ray
r an
r ison
u pp
w end
Â ³
Ġ om
Ġw ren
nd ry
Ġb ac
Ġwa il
er ia
Ġm ous
Ġp m
ĠT ic
Ġo ops
Ġg ush
Ġg oof
ĠS ylvie
le pt
ĠH iding
ĠH edge
ot iced
Ġy ak
ri fied
ad dle
ĠB itty
Ġtime Ã¢
Ġsm ock
ter ia
Ġhim Ã¢
ur ra
Ġsp eci
ĠA x
Ġcl ing
ick ety
ss el
Ġbird houses
Ġaway Ã¢
Ġcar av
Ġco des
Ġput ted
ĠE w
ĠE le
ĠE ggs
ĠD iego
Ġv ets
us ion
Ġlot us
ĠF er
ĠF ound
ĠF illed
Ġsk ipper
Ġsk ittered
Ġsn ot
urt is
Ġdon ations
Åĵ come
Åĵ can
ĠC edric
ĠP res
Ġidea Ã¢
Ġdel i
Jo ke
Ġmon itor
Ġbirds Ã¢
Ġtri al
sh hh
Ġread ily
Ġwood worker
Ġfur ball
ever al
ol and
ph one
Ġmonster Ã¢
Ġwild ness
oin ting
ĠAnn alise
Ġgroup ed
Ġreg ain
Ġav al
Ġfil ming
Ġleg al
eez er
Ġext ract
imp rove
ĠMark Ã¢
aw w
Ġcro aky
Ġlab elled
Ġcheap ly
Ġdull er
Mary Ã¢
ĠKim berly
ĠSophie Ã¢
ci pl
ĠBun nies
iction aries
ĠV ick
Le arn
ĠMe asuring
ÅĵLook s
ĠAm ong
ĠAm ina
Ġboo ked
ĠSc otty
Ġcongratul ating
ĠRay a
ĠIm my
Ġtweet s
Am aya
Ġinvent ive
ĠCr own
ĠPin ny
ĠSe rena
ĠPet ra
Ġballer inas
Ġcreak s
Ġdescri ption
Ros es
ĠMix er
Ġweed ed
Ġbumble bees
ĠHipp os
Ġvolunt eers
Ġgrind s
Ball oon
Ġnick el
ĠBand it
ĠBab s
Ġgrunt ing
Ġdrool ing
ĠGrow ing
ĠVolcano es
ĠRaj u
Ġpoet ry
Ġflu ently
Ġscrap book
ĠCraw l
ĠRen ee
Ġfract ure
ĠDeb orah
Terri fied
ĠPau ly
Ġlasag na
Ġtrampol ines
? !",
A c
B ook
J udge
K it
L ottie
M ag
M ateo
O ats
R ina
S im
W ool
Y ogurt
f lexible
h ome
l ar
n ever
o ink
p ile
r ide
t om
w omen
Ġt an
in cible
it Ã¢
it ial
Ġd ictionaries
is ht
Ġg aa
Ġha unt
ĠS T
or re
Ġin itial
ĠB i
ĠB izzy
ĠB ini
ĠM all
ĠM iko
Ġre he
ug ust
Ġout number
Ġsp ite
Ġsp acious
ĠA urora
Ġar ro
ĠW oman
ss els
Ġtogether ness
ĠL ester
ĠL anguage
ĠD oo
ĠF ae
Ġhand prints
Ġsl ots
Ġmo de
Ġfo cu
ĠJack s
Åĵ Ahoy
Åĵ Nothing
Ġred uce
ĠP ooky
ĠG ino
ac ation
Ġbre ed
Ġvoice Ã¢
ĠN ic
ĠN ame
Ġba ited
mer ged
ĠEm barrassed
ĠGra ss
os al
Hi ppy
Ġpass ers
ho oray
Ġinv incible
Ġexp ense
Ġlife gu
Ġsharp ed
Ġwild cat
Ġser mon
Ġlast ly
ĠCh ipper
Ġant eater
Ġsheep dog
Ġprince Ã¢
ĠBr u
Ġmeasure r
Ġgrandpa Ã¢
arry l
ĠU nicorn
ĠMar v
ĠMar cie
ĠMar igold
ĠSn iffy
Ġsurf s
Ġtrick ster
Ġsend er
Ġresist ance
ĠJess i
Ġcob s
Mandy Ã¢
ĠMay or
Le on
ĠMe ggy
ĠQu iz
Ġaccompl ishing
Ġvict or
ĠTw itter
Ġshock s
Ġcontest ants
Fred a
Ġge ode
ĠY ES
ĠJon i
ĠPl um
Dan i
cl uck
ĠRemember ing
ĠEarth quakes
-- -
Ġwoof ed
but ter
ĠFire men
elie ving
ĠIm ag
ĠAng els
Ġdep th
Ġsav our
Ġdisc arded
Ġattempt ing
ÅĵBe ing
Ġinvent or
Ġgulp s
Hold ing
Ġrebuild ing
ĠTe o
ĠDra w
Aw esome
ÅĵS urrender
Ġleng ths
ĠBug sy
Ġrea ctions
Ġblob s
Te a
ĠBrave ly
Ġunh appiness
ĠHel mets
Ġunn oticed
Ġimit ated
Ġpoo ch
Ġselect ing
ĠComet s
Ġsubtract ing
ĠHome work
Ġpleading ly
Fore ver
Kat rina
Ġlitt ler
Ġcru ising
Ġreporter s
cra sh
ĠBri anna
ĠAmer ican
ĠSer ving
Ġdrool ed
Ġfal con
ĠPret end
Ġweakness es
ĠJing le
Mos quitoes
Ġiniti ally
Ġovert ook
Ġconclus ion
ĠPudd ing
Gu ys
Ping u
Van illa
ĠScoot er
Ġdelive rer
ĠUr ge
Ġendanger ed
lim its
Ġdiss ip
Ġjut ting
Ġema ils
Ġhyg ien
Ġaval anche
isht icated
Ġoutnumber ed
Ġfocu ssed
Ġlifegu ards
B art
B iff
B rett
C ream
D orothy
F uzz
G E
G ar
H and
H orse
K ris
K nowing
O tter
P ret
P arent
S el
T affy
U mm
W ind
Z ach
a ah
f ix
h ol
l ide
l asting
m ix
r ann
Ġ ille
Ġs ums
ĠT O
ĠT ee
ĠT alk
Ġo oo
is ely
Ġha ul
ĠS eed
ĠI D
Ġon stage
ĠB uckle
ĠM am
Ġsp rained
op eration
Ġsc out
Ġsc atted
Ġme w
Ġbr ay
Ġbr rr
Ġnew com
ble ss
Ġfl ier
Ġfl ushes
Ġch illed
pl op
pl ane
ĠD avis
Ġkne ading
ĠMax well
Ġtw inge
But ch
Ġsk ater
em i
ĠC hat
ool s
ĠP urp
Ġthr ower
Ġbre wed
Ġwonder ment
ĠR ise
ĠTh in
ĠTh orn
uff les
Ġplease Ã¢
app laud
ĠK o
ĠK aley
Ġwell s
Ġwell ing
ĠO reo
Ġmilk man
Ġstir rer
Ġgener al
Ġpillow case
af a
ha wk
Ġcrack les
ĠBlue berries
ĠNo d
Ġthick et
iv als
Ġref ill
Ġmeal time
Ġtrap e
Ġappreci ates
Ġlaund romat
Ġink s
ĠPaul Ã¢
Ch arge
ab oo
Ġstro de
ĠHelp er
Ġble ats
reat he
ĠMe era
Ġprice y
ĠAm ari
Fr isky
Ġcontest s
Tr udy
ĠQueen ie
Br ooke
Ġque ue
ĠSk unk
âĤ¬Â¦ "
ĠChick ens
Ġlim ited
str ong
ĠAngel ica
Ġbaa ing
Pr iscilla
Ġguardian s
ĠKen zie
ĠKen neth
Ġhost s
ĠMac ie
Sm iley
ĠRoy al
ĠJun ie
Ġsund aes
Ġviol ently
Ġsorrow ful
Ġsul king
Ġlaz iest
ĠSpl it
ĠHigh ness
Ġcitiz en
Ġimit ating
Ġswell ed
check mate
Ġfizz ed
Ġsales man
Ġtit les
Ġident ical
for give
Ġpunch ing
Ġspan ned
RR RR
Ġchandel iers
ĠEnt ry
Ġcomf ier
Ari a
ĠPow der
Smo ke
Ġinfl atable
ĠSab ine
ĠLon ely
ĠFur ball
Ostri ch
Ġgrassland s
Ġprompt ly
ĠWhis per
ĠBas il
ĠRap unzel
Ġtu ft
Ġscept ical
Ġbac teria
rann osaurus
" '
' '.
A K
A round
B erry
C E
C ol
D avy
I L
L ula
R atty
S ully
T ing
T ie
T ank
T ired
T rick
W ipe
d ot
d ress
m ake
z ee
Ġ !
re hen
re rs
Ġl anes
Ġm entions
Ġm ounted
Ġm uttering
is it
Ġg ushed
Ġn udging
ĠS acha
ĠH urray
es ha
Ġr udd
Ġr ickety
Ġpl aid
st ro
ĠB rie
end ra
al ade
ĠM elly
ĠM erri
Ġsm ears
Ġan ew
Ġse ren
ind ependent
Ġsp raw
Ġdid nt
ain e
ĠJ ar
ĠW aves
ag ues
ell s
ĠL arge
ĠL issie
Ġhug ger
Ġmu zzle
Ġsw apping
Ġbl inky
ĠD ill
ĠD ear
Ġcare ss
ist ant
ist ling
ap h
our t
ĠF oo
Ġho arse
Ġshow y
Ġmo cking
Ġmo hawk
Ġinside Ã¢
Ġen abled
uc ceed
em pl
Åĵ Peter
Åĵ Leave
Åĵ Trust
ĠC ord
ect ar
Tim Ã¢
No elle
ĠP rick
ac ty
ac ingly
Ġdis cipl
So f
Ġsqu el
ĠR ana
Ġsweet en
Ġcont empl
ĠDo e
Ġrest room
ater ina
sh ot
Ġgreen ery
ons ible
ens ing
ĠK ir
Max i
ol t
ĠJill ian
Ġpurp oses
Ġstar ter
Ġexp ed
Ġstu nt
arp et
Ġpract ical
Ġmir age
Ġadventur ed
Ġbottom s
ipp ity
Ġtruth s
Ġuniver sit
Ġcandle light
ĠAl ana
ĠSh r
Ġmos aic
ĠGod mother
ĠJul i
ĠClara belle
Ġmass aging
Ġres urf
Ġbeat ers
Ġchuck ling
ĠMad i
ĠJeff ery
asm in
ĠSqu ir
Ġwilling ly
Tr ouble
Wh ale
ĠDr um
ĠSun light
Ġexplo ding
Ġund isturbed
Ġcaw s
ĠCle mentine
Ġcharm s
Ġbold er
ĠGold en
Lou isa
ĠTri p
Ġcorrect ed
Cra bs
Grand son
Ġdoub ts
ĠBrave heart
Ne ither
Ġmid day
ĠDream ing
Ġfres hen
Ġnin ja
Ġcrad le
Gl ue
Squirrel s
Ġrum or
Ġrum ors
ĠSat isfied
Ber tha
Jam al
Ġapply ing
Ġfidget ed
ĠDes perate
ĠCell s
Ġcoward ly
Ġaler ting
Ġfol k
Ġgymn ast
ĠJewel ry
ĠNO T
Ġiniti als
Bar ber
Ġkidn apped
ĠBath s
ĠCec ilia
Ġeggshell s
Ġholl ered
Mal colm
emp le
Ġmetho d
ĠPoo chy
Ġmamm oth
Clar issa
Pir ates
ĠWra pping
oper ty
Oy sters
Ġdood ling
Georg ia
flav ored
ĠBigg s
Ġiss ues
lectric ity
acu ate
Ġleisure ly
Ġcarav an
Ġhygien e
Ġuniversit ies
! )
B ike
C and
C amp
E ddy
H uh
M elt
M ee
P re
P ost
P erson
T ap
T asty
T alent
W AY
W rong
Z ac
a ia
c ool
d oo
d ark
e es
g in
g reed
h orses
h umble
r ophone
s chool
s aid
v anish
w ait
x anne
Ġto ed
in ous
Ġwa vered
Ġwas Ã¢
en as
Ġn ana
ĠS we
ĠH ari
ĠH ungry
et a
ver age
Ġy ummies
Ġplay set
ĠB ery
ĠB oys
ĠB its
ĠB ianca
end or
ĠM essy
Ġj agu
Ġsp utter
op ened
op era
Ġme wing
Ġcar Ã¢
ĠL ift
ĠF urther
ĠF amous
Ġho ots
Ġoff ices
Ġbu zzy
Ġsn agged
ĠJo celyn
Ġad apt
aut y
Åĵ Ella
ĠC aring
ĠC ourage
Ġbad gers
Ġimp ol
ĠP arents
ĠG ummy
Ġdis k
Ġfollow ers
So ccer
ĠR ats
Ġcr ump
Ġcurious ity
Ġtri ke
sp onsible
av a
ĠK ale
ĠK oko
ang a
zz led
sw ered
Ġpass ages
Ġspr int
Ġacc ura
br other
Ġ3 6
Ġmad ly
ĠO ops
Ġroad side
Ġser vices
Ġban quet
Ġhum s
Dad a
ian ces
Ġhang ar
Ġfrown y
Ġfool s
Ġaccept able
Ġdead ly
ĠU ma
ĠSn ip
Ġangel Ã¢
Ġcur ator
ĠMike Ã¢
Ġcompassion ately
Ġspring ed
Ġstation master
Ġcompetitive ly
ĠAl ma
Ġobser vations
Ġmen acingly
Ġfisher s
Ġappl iances
Ġfurn ace
Ġcrib s
Ġappro ve
Ġpur s
Ġprop ellers
Le an
Ġworks heet
ĠMat hew
Ġeffort lessly
Un known
Cl own
ĠOl iva
Mar ilyn
ĠFor giving
Ġpartic les
ĠGet ting
Tr ade
Ġfeast ing
Pe aches
ĠEx citement
Ġunw ound
ĠFlo ating
Ġinchworm s
ĠLuc inda
Ġcons umed
Co ll
Co ver
Ol ives
Ġbound s
Pr une
Ġarom as
ĠOff ice
ĠChar ly
OO OO
Ġhuff ing
Ruth ie
ĠGreg ory
ĠJoseph ine
Rock s
[...]
