{
  "version": "1.0",
  "truncation": null,
  "padding": null,
  "added_tokens": [
    {
      "id": 0,
      "content": "<|endoftext|>",
      "single_word": false,
      "lstrip": false,
      "rstrip": false,
      "normalized": true,
      "special": true
    },
    {
      "id": 32000,
      "content": "[PAD]",
      "single_word": false,
      "lstrip": false,
      "rstrip": false,
      "normalized": false,
      "special": true
    },
    {
      "id": 32001,
      "content": "[BOS]",
      "single_word": false,
      "lstrip": false,
      "rstrip": false,
      "normalized": false,
      "special": true
    },
    {
      "id": 32002,
      "content": "[EOS]",
      "single_word": false,
      "lstrip": false,
      "rstrip": false,
      "normalized": false,
      "special": true
    }
  ],
  "normalizer": null,
  "pre_tokenizer": {
    "type": "ByteLevel",
    "add_prefix_space": false,
    "trim_offsets": true,
    "use_regex": true
  },
  "post_processor": {
    "type": "ByteLevel",
    "add_prefix_space": true,
    "trim_offsets": false,
    "use_regex": true
  },
  "decoder": {
    "type": "ByteLevel",
    "add_prefix_space": true,
    "trim_offsets": true,
    "use_regex": true
  },
  "model": {
    "type": "BPE",
    "dropout": null,
    "unk_token": null,
    "continuing_subword_prefix": "",
    "end_of_word_suffix": "",
    "fuse_unk": false,
    "byte_fallback": false,
    "vocab": {
      "<|endoftext|>": 0,
      "!": 1,
      "\"": 2,
      "#": 3,
      "$": 4,
      "%": 5,
      "&": 6,
      "'": 7,
      "(": 8,
      ")": 9,
      "*": 10,
      "+": 11,
      ",": 12,
      "-": 13,
      ".": 14,
      "/": 15,
      "0": 16,
      "1": 17,
      "2": 18,
      "3": 19,
      "4": 20,
      "5": 21,
      "6": 22,
      "7": 23,
      "8": 24,
      "9": 25,
      ":": 26,
      ";": 27,
      "<": 28,
      "=": 29,
      ">": 30,
      "?": 31,
      "@": 32,
      "A": 33,
      "B": 34,
      "C": 35,
      "D": 36,
      "E": 37,
      "F": 38,
      "G": 39,
      "H": 40,
      "I": 41,
      "J": 42,
      "K": 43,
      "L": 44,
      "M": 45,
      "N": 46,
      "O": 47,
      "P": 48,
      "Q": 49,
      "R": 50,
      "S": 51,
      "T": 52,
      "U": 53,
      "V": 54,
      "W": 55,
      "X": 56,
      "Y": 57,
      "Z": 58,
      "[": 59,
      "\\": 60,
      "]": 61,
      "^": 62,
      "_": 63,
      "`": 64,
      "a": 65,
      "b": 66,
      "c": 67,
      "d": 68,
      "e": 69,
      "f": 70,
      "g": 71,
      "h": 72,
      "i": 73,
      "j": 74,
      "k": 75,
      "l": 76,
      "m": 77,
      "n": 78,
      "o": 79,
      "p": 80,
      "q": 81,
      "r": 82,
      "s": 83,
      "t": 84,
      "u": 85,
      "v": 86,
      "w": 87,
      "x": 88,
      "y": 89,
      "z": 90,
      "{": 91,
      "|": 92,
      "}": 93,
      "~": 94,
      "¡": 95,
      "¢": 96,
      "£": 97,
      "¤": 98,
      "¥": 99,
      "¦": 100,
      "§": 101,
      "¨": 102,
      "©": 103,
      "ª": 104,
      "«": 105,
      "¬": 106,
      "®": 107,
      "¯": 108,
      "°": 109,
      "±": 110,
      "²": 111,
      "³": 112,
      "´": 113,
      "µ": 114,
      "¶": 115,
      "·": 116,
      "¸": 117,
      "¹": 118,
      "º": 119,
      "»": 120,
      "¼": 121,
      "½": 122,
      "¾": 123,
      "¿": 124,
      "À": 125,
      "Á": 126,
      "Â": 127,
      "Ã": 128,
      "Ä": 129,
      "Å": 130,
      "Æ": 131,
      "Ç": 132,
      "È": 133,
      "É": 134,
      "Ê": 135,
      "Ë": 136,
      "Ì": 137,
      "Í": 138,
      "Î": 139,
      "Ï": 140,
      "Ð": 141,
      "Ñ": 142,
      "Ò": 143,
      "Ó": 144,
      "Ô": 145,
      "Õ": 146,
      "Ö": 147,
      "×": 148,
      "Ø": 149,
      "Ù": 150,
      "Ú": 151,
      "Û": 152,
      "Ü": 153,
      "Ý": 154,
      "Þ": 155,
      "ß": 156,
      "à": 157,
      "á": 158,
      "â": 159,
      "ã": 160,
      "ä": 161,
      "å": 162,
      "æ": 163,
      "ç": 164,
      "è": 165,
      "é": 166,
      "ê": 167,
      "ë": 168,
      "ì": 169,
      "í": 170,
      "î": 171,
      "ï": 172,
      "ð": 173,
      "ñ": 174,
      "ò": 175,
      "ó": 176,
      "ô": 177,
      "õ": 178,
      "ö": 179,
      "÷": 180,
      "ø": 181,
      "ù": 182,
      "ú": 183,
      "û": 184,
      "ü": 185,
      "ý": 186,
      "þ": 187,
      "ÿ": 188,
      "Ā": 189,
      "ā": 190,
      "Ă": 191,
      "ă": 192,
      "Ą": 193,
      "ą": 194,
      "Ć": 195,
      "ć": 196,
      "Ĉ": 197,
      "ĉ": 198,
      "Ċ": 199,
      "ċ": 200,
      "Č": 201,
      "č": 202,
      "Ď": 203,
      "ď": 204,
      "Đ": 205,
      "đ": 206,
      "Ē": 207,
      "ē": 208,
      "Ĕ": 209,
      "ĕ": 210,
      "Ė": 211,
      "ė": 212,
      "Ę": 213,
      "ę": 214,
      "Ě": 215,
      "ě": 216,
      "Ĝ": 217,
      "ĝ": 218,
      "Ğ": 219,
      "ğ": 220,
      "Ġ": 221,
      "ġ": 222,
      "Ģ": 223,
      "ģ": 224,
      "Ĥ": 225,
      "ĥ": 226,
      "Ħ": 227,
      "ħ": 228,
      "Ĩ": 229,
      "ĩ": 230,
      "Ī": 231,
      "ī": 232,
      "Ĭ": 233,
      "ĭ": 234,
      "Į": 235,
      "į": 236,
      "İ": 237,
      "ı": 238,
      "Ĳ": 239,
      "ĳ": 240,
      "Ĵ": 241,
      "ĵ": 242,
      "Ķ": 243,
      "ķ": 244,
      "ĸ": 245,
      "Ĺ": 246,
      "ĺ": 247,
      "Ļ": 248,
      "ļ": 249,
      "Ľ": 250,
      "ľ": 251,
      "Ŀ": 252,
      "ŀ": 253,
      "Ł": 254,
      "ł": 255,
      "Ń": 256,
      "he": 257,
      "Ġt": 258,
      "Ġa": 259,
      "Ġs": 260,
      "Ġw": 261,
      "nd": 262,
      "Ġthe": 263,
      "ed": 264,
      "Ġand": 265,
      "Ġto": 266,
      "Ġb": 267,
      "in": 268,
      "Ġh": 269,
      "Ġwa": 270,
      "re": 271,
      "ou": 272,
      "Ġf": 273,
      "it": 274,
      "Ġl": 275,
      "Ġc": 276,
      "Ġd": 277,
      "er": 278,
      "Ġhe": 279,
      "Ġm": 280,
      "Ġp": 281,
      "Ġwas": 282,
      "om": 283,
      "ĠT": 284,
      "Ġo": 285,
      "ay": 286,
      "ar": 287,
      "is": 288,
      "ing": 289,
      "il": 290,
      "Ġg": 291,
      "id": 292,
      "at": 293,
      "en": 294,
      "Ġn": 295,
      "Ġsa": 296,
      "Ġha": 297,
      "ĠS": 298,
      "ĠThe": 299,
      "an": 300,
      "im": 301,
      "or": 302,
      "on": 303,
      "Ġit": 304,
      "Ġth": 305,
      "ll": 306,
      "le": 307,
      "ĠH": 308,
      "Ġher": 309,
      "ot": 310,
      "et": 311,
      "ir": 312,
      "ĠShe": 313,
      "es": 314,
      "ĠHe": 315,
      "Ġin": 316,
      "ver": 317,
      "ut": 318,
      "ow": 319,
      "ĠThey": 320,
      "ck": 321,
      "Ġe": 322,
      "Ġu": 323,
      "ld": 324,
      "Ġy": 325,
      "oo": 326,
      "Ġsaid": 327,
      "ig": 328,
      "Ġ\"": 329,
      "ily": 330,
      "Ġr": 331,
      "Ġbe": 332,
      "am": 333,
      "Ġst": 334,
      "ĠI": 335,
      "ce": 336,
      "ke": 337,
      "Ġshe": 338,
      "ve": 339,
      "pp": 340,
      "ith": 341,
      "Ġwith": 342,
      "Lily": 343,
      "On": 344,
      "Ġon": 345,
      "Ġyou": 346,
      "Ġof": 347,
      "ked": 348,
      "ri": 349,
      "Ġso": 350,
      "nt": 351,
      "Ġhis": 352,
      "Ġpl": 353,
      "ad": 354,
      "very": 355,
      "Ġday": 356,
      "Ġthat": 357,
      "Ġup": 358,
      "Ġplay": 359,
      "Ġhad": 360,
      "st": 361,
      "Ġthey": 362,
      "Ġwe": 363,
      "ĠLily": 364,
      "Ġmom": 365,
      "Ġfor": 366,
      "ĠB": 367,
      "el": 368,
      "un": 369,
      "ould": 370,
      "'s": 371,
      "my": 372,
      "The": 373,
      "Ġli": 374,
      "ch": 375,
      "ent": 376,
      "Ġhapp": 377,
      "Ġwant": 378,
      "itt": 379,
      "Ġsh": 380,
      "out": 381,
      "her": 382,
      "Ġdo": 383,
      "ly": 384,
      "Ġnot": 385,
      "ome": 386,
      "se": 387,
      "Ġvery": 388,
      "ound": 389,
      "end": 390,
      "all": 391,
      "Ġwh": 392,
      "ime": 393,
      "ittle": 394,
      "Ġk": 395,
      "Ġtime": 396,
      "Ġlittle": 397,
      "al": 398,
      "Ġthere": 399,
      "Ġne": 400,
      "ht": 401,
      "ĠM": 402,
      "Ġre": 403,
      "Ġhappy": 404,
      "Ġsm": 405,
      "Ġbig": 406,
      "Ġis": 407,
      "ĠĊ": 408,
      "ĠIt": 409,
      "Ġbut": 410,
      "ack": 411,
      "Ġan": 412,
      "Ġsaw": 413,
      "riend": 414,
      ".\"": 415,
      "Ġfriend": 416,
      "ry": 417,
      "Ġas": 418,
      "ra": 419,
      "One": 420,
      "ide": 421,
      "ake": 422,
      "'t": 423,
      "!\"": 424,
      "ug": 425,
      "Ġloo": 426,
      "ved": 427,
      "ter": 428,
      "Ġwere": 429,
      "ore": 430,
      "Once": 431,
      "Ġlo": 432,
      "ec": 433,
      "Ġhim": 434,
      "Ġtoo": 435,
      "Ġgo": 436,
      "Ġbo": 437,
      "Ġse": 438,
      "irl": 439,
      "Ġare": 440,
      "Ġj": 441,
      "ĠTim": 442,
      "ard": 443,
      "Ġwanted": 444,
      "ill": 445,
      "Ġgirl": 446,
      "Ġupon": 447,
      "Ġthem": 448,
      "Ġout": 449,
      "Ġat": 450,
      "ur": 451,
      "ind": 452,
      "Ġtheir": 453,
      "fu": 454,
      "Ġsp": 455,
      "way": 456,
      "ĠA": 457,
      "Ġsmil": 458,
      "Ġdid": 459,
      "Ġcould": 460,
      "hen": 461,
      "Ġhave": 462,
      "ain": 463,
      "art": 464,
      "Ġex": 465,
      "hed": 466,
      "rom": 467,
      "Ġwent": 468,
      "Ġar": 469,
      "ic": 470,
      "Ġcan": 471,
      "ĠJ": 472,
      "lp": 473,
      "ful": 474,
      "ĠBen": 475,
      "ood": 476,
      "?\"": 477,
      "hing": 478,
      "Ġfriends": 479,
      "Ġnam": 480,
      "ight": 481,
      "Ġall": 482,
      "Ġhelp": 483,
      "Ġkn": 484,
      "um": 485,
      "one": 486,
      "ark": 487,
      "Ġback": 488,
      "Ġsay": 489,
      "You": 490,
      "Ġfun": 491,
      "Ġcl": 492,
      "ĠTom": 493,
      "are": 494,
      "Ġno": 495,
      "Ġle": 496,
      "op": 497,
      "Ġsmiled": 498,
      "Ġsc": 499,
      "Ġnamed": 500,
      "Ġal": 501,
      "oug": 502,
      "Ġloved": 503,
      "side": 504,
      "elt": 505,
      "ĠOne": 506,
      "Ġman": 507,
      "Ġasked": 508,
      "ick": 509,
      "Ġtoy": 510,
      "Ġlike": 511,
      "Ġfe": 512,
      "Ġfelt": 513,
      "Ġlooked": 514,
      "Ġsome": 515,
      "Ġaround": 516,
      "Ġsee": 517,
      "Ġme": 518,
      "ame": 519,
      "omet": 520,
      "ĠW": 521,
      "Ġro": 522,
      "Ġbr": 523,
      "ure": 524,
      "ĠTimmy": 525,
      "Ġbir": 526,
      "get": 527,
      "ice": 528,
      "Ġboy": 529,
      "Ġwould": 530,
      "Ġstart": 531,
      "ong": 532,
      "Ã¢": 533,
      "âĤ": 534,
      "âĤ¬": 535,
      "ss": 536,
      "Ġbird": 537,
      "Ġsomet": 538,
      "Ġfa": 539,
      "dd": 540,
      "ings": 541,
      "Ġag": 542,
      "Ġwor": 543,
      "Ġwhat": 544,
      "ade": 545,
      "Ġmake": 546,
      "king": 547,
      ",\"": 548,
      "ie": 549,
      "ĠBut": 550,
      "own": 551,
      "Ġtre": 552,
      "Ġran": 553,
      "gether": 554,
      "ĠYou": 555,
      "Ġaway": 556,
      "ag": 557,
      "ared": 558,
      "Ġsays": 559,
      "Ġstarted": 560,
      "oud": 561,
      "if": 562,
      "Ġmade": 563,
      "Ġcar": 564,
      "Ġsomething": 565,
      "Ġtogether": 566,
      "ited": 567,
      "ther": 568,
      "Ġpark": 569,
      "Ġco": 570,
      "Ġsad": 571,
      "Ġother": 572,
      "Ġnew": 573,
      "Ġexc": 574,
      "Ġput": 575,
      "Ġfrom": 576,
      "Ġpr": 577,
      "ell": 578,
      "ĠL": 579,
      "Ġla": 580,
      "Ġhug": 581,
      "ble": 582,
      "Ġmu": 583,
      "ook": 584,
      "ach": 585,
      "Ġagain": 586,
      "Ġhome": 587,
      "Ġwhen": 588,
      "Ġgood": 589,
      "hat": 590,
      "ep": 591,
      "Ġwho": 592,
      "est": 593,
      "ried": 594,
      "Ġfound": 595,
      "Ġfl": 596,
      "Ġthen": 597,
      "Ġch": 598,
      "Ġdec": 599,
      "pped": 600,
      "Ġwal": 601,
      "as": 602,
      "Ġget": 603,
      "qu": 604,
      "Ġplaying": 605,
      "ought": 606,
      "pl": 607,
      "ĠE": 608,
      "ally": 609,
      "Ġsw": 610,
      "ous": 611,
      "nn": 612,
      "Ġthings": 613,
      "Ġexcited": 614,
      "Ġliked": 615,
      "Ġgot": 616,
      "uck": 617,
      "ro": 618,
      "ided": 619,
      "Ġdecided": 620,
      "Ġbl": 621,
      "ave": 622,
      "Ġcame": 623,
      "Ġevery": 624,
      "ara": 625,
      "Ġyour": 626,
      "ĠD": 627,
      "ĠMom": 628,
      "ax": 629,
      "Ġv": 630,
      "Ġscared": 631,
      "ust": 632,
      "Ġone": 633,
      "Ġdog": 634,
      "Ġdown": 635,
      "ouse": 636,
      "ny": 637,
      "Ġfind": 638,
      "Ġcare": 639,
      "Ġbec": 640,
      "ist": 641,
      "Ġthan": 642,
      "Ġfeel": 643,
      "ap": 644,
      "ue": 645,
      "udd": 646,
      "nna": 647,
      "Ġdad": 648,
      "Ġab": 649,
      "They": 650,
      "Ġmy": 651,
      "Ġlook": 652,
      "Ġke": 653,
      "our": 654,
      "Ġwill": 655,
      "arn": 656,
      "Ġgr": 657,
      "us": 658,
      "nder": 659,
      "Ġgra": 660,
      "ways": 661,
      "ess": 662,
      "Ġdidn": 663,
      "Ġpo": 664,
      "fe": 665,
      "Ġalways": 666,
      "Ġtook": 667,
      "Ġabout": 668,
      "ant": 669,
      "bb": 670,
      "Ġlot": 671,
      "Ġmommy": 672,
      "Ġtoys": 673,
      "Ġkne": 674,
      "ers": 675,
      "ise": 676,
      "ite": 677,
      "Ġoutside": 678,
      "Ġtree": 679,
      "Ġthought": 680,
      "Ġball": 681,
      "ĠF": 682,
      "Ġmore": 683,
      "eci": 684,
      "ĠSam": 685,
      "ened": 686,
      "ched": 687,
      "Ġta": 688,
      "Ġold": 689,
      "Ġho": 690,
      "Ġlearn": 691,
      "ret": 692,
      "Ġint": 693,
      "ged": 694,
      "Ġknow": 695,
      "Ġlaug": 696,
      "Ġtake": 697,
      "ecial": 698,
      "Ġspecial": 699,
      "Ġsor": 700,
      "Ġcat": 701,
      "udden": 702,
      "Ġknew": 703,
      "ĠMax": 704,
      "ive": 705,
      "ia": 706,
      "Ġpe": 707,
      "Ġany": 708,
      "uddenly": 709,
      "Ġtr": 710,
      "fter": 711,
      "Ġhow": 712,
      "ma": 713,
      "Ġshow": 714,
      "ink": 715,
      "Ġsorry": 716,
      "Ġtw": 717,
      "But": 718,
      "Ġmuch": 719,
      "au": 720,
      "ish": 721,
      "Ġrun": 722,
      "and": 723,
      "Ġhand": 724,
      "Ġsl": 725,
      "ven": 726,
      "Ġhouse": 727,
      "Ġor": 728,
      "Ġop": 729,
      "Ġsk": 730,
      "Ġmo": 731,
      "Ġclo": 732,
      "Ġsun": 733,
      "Ġinto": 734,
      "Ġtried": 735,
      "Ġinside": 736,
      "ate": 737,
      "Ġtold": 738,
      "Ġwater": 739,
      "Ġthis": 740,
      "Ġen": 741,
      "ank": 742,
      "Ġif": 743,
      "Ġproud": 744,
      "ump": 745,
      "Ġqu": 746,
      "Ġover": 747,
      "Ġcouldn": 748,
      "Tom": 749,
      "dy": 750,
      "Ġgave": 751,
      "Ġheard": 752,
      "ĠSara": 753,
      "Ġnever": 754,
      "by": 755,
      "Ġeach": 756,
      "ace": 757,
      "Ġroom": 758,
      "ty": 759,
      "Ġexpl": 760,
      "ĠEvery": 761,
      "Ġeat": 762,
      "ĠWe": 763,
      "other": 764,
      "ause": 765,
      "Ġpick": 766,
      "ion": 767,
      "Ġpret": 768,
      "ĠAnna": 769,
      "Mom": 770,
      "Ġplayed": 771,
      "ge": 772,
      "etter": 773,
      "Ġjust": 774,
      "ak": 775,
      "Ġhugged": 776,
      "Ġgre": 777,
      "here": 778,
      "Ġoff": 779,
      "Ġcom": 780,
      "Ġwat": 781,
      "oth": 782,
      "Ġbox": 783,
      "Ġnice": 784,
      "'m": 785,
      "Ġstr": 786,
      "Ġbecause": 787,
      "Ġneed": 788,
      "ile": 789,
      "Ġmany": 790,
      "Ġfo": 791,
      "uc": 792,
      "Ġjo": 793,
      "Ġbear": 794,
      "Ġsmall": 795,
      "iz": 796,
      "Ġbu": 797,
      "ving": 798,
      "Ġlong": 799,
      "ine": 800,
      "gry": 801,
      "imal": 802,
      "ort": 803,
      "Ġanimal": 804,
      "Ġsn": 805,
      "ough": 806,
      "Ġtry": 807,
      "Ġunt": 808,
      "ild": 809,
      "sel": 810,
      "urt": 811,
      "Ġuntil": 812,
      "ĠJack": 813,
      "sed": 814,
      "Ġkind": 815,
      "Ġlearned": 816,
      "Ġim": 817,
      "Ġlove": 818,
      "Ġbetter": 819,
      "ft": 820,
      "Ġflow": 821,
      "Ġcall": 822,
      "Ġdon": 823,
      "He": 824,
      "ĠJo": 825,
      "Ġend": 826,
      "Ġad": 827,
      "ull": 828,
      "Ġbest": 829,
      "vent": 830,
      "Yes": 831,
      "ars": 832,
      "urp": 833,
      "ady": 834,
      "em": 835,
      "ream": 836,
      "aut": 837,
      "urn": 838,
      "ĠMia": 839,
      "Ġcle": 840,
      "ĠAnd": 841,
      "ves": 842,
      "Åĵ": 843,
      "arden": 844,
      "ĠC": 845,
      "Ġgarden": 846,
      "Ġfast": 847,
      "Ġcareful": 848,
      "ber": 849,
      "Ġbeaut": 850,
      "lly": 851,
      "Th": 852,
      "Ġeven": 853,
      "pt": 854,
      "Ġbra": 855,
      "ies": 856,
      "Ġthanked": 857,
      "Ġfi": 858,
      "ĠSo": 859,
      "Ġche": 860,
      "Ġlaughed": 861,
      "Ġsky": 862,
      "Ġby": 863,
      "It": 864,
      "ĠHer": 865,
      "Ġjump": 866,
      "Ġgl": 867,
      "ase": 868,
      "Ġte": 869,
      "Ġloud": 870,
      "self": 871,
      "iny": 872,
      "Ġway": 873,
      "wn": 874,
      "Ġbeauti": 875,
      "Ġcome": 876,
      "lew": 877,
      "Ġlist": 878,
      "Ġwo": 879,
      "Ġbeautiful": 880,
      "Ġhard": 881,
      "Ġlots": 882,
      "Ġra": 883,
      "Ġstill": 884,
      "Ġfam": 885,
      "Ġanimals": 886,
      "ĠÃ¢": 887,
      "Ġhurt": 888,
      "Ġunder": 889,
      "ĠThen": 890,
      "ect": 891,
      "Ġstay": 892,
      "ning": 893,
      "Ġlet": 894,
      "ct": 895,
      "Ġboth": 896,
      "Ġcu": 897,
      "ĠHis": 898,
      "hes": 899,
      "be": 900,
      "Ġsafe": 901,
      "ĠFrom": 902,
      "ool": 903,
      "ree": 904,
      "Ġcol": 905,
      "Ġtwo": 906,
      "Ġbad": 907,
      "Ġbook": 908,
      "Ġimp": 909,
      "ople": 910,
      "Ġrem": 911,
      "ane": 912,
      "Ġlived": 913,
      "kay": 914,
      "ock": 915,
      "ucy": 916,
      "Ġwalked": 917,
      "Tim": 918,
      "ast": 919,
      "urpr": 920,
      "Ġbrave": 921,
      "Ġshould": 922,
      "Ġits": 923,
      "ob": 924,
      "ished": 925,
      "Ġangry": 926,
      "Ġsurpr": 927,
      "Ġfamily": 928,
      "ress": 929,
      "igh": 930,
      "When": 931,
      "Ġpeople": 932,
      "Ġflew": 933,
      "Ġcalled": 934,
      "No": 935,
      "Ġred": 936,
      "Ġstor": 937,
      "ip": 938,
      "Ġsoon": 939,
      "Ġfin": 940,
      "hn": 941,
      "Let": 942,
      "led": 943,
      "Ġkept": 944,
      "Ġfore": 945,
      "fore": 946,
      "Ġdan": 947,
      "Ġshare": 948,
      "Ġfly": 949,
      "xt": 950,
      "ised": 951,
      "dded": 952,
      "Ġpic": 953,
      "âĤ¬â": 954,
      "Ġdoor": 955,
      "Ġgoing": 956,
      "ĠP": 957,
      "ĠWhen": 958,
      "Ġpretty": 959,
      "Ġkeep": 960,
      "Ġnow": 961,
      "Ġrock": 962,
      "Ġclean": 963,
      "Ġdra": 964,
      "ary": 965,
      "Ġadvent": 966,
      "ummy": 967,
      "Ġnoise": 968,
      "Ġopened": 969,
      "Ġshiny": 970,
      "age": 971,
      "Ġexplore": 972,
      "Ġwind": 973,
      "Ġdoll": 974,
      "Ġcry": 975,
      "Ġcon": 976,
      "Ġide": 977,
      "Ġbefore": 978,
      "ied": 979,
      "Ben": 980,
      "illy": 981,
      "Ġreal": 982,
      "Ġsto": 983,
      "so": 984,
      "What": 985,
      "Ġground": 986,
      "Ġalso": 987,
      "les": 988,
      "Ġturn": 989,
      "Ħ¢": 990,
      "âĤ¬âĦ¢": 991,
      "Ġey": 992,
      "That": 993,
      "Ġfar": 994,
      "Ġidea": 995,
      "Ġfr": 996,
      "oon": 997,
      "Ġnodded": 998,
      "Ġcolor": 999,
      "Ġwar": 1000,
      "oy": 1001,
      "Ġfeeling": 1002,
      "Ġun": 1003,
      "Ġpicked": 1004,
      "imb": 1005,
      "th": 1006,
      "ĠLucy": 1007,
      "Ġnext": 1008,
      "Ġwalking": 1009,
      "thing": 1010,
      "ture": 1011,
      "ĠDad": 1012,
      "Ġclimb": 1013,
      "Ġhas": 1014,
      "uch": 1015,
      "Ġma": 1016,
      "Ġthr": 1017,
      "Ġwhile": 1018,
      "eet": 1019,
      "Ġbed": 1020,
      "Ġadventure": 1021,
      "Ġsmile": 1022,
      "kes": 1023,
      "aybe": 1024,
      "Thank": 1025,
      "iced": 1026,
      "ger": 1027,
      "ious": 1028,
      "ĠG": 1029,
      "Ġbeing": 1030,
      "Ġdif": 1031,
      "Ġwr": 1032,
      "Ġclos": 1033,
      "Ġfood": 1034,
      "joy": 1035,
      "ted": 1036,
      "Ġgive": 1037,
      "Ġpicture": 1038,
      "Ġthink": 1039,
      "ĠSp": 1040,
      "Ġlooking": 1041,
      "Ġdel": 1042,
      "ff": 1043,
      "ac": 1044,
      "Ġtruck": 1045,
      "Ġwait": 1046,
      "Ġeyes": 1047,
      "ught": 1048,
      "Ġtow": 1049,
      "ting": 1050,
      "Ġrepl": 1051,
      "Ġbro": 1052,
      "Ġstopped": 1053,
      "Ġlisten": 1054,
      "Ġafter": 1055,
      "Ġbre": 1056,
      "Ġown": 1057,
      "Ġvo": 1058,
      "Ġwalk": 1059,
      "ember": 1060,
      "ĠSuddenly": 1061,
      "Ġwonder": 1062,
      "Ġgreat": 1063,
      "Ġhands": 1064,
      "Suddenly": 1065,
      "Ġshout": 1066,
      "Ġhead": 1067,
      "Ġenjoy": 1068,
      "Ġimport": 1069,
      "Ġflowers": 1070,
      "Ġever": 1071,
      "Ġnoticed": 1072,
      "Ġblue": 1073,
      "Ġforest": 1074,
      "bbit": 1075,
      "She": 1076,
      "ized": 1077,
      "Ġapp": 1078,
      "irst": 1079,
      "Ġnear": 1080,
      "Ġquick": 1081,
      "Ġdis": 1082,
      "Ġde": 1083,
      "able": 1084,
      "Ġimportant": 1085,
      "Ġremember": 1086,
      "Ġfish": 1087,
      "llow": 1088,
      "Ġsound": 1089,
      "Ġslide": 1090,
      "Ġus": 1091,
      "maz": 1092,
      "Ġreplied": 1093,
      "Ġamaz": 1094,
      "Ġac": 1095,
      "lease": 1096,
      "Ġwork": 1097,
      "Ġwatch": 1098,
      "Ġrain": 1099,
      "Ġshowed": 1100,
      "Ġrabbit": 1101,
      "Ġokay": 1102,
      "gan": 1103,
      "Ġtal": 1104,
      "bye": 1105,
      "fere": 1106,
      "bbed": 1107,
      "Ġask": 1108,
      "Ġdiffere": 1109,
      "Ġmean": 1110,
      "Ġright": 1111,
      "Ġye": 1112,
      "day": 1113,
      "Ġwatched": 1114,
      "Ġbright": 1115,
      "Ġfollow": 1116,
      "We": 1117,
      "ĠSpot": 1118,
      "So": 1119,
      "Ġeveryone": 1120,
      "Ġstrong": 1121,
      "Ġsqu": 1122,
      "Ġstick": 1123,
      "Ġuse": 1124,
      "Ġbeen": 1125,
      "Ġmor": 1126,
      "Ġvoice": 1127,
      "Ġtra": 1128,
      "ered": 1129,
      "Ġquickly": 1130,
      "ath": 1131,
      "Ġour": 1132,
      "Ġwhere": 1133,
      "Ġyell": 1134,
      "ĠN": 1135,
      "ĠMommy": 1136,
      "Anna": 1137,
      "Ġdifferent": 1138,
      "ĠBob": 1139,
      "Ġchild": 1140,
      "Ġcuri": 1141,
      "Ġboat": 1142,
      "ng": 1143,
      "Ġsure": 1144,
      "ĠSue": 1145,
      "Ġbecame": 1146,
      "Ġgoodbye": 1147,
      "Ġface": 1148,
      "Ġplace": 1149,
      "ange": 1150,
      "Ġhop": 1151,
      "Ġhigh": 1152,
      "Ġam": 1153,
      "Look": 1154,
      "aught": 1155,
      "ĠR": 1156,
      "Ġcloser": 1157,
      "Ġstore": 1158,
      "Ġwarm": 1159,
      "Ġdoes": 1160,
      "Ġcr": 1161,
      "Ġdress": 1162,
      "Sara": 1163,
      "unny": 1164,
      "Ġcurious": 1165,
      "Ġmag": 1166,
      "ila": 1167,
      "Jo": 1168,
      "Ġcook": 1169,
      "Ġbel": 1170,
      "Ġforg": 1171,
      "Ġtell": 1172,
      "Ġfav": 1173,
      "ndma": 1174,
      "ass": 1175,
      "ount": 1176,
      "co": 1177,
      "Ġthree": 1178,
      "leep": 1179,
      "Ġnight": 1180,
      "Ġopen": 1181,
      "Ġcake": 1182,
      "more": 1183,
      "Ġhere": 1184,
      "Ġanymore": 1185,
      "Ġblock": 1186,
      "Ġfirst": 1187,
      "itc": 1188,
      "Ġbus": 1189,
      "Ġpull": 1190,
      "iss": 1191,
      "ached": 1192,
      "Her": 1193,
      "ired": 1194,
      "Ġbutter": 1195,
      "Ġz": 1196,
      "imes": 1197,
      "ĠTh": 1198,
      "orn": 1199,
      "Ġsweet": 1200,
      "Ġpain": 1201,
      "Ġkid": 1202,
      "Ġgrabbed": 1203,
      "Can": 1204,
      "Ġpu": 1205,
      "isy": 1206,
      "Ġonly": 1207,
      "Ġmon": 1208,
      "Ġlea": 1209,
      "Ġfell": 1210,
      "Ġba": 1211,
      "Ġru": 1212,
      "Ġcont": 1213,
      "Ġbirds": 1214,
      "Ġjumped": 1215,
      "Ġglad": 1216,
      "Ġbit": 1217,
      "Ġsand": 1218,
      "itchen": 1219,
      "Ġkitchen": 1220,
      "Ġhelped": 1221,
      "Ġsees": 1222,
      "Ġfire": 1223,
      "Ġper": 1224,
      "Ġflo": 1225,
      "Ġstop": 1226,
      "ĠSarah": 1227,
      "Ġhappened": 1228,
      "Ġsing": 1229,
      "Ġgrass": 1230,
      "Ġbunny": 1231,
      "Ġshouted": 1232,
      "Ġstory": 1233,
      "ĠLet": 1234,
      "Ġtri": 1235,
      "nts": 1236,
      "Ġdr": 1237,
      "air": 1238,
      "After": 1239,
      "ĠJane": 1240,
      "ppy": 1241,
      "Ġreached": 1242,
      "Ġbeh": 1243,
      "Ġrealized": 1244,
      "Ġyummy": 1245,
      "Ġbrother": 1246,
      "ĠDo": 1247,
      "Ġlady": 1248,
      "Ġmum": 1249,
      "Ġhaving": 1250,
      "Ġprin": 1251,
      "ins": 1252,
      "Ġfavor": 1253,
      "ĠAs": 1254,
      "'re": 1255,
      "Ġmess": 1256,
      "Ġfavorite": 1257,
      "Ġdraw": 1258,
      "Ġcre": 1259,
      "Ġrest": 1260,
      "Ġthrough": 1261,
      "Ġgame": 1262,
      "Ġhat": 1263,
      "Ġate": 1264,
      "Ġless": 1265,
      "Ġunderst": 1266,
      "akes": 1267,
      "ĠEveryone": 1268,
      "Ġsoft": 1269,
      "Ġpare": 1270,
      "zy": 1271,
      "Ġthing": 1272,
      "Ġreally": 1273,
      "ather": 1274,
      "Ġready": 1275,
      "Mommy": 1276,
      "Ġbegan": 1277,
      "where": 1278,
      "Ġpretend": 1279,
      "ĠCan": 1280,
      "Ġworld": 1281,
      "ĠJoe": 1282,
      "ĠThat": 1283,
      "Ġlooks": 1284,
      "ken": 1285,
      "Ġhimself": 1286,
      "Ġmagic": 1287,
      "fully": 1288,
      "Ġpap": 1289,
      "Ġdone": 1290,
      "Ġbutterf": 1291,
      "Ġmaking": 1292,
      "Ġcut": 1293,
      "Ġcoming": 1294,
      "Ġduck": 1295,
      "ater": 1296,
      "Ġpond": 1297,
      "Ġkids": 1298,
      "Ġwaved": 1299,
      "Ġwhy": 1300,
      "Ġprom": 1301,
      "Ġtired": 1302,
      "Ġfro": 1303,
      "Ġfix": 1304,
      "olly": 1305,
      "ster": 1306,
      "Ġmouse": 1307,
      "Ġworry": 1308,
      "Ġpart": 1309,
      "Ġcars": 1310,
      "Ġste": 1311,
      "Ġdelic": 1312,
      "Ġname": 1313,
      "Ġflower": 1314,
      "ign": 1315,
      "Ġfill": 1316,
      "Wow": 1317,
      "aisy": 1318,
      "Ġtouch": 1319,
      "eddy": 1320,
      "Ġfunny": 1321,
      "Ġcatch": 1322,
      "bo": 1323,
      "Ġused": 1324,
      "sh": 1325,
      "Ġseen": 1326,
      "Ġhair": 1327,
      "ĠJohn": 1328,
      "Ġtast": 1329,
      "ient": 1330,
      "Ġtop": 1331,
      "Ġparents": 1332,
      "rel": 1333,
      "Ġanother": 1334,
      "Ġhold": 1335,
      "Ġhopped": 1336,
      "Ġcried": 1337,
      "iver": 1338,
      "uff": 1339,
      "oney": 1340,
      "mer": 1341,
      "Ġdoing": 1342,
      "Ġcool": 1343,
      "Ġblocks": 1344,
      "hy": 1345,
      "\".": 1346,
      "Ġpus": 1347,
      "Ġsurprise": 1348,
      "Ġlight": 1349,
      "Ġgreen": 1350,
      "As": 1351,
      "Ġthank": 1352,
      "Ġlesson": 1353,
      "Timmy": 1354,
      "ation": 1355,
      "Ġread": 1356,
      "Ġfloor": 1357,
      "Ġdin": 1358,
      "Ġgi": 1359,
      "Ġwood": 1360,
      "Ġfull": 1361,
      "Don": 1362,
      "Ġdri": 1363,
      "ards": 1364,
      "Ġtrees": 1365,
      "Ġrunning": 1366,
      "Ġwindow": 1367,
      "Ġworked": 1368,
      "Ġyears": 1369,
      "Ġcra": 1370,
      "Ġdro": 1371,
      "Ġ-": 1372,
      "Ġdark": 1373,
      "Ġbehind": 1374,
      "Ġlikes": 1375,
      "Ġsmell": 1376,
      "Ġspot": 1377,
      "Ġwished": 1378,
      "Ġpaper": 1379,
      "ued": 1380,
      "Ġyellow": 1381,
      "andy": 1382,
      "Ġbow": 1383,
      "ul": 1384,
      "ren": 1385,
      "Ġswim": 1386,
      "John": 1387,
      "Ġhappily": 1388,
      "Ġbag": 1389,
      "Ġsat": 1390,
      "Ġsho": 1391,
      "Sam": 1392,
      "Ġsleep": 1393,
      "aring": 1394,
      "Ġsurprised": 1395,
      "ely": 1396,
      "Ġfrog": 1397,
      "Ġbutterfly": 1398,
      "ike": 1399,
      "Ġswing": 1400,
      "Ġset": 1401,
      "Ġcarefully": 1402,
      "ĠIn": 1403,
      "Ġslow": 1404,
      "Ġremembered": 1405,
      "Ġlost": 1406,
      "Ġcold": 1407,
      "Ġheld": 1408,
      "ello": 1409,
      "Hello": 1410,
      "Ġhole": 1411,
      "Ġice": 1412,
      "Ġlaugh": 1413,
      "rew": 1414,
      "Ġneeded": 1415,
      "Ġbuy": 1416,
      "Ġperf": 1417,
      "Ġleft": 1418,
      "ons": 1419,
      "Ġmove": 1420,
      "reed": 1421,
      "cess": 1422,
      "Ġanything": 1423,
      "Ġdream": 1424,
      "Ġtall": 1425,
      "Ġenjoyed": 1426,
      "Ġwrong": 1427,
      "Ġarri": 1428,
      "uit": 1429,
      "Ġhear": 1430,
      "Ġfair": 1431,
      "Ġair": 1432,
      "Ġfollowed": 1433,
      "inally": 1434,
      "Ġbooks": 1435,
      "ross": 1436,
      "Ġel": 1437,
      "Ġchildren": 1438,
      "Ġhun": 1439,
      "Ġdelicious": 1440,
      "Ġtable": 1441,
      "Ġfinished": 1442,
      "Ġcontin": 1443,
      "Ġfriendly": 1444,
      "Ġdir": 1445,
      "Ġhot": 1446,
      "Ġsnow": 1447,
      "Ġherself": 1448,
      "ds": 1449,
      "lf": 1450,
      "ĠAfter": 1451,
      "Ġhill": 1452,
      "ens": 1453,
      "Ġunderstand": 1454,
      "Ġplease": 1455,
      "Ġclose": 1456,
      "ined": 1457,
      "Ġhid": 1458,
      "Ġarrived": 1459,
      "Ġcast": 1460,
      "Ġelse": 1461,
      "Ġarm": 1462,
      "Ġbaby": 1463,
      "Ġwonderful": 1464,
      "Ġmight": 1465,
      "Ġgent": 1466,
      "Ġtight": 1467,
      "Ġforgot": 1468,
      "sp": 1469,
      "ield": 1470,
      "Ġbug": 1471,
      "ĠSally": 1472,
      "Ġcolors": 1473,
      "Ġrel": 1474,
      "Ġbuild": 1475,
      "Ġbroken": 1476,
      "ĠDaisy": 1477,
      "Ġable": 1478,
      "Ġgone": 1479,
      "av": 1480,
      "ner": 1481,
      "ĠNow": 1482,
      "ĠBenny": 1483,
      "ĠLila": 1484,
      "Ġyes": 1485,
      "atter": 1486,
      "Ġsong": 1487,
      "Then": 1488,
      "ich": 1489,
      "Ġwall": 1490,
      "Ġsquir": 1491,
      "Ġfilled": 1492,
      "Ġagreed": 1493,
      "Ġsomeone": 1494,
      "Jack": 1495,
      "Ġcontinued": 1496,
      "room": 1497,
      "Ġcreat": 1498,
      "asure": 1499,
      "'ll": 1500,
      "Ġcount": 1501,
      "Ġwants": 1502,
      "Ġsquirrel": 1503,
      "ĠEm": 1504,
      "Ġpink": 1505,
      "Ġleaves": 1506,
      "ask": 1507,
      "Ġenough": 1508,
      "ey": 1509,
      "ĠThere": 1510,
      "ĠTommy": 1511,
      "Ġlion": 1512,
      "From": 1513,
      "ama": 1514,
      "ee": 1515,
      "OK": 1516,
      "Ġmorning": 1517,
      "Ġvis": 1518,
      "Ġmoment": 1519,
      "Ġfinally": 1520,
      "Ġgetting": 1521,
      "Ġstayed": 1522,
      "Ġcookies": 1523,
      "Ġbreak": 1524,
      "app": 1525,
      "Ġpoin": 1526,
      "ance": 1527,
      "Ġbeach": 1528,
      "ĠK": 1529,
      "Ġfew": 1530,
      "ĠMaybe": 1531,
      "Ġscary": 1532,
      "Ġfight": 1533,
      "Ġsometimes": 1534,
      "row": 1535,
      "ash": 1536,
      "ries": 1537,
      "ced": 1538,
      "red": 1539,
      "Ġturned": 1540,
      "Ġhungry": 1541,
      "Ġfall": 1542,
      "Ġdinner": 1543,
      "gon": 1544,
      "Ġmother": 1545,
      "Ġgrandma": 1546,
      "Ġju": 1547,
      "Ġwet": 1548,
      "ĠWhat": 1549,
      "Ġamazing": 1550,
      "apped": 1551,
      "Ġtrying": 1552,
      "His": 1553,
      "Ġcream": 1554,
      "Ġdaddy": 1555,
      "Ġperfect": 1556,
      "Ġpi": 1557,
      "Ġmakes": 1558,
      "Ġcastle": 1559,
      "Ġothers": 1560,
      "At": 1561,
      "Ġclimbed": 1562,
      "key": 1563,
      "oup": 1564,
      "ĠThis": 1565,
      "This": 1566,
      "Ġpictures": 1567,
      "icy": 1568,
      "Ġcomp": 1569,
      "amp": 1570,
      "Ġtalk": 1571,
      "Ġmet": 1572,
      "Ġmus": 1573,
      "Ġwhite": 1574,
      "oom": 1575,
      "Ġlistened": 1576,
      "Ġsmiles": 1577,
      "man": 1578,
      "Ġfur": 1579,
      "Ġballoon": 1580,
      "Ġclot": 1581,
      "oring": 1582,
      "ĠGra": 1583,
      "Ġalone": 1584,
      "Ġclothes": 1585,
      "Ġpol": 1586,
      "ĠBilly": 1587,
      "lc": 1588,
      "Ġtail": 1589,
      "Ġjoy": 1590,
      "ated": 1591,
      "rot": 1592,
      "Oh": 1593,
      "Ġpuppy": 1594,
      "Ġspl": 1595,
      "ence": 1596,
      "Ġmar": 1597,
      "Ġwasn": 1598,
      "Ġbrought": 1599,
      "Ġdeep": 1600,
      "Ġeverything": 1601,
      "Ġpet": 1602,
      "Ġsear": 1603,
      "Ġstrange": 1604,
      "ister": 1605,
      "ctor": 1606,
      "Ġspark": 1607,
      "der": 1608,
      "Ġsit": 1609,
      "Ġwoods": 1610,
      "Ġgrow": 1611,
      "Ġpulled": 1612,
      "ling": 1613,
      "Ġsail": 1614,
      "ĠTo": 1615,
      "ott": 1616,
      "Ġwon": 1617,
      "Ġplan": 1618,
      "Ġride": 1619,
      "eter": 1620,
      "Ġasks": 1621,
      "Ġfox": 1622,
      "Ġpie": 1623,
      "Ġdanger": 1624,
      "Ġtreat": 1625,
      "uffy": 1626,
      "Ġroll": 1627,
      "Ġvisit": 1628,
      "ĠAmy": 1629,
      "os": 1630,
      "Ġleave": 1631,
      "med": 1632,
      "ĠJen": 1633,
      "Ġpat": 1634,
      "ucky": 1635,
      "Ġmusic": 1636,
      "Ġamazed": 1637,
      "Ġwaited": 1638,
      "Ġteddy": 1639,
      "Ġhide": 1640,
      "me": 1641,
      "ang": 1642,
      "ever": 1643,
      "Ġtowards": 1644,
      "Max": 1645,
      "ower": 1646,
      "Ġfield": 1647,
      "Ġland": 1648,
      "Ġpre": 1649,
      "Ġflying": 1650,
      "zz": 1651,
      "Ġpen": 1652,
      "Ġsilly": 1653,
      "Ġshared": 1654,
      "Ġruns": 1655,
      "ained": 1656,
      "Ġowner": 1657,
      "Ġcloud": 1658,
      "ape": 1659,
      "Ġliving": 1660,
      "ugg": 1661,
      "Ġqui": 1662,
      "ames": 1663,
      "Ġjob": 1664,
      "Ġpromised": 1665,
      "Okay": 1666,
      "Ġbelie": 1667,
      "igg": 1668,
      "Ġmoral": 1669,
      "Ġgu": 1670,
      "Ġside": 1671,
      "gs": 1672,
      "orm": 1673,
      "Ġlake": 1674,
      "ol": 1675,
      "Ġpa": 1676,
      "Ġthinks": 1677,
      "Maybe": 1678,
      "cket": 1679,
      "ope": 1680,
      "Ġpaint": 1681,
      "Ġsec": 1682,
      "thy": 1683,
      "Ġsister": 1684,
      "ually": 1685,
      "Ġparty": 1686,
      "Ġquiet": 1687,
      "ises": 1688,
      "Ġmust": 1689,
      "cle": 1690,
      "Ġrace": 1691,
      "ĠJim": 1692,
      "avy": 1693,
      "Ġmoney": 1694,
      "Ġwear": 1695,
      "sw": 1696,
      "Ġworried": 1697,
      "ased": 1698,
      "up": 1699,
      "Ġansw": 1700,
      "unch": 1701,
      "Ġslowly": 1702,
      "Ġpot": 1703,
      "eces": 1704,
      "Ġcolorful": 1705,
      "Ġfaster": 1706,
      "Ġgrate": 1707,
      "Ġow": 1708,
      "Ġdance": 1709,
      "Ġpieces": 1710,
      "Ġbran": 1711,
      "Ġbott": 1712,
      "Ġwelc": 1713,
      "Ġbroke": 1714,
      "Ġcup": 1715,
      "ix": 1716,
      "Ġgrateful": 1717,
      "Ġgif": 1718,
      "Ġsuch": 1719,
      "Ġbigger": 1720,
      "ze": 1721,
      "Ġtrain": 1722,
      "ph": 1723,
      "fort": 1724,
      "Ġsnack": 1725,
      "Ġcho": 1726,
      "Ġreach": 1727,
      "Ġblank": 1728,
      "ĠAll": 1729,
      "Ġmonster": 1730,
      "Ġpro": 1731,
      "Ġplant": 1732,
      "Ġjoin": 1733,
      "Ġriver": 1734,
      "Ġblack": 1735,
      "less": 1736,
      "Ġwin": 1737,
      "Ġcandy": 1738,
      "ire": 1739,
      "Ġblanket": 1740,
      "Ġscream": 1741,
      "Ġtreasure": 1742,
      "Ġmagical": 1743,
      "ear": 1744,
      "Ġve": 1745,
      "Ġprincess": 1746,
      "Ġele": 1747,
      "Ġsmart": 1748,
      "Ġbike": 1749,
      "Ġdangerous": 1750,
      "Ġsign": 1751,
      "Ġdragon": 1752,
      "Ġacross": 1753,
      "Ġmonkey": 1754,
      "Sure": 1755,
      "Ġbar": 1756,
      "Ġeverywhere": 1757,
      "Ġmost": 1758,
      "ĠDaddy": 1759,
      "Ġhelping": 1760,
      "Ġnap": 1761,
      "Ġfarmer": 1762,
      "outh": 1763,
      "Ġem": 1764,
      "Ġmouth": 1765,
      "Why": 1766,
      "set": 1767,
      "Ġdisapp": 1768,
      "Ġwords": 1769,
      "Ġje": 1770,
      "ipped": 1771,
      "Ġstre": 1772,
      "ored": 1773,
      "Hi": 1774,
      "Ġtower": 1775,
      "ming": 1776,
      "eared": 1777,
      "Ġthrew": 1778,
      "Ġstepped": 1779,
      "Ġheavy": 1780,
      "Ġdolls": 1781,
      "Ġpass": 1782,
      "Ġbite": 1783,
      "de": 1784,
      "Ġbowl": 1785,
      "Ġdirty": 1786,
      "Ġtwins": 1787,
      "Ġsame": 1788,
      "Ġcrying": 1789,
      "Ġbee": 1790,
      "Ġspr": 1791,
      "ere": 1792,
      "Ġdoctor": 1793,
      "ident": 1794,
      "ĠMolly": 1795,
      "Ġacc": 1796,
      "Ġbelieve": 1797,
      "Ġwouldn": 1798,
      "Ġbath": 1799,
      "Ġheal": 1800,
      "ĠFl": 1801,
      "chool": 1802,
      "Ġhig": 1803,
      "bble": 1804,
      "Ġclosed": 1805,
      "Ġcarrot": 1806,
      "Ġheart": 1807,
      "Mia": 1808,
      "Ġstuck": 1809,
      "cked": 1810,
      "Ġcour": 1811,
      "Ġfruit": 1812,
      "Ġbuck": 1813,
      "Ġmin": 1814,
      "Ġatt": 1815,
      "Ġteac": 1816,
      "Ġschool": 1817,
      "ĠMr": 1818,
      "Ġbrown": 1819,
      "Ġhoped": 1820,
      "ĠJill": 1821,
      "asket": 1822,
      "iting": 1823,
      "Ġsuddenly": 1824,
      "Ġbasket": 1825,
      "Ġfeels": 1826,
      "Ġmix": 1827,
      "Ġchair": 1828,
      "Ġeating": 1829,
      "Ġtown": 1830,
      "Ġcourse": 1831,
      "Ġcray": 1832,
      "Ġclapped": 1833,
      "Ġcoll": 1834,
      "Ġgentle": 1835,
      "Ġfairy": 1836,
      "pping": 1837,
      "Ġbutt": 1838,
      "Ġpack": 1839,
      "ventually": 1840,
      "Ġstand": 1841,
      "ier": 1842,
      "Ġdrove": 1843,
      "ors": 1844,
      "Ġpushed": 1845,
      "br": 1846,
      "issed": 1847,
      "Ġwelcome": 1848,
      "ts": 1849,
      "Ġswings": 1850,
      "Ġwithout": 1851,
      "Ġhigher": 1852,
      "Ġtoday": 1853,
      "Ġneigh": 1854,
      "Ġpocket": 1855,
      "orrow": 1856,
      "Ġhit": 1857,
      "Ġteacher": 1858,
      "Ġneighb": 1859,
      "Ġpers": 1860,
      "ord": 1861,
      "Ġsmo": 1862,
      "Ġgames": 1863,
      "ourn": 1864,
      "Ġpiece": 1865,
      "ract": 1866,
      "Ġcheered": 1867,
      "Ġwings": 1868,
      "Ġforget": 1869,
      "Ġben": 1870,
      "Ġexplained": 1871,
      "Ġjourn": 1872,
      "Ġyard": 1873,
      "Ġlonger": 1874,
      "Ġfree": 1875,
      "Finally": 1876,
      "ible": 1877,
      "Ġcorn": 1878,
      "Ġaccident": 1879,
      "ho": 1880,
      "ead": 1881,
      "Ġdry": 1882,
      "Ġalong": 1883,
      "umb": 1884,
      "ĠMary": 1885,
      "ment": 1886,
      "cy": 1887,
      "Ġnoises": 1888,
      "itting": 1889,
      "Ġneck": 1890,
      "Ġsang": 1891,
      "Ġinst": 1892,
      "Ġlate": 1893,
      "Ġhappen": 1894,
      "Ġthrow": 1895,
      "Ġhugs": 1896,
      "Lila": 1897,
      "Ġyoung": 1898,
      "Ġturns": 1899,
      "Ġstories": 1900,
      "vel": 1901,
      "Ġshoes": 1902,
      "phant": 1903,
      "Ġlon": 1904,
      "Ġmiss": 1905,
      "Ġadventures": 1906,
      "Ġsinging": 1907,
      "Ġtrou": 1908,
      "Ġwell": 1909,
      "Ġsea": 1910,
      "Ġlunch": 1911,
      "Ġapple": 1912,
      "Ġupset": 1913,
      "Ġlonely": 1914,
      "Ġkey": 1915,
      "ches": 1916,
      "Ġbelong": 1917,
      "bby": 1918,
      "oun": 1919,
      "Ġdist": 1920,
      "Ġsecret": 1921,
      "Ġstreet": 1922,
      "Ġplac": 1923,
      "Ġelephant": 1924,
      "Ġtom": 1925,
      "Ġwish": 1926,
      "Ġfence": 1927,
      "Ġmine": 1928,
      "ountain": 1929,
      "Ġmat": 1930,
      "ek": 1931,
      "Ġshap": 1932,
      "Ġshook": 1933,
      "Ġexploring": 1934,
      "Ġmoved": 1935,
      "Ġpurp": 1936,
      "Ġyear": 1937,
      "aughty": 1938,
      "Ġnearby": 1939,
      "Ġnaughty": 1940,
      "Ġstar": 1941,
      "Ġsoup": 1942,
      "Ġshop": 1943,
      "Ġwise": 1944,
      "ĠGrandma": 1945,
      "Ġstars": 1946,
      "Ġowl": 1947,
      "Ġbring": 1948,
      "fused": 1949,
      "Ġjar": 1950,
      "bow": 1951,
      "Do": 1952,
      "ocked": 1953,
      "Ġinv": 1954,
      "Ġexp": 1955,
      "Ġwhe": 1956,
      "yard": 1957,
      "Ġcaught": 1958,
      "Ġsu": 1959,
      "ward": 1960,
      "Ġbackyard": 1961,
      "Ġseemed": 1962,
      "ail": 1963,
      "Ġes": 1964,
      "Ġrelie": 1965,
      "Ġdropped": 1966,
      "Ġph": 1967,
      "Ġrocks": 1968,
      "ĠEmma": 1969,
      "aughter": 1970,
      "llo": 1971,
      "Ġ3": 1972,
      "ush": 1973,
      "Ġdrink": 1974,
      "Ġbucket": 1975,
      "Ġdes": 1976,
      "Ġca": 1977,
      "adow": 1978,
      "ces": 1979,
      "Ġpurple": 1980,
      "Ġswam": 1981,
      "Ġfarm": 1982,
      "Ġresp": 1983,
      "Ġtaking": 1984,
      "Ġmail": 1985,
      "Ġorange": 1986,
      "Ġthough": 1987,
      "ions": 1988,
      "And": 1989,
      "Ġshapes": 1990,
      "Ġpast": 1991,
      "col": 1992,
      "Ġcow": 1993,
      "Ġstu": 1994,
      "ĠThank": 1995,
      "Ġwoke": 1996,
      "Ġbench": 1997,
      "Ġsounds": 1998,
      "Ġaf": 1999,
      "ung": 2000,
      "ity": 2001,
      "sy": 2002,
      "Ġwondered": 2003,
      "Ġbusy": 2004,
      "Ġfit": 2005,
      "Ġtiny": 2006,
      "Ġob": 2007,
      "Ġnose": 2008,
      "Ġsitting": 2009,
      "Ġnest": 2010,
      "Ġrainbow": 2011,
      "ese": 2012,
      "Ġdaughter": 2013,
      "Ġtakes": 2014,
      "Ġmark": 2015,
      "Ġmad": 2016,
      "fish": 2017,
      "Ġcou": 2018,
      "Ġkite": 2019,
      "to": 2020,
      "ĠO": 2021,
      "read": 2022,
      "Ġholding": 2023,
      "weet": 2024,
      "Ġnothing": 2025,
      "Ġcomes": 2026,
      "Ġjuice": 2027,
      "Ġarms": 2028,
      "thday": 2029,
      "Ġpig": 2030,
      "Ġcoat": 2031,
      "og": 2032,
      "ĠFluffy": 2033,
      "ining": 2034,
      "Ġcir": 2035,
      "ĠInside": 2036,
      "Ġbranch": 2037,
      "raid": 2038,
      "Ġrelieved": 2039,
      "pper": 2040,
      "Ġafraid": 2041,
      "cing": 2042,
      "ose": 2043,
      "idge": 2044,
      "Ġdriver": 2045,
      "Ġmil": 2046,
      "Ġforever": 2047,
      "vered": 2048,
      "Ġspoon": 2049,
      "Ġcute": 2050,
      "Ġcarry": 2051,
      "Ġgift": 2052,
      "Ġsick": 2053,
      "Ġboun": 2054,
      "Ġlift": 2055,
      "sting": 2056,
      "Ġpeace": 2057,
      "Of": 2058,
      "Ġpromise": 2059,
      "ours": 2060,
      "ĠFinally": 2061,
      "Ġhuge": 2062,
      "Ġact": 2063,
      "Ġtou": 2064,
      "Ġtouched": 2065,
      "Ġpatient": 2066,
      "unt": 2067,
      "Ġking": 2068,
      "Ġround": 2069,
      "cer": 2070,
      "sc": 2071,
      "Ġhello": 2072,
      "ĠCome": 2073,
      "Ġbirthday": 2074,
      "Ġfing": 2075,
      "Ġletter": 2076,
      "Ġgrab": 2077,
      "Ġintere": 2078,
      "Ġexciting": 2079,
      "let": 2080,
      "Ġsunny": 2081,
      "Ġcheese": 2082,
      "eth": 2083,
      "Ġonto": 2084,
      "Ġlaughing": 2085,
      "Ġdays": 2086,
      "board": 2087,
      "Ġjourney": 2088,
      "Ġgigg": 2089,
      "Ġband": 2090,
      "Ġcreature": 2091,
      "Ġdisco": 2092,
      "ĠMama": 2093,
      "ittens": 2094,
      "Ġbread": 2095,
      "Hey": 2096,
      "arp": 2097,
      "Ġret": 2098,
      "Ġimag": 2099,
      "ped": 2100,
      "shine": 2101,
      "Ġlife": 2102,
      "Ġkick": 2103,
      "Ġbush": 2104,
      "gged": 2105,
      "Ġhope": 2106,
      "Ġpower": 2107,
      "Ġcraw": 2108,
      "Ġshell": 2109,
      "Ġcozy": 2110,
      "Ġswimming": 2111,
      "Tommy": 2112,
      "Ġinc": 2113,
      "Ġbottle": 2114,
      "Ġmist": 2115,
      "Ġsharp": 2116,
      "Ġwra": 2117,
      "gg": 2118,
      "Ġsuc": 2119,
      "Ġcomfort": 2120,
      "Ġinstead": 2121,
      "Ġwhist": 2122,
      "Ġmilk": 2123,
      "Ġwatching": 2124,
      "Ġreturn": 2125,
      "Ġear": 2126,
      "ness": 2127,
      "Ġspin": 2128,
      "alm": 2129,
      "Ġaccidentally": 2130,
      "Ġeas": 2131,
      "Ġsunshine": 2132,
      "ten": 2133,
      "ĠSoon": 2134,
      "Ġcave": 2135,
      "pa": 2136,
      "ĠSammy": 2137,
      "Ġspo": 2138,
      "Ġputs": 2139,
      "Ġlucky": 2140,
      "Ġtalked": 2141,
      "Ġhoney": 2142,
      "Ġpudd": 2143,
      "Ġpointed": 2144,
      "Ġgives": 2145,
      "Ġcollect": 2146,
      "Ġgather": 2147,
      "itch": 2148,
      "Ġroad": 2149,
      "Ġent": 2150,
      "Later": 2151,
      "Ġsmiling": 2152,
      "Ġbought": 2153,
      "Ġanyone": 2154,
      "Ġhor": 2155,
      "Ġsearched": 2156,
      "Ġlater": 2157,
      "Ġce": 2158,
      "Ġfan": 2159,
      "Ġsandw": 2160,
      "ball": 2161,
      "round": 2162,
      "itten": 2163,
      "Ġapples": 2164,
      "els": 2165,
      "blem": 2166,
      "irt": 2167,
      "Ġproblem": 2168,
      "Ġmeet": 2169,
      "ize": 2170,
      "Bob": 2171,
      "Ġmach": 2172,
      "Lucy": 2173,
      "Ġwom": 2174,
      "Ġloves": 2175,
      "Ġinteresting": 2176,
      "Good": 2177,
      "ÅĵI": 2178,
      "Ġwoman": 2179,
      "Ġplane": 2180,
      "ĠTweet": 2181,
      "Ġkiss": 2182,
      "Ġpres": 2183,
      "Ġhealthy": 2184,
      "eb": 2185,
      "Ġpile": 2186,
      "Ġtasty": 2187,
      "Ġducks": 2188,
      "ub": 2189,
      "Ġvill": 2190,
      "ĠJimmy": 2191,
      "ove": 2192,
      "Ġwide": 2193,
      "ont": 2194,
      "amed": 2195,
      "aur": 2196,
      "Ġadm": 2197,
      "Ġeag": 2198,
      "Ġspid": 2199,
      "Ġclever": 2200,
      "Ġcrayons": 2201,
      "Ġprot": 2202,
      "Ġmatter": 2203,
      "Ġtrouble": 2204,
      "erly": 2205,
      "ndpa": 2206,
      "Ġzoom": 2207,
      "Ġclouds": 2208,
      "owed": 2209,
      "ĠWith": 2210,
      "Ġstorm": 2211,
      "Ġperson": 2212,
      "Ġpath": 2213,
      "cks": 2214,
      "Ġpill": 2215,
      "Ġfeather": 2216,
      "Ġrope": 2217,
      "Ġpop": 2218,
      "Ġshining": 2219,
      "Ġprotect": 2220,
      "Ġsmelled": 2221,
      "Ġfront": 2222,
      "Ġhon": 2223,
      "Ġbutton": 2224,
      "Ġpract": 2225,
      "Ġspotted": 2226,
      "Ġscreamed": 2227,
      "Ġzoo": 2228,
      "Ġminut": 2229,
      "ĠEll": 2230,
      "Ġpresent": 2231,
      "Come": 2232,
      "Ġap": 2233,
      "Ġmud": 2234,
      "Ġval": 2235,
      "Ġrespect": 2236,
      "Ġsaf": 2237,
      "Ġdanced": 2238,
      "Ġcheer": 2239,
      "Ġorgan": 2240,
      "Jim": 2241,
      "Ġpar": 2242,
      "Ġquest": 2243,
      "ond": 2244,
      "Ġappeared": 2245,
      "Ġwhich": 2246,
      "Ġpuzz": 2247,
      "Ġseat": 2248,
      "Molly": 2249,
      "Ġteach": 2250,
      "Ġmyster": 2251,
      "Ġsnowman": 2252,
      "Just": 2253,
      "isa": 2254,
      "Ġsnake": 2255,
      "Ġthin": 2256,
      "ert": 2257,
      "ale": 2258,
      "Ġwild": 2259,
      "Ġasleep": 2260,
      "Ġlovely": 2261,
      "Ġsur": 2262,
      "Ġanswer": 2263,
      "epend": 2264,
      "Ġwearing": 2265,
      "Ġgently": 2266,
      "Ġneighbor": 2267,
      "oose": 2268,
      "Mum": 2269,
      "Ġbark": 2270,
      "Ġhorse": 2271,
      "Ġgiant": 2272,
      "Ġplaces": 2273,
      "Ġgoes": 2274,
      "Ġwhole": 2275,
      "ometimes": 2276,
      "Ġsearch": 2277,
      "Ġsplas": 2278,
      "Every": 2279,
      "St": 2280,
      "Ġcorner": 2281,
      "Ġimpress": 2282,
      "ular": 2283,
      "Ġdirt": 2284,
      "Ġmed": 2285,
      "Ġshr": 2286,
      "een": 2287,
      "Ġtries": 2288,
      "Ġtrip": 2289,
      "Ġconfused": 2290,
      "ĠEmily": 2291,
      "Ġlive": 2292,
      "Ġmind": 2293,
      "Ġdi": 2294,
      "ato": 2295,
      "la": 2296,
      "Ġrolled": 2297,
      "Ġcard": 2298,
      "Ġslid": 2299,
      "Ġtasted": 2300,
      "nic": 2301,
      "cean": 2302,
      "Ġash": 2303,
      "Ġocean": 2304,
      "In": 2305,
      "Ġsupp": 2306,
      "Ġforgive": 2307,
      "Ġpicnic": 2308,
      "Ġrude": 2309,
      "Ġmachine": 2310,
      "ex": 2311,
      "Ġspent": 2312,
      "ĠGo": 2313,
      "Ġdrive": 2314,
      "Ġteeth": 2315,
      "Ġser": 2316,
      "ssed": 2317,
      "itty": 2318,
      "Ġphone": 2319,
      "ĠHow": 2320,
      "Ġoven": 2321,
      "Ġpan": 2322,
      "Ġpour": 2323,
      "Ġlast": 2324,
      "Ġcalm": 2325,
      "Ġpretended": 2326,
      "Ġdelight": 2327,
      "Ġcookie": 2328,
      "Ġfurry": 2329,
      "Ġspider": 2330,
      "izz": 2331,
      "Ġfeet": 2332,
      "Ġfaces": 2333,
      "unk": 2334,
      "Ġlay": 2335,
      "Ġworm": 2336,
      "Ġring": 2337,
      "ĠCh": 2338,
      "Ġrec": 2339,
      "umber": 2340,
      "Ġhelpful": 2341,
      "Ġlad": 2342,
      "ĠMittens": 2343,
      "Ġeventually": 2344,
      "Ġwip": 2345,
      "Ġchick": 2346,
      "Ġwave": 2347,
      "Ġmountain": 2348,
      "Ġsal": 2349,
      "Ġban": 2350,
      "Ġemb": 2351,
      "Ġtalking": 2352,
      "ones": 2353,
      "Ġrob": 2354,
      "Ġfold": 2355,
      "Ġshy": 2356,
      "Ġcart": 2357,
      "Ġtomorrow": 2358,
      "Ġsel": 2359,
      "Ġchocol": 2360,
      "Ġtid": 2361,
      "ĠJenny": 2362,
      "Ġspread": 2363,
      "Ġvillage": 2364,
      "arge": 2365,
      "ife": 2366,
      "Ġremind": 2367,
      "Ġign": 2368,
      "Ġbubble": 2369,
      "Ġtun": 2370,
      "Ġcoin": 2371,
      "Ġfoot": 2372,
      "Ġcouch": 2373,
      "Ġwrite": 2374,
      "Ġladder": 2375,
      "Ġbuilding": 2376,
      "Ġpush": 2377,
      "Ġfighting": 2378,
      "Ġsmooth": 2379,
      "Ġtreats": 2380,
      "hile": 2381,
      "Ġwore": 2382,
      "Ġchased": 2383,
      "Ġtool": 2384,
      "ighed": 2385,
      "Ġblew": 2386,
      "Ġstret": 2387,
      "lex": 2388,
      "My": 2389,
      "Soon": 2390,
      "arra": 2391,
      "Ġbugs": 2392,
      "Ġembarra": 2393,
      "Ġhiding": 2394,
      "Ġpool": 2395,
      "Ġcross": 2396,
      "Ġwaiting": 2397,
      "oph": 2398,
      "Ġknee": 2399,
      "Ġrobot": 2400,
      "Ġneckl": 2401,
      "Ġstep": 2402,
      "Ġpuddle": 2403,
      "mo": 2404,
      "Ġfinish": 2405,
      "Ġshelf": 2406,
      "Ġbell": 2407,
      "Ġcoo": 2408,
      "not": 2409,
      "als": 2410,
      "Ġsongs": 2411,
      "Ġstir": 2412,
      "ator": 2413,
      "Ġwhenever": 2414,
      "Ġselfish": 2415,
      "Ġant": 2416,
      "Ġmaybe": 2417,
      "Ġcannot": 2418,
      "Ġstring": 2419,
      "Ġstra": 2420,
      "Ġchocolate": 2421,
      "ult": 2422,
      "Ġsol": 2423,
      "Ġtaste": 2424,
      "Ġspe": 2425,
      "Ġrep": 2426,
      "Ġhum": 2427,
      "Ġple": 2428,
      "Ġlarge": 2429,
      "Mama": 2430,
      "Ġpaw": 2431,
      "Ġnet": 2432,
      "ĠJake": 2433,
      "box": 2434,
      "Ġsack": 2435,
      "Ġleaf": 2436,
      "Ġscar": 2437,
      "Ġfixed": 2438,
      "ĠSt": 2439,
      "lebr": 2440,
      "Ġbarked": 2441,
      "Ġtidy": 2442,
      "umpy": 2443,
      "Ġbanan": 2444,
      "Ġwash": 2445,
      "ĠEverywhere": 2446,
      "ĠSometimes": 2447,
      "Ġspray": 2448,
      "Ġstone": 2449,
      "old": 2450,
      "ĠJust": 2451,
      "hnn": 2452,
      "Ġcelebr": 2453,
      "Ġgen": 2454,
      "Ġcloth": 2455,
      "Please": 2456,
      "Ġcrab": 2457,
      "ĠLe": 2458,
      "Dad": 2459,
      "Ġpeaceful": 2460,
      "Ġcolour": 2461,
      "ungle": 2462,
      "ĠPlease": 2463,
      "hnny": 2464,
      "Ġhel": 2465,
      "ird": 2466,
      "oin": 2467,
      "lice": 2468,
      "Ġmissed": 2469,
      "Ġdeter": 2470,
      "Ġjungle": 2471,
      "Ġ'": 2472,
      "iger": 2473,
      "arm": 2474,
      "Now": 2475,
      "Ġlanded": 2476,
      "Ġdeterm": 2477,
      "Ġforward": 2478,
      "Ġembarrassed": 2479,
      "Ġnecklace": 2480,
      "Sarah": 2481,
      "Ġhonest": 2482,
      "Ġjumping": 2483,
      "airs": 2484,
      "elly": 2485,
      "Ġbat": 2486,
      "ĠTheir": 2487,
      "Ġdecor": 2488,
      "dge": 2489,
      "Ġtrust": 2490,
      "Ġhears": 2491,
      "Ġmoon": 2492,
      "orry": 2493,
      "Ġsticks": 2494,
      "ĠTV": 2495,
      "Ġshirt": 2496,
      "Ġcreative": 2497,
      "Ġsharing": 2498,
      "aking": 2499,
      "Ġtea": 2500,
      "most": 2501,
      "Ġknocked": 2502,
      "Ġcarrots": 2503,
      "Ġdisappoin": 2504,
      "Ġsuccess": 2505,
      "Ġmeadow": 2506,
      "ying": 2507,
      "getable": 2508,
      "Ġwhis": 2509,
      "Ġstood": 2510,
      "Ġgener": 2511,
      "Ġvegetable": 2512,
      "Ġbal": 2513,
      "ĠDon": 2514,
      "Ġmeant": 2515,
      "Ġlegs": 2516,
      "Ġtightly": 2517,
      "Ġbreath": 2518,
      "Ġplate": 2519,
      "Ġalmost": 2520,
      "Ġashamed": 2521,
      "ned": 2522,
      "Ġemp": 2523,
      "Ġsour": 2524,
      "Ġgray": 2525,
      "dle": 2526,
      "Ġgrew": 2527,
      "Ġtells": 2528,
      "Ġempty": 2529,
      "ĠSome": 2530,
      "Ġpillow": 2531,
      "ground": 2532,
      "ony": 2533,
      "Ġgas": 2534,
      "Ġsplash": 2535,
      "Ġwhistle": 2536,
      "ĠOn": 2537,
      "ian": 2538,
      "Ġunderstood": 2539,
      "Be": 2540,
      "Ġsheep": 2541,
      "Ġber": 2542,
      "Ġcarried": 2543,
      "den": 2544,
      "ĠLisa": 2545,
      "Ġyelled": 2546,
      "ĠWhy": 2547,
      "To": 2548,
      "Ġlem": 2549,
      "ĠTeddy": 2550,
      "ustr": 2551,
      "arl": 2552,
      "ĠAnn": 2553,
      "Ġnods": 2554,
      "erp": 2555,
      "vous": 2556,
      "Ġsave": 2557,
      "Ġpolice": 2558,
      "Ġdisappointed": 2559,
      "Ġsnacks": 2560,
      "Ġhours": 2561,
      "Ġnut": 2562,
      "ital": 2563,
      "Ġwhisp": 2564,
      "Ġjew": 2565,
      "Where": 2566,
      "Ġthese": 2567,
      "hin": 2568,
      "ork": 2569,
      "Ġhosp": 2570,
      "ets": 2571,
      "Ġsparkly": 2572,
      "Ġgold": 2573,
      "Ġhospital": 2574,
      "Ġkitten": 2575,
      "ĠEven": 2576,
      "ĠMum": 2577,
      "Ġship": 2578,
      "Ġpay": 2579,
      "ina": 2580,
      "obby": 2581,
      "ĠTogether": 2582,
      "Ġbored": 2583,
      "urse": 2584,
      "Ġline": 2585,
      "Ġgenerous": 2586,
      "Ġfrustr": 2587,
      "Ġtest": 2588,
      "Ġhidden": 2589,
      "Ġtaught": 2590,
      "Ġstanding": 2591,
      "Ġrad": 2592,
      "Ġscarf": 2593,
      "iff": 2594,
      "Ġchew": 2595,
      "Ġreturned": 2596,
      "Ġminutes": 2597,
      "Ġpizz": 2598,
      "Ġknowing": 2599,
      "Ġgroup": 2600,
      "Ġhur": 2601,
      "Ġplants": 2602,
      "Ġeasy": 2603,
      "Ġblow": 2604,
      "Ġbedroom": 2605,
      "Ġpolite": 2606,
      "Ġmysterious": 2607,
      "Ġwaves": 2608,
      "Ġglass": 2609,
      "Ġsighed": 2610,
      "Ġshore": 2611,
      "Ġpri": 2612,
      "Ġseed": 2613,
      "Ġwolf": 2614,
      "usie": 2615,
      "Ġseek": 2616,
      "Ġdetermined": 2617,
      "ĠPeter": 2618,
      "kin": 2619,
      "Stop": 2620,
      "Ġpuzzle": 2621,
      "Ġpowerful": 2622,
      "Ġthankful": 2623,
      "Jane": 2624,
      "fl": 2625,
      "Ġclass": 2626,
      "Ġner": 2627,
      "ĠBe": 2628,
      "Ġpir": 2629,
      "Ġsandwich": 2630,
      "Ġfig": 2631,
      "Ġsleepy": 2632,
      "Ġprince": 2633,
      "Ġpassed": 2634,
      "Ġdrew": 2635,
      "'d": 2636,
      "Ġfinger": 2637,
      "Ġjelly": 2638,
      "Ġpizza": 2639,
      "Ġnervous": 2640,
      "Ġfrustrated": 2641,
      "Ġspicy": 2642,
      "Ġgun": 2643,
      "Ġspoil": 2644,
      "Ġmatch": 2645,
      "Ġfancy": 2646,
      "Ġmessy": 2647,
      "osaur": 2648,
      "work": 2649,
      "Ġgate": 2650,
      "There": 2651,
      "Ġbridge": 2652,
      "Ġlock": 2653,
      "Ġkissed": 2654,
      "Ġtick": 2655,
      "aul": 2656,
      "Ġcloset": 2657,
      "Ġfear": 2658,
      "Ġreg": 2659,
      "af": 2660,
      "Ġfeed": 2661,
      "Ġmot": 2662,
      "Ġsold": 2663,
      "Ġwis": 2664,
      "Ġgathered": 2665,
      "oop": 2666,
      "Ġav": 2667,
      "Ġexcite": 2668,
      "Ġpoor": 2669,
      "Ġcirc": 2670,
      "ote": 2671,
      "Ġhang": 2672,
      "Ġcaterp": 2673,
      "Ġcaterpill": 2674,
      "Ġesc": 2675,
      "Ġflag": 2676,
      "Ġpin": 2677,
      "Ġgrumpy": 2678,
      "Ġvan": 2679,
      "iddle": 2680,
      "ella": 2681,
      "Ġdinosaur": 2682,
      "Ġyourself": 2683,
      "ano": 2684,
      "issors": 2685,
      "uce": 2686,
      "Ġanswered": 2687,
      "Ġcries": 2688,
      "Are": 2689,
      "Ġoften": 2690,
      "itter": 2691,
      "ĠZ": 2692,
      "Ġtwirl": 2693,
      "selves": 2694,
      "Ġchest": 2695,
      "sist": 2696,
      "Ġscissors": 2697,
      "Ġhopping": 2698,
      "Ġtears": 2699,
      "pack": 2700,
      "gly": 2701,
      "mb": 2702,
      "Sorry": 2703,
      "Ġmummy": 2704,
      "ĠRex": 2705,
      "Ġugly": 2706,
      "era": 2707,
      "Ġburn": 2708,
      "Ġcand": 2709,
      "ensive": 2710,
      "Ġdeer": 2711,
      "Ġdrop": 2712,
      "illed": 2713,
      "Ġfil": 2714,
      "Ġexcitement": 2715,
      "izzy": 2716,
      "Ġcaterpillar": 2717,
      "Ġlit": 2718,
      "Ġworking": 2719,
      "Ġmiddle": 2720,
      "Ġexpensive": 2721,
      "Ġscr": 2722,
      "Ġsaved": 2723,
      "Ġtaken": 2724,
      "ĠBr": 2725,
      "Ġok": 2726,
      "Ġtrue": 2727,
      "Ġwagged": 2728,
      "Ġones": 2729,
      "Ġpleased": 2730,
      "Ġcrown": 2731,
      "Ġspend": 2732,
      "Ġboring": 2733,
      "Ġpicks": 2734,
      "Ġleg": 2735,
      "que": 2736,
      "oof": 2737,
      "ugar": 2738,
      "Ġvase": 2739,
      "Ġtent": 2740,
      "Ġasking": 2741,
      "body": 2742,
      "Jimmy": 2743,
      "ual": 2744,
      "ĠBl": 2745,
      "Ġbrush": 2746,
      "Ġtie": 2747,
      "ates": 2748,
      "Ġvegetables": 2749,
      "ecially": 2750,
      "Ġgiggled": 2751,
      "Ġboss": 2752,
      "Who": 2753,
      "ete": 2754,
      "Their": 2755,
      "Ġmistake": 2756,
      "Ġcage": 2757,
      "ser": 2758,
      "Ġgets": 2759,
      "light": 2760,
      "Ġrocket": 2761,
      "Ġcap": 2762,
      "Ġmir": 2763,
      "ĠLeo": 2764,
      "Ġcomfortable": 2765,
      "Ġsugar": 2766,
      "Ġeld": 2767,
      "Ġstuff": 2768,
      "Ġpacked": 2769,
      "Sp": 2770,
      "ĠJohnny": 2771,
      "Ġdancing": 2772,
      "pecially": 2773,
      "Ġespecially": 2774,
      "Ġwander": 2775,
      "Ġclown": 2776,
      "Ġmedic": 2777,
      "Ġnumber": 2778,
      "Ġpress": 2779,
      "Ġsight": 2780,
      "Ġknight": 2781,
      "ushed": 2782,
      "ggs": 2783,
      "ots": 2784,
      "Ġfruits": 2785,
      "iness": 2786,
      "Ġeggs": 2787,
      "Ġlying": 2788,
      "Ġdrum": 2789,
      "Ġfake": 2790,
      "Ġdest": 2791,
      "ror": 2792,
      "Ġmedicine": 2793,
      "Ġwalks": 2794,
      "Ġdistance": 2795,
      "aged": 2796,
      "Ġglue": 2797,
      "Ġsplashed": 2798,
      "Ġsweetie": 2799,
      "Ġbake": 2800,
      "Ġflut": 2801,
      "Ġbone": 2802,
      "Ġdrawing": 2803,
      "Ġmoving": 2804,
      "Ġdisappeared": 2805,
      "ha": 2806,
      "Ġweek": 2807,
      "ĠOK": 2808,
      "Ġlead": 2809,
      "Ġsmelly": 2810,
      "Ġclap": 2811,
      "Ġbecome": 2812,
      "Ġlemon": 2813,
      "Ġchange": 2814,
      "Ġpray": 2815,
      "Ġfeathers": 2816,
      "Ġmoms": 2817,
      "Ġlose": 2818,
      "Ġmov": 2819,
      "Ġlicked": 2820,
      "Ġcalling": 2821,
      "ĠIf": 2822,
      "Ġtwist": 2823,
      "Ġdogs": 2824,
      "Ġbathroom": 2825,
      "Ġplayground": 2826,
      "ory": 2827,
      "yal": 2828,
      "Ġfis": 2829,
      "Me": 2830,
      "Ġlazy": 2831,
      "enny": 2832,
      "Sally": 2833,
      "Ġroar": 2834,
      "Ġelderly": 2835,
      "Ġweak": 2836,
      "Ġincred": 2837,
      "Ġcri": 2838,
      "Ġgar": 2839,
      "?\".": 2840,
      "Ġbody": 2841,
      "Ġhorn": 2842,
      "Ġexam": 2843,
      "Ġcrack": 2844,
      "Gra": 2845,
      "Joe": 2846,
      "Ġquestions": 2847,
      "Ġadd": 2848,
      "Ġwrote": 2849,
      "Billy": 2850,
      "Ġyog": 2851,
      "Ġyours": 2852,
      "Ġnoisy": 2853,
      "Ġfather": 2854,
      "Ġmirror": 2855,
      "uggest": 2856,
      "Ġmic": 2857,
      "Ġnod": 2858,
      "Ġsuggest": 2859,
      "elp": 2860,
      "ating": 2861,
      "eez": 2862,
      "Ġfluffy": 2863,
      "Ġskipped": 2864,
      "Ġed": 2865,
      "Ġwheel": 2866,
      "Ġeager": 2867,
      "Ġloyal": 2868,
      "Ġlamp": 2869,
      "Ġdish": 2870,
      "Ġext": 2871,
      "Ġclear": 2872,
      "Ġfamous": 2873,
      "land": 2874,
      "Ġdig": 2875,
      "Ġstones": 2876,
      "Ġruined": 2877,
      "ĠAt": 2878,
      "ination": 2879,
      "Ġrich": 2880,
      "Ġrare": 2881,
      "Ġord": 2882,
      "ĠEnd": 2883,
      "Ġtape": 2884,
      "Ġsell": 2885,
      "Ġdrank": 2886,
      "Ġcontent": 2887,
      "Ġfigure": 2888,
      "Ġqueen": 2889,
      "Ġmarch": 2890,
      "Ġincredible": 2891,
      "Ġglow": 2892,
      "Ġmap": 2893,
      "Ġshows": 2894,
      "hip": 2895,
      "Ġrid": 2896,
      "ti": 2897,
      "Ġcheck": 2898,
      "Ġjuicy": 2899,
      "Ġsoap": 2900,
      "Ġcovered": 2901,
      "Ġind": 2902,
      "Ġballs": 2903,
      "Ġsailed": 2904,
      "imp": 2905,
      "Ġrelax": 2906,
      "Ġaw": 2907,
      "Amy": 2908,
      "Ġshoot": 2909,
      "illi": 2910,
      "Ġteam": 2911,
      "ately": 2912,
      "Ġmeasure": 2913,
      "Ġdecide": 2914,
      "Ġrealised": 2915,
      "umbled": 2916,
      "Ġdiscovered": 2917,
      "Ġcoins": 2918,
      "Ġneeds": 2919,
      "Ġborrow": 2920,
      "Ġswan": 2921,
      "Ġstraw": 2922,
      "fic": 2923,
      "Ġadventur": 2924,
      "ĠBlue": 2925,
      "Jill": 2926,
      "cept": 2927,
      "ĠNo": 2928,
      "Help": 2929,
      "Ġcleaned": 2930,
      "Ġbranches": 2931,
      "Ġtowel": 2932,
      "Ġboys": 2933,
      "Ġextra": 2934,
      "Ġham": 2935,
      "ĠLittle": 2936,
      "asing": 2937,
      "Well": 2938,
      "Ġboard": 2939,
      "Ġchicken": 2940,
      "Ġbarn": 2941,
      "Ġmod": 2942,
      "Ġtiger": 2943,
      "Ġmotor": 2944,
      "Ġtag": 2945,
      "Ġadventurous": 2946,
      "Ġjoke": 2947,
      "Ġdiffic": 2948,
      "Ġoffered": 2949,
      "Ġfine": 2950,
      "keep": 2951,
      "Ġbalance": 2952,
      "Ġlifted": 2953,
      "ique": 2954,
      "Ġbubbles": 2955,
      "Ġcolourful": 2956,
      "Ġfrown": 2957,
      "Ġturt": 2958,
      "Ġeye": 2959,
      "Ġthick": 2960,
      "Mummy": 2961,
      "Ġdifficult": 2962,
      "Ġbottom": 2963,
      "Ġtrack": 2964,
      "Ġtoug": 2965,
      "alous": 2966,
      "Ġorganized": 2967,
      "Ġcover": 2968,
      "Ġhappening": 2969,
      "Ġunique": 2970,
      "rag": 2971,
      "Ġjealous": 2972,
      "Ġdolp": 2973,
      "Ġhose": 2974,
      "port": 2975,
      "Ġknife": 2976,
      "Ġweird": 2977,
      "Ġisland": 2978,
      "ĠSusie": 2979,
      "cil": 2980,
      "Ġgarage": 2981,
      "Ġfright": 2982,
      "Ġmanaged": 2983,
      "lla": 2984,
      "imed": 2985,
      "Ġhurts": 2986,
      "Ġpencil": 2987,
      "Ġword": 2988,
      "Sue": 2989,
      "ject": 2990,
      "Ġcrawled": 2991,
      "Ġcost": 2992,
      "Ġlearning": 2993,
      "Ġarg": 2994,
      "Spot": 2995,
      "Ġcircle": 2996,
      "ĠMark": 2997,
      "Ġsaying": 2998,
      "Ġkindness": 2999,
      "ured": 3000,
      "Ġberries": 3001,
      "Ġonce": 3002,
      "olog": 3003,
      "Ġmighty": 3004,
      "Ġballoons": 3005,
      "Ġtough": 3006,
      "Ġpointing": 3007,
      "Ġchase": 3008,
      "Ġbald": 3009,
      "Ġfavour": 3010,
      "ready": 3011,
      "Ġwand": 3012,
      "Ġter": 3013,
      "lies": 3014,
      "keeper": 3015,
      "Ġshake": 3016,
      "und": 3017,
      "iv": 3018,
      "ĠBobby": 3019,
      "Ġjewel": 3020,
      "Ġlouder": 3021,
      "ĠBrown": 3022,
      "ipper": 3023,
      "Ġadded": 3024,
      "ages": 3025,
      "Ġbatter": 3026,
      "Ġsil": 3027,
      "Ġhunt": 3028,
      "Ġunus": 3029,
      "Ġguit": 3030,
      "Ġharder": 3031,
      "Ġguess": 3032,
      "Ġapolog": 3033,
      "Ġedge": 3034,
      "head": 3035,
      "Ġalready": 3036,
      "Ġfour": 3037,
      "Ġang": 3038,
      "Ġspun": 3039,
      "Ġfavourite": 3040,
      "Ġfool": 3041,
      "Ġnorm": 3042,
      "Ġwhale": 3043,
      "How": 3044,
      "Ġunusual": 3045,
      "Ġlibr": 3046,
      "Ġvalu": 3047,
      "ipp": 3048,
      "rage": 3049,
      "alk": 3050,
      "Ġenjoying": 3051,
      "ĠKitty": 3052,
      "Ġdizzy": 3053,
      "aw": 3054,
      "Ġhats": 3055,
      "Ġpump": 3056,
      "Ġbelonged": 3057,
      "Ġgrace": 3058,
      "Ġwrapped": 3059,
      "Ġcheerful": 3060,
      "Ġsmoke": 3061,
      "uggled": 3062,
      "Ġimpressed": 3063,
      "Ġstrawber": 3064,
      "Ġtrucks": 3065,
      "Ġrecord": 3066,
      "Ġgiving": 3067,
      "Ġsword": 3068,
      "Ġmarket": 3069,
      "Ġgrown": 3070,
      "Ġref": 3071,
      "Ġlaughs": 3072,
      "Ġtrunk": 3073,
      "Ġnormal": 3074,
      "anged": 3075,
      "Ġgrand": 3076,
      "Ġhero": 3077,
      "Ġears": 3078,
      "Ġguitar": 3079,
      "Ġloudly": 3080,
      "ola": 3081,
      "illiant": 3082,
      "Ġharm": 3083,
      "Ġturtle": 3084,
      "Here": 3085,
      "Ġbanana": 3086,
      "Ġproudly": 3087,
      "Ġboxes": 3088,
      "Ġscare": 3089,
      "ature": 3090,
      "ilt": 3091,
      "Ġbrilliant": 3092,
      "ery": 3093,
      "Ġchoose": 3094,
      "Ġbrothers": 3095,
      "Ġcircles": 3096,
      "Ġterri": 3097,
      "Ġbossy": 3098,
      "Ġdreamed": 3099,
      "Ġagainst": 3100,
      "Ġescape": 3101,
      "ym": 3102,
      "Ġgoat": 3103,
      "Ġinvited": 3104,
      "Ġskin": 3105,
      "Ġcab": 3106,
      "Ġhelps": 3107,
      "gy": 3108,
      "cient": 3109,
      "Ġcompet": 3110,
      "Ġpil": 3111,
      "ipe": 3112,
      "Ġpainting": 3113,
      "Ġmeans": 3114,
      "Ġmelt": 3115,
      "Ġfrightened": 3116,
      "Ġaccept": 3117,
      "fast": 3118,
      "Ġpee": 3119,
      "Ġflash": 3120,
      "Ġsafely": 3121,
      "Ġdepend": 3122,
      "Ġbuttons": 3123,
      "Ġslipped": 3124,
      "Ġdesign": 3125,
      "Ġstubb": 3126,
      "Ġbirdie": 3127,
      "Ġjack": 3128,
      "ĠDan": 3129,
      "Ġwrap": 3130,
      "Ġvaluable": 3131,
      "Ġcabin": 3132,
      "Ġcrayon": 3133,
      "ĠEllie": 3134,
      "Ġwake": 3135,
      "Ġstream": 3136,
      "ĠFred": 3137,
      "Ġwalls": 3138,
      "Ġhappiness": 3139,
      "ouses": 3140,
      "Ġbreakfast": 3141,
      "Ġlog": 3142,
      "erry": 3143,
      "Ġancient": 3144,
      "edient": 3145,
      "Ġstudy": 3146,
      "Ġsuccessful": 3147,
      "Ġclay": 3148,
      "emo": 3149,
      "orge": 3150,
      "Ġknows": 3151,
      "Ġfoolish": 3152,
      "Ġtoast": 3153,
      "Ġfalls": 3154,
      "ye": 3155,
      "Ġfridge": 3156,
      "Ġlean": 3157,
      "Ġstubborn": 3158,
      "Ġunl": 3159,
      "Ġnicely": 3160,
      "atch": 3161,
      "Ġshape": 3162,
      "apping": 3163,
      "omed": 3164,
      "Ġfier": 3165,
      "Ġcudd": 3166,
      "ĠPete": 3167,
      "Ġrough": 3168,
      "Ġdreams": 3169,
      "Ġmovie": 3170,
      "Ġspace": 3171,
      "Ġhouses": 3172,
      "Ġcity": 3173,
      "Ġnosy": 3174,
      "Ġbloom": 3175,
      "Ġdelicate": 3176,
      "Ġobedient": 3177,
      "Ġfierce": 3178,
      "ĠMy": 3179,
      "Ġoffice": 3180,
      "Ġtomato": 3181,
      "Ġfat": 3182,
      "Ġgrandpa": 3183,
      "ado": 3184,
      "laimed": 3185,
      "az": 3186,
      "Ġicy": 3187,
      "Ġcompetit": 3188,
      "Ġsuggested": 3189,
      "ĠToday": 3190,
      "Ġshark": 3191,
      "Ġdead": 3192,
      "Ġnotice": 3193,
      "Ġwagon": 3194,
      "pes": 3195,
      "Ġexclaimed": 3196,
      "Ġmem": 3197,
      "Ġkinds": 3198,
      "Ġmixed": 3199,
      "Ġwiped": 3200,
      "Ġcher": 3201,
      "Ġuseful": 3202,
      "ext": 3203,
      "Ġpoured": 3204,
      "Ġshells": 3205,
      "uth": 3206,
      "ÅĵLet": 3207,
      "Ġstri": 3208,
      "ĠBobo": 3209,
      "Ġlights": 3210,
      "Ġtools": 3211,
      "Ġlocked": 3212,
      "Ġsounded": 3213,
      "Ġthu": 3214,
      "Ġstove": 3215,
      "Ġexcitedly": 3216,
      "Ġexplored": 3217,
      "Ġaunt": 3218,
      "wards": 3219,
      "Ġegg": 3220,
      "ĠRose": 3221,
      "Ġfrag": 3222,
      "eorge": 3223,
      "Ġrose": 3224,
      "!\".": 3225,
      "Ġson": 3226,
      "oppy": 3227,
      "Ġshadow": 3228,
      "Ġtimes": 3229,
      "arry": 3230,
      "Ġcro": 3231,
      "Ġenc": 3232,
      "ĠTweety": 3233,
      "Ġbags": 3234,
      "Ġfountain": 3235,
      "ention": 3236,
      "Ġthemselves": 3237,
      "oot": 3238,
      "Ġstumbled": 3239,
      "Ġbushes": 3240,
      "Ġweal": 3241,
      "ache": 3242,
      "dom": 3243,
      "Ġlow": 3244,
      "Ġshowing": 3245,
      "Ġspoiled": 3246,
      "Ġfingers": 3247,
      "Ġperform": 3248,
      "Ġlab": 3249,
      "Ġabove": 3250,
      "vice": 3251,
      "Ġthoughtful": 3252,
      "Ġresc": 3253,
      "Ġindepend": 3254,
      "kn": 3255,
      "Ġsmaller": 3256,
      "Ġwitch": 3257,
      "Ġdough": 3258,
      "Em": 3259,
      "Ġfragile": 3260,
      "na": 3261,
      "Ġdependable": 3262,
      "ray": 3263,
      "Ġraced": 3264,
      "Ġjog": 3265,
      "arth": 3266,
      "Ġplayful": 3267,
      "inal": 3268,
      "Ġseem": 3269,
      "Ġhelm": 3270,
      "Ġspinning": 3271,
      "Ġeng": 3272,
      "Ġtele": 3273,
      "corn": 3274,
      "Ġclock": 3275,
      "Ġbrightly": 3276,
      "ines": 3277,
      "Ġprint": 3278,
      "Ġrode": 3279,
      "Ġstretch": 3280,
      "Ġparrot": 3281,
      "ormous": 3282,
      "Ġdelighted": 3283,
      "Ġbuilt": 3284,
      "Ġadmired": 3285,
      "Ġenormous": 3286,
      "Ġlaw": 3287,
      "Ġkicked": 3288,
      "ĠU": 3289,
      "Ġroof": 3290,
      "Ġcounted": 3291,
      "Ġjam": 3292,
      "Ġswe": 3293,
      "Ġrat": 3294,
      "Ġpractice": 3295,
      "reen": 3296,
      "Ġorig": 3297,
      "Ġways": 3298,
      "Ġchanged": 3299,
      "Ġshone": 3300,
      "Ġsunfl": 3301,
      "Ġcop": 3302,
      "ĠElla": 3303,
      "Ġreminded": 3304,
      "Ġtwig": 3305,
      "Ġacorn": 3306,
      "ither": 3307,
      "Ġcam": 3308,
      "ience": 3309,
      "Ġsniff": 3310,
      "Ġzip": 3311,
      "eeze": 3312,
      "Ġhammer": 3313,
      "Ġindependent": 3314,
      "ĠYour": 3315,
      "Ġusing": 3316,
      "Ġbitter": 3317,
      "Ġhanded": 3318,
      "Ġwhispered": 3319,
      "Ġhoop": 3320,
      "mbre": 3321,
      "known": 3322,
      "Ġchose": 3323,
      "Ġchir": 3324,
      "anut": 3325,
      "Ġloll": 3326,
      "Ġjolly": 3327,
      "Ġumbre": 3328,
      "ĠMrs": 3329,
      "Ġcone": 3330,
      "Ġtunn": 3331,
      "Ġsolve": 3332,
      "Ġstronger": 3333,
      "Ġbees": 3334,
      "Ġserious": 3335,
      "ipop": 3336,
      "ĠMar": 3337,
      "Ġoriginal": 3338,
      "Ġtummy": 3339,
      "Ġsteal": 3340,
      "Ġbeak": 3341,
      "Ġbrace": 3342,
      "Ġterrible": 3343,
      "ÅĵYes": 3344,
      "Ġmis": 3345,
      "Ġpopcorn": 3346,
      "Ġfre": 3347,
      "Ġlollipop": 3348,
      "Ġpainted": 3349,
      "Ġboats": 3350,
      "Ġallowed": 3351,
      "Ġhairy": 3352,
      "ict": 3353,
      "Ġmoder": 3354,
      "iable": 3355,
      "Ġsauce": 3356,
      "Ġcleaning": 3357,
      "Ġunknown": 3358,
      "Ġleaving": 3359,
      "Ġdust": 3360,
      "ĠBella": 3361,
      "Ġgasped": 3362,
      "Ġfinding": 3363,
      "Ġjoined": 3364,
      "Ġguard": 3365,
      "Ġsalad": 3366,
      "Ġpotato": 3367,
      "het": 3368,
      "Ġbean": 3369,
      "Ġpumpkin": 3370,
      "See": 3371,
      "upid": 3372,
      "iew": 3373,
      "ĠBu": 3374,
      "Ġpicking": 3375,
      "Ġclum": 3376,
      "inary": 3377,
      "Ġdove": 3378,
      "anger": 3379,
      "Ġbump": 3380,
      "ĠNemo": 3381,
      "Ġhalf": 3382,
      "Ġsink": 3383,
      "amond": 3384,
      "Ġcostum": 3385,
      "uring": 3386,
      "Ġyet": 3387,
      "robe": 3388,
      "Ġmetal": 3389,
      "Ġtank": 3390,
      "Ġbounce": 3391,
      "Ġreliable": 3392,
      "Ġpost": 3393,
      "Ġtor": 3394,
      "Ġview": 3395,
      "Ġdoesn": 3396,
      "Ġthose": 3397,
      "Ġforth": 3398,
      "aghet": 3399,
      "aghetti": 3400,
      "Ġdiamond": 3401,
      "Ġdolphin": 3402,
      "Ġadvice": 3403,
      "com": 3404,
      "ĠSn": 3405,
      "Ġhay": 3406,
      "Ġbarber": 3407,
      "Ġmodern": 3408,
      "Ġstamp": 3409,
      "Ġrubb": 3410,
      "Ġthinking": 3411,
      "Ġgem": 3412,
      "Ġing": 3413,
      "Ġholds": 3414,
      "gu": 3415,
      "ebra": 3416,
      "ĠAlice": 3417,
      "Ġpirate": 3418,
      "ugged": 3419,
      "Ġmarble": 3420,
      "Ġcreate": 3421,
      "Ġregular": 3422,
      "redient": 3423,
      "Ġingredient": 3424,
      "ĠGrandpa": 3425,
      "Ġclumsy": 3426,
      "Ġsleeping": 3427,
      "Ġsearching": 3428,
      "Ġstairs": 3429,
      "Ġwealthy": 3430,
      "Ġyarn": 3431,
      "Ġrushed": 3432,
      "Ġstupid": 3433,
      "Ġprep": 3434,
      "ilty": 3435,
      "Ġtelling": 3436,
      "ĠWhenever": 3437,
      "Ġspaghetti": 3438,
      "Ġguilty": 3439,
      "Ġcheap": 3440,
      "Ġpeanut": 3441,
      "Ġgoose": 3442,
      "Ġchar": 3443,
      "ÅĵWhat": 3444,
      "ophie": 3445,
      "Ġrub": 3446,
      "Ġmagn": 3447,
      "ations": 3448,
      "Ġflex": 3449,
      "ĠFr": 3450,
      "Ġcompass": 3451,
      "Ġopens": 3452,
      "Ġmask": 3453,
      "Ġpatch": 3454,
      "Ġstat": 3455,
      "Ġarrow": 3456,
      "Ġzebra": 3457,
      "Ġengine": 3458,
      "io": 3459,
      "Ġthunder": 3460,
      "Ġknock": 3461,
      "Ġsquare": 3462,
      "illa": 3463,
      "eezed": 3464,
      "irsty": 3465,
      "Ġangel": 3466,
      "Ġcur": 3467,
      "Ġgraceful": 3468,
      "Ġcamera": 3469,
      "Ġumbrella": 3470,
      "cod": 3471,
      "Ġdriving": 3472,
      "ĠMike": 3473,
      "Ġbull": 3474,
      "Ġcrazy": 3475,
      "âĤ¬âĢ": 3476,
      "Ġshiver": 3477,
      "Go": 3478,
      "Ġwashed": 3479,
      "Ġcarrying": 3480,
      "Ġstage": 3481,
      "isk": 3482,
      "Ġpopular": 3483,
      "Ġbeet": 3484,
      "Ġdull": 3485,
      "umbers": 3486,
      "ÅĵIt": 3487,
      "Ġmissing": 3488,
      "ĠDucky": 3489,
      "Mary": 3490,
      "Ġsparkled": 3491,
      "Ġfriendship": 3492,
      "Ġtruth": 3493,
      "Ġmeal": 3494,
      "Ġseeds": 3495,
      "fa": 3496,
      "Ġflexible": 3497,
      "Ġimpressive": 3498,
      "Ġsne": 3499,
      "Ġtied": 3500,
      "Ġpebble": 3501,
      "time": 3502,
      "Ġcareless": 3503,
      "Ġlibrary": 3504,
      "Ġimagined": 3505,
      "Ġcomb": 3506,
      "uper": 3507,
      "Ġdeliver": 3508,
      "Ġnature": 3509,
      "Ġshel": 3510,
      "Ġending": 3511,
      "Ġpatter": 3512,
      "Ġdestro": 3513,
      "Ġjacket": 3514,
      "Ġpersist": 3515,
      "Ġreward": 3516,
      "Ġhandle": 3517,
      "ision": 3518,
      "Ġfresh": 3519,
      "Ġrubbed": 3520,
      "Ġingredients": 3521,
      "Ġdreaming": 3522,
      "Ġshocked": 3523,
      "ric": 3524,
      "Ġprize": 3525,
      "oomy": 3526,
      "ĠDave": 3527,
      "Ġsudden": 3528,
      "Ġcrocod": 3529,
      "Ġload": 3530,
      "Ġenth": 3531,
      "ief": 3532,
      "ibb": 3533,
      "Ġpige": 3534,
      "Ġpattern": 3535,
      "Ġcompassion": 3536,
      "Ġenvel": 3537,
      "Ġflashlight": 3538,
      "Ġthirsty": 3539,
      "Ġsadly": 3540,
      "Ġencou": 3541,
      "Ġstranger": 3542,
      "Ġenthus": 3543,
      "ince": 3544,
      "ĠFin": 3545,
      "Ġwheels": 3546,
      "Ġdesk": 3547,
      "ÅĵLetÃ¢": 3548,
      "ement": 3549,
      "arsh": 3550,
      "Ġreading": 3551,
      "Ġwire": 3552,
      "Ġdiscover": 3553,
      "Ġearly": 3554,
      "Ġmailbox": 3555,
      "Ġfork": 3556,
      "Ġsuit": 3557,
      "Ġnumbers": 3558,
      "Ġtem": 3559,
      "Ġpeeked": 3560,
      "Ġpenny": 3561,
      "Ġbutterflies": 3562,
      "awn": 3563,
      "Ġcryst": 3564,
      "Ġspilled": 3565,
      "Ġbracelet": 3566,
      "Ġtorn": 3567,
      "Ġrug": 3568,
      "Ġgum": 3569,
      "Ġstops": 3570,
      "loo": 3571,
      "Ġrece": 3572,
      "Ġenv": 3573,
      "Ġcomput": 3574,
      "Ġahead": 3575,
      "Ġspring": 3576,
      "bled": 3577,
      "Ġorder": 3578,
      "Ġtowers": 3579,
      "comfort": 3580,
      "Ġsorts": 3581,
      "Ġobject": 3582,
      "ellig": 3583,
      "Ġwing": 3584,
      "Ġbent": 3585,
      "Ġcere": 3586,
      "Ġanx": 3587,
      "Ġsurf": 3588,
      "ĠBear": 3589,
      "Ġpengu": 3590,
      "Ġearth": 3591,
      "Ġintellig": 3592,
      "Ġwarned": 3593,
      "Ġwindows": 3594,
      "ĠMummy": 3595,
      "Ġspoke": 3596,
      "Ġpow": 3597,
      "ĠWhile": 3598,
      "Ġpup": 3599,
      "gest": 3600,
      "Ġhumble": 3601,
      "Ġuncomfort": 3602,
      "Ġavo": 3603,
      "Ġpant": 3604,
      "Ġnote": 3605,
      "Ġuncomfortable": 3606,
      "ĠMandy": 3607,
      "Ġplaced": 3608,
      "Yay": 3609,
      "iches": 3610,
      "Ġsunflower": 3611,
      "Ow": 3612,
      "Ġpale": 3613,
      "Ġtravel": 3614,
      "Ġbadly": 3615,
      "Ġolder": 3616,
      "Ġslides": 3617,
      "Ġanxious": 3618,
      "ikes": 3619,
      "Ġbiggest": 3620,
      "Ġscale": 3621,
      "Ġcompl": 3622,
      "ĠcouldnÃ¢": 3623,
      "Ġstack": 3624,
      "Ġflute": 3625,
      "Ġtrap": 3626,
      "Ġstatue": 3627,
      "Ġscoot": 3628,
      "Ġcounting": 3629,
      "Ġgrowing": 3630,
      "Ġcooking": 3631,
      "ĠPe": 3632,
      "Ġcomplet": 3633,
      "Ġliz": 3634,
      "Ġtunnel": 3635,
      "Ġbeetle": 3636,
      "Ġcelebrate": 3637,
      "host": 3638,
      "Ġmel": 3639,
      "Ġcupboard": 3640,
      "Ġmush": 3641,
      "Ġsofa": 3642,
      "ĠKim": 3643,
      "Ġnail": 3644,
      "Ġharmless": 3645,
      "Ġscatter": 3646,
      "ĠBill": 3647,
      "Ġbeauty": 3648,
      "Ġmole": 3649,
      "Ġdeaf": 3650,
      "Ġvalue": 3651,
      "Ġnurse": 3652,
      "Ġsuper": 3653,
      "Ġperm": 3654,
      "Ġer": 3655,
      "ĠHere": 3656,
      "Ġshut": 3657,
      "Ġpersistent": 3658,
      "Ġjumps": 3659,
      "While": 3660,
      "Ġcrocodile": 3661,
      "Ġhung": 3662,
      "Ġghost": 3663,
      "Ġgifted": 3664,
      "Ġrefused": 3665,
      "Ġcharming": 3666,
      "Ġtrick": 3667,
      "ĠGive": 3668,
      "Ġneat": 3669,
      "Ġnames": 3670,
      "Ġcourage": 3671,
      "opus": 3672,
      "Ġyawn": 3673,
      "Ġflour": 3674,
      "ctopus": 3675,
      "Ġcrane": 3676,
      "Ġcurt": 3677,
      "Ġpretending": 3678,
      "cream": 3679,
      "Ġpony": 3680,
      "Ġcereal": 3681,
      "Ġbase": 3682,
      "Ġsandwiches": 3683,
      "ices": 3684,
      "ĠLola": 3685,
      "Ġraven": 3686,
      "Ġsnuggled": 3687,
      "ĠToby": 3688,
      "Ġcurtain": 3689,
      "Ġsupport": 3690,
      "Ġdestroy": 3691,
      "Ġtur": 3692,
      "Ġordinary": 3693,
      "Ġchasing": 3694,
      "ud": 3695,
      "Ġuniver": 3696,
      "aid": 3697,
      "ĠLook": 3698,
      "Ġquestion": 3699,
      "Ġenvelope": 3700,
      "aches": 3701,
      "Ġdrawer": 3702,
      "Ġtriang": 3703,
      "Ġvi": 3704,
      "Ġcamp": 3705,
      "Ġsett": 3706,
      "Daisy": 3707,
      "used": 3708,
      "Ġcomputer": 3709,
      "Ġoctopus": 3710,
      "Ġattract": 3711,
      "Ġrules": 3712,
      "Ġcrawl": 3713,
      "Ġlively": 3714,
      "Ġsend": 3715,
      "Ġgloomy": 3716,
      "Alice": 3717,
      "Ġcartoon": 3718,
      "aby": 3719,
      "Ġuncle": 3720,
      "Ġintelligent": 3721,
      "ips": 3722,
      "Ġmay": 3723,
      "Ġpiano": 3724,
      "Ġspeed": 3725,
      "Ġpackage": 3726,
      "Ġblueber": 3727,
      "Ġshaking": 3728,
      "cu": 3729,
      "Ġhelmet": 3730,
      "Ġcrystal": 3731,
      "Ġneedle": 3732,
      "Ġmushroom": 3733,
      "Ġturkey": 3734,
      "oe": 3735,
      "ĠEventually": 3736,
      "Ġcollar": 3737,
      "Ġparade": 3738,
      "Ġcreatures": 3739,
      "stri": 3740,
      "uddy": 3741,
      "heart": 3742,
      "ÅĵThat": 3743,
      "Re": 3744,
      "Ġhurry": 3745,
      "Ġtwirled": 3746,
      "Ġphot": 3747,
      "Ġlizard": 3748,
      "illie": 3749,
      "erable": 3750,
      "enry": 3751,
      "ubby": 3752,
      "aff": 3753,
      "orant": 3754,
      "Ġalert": 3755,
      "Ġmiserable": 3756,
      "Ġthief": 3757,
      "gust": 3758,
      "Ġstation": 3759,
      "Ġsoldier": 3760,
      "Ġhunter": 3761,
      "Ġpepper": 3762,
      "ceed": 3763,
      "Ġtask": 3764,
      "arlie": 3765,
      "Ġanywhere": 3766,
      "Ġdug": 3767,
      "Ġdisgust": 3768,
      "Ġbicy": 3769,
      "Ġfireman": 3770,
      "Ġener": 3771,
      "cut": 3772,
      "Ġcarp": 3773,
      "iest": 3774,
      "Ġwishes": 3775,
      "Ġseal": 3776,
      "Ġresist": 3777,
      "Ġled": 3778,
      "Ġvide": 3779,
      "Ġbeep": 3780,
      "Ġignorant": 3781,
      "Ġbandage": 3782,
      "Ġstickers": 3783,
      "coa": 3784,
      "Ġscreen": 3785,
      "Ġradio": 3786,
      "Ġhelpless": 3787,
      "Ġbounced": 3788,
      "tter": 3789,
      "Ġtrash": 3790,
      "Give": 3791,
      "Ġsecond": 3792,
      "Ġleash": 3793,
      "Ġrepe": 3794,
      "Ġpracticed": 3795,
      "Ġmuff": 3796,
      "Ġshine": 3797,
      "Ġchance": 3798,
      "Ġletters": 3799,
      "Ġattractive": 3800,
      "Ġimpat": 3801,
      "Ġmill": 3802,
      "Ġstirred": 3803,
      "Ġcricket": 3804,
      "Ġjeep": 3805,
      "Ġstretched": 3806,
      "Ġnobody": 3807,
      "urb": 3808,
      "Ġthread": 3809,
      "Ġpasta": 3810,
      "Ġcube": 3811,
      "Ġpand": 3812,
      "Ġchubby": 3813,
      "Ġtooth": 3814,
      "ummer": 3815,
      "Ġfu": 3816,
      "Ġpigeon": 3817,
      "ses": 3818,
      "If": 3819,
      "Ġjet": 3820,
      "Ġgir": 3821,
      "Ġcompassionate": 3822,
      "ccol": 3823,
      "ĠGeorge": 3824,
      "Benny": 3825,
      "Ġclub": 3826,
      "ĠCl": 3827,
      "ccoli": 3828,
      "arian": 3829,
      "ĠPolly": 3830,
      "Ġtrump": 3831,
      "Ġdisturb": 3832,
      "orable": 3833,
      "Ġdecorate": 3834,
      "Ġcocoa": 3835,
      "Ġbrighter": 3836,
      "Ġjug": 3837,
      "Ġsteps": 3838,
      "Ġimpatient": 3839,
      "Ġtire": 3840,
      "Ġcompetitive": 3841,
      "Ġfurther": 3842,
      "Ġotter": 3843,
      "Ġrespectful": 3844,
      "Ġsucceed": 3845,
      "Ġtroubled": 3846,
      "Ġpressed": 3847,
      "olin": 3848,
      "Ġitself": 3849,
      "aked": 3850,
      "Ġbet": 3851,
      "Ġostri": 3852,
      "noon": 3853,
      "Ġcandle": 3854,
      "Ġmug": 3855,
      "ĠWh": 3856,
      "Ġafternoon": 3857,
      "Ġattic": 3858,
      "ĠAl": 3859,
      "Ġrestless": 3860,
      "Ġstarts": 3861,
      "Ġpun": 3862,
      "Ġtap": 3863,
      "Ġsomewhere": 3864,
      "Ġribb": 3865,
      "ĠAre": 3866,
      "aurant": 3867,
      "stic": 3868,
      "Ġdess": 3869,
      "Ġquar": 3870,
      "Ġcarpet": 3871,
      "Ġanyway": 3872,
      "Ġshouts": 3873,
      "Ġshoe": 3874,
      "Ġdisgusting": 3875,
      "Ġadorable": 3876,
      "Ġrestaurant": 3877,
      "Ġskip": 3878,
      "Ġleop": 3879,
      "Ġfort": 3880,
      "gn": 3881,
      "Ġpants": 3882,
      "Ġvine": 3883,
      "Ġtray": 3884,
      "Ġnuts": 3885,
      "Ġwaff": 3886,
      "Ġcase": 3887,
      "come": 3888,
      "Ġgor": 3889,
      "Ġfearful": 3890,
      "Ġscrew": 3891,
      "Ġenvious": 3892,
      "Ġsweetheart": 3893,
      "opter": 3894,
      "Ġcards": 3895,
      "Ġallig": 3896,
      "icopter": 3897,
      "Little": 3898,
      "iastic": 3899,
      "Ġdistant": 3900,
      "Ġbroccoli": 3901,
      "Ġenthusiastic": 3902,
      "Ġhipp": 3903,
      "Ġfilthy": 3904,
      "ĠSh": 3905,
      "Ġgiggle": 3906,
      "Ġexper": 3907,
      "Ġtrumpet": 3908,
      "Ġcooked": 3909,
      "Ġhelicopter": 3910,
      "Ġmonkeys": 3911,
      "night": 3912,
      "Grandma": 3913,
      "Ġreco": 3914,
      "Ġpor": 3915,
      "ĠWhere": 3916,
      "irit": 3917,
      "Ġsandbox": 3918,
      "aroo": 3919,
      "angaroo": 3920,
      "Ġhook": 3921,
      "ĠWould": 3922,
      "gging": 3923,
      "Ġbri": 3924,
      "ĠLee": 3925,
      "Ġadmire": 3926,
      "Ġnowhere": 3927,
      "Ġten": 3928,
      "Ġharsh": 3929,
      "Ġbackpack": 3930,
      "Ġsoar": 3931,
      "ĠBrownie": 3932,
      "Ġsent": 3933,
      "Ġbelt": 3934,
      "Ġbatht": 3935,
      "gie": 3936,
      "Ġexplain": 3937,
      "Ġscooter": 3938,
      "Ġants": 3939,
      "llie": 3940,
      "Ġmeas": 3941,
      "opl": 3942,
      "Ġpoem": 3943,
      "eropl": 3944,
      "Ġcountry": 3945,
      "cycle": 3946,
      "Ġbathtub": 3947,
      "Ġpipe": 3948,
      "Ġaeropl": 3949,
      "Ġbarking": 3950,
      "Ġquite": 3951,
      "Ġunpack": 3952,
      "stairs": 3953,
      "Ġcows": 3954,
      "par": 3955,
      "Ġspeak": 3956,
      "Ġkangaroo": 3957,
      "Ġlid": 3958,
      "Ġsquash": 3959,
      "Ġleopard": 3960,
      "Ġmama": 3961,
      "Ġhappier": 3962,
      "Ġspell": 3963,
      "Ġtemp": 3964,
      "Ġrepair": 3965,
      "Ġlistening": 3966,
      "Ġbicycle": 3967,
      "Ġsepar": 3968,
      "imi": 3969,
      "ĠEverything": 3970,
      "Ġsummer": 3971,
      "Ġstared": 3972,
      "Ġcush": 3973,
      "Ġgrabs": 3974,
      "Ġmessage": 3975,
      "Ġbreat": 3976,
      "ĠdidnÃ¢": 3977,
      "uct": 3978,
      "Ġostrich": 3979,
      "Ġfirework": 3980,
      "ĠAlex": 3981,
      "Ġhuman": 3982,
      "Ġloop": 3983,
      "Ġgiven": 3984,
      "Ġcomet": 3985,
      "Ġmule": 3986,
      "hood": 3987,
      "apa": 3988,
      "Ġsort": 3989,
      "Ġimpro": 3990,
      "Jenny": 3991,
      "Ġgorilla": 3992,
      "ĠJoey": 3993,
      "Ġmodest": 3994,
      "Ġpaid": 3995,
      "Ġfinds": 3996,
      "year": 3997,
      "Ġyogurt": 3998,
      "Ġdessert": 3999,
      "Ġmeat": 4000,
      "Ġobser": 4001,
      "Ġviolin": 4002,
      "Ġur": 4003,
      "ĠSophie": 4004,
      "Bye": 4005,
      "Ġhedge": 4006,
      "ipping": 4007,
      "Ġspirit": 4008,
      "ĠSm": 4009,
      "Ġpulls": 4010,
      "Ġtripped": 4011,
      "shed": 4012,
      "Ġjellyfish": 4013,
      "Ġmelon": 4014,
      "Ġsplit": 4015,
      "Ġpaws": 4016,
      "Ġalligator": 4017,
      "Everyone": 4018,
      "Ġrescue": 4019,
      "Ġsize": 4020,
      "Ġholes": 4021,
      "Ġprov": 4022,
      "ucked": 4023,
      "Ġroared": 4024,
      "Ġfive": 4025,
      "Ġforgave": 4026,
      "ĠPat": 4027,
      "Ġcats": 4028,
      "Ġwheat": 4029,
      "Ġpurse": 4030,
      "Ġrecogn": 4031,
      "Ġhippo": 4032,
      "Ġpilot": 4033,
      "Ġhall": 4034,
      "Daddy": 4035,
      "Ġtax": 4036,
      "Ġsheet": 4037,
      "Ġpal": 4038,
      "Ġcact": 4039,
      "Ġinse": 4040,
      "Ġpushing": 4041,
      "ophone": 4042,
      "Ġbikes": 4043,
      "Ġorganize": 4044,
      "ci": 4045,
      "Ġswinging": 4046,
      "Ġsle": 4047,
      "Ġraft": 4048,
      "Ġsalt": 4049,
      "Ġscold": 4050,
      "Ġstarting": 4051,
      "Ġshade": 4052,
      "Ġbehave": 4053,
      "Ġbin": 4054,
      "Ġlightning": 4055,
      "Ġfle": 4056,
      "Ġoat": 4057,
      "Ġrice": 4058,
      "ĠSnow": 4059,
      "Ġhaircut": 4060,
      "Ġtriangle": 4061,
      "eer": 4062,
      "Ġbuzz": 4063,
      "Ġenergy": 4064,
      "iskers": 4065,
      "ĠTweetie": 4066,
      "ÅĵYou": 4067,
      "Ġbur": 4068,
      "Ġknot": 4069,
      "Ġfrowned": 4070,
      "bul": 4071,
      "Ġlear": 4072,
      "aled": 4073,
      "Ġlearnt": 4074,
      "Ġeither": 4075,
      "Ġporch": 4076,
      "Ġmath": 4077,
      "Ġriding": 4078,
      "Ġped": 4079,
      "Ġlip": 4080,
      "lcano": 4081,
      "seum": 4082,
      "Ġtrains": 4083,
      "ebook": 4084,
      "Ġended": 4085,
      "Ġnotebook": 4086,
      "Ġsticker": 4087,
      "iling": 4088,
      "inking": 4089,
      "Ġlend": 4090,
      "Ġwallet": 4091,
      "Ġluck": 4092,
      "Ġevening": 4093,
      "reci": 4094,
      "Ġpanda": 4095,
      "Ġcactus": 4096,
      "Ġjokes": 4097,
      "Ġchalk": 4098,
      "Ġbananas": 4099,
      "Ġpapers": 4100,
      "Ġrod": 4101,
      "Ġmuseum": 4102,
      "Ġsweater": 4103,
      "Ġappreci": 4104,
      "Ġlions": 4105,
      "Ġpalace": 4106,
      "Ġtaxi": 4107,
      "Ġvolcano": 4108,
      "ube": 4109,
      "Ġshopkeeper": 4110,
      "Ġchain": 4111,
      "Ġstrawberry": 4112,
      "Ġbears": 4113,
      "Ġrolling": 4114,
      "Ġboots": 4115,
      "Ġeras": 4116,
      "Ġhadn": 4117,
      "astic": 4118,
      "Ġneighbour": 4119,
      "Ġbarrel": 4120,
      "Ġshakes": 4121,
      "ffe": 4122,
      "Ġmicr": 4123,
      "icer": 4124,
      "ffee": 4125,
      "ooped": 4126,
      "Ġsilver": 4127,
      "urch": 4128,
      "Ġlaund": 4129,
      "Ġalive": 4130,
      "Ġsmells": 4131,
      "Ġmild": 4132,
      "play": 4133,
      "Ġreind": 4134,
      "Ġsock": 4135,
      "ĠRed": 4136,
      "ĠJerry": 4137,
      "Ġlaundry": 4138,
      "Ġsteak": 4139,
      "ĠAndy": 4140,
      "Ġavoc": 4141,
      "Ġink": 4142,
      "Ġpole": 4143,
      "Ġstrugg": 4144,
      "iron": 4145,
      "Ġpushes": 4146,
      "ĠTr": 4147,
      "Ġputting": 4148,
      "Ġvisited": 4149,
      "Ġgoal": 4150,
      "Ġsoftly": 4151,
      "Ġmagnet": 4152,
      "Ġjudge": 4153,
      "edy": 4154,
      "Ġtricks": 4155,
      "Ġdrawings": 4156,
      "Ġmicrophone": 4157,
      "Ġclapping": 4158,
      "Ġpad": 4159,
      "Ġol": 4160,
      "Ġhive": 4161,
      "Ġshield": 4162,
      "Ġtube": 4163,
      "Ġleaned": 4164,
      "Ġcolours": 4165,
      "Ġsailor": 4166,
      "Ġshovel": 4167,
      "Ġairport": 4168,
      "Ha": 4169,
      "Ġzoomed": 4170,
      "Ġfalling": 4171,
      "Ġrag": 4172,
      "Ġbelongs": 4173,
      "Ġshelter": 4174,
      "aggie": 4175,
      "Ġunlock": 4176,
      "Ġsprink": 4177,
      "Ġchecked": 4178,
      "elery": 4179,
      "happy": 4180,
      "Ġinsist": 4181,
      "Ġpenguin": 4182,
      "Ġquarrel": 4183,
      "Ġambul": 4184,
      "Ġclimbing": 4185,
      "Ġmarched": 4186,
      "ĠPaul": 4187,
      "Ġgro": 4188,
      "Ġdisplay": 4189,
      "Ġreindeer": 4190,
      "cast": 4191,
      "hino": 4192,
      "Ġsaus": 4193,
      "ĠBet": 4194,
      "ense": 4195,
      "Ġaeroplane": 4196,
      "Ġdive": 4197,
      "Ġdishes": 4198,
      "ophy": 4199,
      "Ġpolish": 4200,
      "Ġbarks": 4201,
      "ges": 4202,
      "Ġavail": 4203,
      "ĠdonÃ¢": 4204,
      "Ġfields": 4205,
      "Ġgrapes": 4206,
      "Ġsandcast": 4207,
      "Ġambulance": 4208,
      "Ġpeek": 4209,
      "ait": 4210,
      "Ġapologized": 4211,
      "Ġyach": 4212,
      "Ġsoil": 4213,
      "Ġcoffee": 4214,
      "Ġskill": 4215,
      "ĠPapa": 4216,
      "sely": 4217,
      "Ġcostume": 4218,
      "Ġelev": 4219,
      "Ġoy": 4220,
      "Ġtrophy": 4221,
      "Ġfeelings": 4222,
      "Ġplanet": 4223,
      "ĠOr": 4224,
      "Ġhoping": 4225,
      "anic": 4226,
      "Ġfilm": 4227,
      "Ġprun": 4228,
      "Ġart": 4229,
      "Ġrubber": 4230,
      "ron": 4231,
      "Ġunhappy": 4232,
      "Ġdrops": 4233,
      "Ġshrimp": 4234,
      "nger": 4235,
      "ĠBunny": 4236,
      "Ġmedal": 4237,
      "Ġkitty": 4238,
      "âĤ¬âĢľ": 4239,
      "Ġthanks": 4240,
      "Ġraining": 4241,
      "Ġmen": 4242,
      "chanic": 4243,
      "Ġstom": 4244,
      "Ġminute": 4245,
      "Ġelevator": 4246,
      "Ġcelery": 4247,
      "Ġcord": 4248,
      "Ġonion": 4249,
      "Ġrhino": 4250,
      "Ġavailable": 4251,
      "ected": 4252,
      "Ġeraser": 4253,
      "Ġincl": 4254,
      "Ġpage": 4255,
      "Ġshort": 4256,
      "Ġyacht": 4257,
      "reeze": 4258,
      "Ġshouldn": 4259,
      "Ġfisher": 4260,
      "Ġperfectly": 4261,
      "Ġimagine": 4262,
      "Ġwool": 4263,
      "Ġmarry": 4264,
      "Ġwinter": 4265,
      "Ġbasketball": 4266,
      "Ġmechanic": 4267,
      "ĠBuddy": 4268,
      "Ġdiary": 4269,
      "nam": 4270,
      "Ġbul": 4271,
      "Ġherb": 4272,
      "Ġflies": 4273,
      "Ġcomplete": 4274,
      "Ġrever": 4275,
      "Ġappl": 4276,
      "Ġclosely": 4277,
      "Ġcardboard": 4278,
      "Ġinsect": 4279,
      "Ġmagaz": 4280,
      "Ġeagerly": 4281,
      "Ġplayer": 4282,
      "ĠWhiskers": 4283,
      "eath": 4284,
      "Ġjournal": 4285,
      "ĠWill": 4286,
      "Ġbaking": 4287,
      "Ġvend": 4288,
      "Ġquit": 4289,
      "Ġfurn": 4290,
      "Ġglove": 4291,
      "iture": 4292,
      "ĠSmith": 4293,
      "Ġdisag": 4294,
      "Ġfurniture": 4295,
      "Ġstuffed": 4296,
      "Ġtub": 4297,
      "Ġbreaks": 4298,
      "Ġimagination": 4299,
      "Ġbulb": 4300,
      "Ġtreasures": 4301,
      "Ġchurch": 4302,
      "gen": 4303,
      "ecause": 4304,
      "Ġcounter": 4305,
      "any": 4306,
      "Ġwife": 4307,
      "Ġheaded": 4308,
      "Ġcooler": 4309,
      "azz": 4310,
      "Ġpair": 4311,
      "Ġfreez": 4312,
      "Ġfrogs": 4313,
      "Ġtut": 4314,
      "quit": 4315,
      "Ġskull": 4316,
      "mand": 4317,
      "ories": 4318,
      "Ġpit": 4319,
      "Ġknob": 4320,
      "ween": 4321,
      "Ġfactor": 4322,
      "stead": 4323,
      "right": 4324,
      "Ġswitch": 4325,
      "Ġfootball": 4326,
      "place": 4327,
      "Ġoffer": 4328,
      "ides": 4329,
      "Ġsunset": 4330,
      "Ġbetween": 4331,
      "Ġlie": 4332,
      "ifl": 4333,
      "aulifl": 4334,
      "Ġcheek": 4335,
      "Ch": 4336,
      "Ġsym": 4337,
      "Ġswung": 4338,
      "Ġfactory": 4339,
      "Ġcups": 4340,
      "ĠTed": 4341,
      "Ġmotorcycle": 4342,
      "Ġchirp": 4343,
      "Ġmos": 4344,
      "quito": 4345,
      "Ġflame": 4346,
      "Ġtwink": 4347,
      "Ġshouting": 4348,
      "..": 4349,
      "nament": 4350,
      "Ġpainter": 4351,
      "Ġgolf": 4352,
      "Ġpeach": 4353,
      "Ġornament": 4354,
      "kelet": 4355,
      "Ġblowing": 4356,
      "Ġhut": 4357,
      "Ġsung": 4358,
      "affe": 4359,
      "Ġhotel": 4360,
      "Ġseeing": 4361,
      "Ġcaulifl": 4362,
      "Ġfolder": 4363,
      "Ġvendor": 4364,
      "ccer": 4365,
      "ĠMimi": 4366,
      "lass": 4367,
      "Ġvideo": 4368,
      "Ġmixer": 4369,
      "pe": 4370,
      "ab": 4371,
      "izes": 4372,
      "bol": 4373,
      "Ġthrows": 4374,
      "Ġpirates": 4375,
      "Ġcreated": 4376,
      "orses": 4377,
      "Ġheads": 4378,
      "Ġoil": 4379,
      "Ġkay": 4380,
      "Ġframe": 4381,
      "Ġmosquito": 4382,
      "angu": 4383,
      "Ġcushion": 4384,
      "mm": 4385,
      "Ġsoccer": 4386,
      "ĠMaria": 4387,
      "Ġfisherman": 4388,
      "Ġcoal": 4389,
      "ĠBun": 4390,
      "zzy": 4391,
      "Ġsymbol": 4392,
      "Ġhorses": 4393,
      "Ġcable": 4394,
      "ceros": 4395,
      "Ġpopped": 4396,
      "Ġlangu": 4397,
      "Ġwipe": 4398,
      "Ġpine": 4399,
      "ĠBaby": 4400,
      "Ġattention": 4401,
      "Ġskelet": 4402,
      "Ġbattery": 4403,
      "Ġpowder": 4404,
      "Ġcauliflower": 4405,
      "Ġstud": 4406,
      "Ġlaser": 4407,
      "ef": 4408,
      "render": 4409,
      "Ġforgotten": 4410,
      "Ġweather": 4411,
      "ĠLilly": 4412,
      "rod": 4413,
      "Ġlives": 4414,
      "Ġmop": 4415,
      "osie": 4416,
      "Ġcelebrated": 4417,
      "Ġfishing": 4418,
      "Ġax": 4419,
      "Ġrot": 4420,
      "Ġsince": 4421,
      "Ġtrail": 4422,
      "ĠIÃ¢": 4423,
      "elcome": 4424,
      "Ġmaze": 4425,
      "aws": 4426,
      "Ġphoto": 4427,
      "ĠGod": 4428,
      "ites": 4429,
      "Ġyoga": 4430,
      "Ġsurround": 4431,
      "ĠRo": 4432,
      "Ġwaving": 4433,
      "ĠGrace": 4434,
      "Ġslept": 4435,
      "Ġsneak": 4436,
      "Ġanch": 4437,
      "Ġdear": 4438,
      "unately": 4439,
      "Ġgiraffe": 4440,
      "Ġintrod": 4441,
      "Ġrhinoceros": 4442,
      "Ġpoke": 4443,
      "Ġswamp": 4444,
      "Inside": 4445,
      "Ġflea": 4446,
      "Ġpoints": 4447,
      "Ġitch": 4448,
      "Ġpoint": 4449,
      "Ġglowing": 4450,
      "ĠitÃ¢": 4451,
      "Ġfireplace": 4452,
      "Ġbreeze": 4453,
      "ney": 4454,
      "lasses": 4455,
      "Your": 4456,
      "Ġsub": 4457,
      "Ġvet": 4458,
      "Ġsunglasses": 4459,
      "Ġkingdom": 4460,
      "ĠAnnie": 4461,
      "Ġmemories": 4462,
      "ĠCharlie": 4463,
      "Ġtutor": 4464,
      "Ġstreng": 4465,
      "Ġtuna": 4466,
      "Ġiron": 4467,
      "Ġreve": 4468,
      "Ġvest": 4469,
      "spap": 4470,
      "ĠSandy": 4471,
      "Ġpetals": 4472,
      "Ġfog": 4473,
      "Ġmistakes": 4474,
      "Ġaxe": 4475,
      "Ġcomplain": 4476,
      "Ġbaseball": 4477,
      "Ġdancer": 4478,
      "Ġchickens": 4479,
      "Ġparent": 4480,
      "Ġig": 4481,
      "hero": 4482,
      "Ġnewspap": 4483,
      "Ġstrength": 4484,
      "Ġgreedy": 4485,
      "Ġceiling": 4486,
      "ckey": 4487,
      "Ġsquirrels": 4488,
      "Ġhockey": 4489,
      "Ġigloo": 4490,
      "Ġsir": 4491,
      "Ġgrin": 4492,
      "Ġanchor": 4493,
      "Ġskeleton": 4494,
      "rosc": 4495,
      "Ġsniffed": 4496,
      "Ġgrocer": 4497,
      "Ġsuperhero": 4498,
      "Ġargue": 4499,
      "ĠUn": 4500,
      "Ġnapkin": 4501,
      "chie": 4502,
      "Eventually": 4503,
      "Ġgolden": 4504,
      "ues": 4505,
      "Ġhanging": 4506,
      "Ġtrave": 4507,
      "Ġmusician": 4508,
      "medi": 4509,
      "Ġskirt": 4510,
      "ĠTony": 4511,
      "roscope": 4512,
      "Ġstaff": 4513,
      "Ġtemple": 4514,
      "Ġunif": 4515,
      "Ġagree": 4516,
      "Ġsque": 4517,
      "Ġbury": 4518,
      "mediately": 4519,
      "Ġtheater": 4520,
      "Ġdiscu": 4521,
      "Ġuniform": 4522,
      "Ġeaten": 4523,
      "ĠJess": 4524,
      "Ġslipper": 4525,
      "Ġwelcomed": 4526,
      "Ġseas": 4527,
      "Ġshoulder": 4528,
      "Thanks": 4529,
      "Ġzipper": 4530,
      "Ġquietly": 4531,
      "ssible": 4532,
      "Ġmeeting": 4533,
      "Ġlime": 4534,
      "Ġinvest": 4535,
      "istol": 4536,
      "Ġmicroscope": 4537,
      "Ġpinch": 4538,
      "chair": 4539,
      "Ġflapped": 4540,
      "Ġslippery": 4541,
      "Ġaccepted": 4542,
      "Ġfought": 4543,
      "Ġinvestig": 4544,
      "Ġpistol": 4545,
      "erc": 4546,
      "Ġdoors": 4547,
      "Ġminer": 4548,
      "reek": 4549,
      "Ġradish": 4550,
      "Ġplastic": 4551,
      "Ġthrowing": 4552,
      "Ġcalls": 4553,
      "Ġbouncing": 4554,
      "tress": 4555,
      "Today": 4556,
      "Ġmattress": 4557,
      "men": 4558,
      "ĠInstead": 4559,
      "Ġsurrender": 4560,
      "Ġcob": 4561,
      "aces": 4562,
      "house": 4563,
      "Ġpear": 4564,
      "Ġcreek": 4565,
      "Ġvroom": 4566,
      "Ġkayak": 4567,
      "Emma": 4568,
      "tain": 4569,
      "Ġmoves": 4570,
      "Ġsticky": 4571,
      "Qu": 4572,
      "Ġlawy": 4573,
      "Wait": 4574,
      "ĠHenry": 4575,
      "Ġnovel": 4576,
      "alley": 4577,
      "Ġcub": 4578,
      "Ġavocado": 4579,
      "Ġcared": 4580,
      "Ġsuff": 4581,
      "Ġfreezer": 4582,
      "Ġlotion": 4583,
      "aud": 4584,
      "case": 4585,
      "ler": 4586,
      "ison": 4587,
      "ĠMillie": 4588,
      "te": 4589,
      "was": 4590,
      "Ġfauc": 4591,
      "anny": 4592,
      "Ġarmchair": 4593,
      "Ġwriting": 4594,
      "inked": 4595,
      "Ġreef": 4596,
      "Ġmakeup": 4597,
      "Ġmystery": 4598,
      "Ġvalley": 4599,
      "web": 4600,
      "Ġtug": 4601,
      "Ġinvestigate": 4602,
      "Ġnews": 4603,
      "Ġsailing": 4604,
      "Ġcherries": 4605,
      "Ġregret": 4606,
      "Ġcrib": 4607,
      "washer": 4608,
      "imney": 4609,
      "Ġexerc": 4610,
      "Ġoyster": 4611,
      "Ġfaucet": 4612,
      "Ġagre": 4613,
      "Ġsplashing": 4614,
      "ĠKate": 4615,
      "Ġticket": 4616,
      "Ġcollected": 4617,
      "Ġworth": 4618,
      "Ġchimney": 4619,
      "Ġtoil": 4620,
      "Together": 4621,
      "Ġpresents": 4622,
      "Ġdishwasher": 4623,
      "Ġmagazine": 4624,
      "Ġhappens": 4625,
      "Ġsprayed": 4626,
      "Ġwags": 4627,
      "ÅĵItÃ¢": 4628,
      "Next": 4629,
      "Ġprevent": 4630,
      "Ġcobweb": 4631,
      "Ġquack": 4632,
      "Ġveil": 4633,
      "Ġcastles": 4634,
      "Ġentered": 4635,
      "Ġtear": 4636,
      "Sammy": 4637,
      "Ġshrugged": 4638,
      "Ġhar": 4639,
      "Ġpassport": 4640,
      "Ġapplaud": 4641,
      "Ġchess": 4642,
      "Ġseparate": 4643,
      "Ġscolded": 4644,
      "lend": 4645,
      "ĊĠ": 4646,
      "Ġweigh": 4647,
      "Ġtoilet": 4648,
      "Ġalarm": 4649,
      "ĠDanny": 4650,
      "ives": 4651,
      "Ġblankets": 4652,
      "Ġrake": 4653,
      "Ġignored": 4654,
      "Ġtucked": 4655,
      "Ġlawyer": 4656,
      "Ġchoice": 4657,
      "ived": 4658,
      "Ġhopes": 4659,
      "Ġattach": 4660,
      "Ġcoats": 4661,
      "Ġcandles": 4662,
      "Ġfollows": 4663,
      "Ġkisses": 4664,
      "Ġappro": 4665,
      "Ġclassroom": 4666,
      "ĠRu": 4667,
      "eve": 4668,
      "ring": 4669,
      "Ġpuddles": 4670,
      "Ġeasily": 4671,
      "Ġapart": 4672,
      "ety": 4673,
      "sit": 4674,
      "Ġdisappear": 4675,
      "Ġbeef": 4676,
      "Ġchairs": 4677,
      "Ġburned": 4678,
      "Ġbother": 4679,
      "Ġletting": 4680,
      "Ġstraight": 4681,
      "ĠNext": 4682,
      "eterin": 4683,
      "eterinarian": 4684,
      "Ġyield": 4685,
      "Ġward": 4686,
      "Ġdressed": 4687,
      "Ġcane": 4688,
      "Ġtrusted": 4689,
      "Ġlanguage": 4690,
      "Ġsizes": 4691,
      "Ġveterinarian": 4692,
      "Ġraz": 4693,
      "Ġteleph": 4694,
      "raged": 4695,
      "Ġcaring": 4696,
      "Ġplanes": 4697,
      "Ġwardrobe": 4698,
      "Ġjewelry": 4699,
      "atched": 4700,
      "Ġblinked": 4701,
      "iday": 4702,
      "Ġshower": 4703,
      "Ġrise": 4704,
      "Ann": 4705,
      "Ġmissile": 4706,
      "ĠSu": 4707,
      "Ġkeeping": 4708,
      "Ġlawn": 4709,
      "Ġrequ": 4710,
      "Ġstable": 4711,
      "Ġcabinet": 4712,
      "Ġcrossed": 4713,
      "Ġoak": 4714,
      "ĠHarry": 4715,
      "Ġbookshe": 4716,
      "vision": 4717,
      "Mandy": 4718,
      "Ġstro": 4719,
      "Ġtelephone": 4720,
      "Ġnewspaper": 4721,
      "mend": 4722,
      "Ġclaws": 4723,
      "Ġrooms": 4724,
      "rs": 4725,
      "Ġsigh": 4726,
      "Ġpuzzles": 4727,
      "Ġaut": 4728,
      "Ġtrade": 4729,
      "Ġincre": 4730,
      "ival": 4731,
      "Ġcell": 4732,
      "Ġwhisper": 4733,
      "Ġtornado": 4734,
      "Ġscratch": 4735,
      "una": 4736,
      "anges": 4737,
      "Ġbookcase": 4738,
      "Ġinf": 4739,
      "ampoo": 4740,
      "Ġblueberries": 4741,
      "Ġsnap": 4742,
      "Ġamazement": 4743,
      "ĠMiss": 4744,
      "Ġperfu": 4745,
      "ction": 4746,
      "ommend": 4747,
      "Ġsqueezed": 4748,
      "Ġbookshelf": 4749,
      "Because": 4750,
      "Ġrecommend": 4751,
      "Ġopera": 4752,
      "ĠRosie": 4753,
      "Ġsubway": 4754,
      "Ġpra": 4755,
      "atie": 4756,
      "Ġgym": 4757,
      "Ġdelay": 4758,
      "Ġgrill": 4759,
      "ĠSee": 4760,
      "ĠAb": 4761,
      "Ġrazor": 4762,
      "Ġblouse": 4763,
      "Ġrequest": 4764,
      "Ġcrawling": 4765,
      "ĠHelp": 4766,
      "Ġpur": 4767,
      "Ġpoked": 4768,
      "âĤ¬.": 4769,
      "Ġtelevision": 4770,
      "Ġbill": 4771,
      "Ġhol": 4772,
      "ggy": 4773,
      "Ġfollowing": 4774,
      "omes": 4775,
      "iction": 4776,
      "Ġshampoo": 4777,
      "ĠTrue": 4778,
      "Ġfile": 4779,
      "Ġlicks": 4780,
      "Ġspear": 4781,
      "Ġsqueeze": 4782,
      "Ġholiday": 4783,
      "Ġexperience": 4784,
      "Ġlumber": 4785,
      "Ġimprove": 4786,
      "Ġmint": 4787,
      "Ġperfume": 4788,
      "Ġserve": 4789,
      "Ġdemand": 4790,
      "Ġsteam": 4791,
      "Ġcliff": 4792,
      "Ġringing": 4793,
      "Ġcrow": 4794,
      "fortunately": 4795,
      "ictionary": 4796,
      "Is": 4797,
      "bbie": 4798,
      "Ġribbon": 4799,
      "ah": 4800,
      "Ġimmediately": 4801,
      "Ġhelper": 4802,
      "Ġmuffin": 4803,
      "Ġfest": 4804,
      "Ġgrowled": 4805,
      "Ġisn": 4806,
      "Ġbegged": 4807,
      "Ġdictionary": 4808,
      "Ġmatches": 4809,
      "Ġshrink": 4810,
      "Ġwaste": 4811,
      "Ġblood": 4812,
      "Ġbirdc": 4813,
      "Ġprop": 4814,
      "Ġideas": 4815,
      "Ġwarmth": 4816,
      "ib": 4817,
      "Ġmustache": 4818,
      "Ġsneeze": 4819,
      "ores": 4820,
      "ĠJul": 4821,
      "Ġinvite": 4822,
      "hic": 4823,
      "Ġgear": 4824,
      "Ġbirdcage": 4825,
      "Ġvehic": 4826,
      "ups": 4827,
      "Ġfuel": 4828,
      "Ġalright": 4829,
      "Ġrabbits": 4830,
      "uckily": 4831,
      "asis": 4832,
      "Ġcalend": 4833,
      "Ġweep": 4834,
      "Ġyucky": 4835,
      "Ġflutter": 4836,
      "Ġinstr": 4837,
      "Ġfallen": 4838,
      "Ġmarried": 4839,
      "ĠRe": 4840,
      "Ġberry": 4841,
      "lier": 4842,
      "Ġrail": 4843,
      "Ġrow": 4844,
      "Ġpastry": 4845,
      "Did": 4846,
      "Ġrefre": 4847,
      "ucture": 4848,
      "Ġworms": 4849,
      "Ġstructure": 4850,
      "Ġlaught": 4851,
      "Ġsurprises": 4852,
      "Ġbravely": 4853,
      "Ġbelow": 4854,
      "Ġcalendar": 4855,
      "Ġoasis": 4856,
      "ĠClara": 4857,
      "Ġwandered": 4858,
      "Ġble": 4859,
      "Will": 4860,
      "Ġwigg": 4861,
      "Ġkneel": 4862,
      "ising": 4863,
      "Ġdire": 4864,
      "Ġunderstanding": 4865,
      "Ġhurting": 4866,
      "Ġlaughter": 4867,
      "omeday": 4868,
      "Ġdrain": 4869,
      "Ġpages": 4870,
      "Ok": 4871,
      "Ġhearts": 4872,
      "Ġenter": 4873,
      "Ġairpl": 4874,
      "inky": 4875,
      "Ġitem": 4876,
      "ĠIs": 4877,
      "omob": 4878,
      "Ġharb": 4879,
      "Ġreaches": 4880,
      "Ġapron": 4881,
      "asp": 4882,
      "Ġsafety": 4883,
      "Ġfloat": 4884,
      "Ġcrash": 4885,
      "Ġautomob": 4886,
      "Ġbathe": 4887,
      "Ġburied": 4888,
      "Ġjunk": 4889,
      "ÅĵNo": 4890,
      "Ġbuckle": 4891,
      "Ġadmir": 4892,
      "Ġroot": 4893,
      "Ġcaptain": 4894,
      "Ġstrawberries": 4895,
      "Ġmyself": 4896,
      "achel": 4897,
      "Ġrelaxed": 4898,
      "Ġsandcastle": 4899,
      "oral": 4900,
      "Ġignore": 4901,
      "Ġskills": 4902,
      "Welcome": 4903,
      "Ġplates": 4904,
      "Lisa": 4905,
      "'ve": 4906,
      "Ġwhip": 4907,
      "ĠKing": 4908,
      "Ġspade": 4909,
      "Ġmoments": 4910,
      "ĠFo": 4911,
      "Ġreverse": 4912,
      "htray": 4913,
      "ĠWho": 4914,
      "icing": 4915,
      "Ġquiz": 4916,
      "Ġashtray": 4917,
      "Ġfestival": 4918,
      "ari": 4919,
      "Ġbeamed": 4920,
      "'.": 4921,
      "Ġsnapped": 4922,
      "riger": 4923,
      "Ġsomeday": 4924,
      "cakes": 4925,
      "Ġrefriger": 4926,
      "Ġraise": 4927,
      "Ġreceived": 4928,
      "Yuck": 4929,
      "Ġrefrigerator": 4930,
      "Ġearlier": 4931,
      "Ġtong": 4932,
      "Ġlic": 4933,
      "ĠFreddy": 4934,
      "Ġweap": 4935,
      "Ġvac": 4936,
      "Ġteaching": 4937,
      "Ġmass": 4938,
      "Ġharbor": 4939,
      "ĠPeople": 4940,
      "Ġmodel": 4941,
      "ĠSnowy": 4942,
      "Ġsparkling": 4943,
      "Ġspots": 4944,
      "aped": 4945,
      "Ġinsisted": 4946,
      "Ġsaving": 4947,
      "Ġvanished": 4948,
      "Ġsocks": 4949,
      "Ġbumped": 4950,
      "ĠIts": 4951,
      "Ġthumb": 4952,
      "anna": 4953,
      "Ġdried": 4954,
      "Ġsupply": 4955,
      "ission": 4956,
      "Ġblackboard": 4957,
      "igail": 4958,
      "Ġprepare": 4959,
      "Ġjail": 4960,
      "Ġjewels": 4961,
      "Ġspending": 4962,
      "Ġbalan": 4963,
      "Ġscattered": 4964,
      "ĠBefore": 4965,
      "xy": 4966,
      "Ġtoes": 4967,
      "Ġscooped": 4968,
      "Ġsettled": 4969,
      "Ġpermission": 4970,
      "Ġsparkle": 4971,
      "Ġknown": 4972,
      "ctly": 4973,
      "Ġbreathe": 4974,
      "Ġboot": 4975,
      "Ġyawned": 4976,
      "Ġres": 4977,
      "ĠMay": 4978,
      "With": 4979,
      "amber": 4980,
      "ĠJames": 4981,
      "Ġachie": 4982,
      "Ġdestroyed": 4983,
      "Ġbathrobe": 4984,
      "Ġtease": 4985,
      "Ġremain": 4986,
      "Ġhardly": 4987,
      "Ġencouraged": 4988,
      "Ġreplace": 4989,
      "Ġwaffle": 4990,
      "antly": 4991,
      "Ġpride": 4992,
      "Ġlemonade": 4993,
      "Ġdare": 4994,
      "Ġhanger": 4995,
      "Ġsits": 4996,
      "Ġpulling": 4997,
      "ĠHave": 4998,
      "Ġdecorations": 4999,
      "sters": 5000,
      "ops": 5001,
      "Ġremove": 5002,
      "Peter": 5003,
      "Ġcuddled": 5004,
      "Ġhate": 5005,
      "Ġdaisy": 5006,
      "Ġlicense": 5007,
      "avid": 5008,
      "Ġbeans": 5009,
      "Ġsimp": 5010,
      "Ġport": 5011,
      "Ġrespons": 5012,
      "izard": 5013,
      "Ġpraised": 5014,
      "sing": 5015,
      "reat": 5016,
      "Ġchirping": 5017,
      "Ġhits": 5018,
      "ents": 5019,
      "Ġequ": 5020,
      "Ġfastest": 5021,
      "Ġsuffer": 5022,
      "xture": 5023,
      "Ġbuzzing": 5024,
      "Ġpatiently": 5025,
      "Ġdresses": 5026,
      "Ġmention": 5027,
      "Ġbleed": 5028,
      "sity": 5029,
      "Ġrhy": 5030,
      "Ġautomobile": 5031,
      "nies": 5032,
      "Ġappreciate": 5033,
      "Ġpoppy": 5034,
      "Ġdestination": 5035,
      "Ġtaller": 5036,
      "Ġmall": 5037,
      "osed": 5038,
      "Ġhomes": 5039,
      "Ġnation": 5040,
      "ium": 5041,
      "Ġdigg": 5042,
      "Ġflav": 5043,
      "Ġclimbs": 5044,
      "Ġguy": 5045,
      "Ġwashing": 5046,
      "Ġpalm": 5047,
      "Ġglo": 5048,
      "Ġshot": 5049,
      "Ġlabel": 5050,
      "Emily": 5051,
      "Ġbelieved": 5052,
      "Ġdigging": 5053,
      "All": 5054,
      "Ġapproached": 5055,
      "Ġhesit": 5056,
      "fied": 5057,
      "Mmm": 5058,
      "Ġnone": 5059,
      "Ġtore": 5060,
      "Ġdeeper": 5061,
      "Ġwine": 5062,
      "Ġinfant": 5063,
      "ude": 5064,
      "Ġrestore": 5065,
      "Ġscore": 5066,
      "Ġhers": 5067,
      "ĠTina": 5068,
      "rm": 5069,
      "Ġmitten": 5070,
      "Ġchamber": 5071,
      "ĠOllie": 5072,
      "Ġsausage": 5073,
      "Ġstruggling": 5074,
      "Ġheat": 5075,
      "Ġdifferen": 5076,
      "Ġtongue": 5077,
      "Ġhills": 5078,
      "Ġhurric": 5079,
      "Ġpunish": 5080,
      "Ġpillows": 5081,
      "Ġbillboard": 5082,
      "Ġsneezed": 5083,
      "Ġsport": 5084,
      "Ġwizard": 5085,
      "ĠEach": 5086,
      "Ġupstairs": 5087,
      "Ġthrilled": 5088,
      "Ġprovide": 5089,
      "Ġbrain": 5090,
      "Ġawe": 5091,
      "Ġdiscuss": 5092,
      "Jake": 5093,
      "Ġpanic": 5094,
      "Ġwarning": 5095,
      "Ġtwisted": 5096,
      "Ġglowed": 5097,
      "Ġuniverse": 5098,
      "Ġfiref": 5099,
      "Ġtherm": 5100,
      "Ġvacation": 5101,
      "Ġworse": 5102,
      "Ġcrunch": 5103,
      "Ġpoison": 5104,
      "Ġshed": 5105,
      "Ġsolved": 5106,
      "Ġparts": 5107,
      "osity": 5108,
      "ĠCo": 5109,
      "bey": 5110,
      "Ġevent": 5111,
      "Ġsetting": 5112,
      "allen": 5113,
      "Ġtour": 5114,
      "Ġremained": 5115,
      "Mark": 5116,
      "Ġairplane": 5117,
      "Ġhurricane": 5118,
      "Ġthermomet": 5119,
      "Ġplays": 5120,
      "Ġexamine": 5121,
      "Ġsparkles": 5122,
      "Ġshooting": 5123,
      "Ġinvit": 5124,
      "Ġneighborhood": 5125,
      "Ġsty": 5126,
      "Ġchores": 5127,
      "Ġoranges": 5128,
      "Ġfloated": 5129,
      "Ġranch": 5130,
      "Ġchallen": 5131,
      "ĠMaggie": 5132,
      "thm": 5133,
      "Ġweeks": 5134,
      "Ġleak": 5135,
      "ĠEveryday": 5136,
      "Ġuniversity": 5137,
      "Ġpaints": 5138,
      "Ġthermometer": 5139,
      "These": 5140,
      "Ġbites": 5141,
      "Ġrepeat": 5142,
      "Ġbang": 5143,
      "adium": 5144,
      "Ġfloating": 5145,
      "Ġfixing": 5146,
      "ging": 5147,
      "Ġmeasured": 5148,
      "Sh": 5149,
      "ĠBetsy": 5150,
      "Ġstadium": 5151,
      "Ġgrinned": 5152,
      "!'": 5153,
      "do": 5154,
      "Ġduring": 5155,
      "!\",": 5156,
      "Ġsurrounded": 5157,
      "Ġsupposed": 5158,
      "aspoon": 5159,
      "Ġconf": 5160,
      "Ġrhythm": 5161,
      "Ġmassage": 5162,
      "Ġbrings": 5163,
      "Fl": 5164,
      "Ġpaused": 5165,
      "Ġcherry": 5166,
      "Ġgifts": 5167,
      "Ġfut": 5168,
      "Ġsprinkles": 5169,
      "Ġfasc": 5170,
      "Ġfuture": 5171,
      "Ġmemory": 5172,
      "ÅĵIÃ¢": 5173,
      "Ġteaspoon": 5174,
      "Ġgrey": 5175,
      "rise": 5176,
      "Ġcollection": 5177,
      "Ġsigns": 5178,
      "Jen": 5179,
      "Ġmarbles": 5180,
      "Not": 5181,
      "bbles": 5182,
      "Ġjazz": 5183,
      "Would": 5184,
      "Ġstomach": 5185,
      "ĠBuzz": 5186,
      "emember": 5187,
      "Ġgust": 5188,
      "Ġwisdom": 5189,
      "Ġactually": 5190,
      "Ġflood": 5191,
      "Ġdiscovery": 5192,
      "Ġinclud": 5193,
      "Ġsew": 5194,
      "Ġvehicle": 5195,
      "Ġtide": 5196,
      "Ġlily": 5197,
      "Ġgirls": 5198,
      "Ġsunrise": 5199,
      "ĠGood": 5200,
      "ishing": 5201,
      "ĠLiz": 5202,
      "vet": 5203,
      "ÅĵThatÃ¢": 5204,
      "Ġmeowed": 5205,
      "ls": 5206,
      "Ġelephants": 5207,
      "Ġurge": 5208,
      "Ġexercise": 5209,
      "Ġmailman": 5210,
      "Ġlugg": 5211,
      "umble": 5212,
      "Ġdecision": 5213,
      "Ġchewed": 5214,
      "Ġrush": 5215,
      "Ġweapon": 5216,
      "Ġstrang": 5217,
      "Ġobserve": 5218,
      "Ġluggage": 5219,
      "Ġunite": 5220,
      "Ġcartoons": 5221,
      "ero": 5222,
      "Ġsore": 5223,
      "Ġfascin": 5224,
      "Ġtomatoes": 5225,
      "iers": 5226,
      "Ġscur": 5227,
      "Ġpossible": 5228,
      "Ġtoe": 5229,
      "ĠLater": 5230,
      "allow": 5231,
      "cles": 5232,
      "Ġsunlight": 5233,
      "ities": 5234,
      "Ġfolded": 5235,
      "Ġcurled": 5236,
      "ĠV": 5237,
      "Ġchirped": 5238,
      "Ġrust": 5239,
      "Ġmelted": 5240,
      "ĠRuby": 5241,
      "Ġspill": 5242,
      "Ġcakes": 5243,
      "uing": 5244,
      "Ġsip": 5245,
      "Ġcollecting": 5246,
      "Ġx": 5247,
      "Ġgrape": 5248,
      "son": 5249,
      "ĠJoy": 5250,
      "Ġmineral": 5251,
      "eed": 5252,
      "ĠRachel": 5253,
      "Ġbrus": 5254,
      "Ġdifference": 5255,
      "Ġproblems": 5256,
      "Ġbak": 5257,
      "Le": 5258,
      "Ġtracks": 5259,
      "Ġjogging": 5260,
      "Johnny": 5261,
      "Ġwherever": 5262,
      "ĠMe": 5263,
      "Ready": 5264,
      "Al": 5265,
      "Ġmountains": 5266,
      "ipment": 5267,
      "Ġbes": 5268,
      "Ġsliding": 5269,
      "eration": 5270,
      "Ġmanage": 5271,
      "Ġequipment": 5272,
      "etch": 5273,
      "Ġlaid": 5274,
      "Ġlick": 5275,
      "Ġadmiring": 5276,
      "Ġwatered": 5277,
      "cious": 5278,
      "Ġsatis": 5279,
      "Ġcontain": 5280,
      "Ġbricks": 5281,
      "ĠSpike": 5282,
      "oved": 5283,
      "Ġtwigs": 5284,
      "rr": 5285,
      "ĠSomeone": 5286,
      "Ġpatterns": 5287,
      "Ġkindly": 5288,
      "Ġpetted": 5289,
      "Ġskipping": 5290,
      "Ġpotatoes": 5291,
      "Ġseats": 5292,
      "Ex": 5293,
      "bers": 5294,
      "Ġsoldiers": 5295,
      "Ġgloves": 5296,
      "Ġspaces": 5297,
      "zag": 5298,
      "joyed": 5299,
      "unday": 5300,
      "Ġreceive": 5301,
      "Ġkeeper": 5302,
      "Ġcopper": 5303,
      "Ġemer": 5304,
      "Ġslice": 5305,
      "Ġlets": 5306,
      "Ġgain": 5307,
      "ddy": 5308,
      "Ġcontinue": 5309,
      "Ġordered": 5310,
      "Ġstrangers": 5311,
      "walk": 5312,
      "Ġoverjoyed": 5313,
      "Ġwatches": 5314,
      "Ġgotten": 5315,
      "Ġpigs": 5316,
      "omas": 5317,
      "Ġzipped": 5318,
      "mother": 5319,
      "ĠSunday": 5320,
      "Ġlands": 5321,
      "Ġwhistling": 5322,
      "Ġgaz": 5323,
      "Ġbeside": 5324,
      "ÅĵThank": 5325,
      "Ġsafari": 5326,
      "Ġbeg": 5327,
      "Ġprayed": 5328,
      "ĠCat": 5329,
      "Susie": 5330,
      "Ġpeered": 5331,
      "Ġnetwork": 5332,
      "ĠSteve": 5333,
      "bbled": 5334,
      "Ġspit": 5335,
      "Ġeff": 5336,
      "Ġinvitation": 5337,
      "Ġmarching": 5338,
      "Ġours": 5339,
      "ases": 5340,
      "Ġglitter": 5341,
      "ĠPenny": 5342,
      "Ġwooden": 5343,
      "Ġearthqu": 5344,
      "Ġsidewalk": 5345,
      "Ġeagle": 5346,
      "igzag": 5347,
      "Ġdoggy": 5348,
      "Ġdrinks": 5349,
      "Ġgrocery": 5350,
      "irp": 5351,
      "Ġweight": 5352,
      "Ġnavy": 5353,
      "Ġacorns": 5354,
      "Ġattached": 5355,
      "Ġraised": 5356,
      "Ġdisagreed": 5357,
      "loe": 5358,
      "Ġweren": 5359,
      "Yum": 5360,
      "ĠPoppy": 5361,
      "ĠLetÃ¢": 5362,
      "ĠMilly": 5363,
      "Ġbeat": 5364,
      "Ġcompany": 5365,
      "Ouch": 5366,
      "Ġmister": 5367,
      "Ġburning": 5368,
      "fy": 5369,
      "Ġonwards": 5370,
      "hest": 5371,
      "\",": 5372,
      "Ġwre": 5373,
      "Ġhappiest": 5374,
      "ĠSpark": 5375,
      "Moral": 5376,
      "Ġracing": 5377,
      "Ġbrid": 5378,
      "Before": 5379,
      "Ġcrashed": 5380,
      "Ġspoons": 5381,
      "Ġfed": 5382,
      "Ġcrunchy": 5383,
      "Ġpeanuts": 5384,
      "Ġwhistled": 5385,
      "ĠSharing": 5386,
      "Ġprice": 5387,
      "seek": 5388,
      "Ġmeow": 5389,
      "Ġhurried": 5390,
      "Ġhist": 5391,
      "Ġofficer": 5392,
      "ĠRa": 5393,
      "Ġbrick": 5394,
      "Ġaccom": 5395,
      "Ġtremb": 5396,
      "Ġrefreshed": 5397,
      "Ġpies": 5398,
      "Ġremem": 5399,
      "Ġflap": 5400,
      "Ġworks": 5401,
      "Ġclearing": 5402,
      "nie": 5403,
      "ĠSad": 5404,
      "Ġoperation": 5405,
      "Ġprepared": 5406,
      "Ġbowed": 5407,
      "Ġscratched": 5408,
      "Ġremembers": 5409,
      "Ġhistory": 5410,
      "Ġexa": 5411,
      "aded": 5412,
      "Ġlips": 5413,
      "amb": 5414,
      "Really": 5415,
      "ĠKatie": 5416,
      "Ġfireworks": 5417,
      "Ġprune": 5418,
      "ÅĵWe": 5419,
      "Ġescaped": 5420,
      "Ro": 5421,
      "Ġdinosaurs": 5422,
      "Ġmenu": 5423,
      "ĠAbigail": 5424,
      "Ġbridges": 5425,
      "Ġtalent": 5426,
      "Ġplanted": 5427,
      "amie": 5428,
      "Ġbuildings": 5429,
      "Ġrevealed": 5430,
      "Ġeasier": 5431,
      "Ġbye": 5432,
      "Ġturning": 5433,
      "Ġcomfy": 5434,
      "Ġscreams": 5435,
      "Ġolive": 5436,
      "Ġbrand": 5437,
      "ĠChr": 5438,
      "ĠQu": 5439,
      "Ġhated": 5440,
      "Ġchat": 5441,
      "Ġselling": 5442,
      "Ġsnowball": 5443,
      "die": 5444,
      "ĠLuna": 5445,
      "Ġrecognized": 5446,
      "Ġwarn": 5447,
      "Ġaccompl": 5448,
      "Ġcrept": 5449,
      "Ġprecious": 5450,
      "ĠZoe": 5451,
      "Ġlandsc": 5452,
      "omething": 5453,
      "ĠFro": 5454,
      "Ġstrip": 5455,
      "ĠNot": 5456,
      "Ġmuddy": 5457,
      "Ġpadd": 5458,
      "Ġwid": 5459,
      "Ġdrinking": 5460,
      "Ġsings": 5461,
      "xygen": 5462,
      "Ġbeds": 5463,
      "Ġpupp": 5464,
      "ecture": 5465,
      "Ġsettle": 5466,
      "Ġearthquake": 5467,
      "ĠMat": 5468,
      "Ġsimple": 5469,
      "Ġeffort": 5470,
      "cc": 5471,
      "ĠRemy": 5472,
      "Ġreminder": 5473,
      "Ġspaceship": 5474,
      "Ġmeasuring": 5475,
      "Ġslip": 5476,
      "Ġperched": 5477,
      "Ġlecture": 5478,
      "Ġbones": 5479,
      "Ġserved": 5480,
      "Ġappear": 5481,
      "Ġwonders": 5482,
      "Ġshadows": 5483,
      "Ġwaits": 5484,
      "Ġvoices": 5485,
      "ÅĵCan": 5486,
      "Ġcuddle": 5487,
      "Ġeveryday": 5488,
      "Ġpedal": 5489,
      "Ġpitch": 5490,
      "Ġcomforted": 5491,
      "Ġagreement": 5492,
      "Ġresponsible": 5493,
      "Ġcircus": 5494,
      "Ġrained": 5495,
      "Ġvel": 5496,
      "Ġobey": 5497,
      "ffic": 5498,
      "Ġvict": 5499,
      "Ġtip": 5500,
      "Ġsoared": 5501,
      "Ġallow": 5502,
      "Ġanytime": 5503,
      "Ġtrapped": 5504,
      "Ġcal": 5505,
      "Ġwhatever": 5506,
      "Ġzigzag": 5507,
      "Ġtastes": 5508,
      "Ġapologize": 5509,
      "Ġlandscape": 5510,
      "Ġcutting": 5511,
      "Ġsucceeded": 5512,
      "Ġshopping": 5513,
      "Ġrang": 5514,
      "Ġpets": 5515,
      "Ġsecrets": 5516,
      "Ġvillag": 5517,
      "Ġfash": 5518,
      "ĠDavid": 5519,
      "Ġvelvet": 5520,
      "Ġprinter": 5521,
      "Ġdisturbed": 5522,
      "Ġwaist": 5523,
      "Ġitems": 5524,
      "Ġswims": 5525,
      "Ġbun": 5526,
      "Ġtraffic": 5527,
      "Ġpracticing": 5528,
      "Ġsteel": 5529,
      "Ġbringing": 5530,
      "Ġoats": 5531,
      "Ġexactly": 5532,
      "Ġsisters": 5533,
      "Ġrested": 5534,
      "Ġvisiting": 5535,
      "Ġscoop": 5536,
      "Ġactiv": 5537,
      "Luckily": 5538,
      "Ġcostumes": 5539,
      "annah": 5540,
      "Ġanswers": 5541,
      "ĠFrank": 5542,
      "izing": 5543,
      "Ġolives": 5544,
      "ien": 5545,
      "mble": 5546,
      "Ġbrushed": 5547,
      "Ġstyle": 5548,
      "Ġmouths": 5549,
      "ĠPr": 5550,
      "Ġsoak": 5551,
      "laire": 5552,
      "Ġcuriosity": 5553,
      "ishes": 5554,
      "Ġoutdo": 5555,
      "neath": 5556,
      "Ġbreaking": 5557,
      "Ġfashion": 5558,
      "ĠSunny": 5559,
      "Ġrele": 5560,
      "Ġowned": 5561,
      "Ġladyb": 5562,
      "Ġencourage": 5563,
      "ĠNut": 5564,
      "ÅĵDon": 5565,
      "Ġknelt": 5566,
      "Ġfascinated": 5567,
      "Ġleather": 5568,
      "mare": 5569,
      "Ġimage": 5570,
      "iggy": 5571,
      "Ġvillagers": 5572,
      "oming": 5573,
      "Ġnails": 5574,
      "Ġbeneath": 5575,
      "icorn": 5576,
      "Ġunderground": 5577,
      "Ġwaffles": 5578,
      "Tweet": 5579,
      "Ġunicorn": 5580,
      "Ġsadness": 5581,
      "enty": 5582,
      "terday": 5583,
      "Ġunlocked": 5584,
      "inda": 5585,
      "Ġdied": 5586,
      "Ġrecognize": 5587,
      "ĠItÃ¢": 5588,
      "Ġdownstairs": 5589,
      "Ġcreation": 5590,
      "Ġcatching": 5591,
      "ĠChirp": 5592,
      "Ġgrandmother": 5593,
      "Ġoxygen": 5594,
      "isten": 5595,
      "Ġmonsters": 5596,
      "Ġtremble": 5597,
      "Ġchef": 5598,
      "ĠJe": 5599,
      "Ġeats": 5600,
      "ĠThese": 5601,
      "Ġpupil": 5602,
      "ik": 5603,
      "Ġwanting": 5604,
      "Ġnightmare": 5605,
      "Ġjogged": 5606,
      "Ġcape": 5607,
      "Ġstripes": 5608,
      "Ġdoctors": 5609,
      "Ġsoaring": 5610,
      "Ġblueberry": 5611,
      "ley": 5612,
      "ĠHowever": 5613,
      "Ġstruggled": 5614,
      "Ġlemons": 5615,
      "ĠBeth": 5616,
      "Ġwondering": 5617,
      "Ġbleeding": 5618,
      "Ġpunished": 5619,
      "Happy": 5620,
      "Ġgained": 5621,
      "Ġfamil": 5622,
      "ayla": 5623,
      "dam": 5624,
      "Ġfetch": 5625,
      "ĠSomething": 5626,
      "Ġexamined": 5627,
      "Ġnicer": 5628,
      "Ġguessed": 5629,
      "Ġplanned": 5630,
      "Ġdrag": 5631,
      "Ġcaut": 5632,
      "Ġsitu": 5633,
      "Ġmachines": 5634,
      "Ġmission": 5635,
      "First": 5636,
      "Ġstealing": 5637,
      "Ġargued": 5638,
      "uke": 5639,
      "Ġarea": 5640,
      "ĠFirst": 5641,
      "Ġcomple": 5642,
      "Ġpiles": 5643,
      "Ġsi": 5644,
      "Ġherbs": 5645,
      "Ġfreeze": 5646,
      "Ġintroduc": 5647,
      "Ġstirring": 5648,
      "Ġripped": 5649,
      "Sometimes": 5650,
      "Ġsix": 5651,
      "Ġchallenge": 5652,
      "Ġtugged": 5653,
      "Ġstudied": 5654,
      "Ġfiremen": 5655,
      "Un": 5656,
      "Ġbend": 5657,
      "Ġbare": 5658,
      "Ġwagging": 5659,
      "Ġzooming": 5660,
      "Or": 5661,
      "Ġaccidents": 5662,
      "Ġvictory": 5663,
      "ĠOw": 5664,
      "Ġsatisfied": 5665,
      "Ġwreck": 5666,
      "ĠSuzy": 5667,
      "Ġinstruct": 5668,
      "Ġproperly": 5669,
      "agull": 5670,
      "Ġkeys": 5671,
      "ulu": 5672,
      "Dave": 5673,
      "Ġwinning": 5674,
      "Ġshivering": 5675,
      "ĠUncle": 5676,
      "looking": 5677,
      "Ġbunnies": 5678,
      "Ġincrease": 5679,
      "ux": 5680,
      "ding": 5681,
      "Ġgathering": 5682,
      "Ġtune": 5683,
      "Ġmice": 5684,
      "Ġexit": 5685,
      "Ġfirefight": 5686,
      "Ġoutdoors": 5687,
      "Ġwinner": 5688,
      "Ġtwirling": 5689,
      "Ġslapped": 5690,
      "Ġloaded": 5691,
      "Ġteasing": 5692,
      "Ġpeel": 5693,
      "Ġdecorated": 5694,
      "ĠKe": 5695,
      "uxu": 5696,
      "Ġdeser": 5697,
      "Ġsupplies": 5698,
      "Ġyelling": 5699,
      "Ġneighbourhood": 5700,
      "Ġseagull": 5701,
      "Ġunderneath": 5702,
      "Ġpermit": 5703,
      "Ġsights": 5704,
      "Ġtickets": 5705,
      "usan": 5706,
      "Ġann": 5707,
      "Ġpancakes": 5708,
      "oh": 5709,
      "Ġbegin": 5710,
      "Ġburrow": 5711,
      "Ġpearl": 5712,
      "Ġrides": 5713,
      "Ġsiren": 5714,
      "Ġpeaches": 5715,
      "ĠJan": 5716,
      "Ġmixing": 5717,
      "Ġreleased": 5718,
      "Ġdraws": 5719,
      "Ġweighed": 5720,
      "aky": 5721,
      "Fluffy": 5722,
      "ena": 5723,
      "ĠTw": 5724,
      "Ġsneaked": 5725,
      "ica": 5726,
      "ĠFloppy": 5727,
      "indy": 5728,
      ".'": 5729,
      "Ġconfident": 5730,
      "Ġrealize": 5731,
      "Ġinstructions": 5732,
      "Ġspiders": 5733,
      "Ġintroduce": 5734,
      "Ġluxu": 5735,
      "Ġdam": 5736,
      "Ġmuffins": 5737,
      "shing": 5738,
      "Lola": 5739,
      "Ġcontro": 5740,
      "Cl": 5741,
      "ĠletÃ¢": 5742,
      "Ġpinched": 5743,
      "Ġbudge": 5744,
      "Ġsolut": 5745,
      "Ġzero": 5746,
      "Ġcompetition": 5747,
      "ĠLucky": 5748,
      "ĠJulie": 5749,
      "ĠNutty": 5750,
      "Ġprinted": 5751,
      "Ġstudying": 5752,
      "Bella": 5753,
      "Ġloving": 5754,
      "Ġbeha": 5755,
      "Ġinch": 5756,
      "Ġpockets": 5757,
      "ĠCoco": 5758,
      "Ġbaked": 5759,
      "ales": 5760,
      "Ġstruck": 5761,
      "ÅĵLook": 5762,
      "ĠDid": 5763,
      "ĠRabbit": 5764,
      "Ġshoulders": 5765,
      "Ġbunch": 5766,
      "Ġopin": 5767,
      "Ġlines": 5768,
      "Ġfrosting": 5769,
      "Ġrelease": 5770,
      "Goodbye": 5771,
      "Ġdecides": 5772,
      "Ġgiggling": 5773,
      "Ġbroom": 5774,
      "ĠLike": 5775,
      "Ġourselves": 5776,
      "Ġweb": 5777,
      "Ġpastel": 5778,
      "lled": 5779,
      "ĠPip": 5780,
      "Ġstamps": 5781,
      "Ġcones": 5782,
      "nes": 5783,
      "Ġemergen": 5784,
      "ÅĵHello": 5785,
      "Ġstair": 5786,
      "Ġstitch": 5787,
      "bbing": 5788,
      "George": 5789,
      "ĠOl": 5790,
      "ĠStop": 5791,
      "Ġprunes": 5792,
      "Ġladybug": 5793,
      "Ġsides": 5794,
      "oed": 5795,
      "Ġgrant": 5796,
      "Ġscurried": 5797,
      "Ġstrings": 5798,
      "âĤ¬âĢĿ": 5799,
      "Ġtim": 5800,
      "ais": 5801,
      "Ġmarks": 5802,
      "Mike": 5803,
      "Mr": 5804,
      "Ġruler": 5805,
      "Ġpears": 5806,
      "Andy": 5807,
      "gers": 5808,
      "Teddy": 5809,
      "ednes": 5810,
      "ednesday": 5811,
      "Ġrepeated": 5812,
      "Ġdrift": 5813,
      "Ġkeeps": 5814,
      "Ġago": 5815,
      "Ġclaps": 5816,
      "Ġpoking": 5817,
      "ĠAm": 5818,
      "anta": 5819,
      "ÅĵThis": 5820,
      "Ye": 5821,
      "ays": 5822,
      "ĠBig": 5823,
      "Ġcrowd": 5824,
      "ĠHop": 5825,
      "Ġruin": 5826,
      "Ġprints": 5827,
      "kins": 5828,
      "low": 5829,
      "Ġbrushes": 5830,
      "Ġkicking": 5831,
      "Ġstretching": 5832,
      "Ġdemanded": 5833,
      "ĠThomas": 5834,
      "len": 5835,
      "Ġsting": 5836,
      "ody": 5837,
      "Ġneighbors": 5838,
      "Ġmentioned": 5839,
      "ira": 5840,
      "Ġmast": 5841,
      "owers": 5842,
      "Ġtouching": 5843,
      "Ġtonight": 5844,
      "Ġprotected": 5845,
      "ĠChirpy": 5846,
      "Ġwrites": 5847,
      "Ġsweeties": 5848,
      "ĠJosh": 5849,
      "Ġgoodnight": 5850,
      "uesday": 5851,
      "Ġyouth": 5852,
      "Ġbuckets": 5853,
      "Ġribbons": 5854,
      "va": 5855,
      "jam": 5856,
      "uctantly": 5857,
      "ĠWednesday": 5858,
      "tiest": 5859,
      "ashed": 5860,
      "Ġprettiest": 5861,
      "ĠChloe": 5862,
      "Ġforgi": 5863,
      "Ġvent": 5864,
      "Ġparked": 5865,
      "icky": 5866,
      "exp": 5867,
      "Ġproject": 5868,
      "Ġcamping": 5869,
      "Ġsoaked": 5870,
      "zie": 5871,
      "ĠTiny": 5872,
      "Ġbarely": 5873,
      "Ġhorns": 5874,
      "Ġbouncy": 5875,
      "Bobby": 5876,
      "icked": 5877,
      "bies": 5878,
      "Mar": 5879,
      "riage": 5880,
      "Ah": 5881,
      "hins": 5882,
      "Ġdiscovering": 5883,
      "Pete": 5884,
      "ĠAn": 5885,
      "ĠBir": 5886,
      "Ella": 5887,
      "ÅĵDonÃ¢": 5888,
      "ĠOnce": 5889,
      "Ġeast": 5890,
      "ĠSure": 5891,
      "Joey": 5892,
      "Grandpa": 5893,
      "Ġtwinkling": 5894,
      "Ġresult": 5895,
      "Ġexpect": 5896,
      "Ġsurface": 5897,
      "Ġsorting": 5898,
      "Ġdent": 5899,
      "Ġstole": 5900,
      "ÅĵWhy": 5901,
      "Ġwest": 5902,
      "Ġinterest": 5903,
      "Ġvowed": 5904,
      "Ġtexture": 5905,
      "Ġgazed": 5906,
      "ĠGr": 5907,
      "Ġpurred": 5908,
      "ĠTuesday": 5909,
      "Ġsteep": 5910,
      "Ġguys": 5911,
      "Ġbabies": 5912,
      "Ġshock": 5913,
      "Ġbeard": 5914,
      "Ġmovies": 5915,
      "ĠCarl": 5916,
      "ĠRob": 5917,
      "Ġcautious": 5918,
      "expected": 5919,
      "zen": 5920,
      "Ġpowers": 5921,
      "Ġapplauded": 5922,
      "Ġsilence": 5923,
      "Fr": 5924,
      "thank": 5925,
      "Ġpebbles": 5926,
      "ĠBubbles": 5927,
      "Ġentire": 5928,
      "Ġloose": 5929,
      "Ġcontrol": 5930,
      "Ġtickle": 5931,
      "Ġguns": 5932,
      "Ġurged": 5933,
      "Ġdragons": 5934,
      "Ġ1": 5935,
      "Ġacted": 5936,
      "Ġdragged": 5937,
      "Ġunexpected": 5938,
      "Ġluxury": 5939,
      "edding": 5940,
      "Henry": 5941,
      "Ġcatches": 5942,
      "Uh": 5943,
      "ason": 5944,
      "ern": 5945,
      "Ġmittens": 5946,
      "Ġmuscles": 5947,
      "Ġchewing": 5948,
      "Ġrocking": 5949,
      "Ġflat": 5950,
      "Ġfab": 5951,
      "Ġdolphins": 5952,
      "Ġcompleted": 5953,
      "Ġfabric": 5954,
      "Ġcurtains": 5955,
      "Ġemergency": 5956,
      "Maggie": 5957,
      "Ġblink": 5958,
      "Ġintroduced": 5959,
      "une": 5960,
      "Ġdirection": 5961,
      "uly": 5962,
      "Ġchips": 5963,
      "Ġhonk": 5964,
      "Ġseason": 5965,
      "Ġpatience": 5966,
      "Ġstrike": 5967,
      "Ġimportance": 5968,
      "eezing": 5969,
      "Ġreluctantly": 5970,
      "Ġbank": 5971,
      "Ġeight": 5972,
      "Ġslim": 5973,
      "usted": 5974,
      "Ġfigured": 5975,
      "Ġhighest": 5976,
      "Ġshivered": 5977,
      "Remember": 5978,
      "Ġfrozen": 5979,
      "Ġlibrarian": 5980,
      "ĠBetty": 5981,
      "Ġsolution": 5982,
      "Ġcontest": 5983,
      "Ġrocked": 5984,
      "Ġachieve": 5985,
      "Ġscreaming": 5986,
      "Ġchases": 5987,
      "ĠZoom": 5988,
      "Ġreplac": 5989,
      "Ġpouring": 5990,
      "Rex": 5991,
      "Ġshelves": 5992,
      "Ġwound": 5993,
      "ĠJamie": 5994,
      "Ġtheirs": 5995,
      "Ġcrumb": 5996,
      "Ġrubbing": 5997,
      "esome": 5998,
      "Ġti": 5999,
      "Ġhugging": 6000,
      "Ġdrives": 6001,
      "Ġstaring": 6002,
      "Ġsorted": 6003,
      "Ġsnail": 6004,
      "Ġroaring": 6005,
      "ÅĵOh": 6006,
      "ledge": 6007,
      "Ġinclude": 6008,
      "Fred": 6009,
      "Ġplanets": 6010,
      "ĠAnne": 6011,
      "Ġmater": 6012,
      "ĠSanta": 6013,
      "Ġmateri": 6014,
      "Ġsafer": 6015,
      "Ġpoliceman": 6016,
      "fit": 6017,
      "Ġcurly": 6018,
      "Ġsituation": 6019,
      "Ġfoods": 6020,
      "Ġgreet": 6021,
      "Ġawesome": 6022,
      "ĠcanÃ¢": 6023,
      "Ġusual": 6024,
      "vin": 6025,
      "Ġsighs": 6026,
      "Ġknowledge": 6027,
      "itely": 6028,
      "irts": 6029,
      "Ġpassing": 6030,
      "Ġshined": 6031,
      "Ġflags": 6032,
      "Ġexha": 6033,
      "Ġdared": 6034,
      "Ġbalancing": 6035,
      "Ġplenty": 6036,
      "ĠyouÃ¢": 6037,
      "Ġmatched": 6038,
      "Ġtowels": 6039,
      "Ġlied": 6040,
      "ults": 6041,
      "Ġhomework": 6042,
      "Leo": 6043,
      "Ġoutfit": 6044,
      "though": 6045,
      "Ġslimy": 6046,
      "Ġbravery": 6047,
      "ĠLulu": 6048,
      "Ġtruly": 6049,
      "Ġpretends": 6050,
      "ĠAunt": 6051,
      "avi": 6052,
      "Ġzookeeper": 6053,
      "acob": 6054,
      "Ġcheering": 6055,
      "Ġheel": 6056,
      "Ġwedding": 6057,
      "ĠTilly": 6058,
      "Ġgoals": 6059,
      "Ġrainbows": 6060,
      "jamas": 6061,
      "Ġsausages": 6062,
      "James": 6063,
      "cuse": 6064,
      "ĠHoppy": 6065,
      "Ġthreat": 6066,
      "Ġaccomplish": 6067,
      "ĠMatt": 6068,
      "Danny": 6069,
      "ĠSusan": 6070,
      "Ġpatted": 6071,
      "Ġcaused": 6072,
      "Ġpaintings": 6073,
      "ĠClaire": 6074,
      "Ġreaching": 6075,
      "Paul": 6076,
      "ĠCar": 6077,
      "Ġresting": 6078,
      "Ġradishes": 6079,
      "Ġarguing": 6080,
      "Ġpacking": 6081,
      "Excuse": 6082,
      "...": 6083,
      "bert": 6084,
      "Ġgrowling": 6085,
      "Ġblooming": 6086,
      "ĠAlways": 6087,
      "Ġspraying": 6088,
      "Grace": 6089,
      "Ġfoc": 6090,
      "Ġwaiter": 6091,
      "Ġexhausted": 6092,
      "iar": 6093,
      "Ġge": 6094,
      "Ġstruggle": 6095,
      "izzie": 6096,
      "aa": 6097,
      "Ġsweets": 6098,
      "Ġsticking": 6099,
      "Kitty": 6100,
      "Ġpout": 6101,
      "ences": 6102,
      "Ġmarkers": 6103,
      "Ġmotion": 6104,
      "Ġworker": 6105,
      "Ġkneeled": 6106,
      "ĠJessie": 6107,
      "Ġpaddled": 6108,
      "ĠLou": 6109,
      "Ġgrowl": 6110,
      "Ġsled": 6111,
      "immer": 6112,
      "Ġsuitc": 6113,
      "Ġmane": 6114,
      "ĠFor": 6115,
      "Ġsway": 6116,
      "Ġsnugg": 6117,
      "Ġstartled": 6118,
      "ĠMomo": 6119,
      "Ġcubes": 6120,
      "Ġrescued": 6121,
      "Ġboo": 6122,
      "Ġspike": 6123,
      "Ġwritten": 6124,
      "Sophie": 6125,
      "Ġdusty": 6126,
      "Ġtraveled": 6127,
      "Ġinviting": 6128,
      "hello": 6129,
      "Ġexpected": 6130,
      "Ġbead": 6131,
      "Ġslap": 6132,
      "Ġcuts": 6133,
      "Ġcent": 6134,
      "Ġbottles": 6135,
      "Ġmatching": 6136,
      "Ġguest": 6137,
      "Ġsinger": 6138,
      "Ġflavor": 6139,
      "Ġreveal": 6140,
      "Ġlearns": 6141,
      "Ġheav": 6142,
      "lee": 6143,
      "Ġprincesses": 6144,
      "Ġcreating": 6145,
      "Ġregretted": 6146,
      "Ġfart": 6147,
      "Ġbloomed": 6148,
      "Yeah": 6149,
      "Ġtrembling": 6150,
      "Ġreplaced": 6151,
      "Ġfir": 6152,
      "Ġarrive": 6153,
      "ĠYes": 6154,
      "Ġmarriage": 6155,
      "you": 6156,
      "pite": 6157,
      "Ġrecorded": 6158,
      "aisies": 6159,
      "Ġpencils": 6160,
      "Annie": 6161,
      "Ġincluded": 6162,
      "Ġlap": 6163,
      "Ġchuck": 6164,
      "Ġobserved": 6165,
      "Ġdisagree": 6166,
      "njoy": 6167,
      "Ġdaisies": 6168,
      "Ġpots": 6169,
      "ĠLinda": 6170,
      "Ġactivities": 6171,
      "Ġprayer": 6172,
      "Ġfirm": 6173,
      "Ġtimer": 6174,
      "Ġpajamas": 6175,
      "Charlie": 6176,
      "Ġroads": 6177,
      "Ġwires": 6178,
      "Ġremoved": 6179,
      "Ġdarkness": 6180,
      "Ġworries": 6181,
      "Ġuses": 6182,
      "Ġventured": 6183,
      "ĠMad": 6184,
      "Ġcountryside": 6185,
      "Ġorganizing": 6186,
      "Ġstare": 6187,
      "Mrs": 6188,
      "Ġcompletely": 6189,
      "uzz": 6190,
      "ĠBy": 6191,
      "Ġworkers": 6192,
      "ĠHa": 6193,
      "Ġopening": 6194,
      "Ġfairies": 6195,
      "Ġrelief": 6196,
      "Ġwasted": 6197,
      "angled": 6198,
      "Ġleap": 6199,
      "Ġreply": 6200,
      "Ġowners": 6201,
      "ĠAbby": 6202,
      "Ġstorekeeper": 6203,
      "ĠBo": 6204,
      "Ġcott": 6205,
      "Ġbelly": 6206,
      "ĠSadly": 6207,
      "vers": 6208,
      "Ġranger": 6209,
      "Ġfault": 6210,
      "aty": 6211,
      "Ġpartic": 6212,
      "ĠJohnson": 6213,
      "Ġunf": 6214,
      "ĠJu": 6215,
      "Ġquacked": 6216,
      "Ġpolishing": 6217,
      "Ġleader": 6218,
      "Ġstern": 6219,
      "ora": 6220,
      "iding": 6221,
      "lowly": 6222,
      "Ġbecoming": 6223,
      "Ġflames": 6224,
      "Ġlamb": 6225,
      "ĠJeff": 6226,
      "Ġkites": 6227,
      "ctions": 6228,
      "Ġagrees": 6229,
      "Ġpoems": 6230,
      "Ġpenguins": 6231,
      "ĠwasnÃ¢": 6232,
      "Afterwards": 6233,
      "Ġfaced": 6234,
      "ĠQuack": 6235,
      "essie": 6236,
      "ĠOut": 6237,
      "Ġeverybody": 6238,
      "Ġseesaw": 6239,
      "However": 6240,
      "ĠPinky": 6241,
      "Ġfolding": 6242,
      "Ġmelting": 6243,
      "Ġscales": 6244,
      "Ġsquealed": 6245,
      "Ġthro": 6246,
      "Ġhealed": 6247,
      "Ġvanish": 6248,
      "ĠUnfortunately": 6249,
      "Ġhelmets": 6250,
      "Ġwink": 6251,
      "ĠLuke": 6252,
      "ĠBoth": 6253,
      "Ġlogs": 6254,
      "ĠJones": 6255,
      "ĠJenna": 6256,
      "ords": 6257,
      "Ġcrabs": 6258,
      "ĠĊĠ": 6259,
      "Ġthroat": 6260,
      "ĠMart": 6261,
      "hell": 6262,
      "ĠLeave": 6263,
      "Ġusually": 6264,
      "Ġopinion": 6265,
      "Ġcrumbs": 6266,
      "Ġtractor": 6267,
      "Ġripe": 6268,
      "Ġdipped": 6269,
      "opes": 6270,
      "lings": 6271,
      "Ġscra": 6272,
      "Ġseems": 6273,
      "Ġast": 6274,
      "Ġlollipops": 6275,
      "Ġtwinkle": 6276,
      "Ġcash": 6277,
      "Ġrisk": 6278,
      "ĠChrist": 6279,
      "Ġteaches": 6280,
      "Ġcomm": 6281,
      "ĠBye": 6282,
      "Ġgroceries": 6283,
      "ĠFollow": 6284,
      "Ġden": 6285,
      "Ġknights": 6286,
      "Harry": 6287,
      "ivery": 6288,
      "asm": 6289,
      "Ġprovided": 6290,
      "Ġdentist": 6291,
      "Ġpolished": 6292,
      "Ġvalued": 6293,
      "Ġstaying": 6294,
      "ids": 6295,
      "elle": 6296,
      "Ġpeeking": 6297,
      "aze": 6298,
      "Ġsnakes": 6299,
      "ĠAdam": 6300,
      "Ġscru": 6301,
      "Ġinterested": 6302,
      "Ġblows": 6303,
      "Ġrubs": 6304,
      "ĠWatch": 6305,
      "Ġcautiously": 6306,
      "ĠDolly": 6307,
      "Ġcracked": 6308,
      "Alex": 6309,
      "Ġrings": 6310,
      "Ġunited": 6311,
      "ophia": 6312,
      "araway": 6313,
      "ĠPut": 6314,
      "Ġfaraway": 6315,
      "Ġdesert": 6316,
      "ĠSorry": 6317,
      "Ġwinked": 6318,
      "Ġmisses": 6319,
      "Ġprotecting": 6320,
      "Ġfreed": 6321,
      "Ġmarked": 6322,
      "Ellie": 6323,
      "Mittens": 6324,
      "Ġyounger": 6325,
      "Ġwrist": 6326,
      "Ġcloses": 6327,
      "Ġwandering": 6328,
      "mas": 6329,
      "Ġbalanced": 6330,
      "Ġchuckled": 6331,
      "Ġfuzzy": 6332,
      "Ġforehead": 6333,
      "Ġlistens": 6334,
      "Ġpastries": 6335,
      "Ġsingle": 6336,
      "ĠKayla": 6337,
      "Ġsigned": 6338,
      "go": 6339,
      "Ġrobb": 6340,
      "ĠHannah": 6341,
      "Ġbeads": 6342,
      "Ġparticular": 6343,
      "Ġroses": 6344,
      "boo": 6345,
      "Ġboom": 6346,
      "ĠFox": 6347,
      "Ab": 6348,
      "Ġactions": 6349,
      "Ġdirections": 6350,
      "Ġhowever": 6351,
      "ÅĵMommy": 6352,
      "Ġcopy": 6353,
      "igi": 6354,
      "ĠLizzy": 6355,
      "ĠSuzie": 6356,
      "Ġcough": 6357,
      "Ġsplashes": 6358,
      "Ġcrackers": 6359,
      "rance": 6360,
      "aura": 6361,
      "Ġbaker": 6362,
      "Ġnaps": 6363,
      "Ġcous": 6364,
      "ppers": 6365,
      "Ġroots": 6366,
      "Ġfilling": 6367,
      "Ġsnowballs": 6368,
      "Ġyesterday": 6369,
      "ÅĵWhatÃ¢": 6370,
      "Ġrestored": 6371,
      "Ġfluttered": 6372,
      "Ġdelivery": 6373,
      "Ġrolls": 6374,
      "abel": 6375,
      "arling": 6376,
      "Ġstem": 6377,
      "Ġconn": 6378,
      "Ġswooped": 6379,
      "Bad": 6380,
      "dies": 6381,
      "iles": 6382,
      "Ġgaze": 6383,
      "Ġsuitcase": 6384,
      "Ġwiggled": 6385,
      "Unfortunately": 6386,
      "Ġtipt": 6387,
      "ĠNina": 6388,
      "ilo": 6389,
      "Sandy": 6390,
      "Ġsomebody": 6391,
      "ickey": 6392,
      "Ġbumpy": 6393,
      "Ġitchy": 6394,
      "bbly": 6395,
      "Ġrefle": 6396,
      "Ġswirl": 6397,
      "Ġslam": 6398,
      "ĠChristmas": 6399,
      "Ëľ": 6400,
      "ĠY": 6401,
      "Ġphotos": 6402,
      "âĤ¬Ëľ": 6403,
      "Some": 6404,
      "oline": 6405,
      "Ġtwin": 6406,
      "Ġpastels": 6407,
      "Ġcelebration": 6408,
      "Ġtrips": 6409,
      "Ġpedals": 6410,
      "ĠPipp": 6411,
      "atches": 6412,
      "Ġbacked": 6413,
      "Ġtallest": 6414,
      "Ġawake": 6415,
      "ĠKeep": 6416,
      "Ġfroze": 6417,
      "Ġcause": 6418,
      "Ġcashier": 6419,
      "Ġnect": 6420,
      "Ġremote": 6421,
      "Ġlined": 6422,
      "Ġdarker": 6423,
      "Ġdetermination": 6424,
      "Ġnectar": 6425,
      "ility": 6426,
      "Ġspeaking": 6427,
      "Ġsecure": 6428,
      "ormed": 6429,
      "ĠDoggy": 6430,
      "ĠMany": 6431,
      "Ġknees": 6432,
      "Kate": 6433,
      "Ġwow": 6434,
      "ĠFriend": 6435,
      "Ġpiggy": 6436,
      "anes": 6437,
      "Ġcomplaining": 6438,
      "Ġbars": 6439,
      "per": 6440,
      "Ġrecording": 6441,
      "Run": 6442,
      "Ġsneaky": 6443,
      "Ġsilent": 6444,
      "Ġvideos": 6445,
      "May": 6446,
      "oys": 6447,
      "Ġhealth": 6448,
      "Ġaccomplishment": 6449,
      "Ġliqu": 6450,
      "Ġpleasure": 6451,
      "Ġacting": 6452,
      "?\",": 6453,
      "Ġentrance": 6454,
      "Ġty": 6455,
      "ĠBird": 6456,
      "Millie": 6457,
      "Bun": 6458,
      "Ġwears": 6459,
      "Ġrockets": 6460,
      "Ġdelivered": 6461,
      "Ġmiles": 6462,
      "Ġglee": 6463,
      "Ġinsp": 6464,
      "Ġhi": 6465,
      "esmer": 6466,
      "Ġcoloured": 6467,
      "Ġopp": 6468,
      "ĠPrin": 6469,
      "Ġtricked": 6470,
      "ĠEnjoy": 6471,
      "Ġmesmer": 6472,
      "ĠBeing": 6473,
      "sequ": 6474,
      "boat": 6475,
      "Ġcheeks": 6476,
      "ĠMo": 6477,
      "yond": 6478,
      "Ġaff": 6479,
      "Ġbeyond": 6480,
      "Ġafterwards": 6481,
      "Ġnoon": 6482,
      "Ġsib": 6483,
      "Ġconsequ": 6484,
      "Nina": 6485,
      "Ġhissed": 6486,
      "Ġstays": 6487,
      "cited": 6488,
      "Ġinsects": 6489,
      "Ġglasses": 6490,
      "ky": 6491,
      "Ġbowls": 6492,
      "Time": 6493,
      "umm": 6494,
      "Ġjoking": 6495,
      "Rose": 6496,
      "Toby": 6497,
      "ĠNothing": 6498,
      "Ġsobbed": 6499,
      "Ġtickled": 6500,
      "Ġfarther": 6501,
      "Fine": 6502,
      "Ġcolored": 6503,
      "Ġburst": 6504,
      "affes": 6505,
      "Ġscaring": 6506,
      "Ġstolen": 6507,
      "Ġattack": 6508,
      "Ġsense": 6509,
      "Ġsandcastles": 6510,
      "Ġtricky": 6511,
      "Ġrule": 6512,
      "Ġmasks": 6513,
      "Sad": 6514,
      "arter": 6515,
      "Ġcovers": 6516,
      "Bl": 6517,
      "iki": 6518,
      "ĠĠĊ": 6519,
      "Ġdeal": 6520,
      "Ġgiraffes": 6521,
      "Ġinstrum": 6522,
      "ÅĵCome": 6523,
      "Ġcalmed": 6524,
      "Ġhandful": 6525,
      "?'": 6526,
      "Ġtalented": 6527,
      "ĠSparky": 6528,
      "Ġpause": 6529,
      "Ġtangled": 6530,
      "Ġindeed": 6531,
      "aren": 6532,
      "Ġadding": 6533,
      "Ġsmarter": 6534,
      "Ġscarves": 6535,
      "Ġcandies": 6536,
      "ths": 6537,
      "ĠJessica": 6538,
      "Ġlung": 6539,
      "Ġshirts": 6540,
      "Ġachieved": 6541,
      "Ġchoices": 6542,
      "Polly": 6543,
      "Ġconsequences": 6544,
      "Ġliquid": 6545,
      "ossible": 6546,
      "Lilly": 6547,
      "Ġyourselves": 6548,
      "rious": 6549,
      "Ġbehavi": 6550,
      "Ġleading": 6551,
      "Ġbumps": 6552,
      "Ġreads": 6553,
      "Ġbatteries": 6554,
      "igers": 6555,
      "choo": 6556,
      "Ġhesitated": 6557,
      "Ġimpossible": 6558,
      "Ġbadge": 6559,
      "ĠTara": 6560,
      "ĠMon": 6561,
      "ept": 6562,
      "Ġmi": 6563,
      "Ġpaddle": 6564,
      "Ġmixture": 6565,
      "Ġexplorers": 6566,
      "ĠTwo": 6567,
      "Ġdarling": 6568,
      "iled": 6569,
      "Ġmagnets": 6570,
      "lling": 6571,
      "ĠMel": 6572,
      "ouch": 6573,
      "Ġclowns": 6574,
      "Ġkicks": 6575,
      "ĠGet": 6576,
      "Ġrecommended": 6577,
      "Shh": 6578,
      "ana": 6579,
      "Ġweeping": 6580,
      "Ġgracefully": 6581,
      "ners": 6582,
      "Ġexperien": 6583,
      "ĠCindy": 6584,
      "ĠLizzie": 6585,
      "ĠJon": 6586,
      "Ġseashell": 6587,
      "Ġseeker": 6588,
      "Ġbakery": 6589,
      "Ġfirefighters": 6590,
      "anging": 6591,
      "ĠJulia": 6592,
      "Ġsalty": 6593,
      "vest": 6594,
      "brush": 6595,
      "Ġimproved": 6596,
      "Whe": 6597,
      "rig": 6598,
      "Those": 6599,
      "Ġswept": 6600,
      "Milly": 6601,
      "atul": 6602,
      "coat": 6603,
      "Ġdeserve": 6604,
      "Ġstroked": 6605,
      "uggles": 6606,
      "ĠPandy": 6607,
      "Ġflapping": 6608,
      "Ġwipes": 6609,
      "Ġbeginning": 6610,
      "Ġcomplained": 6611,
      "Ġmushrooms": 6612,
      "urry": 6613,
      "ĠJacob": 6614,
      "ĠEl": 6615,
      "yan": 6616,
      "Ġhider": 6617,
      "Ru": 6618,
      "obody": 6619,
      "itches": 6620,
      "ĠSque": 6621,
      "ĠSqu": 6622,
      "ĠMickey": 6623,
      "Ġsteer": 6624,
      "Ġknocks": 6625,
      "Ġcust": 6626,
      "Ġthorn": 6627,
      "Ġseven": 6628,
      "Ġcans": 6629,
      "ĠHappy": 6630,
      "Ġteased": 6631,
      "Ġobjects": 6632,
      "Ġparties": 6633,
      "Days": 6634,
      "ÅĵDo": 6635,
      "Ġtravelled": 6636,
      "Ġthird": 6637,
      "ĠLarry": 6638,
      "ĠGigi": 6639,
      "Ġhearing": 6640,
      "ĠPrincess": 6641,
      "Ġbasement": 6642,
      "Ġtigers": 6643,
      "Ġcupcakes": 6644,
      "Ġhoriz": 6645,
      "Ġclick": 6646,
      "ÅĵYouÃ¢": 6647,
      "Ġfever": 6648,
      "Ġsnuck": 6649,
      "Ġheading": 6650,
      "Ġseconds": 6651,
      "Ġdots": 6652,
      "Ġraincoat": 6653,
      "tle": 6654,
      "ĠSnuggles": 6655,
      "Ġsiblings": 6656,
      "Ġhorizon": 6657,
      "elia": 6658,
      "Ġsmiley": 6659,
      "Ġperformance": 6660,
      "Ġcustom": 6661,
      "ĠPl": 6662,
      "Ġartist": 6663,
      "Ġhallway": 6664,
      "no": 6665,
      "Ġbeam": 6666,
      "Ġmarker": 6667,
      "Ġsnatched": 6668,
      "Ġlighter": 6669,
      "Ġyells": 6670,
      "Ġjackets": 6671,
      "Ġdrums": 6672,
      "Ġfluttering": 6673,
      "indr": 6674,
      "ĠLena": 6675,
      "ÅĵHi": 6676,
      "ans": 6677,
      "step": 6678,
      "pare": 6679,
      "ĠLuckily": 6680,
      "Ġruining": 6681,
      "Ġgems": 6682,
      "Ġbedtime": 6683,
      "igning": 6684,
      "ĠwouldnÃ¢": 6685,
      "Ġraindr": 6686,
      "Ġwee": 6687,
      "Ġneither": 6688,
      "Ġconcer": 6689,
      "Ġbuying": 6690,
      "rigued": 6691,
      "Ġpuppies": 6692,
      "ĠSlowly": 6693,
      "Ġlett": 6694,
      "dri": 6695,
      "ĠWater": 6696,
      "ĠWithout": 6697,
      "Ġpaying": 6698,
      "Ġscrubbed": 6699,
      "Ġcelebrating": 6700,
      "Ġfamilies": 6701,
      "Ġdollhouse": 6702,
      "Ġannoy": 6703,
      "ÅĵWow": 6704,
      "Ġcreamy": 6705,
      "Ġlettuce": 6706,
      "band": 6707,
      "Ġamong": 6708,
      "umbling": 6709,
      "Ġpeacefully": 6710,
      "Ġrivers": 6711,
      "Ġscratches": 6712,
      "Ġwrapping": 6713,
      "Ġwidened": 6714,
      "Ġdrifted": 6715,
      "Ġwadd": 6716,
      "Bobo": 6717,
      "Ġrumble": 6718,
      "Tina": 6719,
      "Ġtasks": 6720,
      "atur": 6721,
      "ivity": 6722,
      "ades": 6723,
      "Ġtreehouse": 6724,
      "Ġhides": 6725,
      "Ġwins": 6726,
      "Ġrepa": 6727,
      "Ġbehaved": 6728,
      "cers": 6729,
      "Ġrusty": 6730,
      "alph": 6731,
      "Ġplayers": 6732,
      "ĠEverybody": 6733,
      "ĠwonÃ¢": 6734,
      "ĠBuzzy": 6735,
      "Ġlun": 6736,
      "Dan": 6737,
      "ĠJazz": 6738,
      "ael": 6739,
      "Ġcuddly": 6740,
      "immering": 6741,
      "fall": 6742,
      "Ġuns": 6743,
      "Ġfact": 6744,
      "ounce": 6745,
      "Ġarrows": 6746,
      "Ġrewarded": 6747,
      "Ġwilling": 6748,
      "Ġlower": 6749,
      "Ġneedles": 6750,
      "An": 6751,
      "Ġsource": 6752,
      "Ġcreativity": 6753,
      "Ġshrinking": 6754,
      "Ġcor": 6755,
      "Ġlosing": 6756,
      "Ġtemper": 6757,
      "Ġech": 6758,
      "Ġrepaired": 6759,
      "Ġpassen": 6760,
      "Ġfears": 6761,
      "iece": 6762,
      "Ġgrandpare": 6763,
      "Ġincluding": 6764,
      "Ġchoo": 6765,
      "Ġtiptoed": 6766,
      "itched": 6767,
      "Tr": 6768,
      "Ġcreations": 6769,
      "Ġtapped": 6770,
      "ĠAbbie": 6771,
      "Ġgrassy": 6772,
      "Ġchefs": 6773,
      "Clara": 6774,
      "ongr": 6775,
      "ĠGoodbye": 6776,
      "Ġdef": 6777,
      "ded": 6778,
      "Ġminerals": 6779,
      "jo": 6780,
      "Ġseparated": 6781,
      "ĠEmmy": 6782,
      "Ġsprinkled": 6783,
      "Ġrising": 6784,
      "Ġimagining": 6785,
      "ĠJune": 6786,
      "Ġgranted": 6787,
      "ichael": 6788,
      "Ġchop": 6789,
      "Ġaud": 6790,
      "Ġgross": 6791,
      "ĠRock": 6792,
      "Ġtempt": 6793,
      "hew": 6794,
      "Ġaren": 6795,
      "Great": 6796,
      "ĠLaura": 6797,
      "ĠSophia": 6798,
      "Ġswimsuit": 6799,
      "ongratul": 6800,
      "imon": 6801,
      "ĠZip": 6802,
      "Ġtiss": 6803,
      "Ġpans": 6804,
      "Ġlimes": 6805,
      "hog": 6806,
      "Ġstomped": 6807,
      "Ġscrewdri": 6808,
      "Ġcoup": 6809,
      "Ġgrabbing": 6810,
      "ĠPo": 6811,
      "Ġpouted": 6812,
      "Ġbackwards": 6813,
      "Ġspong": 6814,
      "itude": 6815,
      "Ġdecorating": 6816,
      "ÅĵMy": 6817,
      "Ġdamage": 6818,
      "ishy": 6819,
      "Ġhesitant": 6820,
      "Ġearn": 6821,
      "Ġprinting": 6822,
      "Have": 6823,
      "Ġpeppers": 6824,
      "Ġtodd": 6825,
      "Ġstung": 6826,
      "Ġsquares": 6827,
      "Ġunpacked": 6828,
      "cl": 6829,
      "ments": 6830,
      "Ġtramp": 6831,
      "ntil": 6832,
      "Ġslower": 6833,
      "Ġcowb": 6834,
      "Ġdiving": 6835,
      "Ġplanning": 6836,
      "Ġbeloved": 6837,
      "Ġonions": 6838,
      "Pat": 6839,
      "Ġmaterials": 6840,
      "Ġheavier": 6841,
      "Ġchip": 6842,
      "ĠJay": 6843,
      "ĠOlive": 6844,
      "Ġgrowls": 6845,
      "Ġraindrops": 6846,
      "Ġwrink": 6847,
      "Ġmer": 6848,
      "Ġpointy": 6849,
      "ĠRemember": 6850,
      "Ġsnowmen": 6851,
      "cope": 6852,
      "Ġsurroundings": 6853,
      "Ġpromises": 6854,
      "Ġavoid": 6855,
      "Ġscrewdriver": 6856,
      "Wh": 6857,
      "Meow": 6858,
      "Yummy": 6859,
      "Ġrecipe": 6860,
      "Ġaudience": 6861,
      "Ġsailboat": 6862,
      "Ġcousin": 6863,
      "Ġrustling": 6864,
      "Ġforgiven": 6865,
      "Ġneighbours": 6866,
      "Ġblocking": 6867,
      "Que": 6868,
      "Ġcenter": 6869,
      "kend": 6870,
      "Ġslices": 6871,
      "Ġgobbled": 6872,
      "eds": 6873,
      "Ġwiping": 6874,
      "Ġweekend": 6875,
      "Ġtemperature": 6876,
      "Ġtouc": 6877,
      "Bill": 6878,
      "Ġhedgehog": 6879,
      "Ġtrampoline": 6880,
      "Queen": 6881,
      "int": 6882,
      "Ġrefu": 6883,
      "Ġarr": 6884,
      "Ġhelpers": 6885,
      "Ġwobbled": 6886,
      "Ġrip": 6887,
      "Ġwindy": 6888,
      "For": 6889,
      "Katie": 6890,
      "pr": 6891,
      "yes": 6892,
      "Ġcouple": 6893,
      "Ġstool": 6894,
      "Ġdiscussed": 6895,
      "ae": 6896,
      "ushing": 6897,
      "ĠPam": 6898,
      "sty": 6899,
      "Fo": 6900,
      "Ġdesigned": 6901,
      "ĠEarth": 6902,
      "Ġornaments": 6903,
      "Ġdreamt": 6904,
      "Oops": 6905,
      "itted": 6906,
      "Ġnoses": 6907,
      "Ġcorners": 6908,
      "ĠStella": 6909,
      "ĠEls": 6910,
      "child": 6911,
      "Ġpecked": 6912,
      "Ġslammed": 6913,
      "eal": 6914,
      "uzzy": 6915,
      "unched": 6916,
      "Ġswans": 6917,
      "Ġafford": 6918,
      "iley": 6919,
      "Ġhus": 6920,
      "Ew": 6921,
      "Roar": 6922,
      "ĠRobby": 6923,
      "Ġfeast": 6924,
      "Ġsports": 6925,
      "Ġhitting": 6926,
      "oey": 6927,
      "Ġage": 6928,
      "ĠDr": 6929,
      "Ġstreets": 6930,
      "ably": 6931,
      "Ġwag": 6932,
      "Ġtissue": 6933,
      "Ġdads": 6934,
      "Ġache": 6935,
      "Ġaside": 6936,
      "ĠMira": 6937,
      "ccoon": 6938,
      "Ġraccoon": 6939,
      "Ġsponge": 6940,
      "Ġstain": 6941,
      "Ġrequested": 6942,
      "Ġmeals": 6943,
      "Ġcuriously": 6944,
      "Ġforks": 6945,
      "Ġsunflowers": 6946,
      "Ġreflection": 6947,
      "Ġsnowfl": 6948,
      "arrow": 6949,
      "Ġwarnings": 6950,
      "Ġtails": 6951,
      "Baby": 6952,
      "ĠNick": 6953,
      "Ġdances": 6954,
      "Ġprett": 6955,
      "Ġplans": 6956,
      "Jul": 6957,
      "Ġbows": 6958,
      "ido": 6959,
      "Ġvanilla": 6960,
      "Ġshaped": 6961,
      "Ġfamiliar": 6962,
      "ĠBinky": 6963,
      "Ġsparks": 6964,
      "Ġdet": 6965,
      "ĠRobert": 6966,
      "--": 6967,
      "cky": 6968,
      "Ġgri": 6969,
      "Ġleaning": 6970,
      "Ġdollars": 6971,
      "Fin": 6972,
      "Ġcoloring": 6973,
      "Ġremembering": 6974,
      "Ġadult": 6975,
      "Ġbreathed": 6976,
      "Ġintrigued": 6977,
      "Ġgreeted": 6978,
      "Ġsale": 6979,
      "Ġscrews": 6980,
      "using": 6981,
      "Ġgrandchild": 6982,
      "ne": 6983,
      "ition": 6984,
      "Ġduckling": 6985,
      "Maria": 6986,
      "Ġforgets": 6987,
      "Ġspreading": 6988,
      "osen": 6989,
      "Ġgasp": 6990,
      "ĠSc": 6991,
      "Ġchosen": 6992,
      "Ġastron": 6993,
      "Ġthrown": 6994,
      "Ġshops": 6995,
      "Pe": 6996,
      "ĠBee": 6997,
      "ĠThose": 6998,
      "Ġprettier": 6999,
      "Ġtwice": 7000,
      "Ġpraying": 7001,
      "ĠRyan": 7002,
      "Ġtunnels": 7003,
      "Surpr": 7004,
      "ĠGranny": 7005,
      "aker": 7006,
      "Ġhour": 7007,
      "Ġpotion": 7008,
      "ĠTess": 7009,
      "Ġenthusi": 7010,
      "llen": 7011,
      "Ġtouches": 7012,
      "Ġastronaut": 7013,
      "Ġswords": 7014,
      "ĠQueen": 7015,
      "Ġenthusiasm": 7016,
      "Ġhusband": 7017,
      "arac": 7018,
      "Ġsailors": 7019,
      "ertain": 7020,
      "Blue": 7021,
      "Ġgardener": 7022,
      "otten": 7023,
      "Ġmoo": 7024,
      "endy": 7025,
      "Woof": 7026,
      "Ġhops": 7027,
      "Ġzipping": 7028,
      "Ġspikes": 7029,
      "Ġsuperheroes": 7030,
      "Ġcorre": 7031,
      "Ġreason": 7032,
      "Boo": 7033,
      "Ġmagician": 7034,
      "Ġwishing": 7035,
      "Ġdaring": 7036,
      "Ġspoonful": 7037,
      "Ġgrandparents": 7038,
      "mallow": 7039,
      "Ġleast": 7040,
      "ĠBluey": 7041,
      "Ġmarsh": 7042,
      "Ġskunk": 7043,
      "Ġreass": 7044,
      "ĠThanks": 7045,
      "ĠOur": 7046,
      "Ġchanging": 7047,
      "Ġdod": 7048,
      "ĠNobody": 7049,
      "Ġborrowed": 7050,
      "Ġscamp": 7051,
      "Ġcounts": 7052,
      "Ġpens": 7053,
      "Ġflight": 7054,
      "Ġforgetting": 7055,
      "Ġrotten": 7056,
      "ĠChris": 7057,
      "Ġbodies": 7058,
      "Ġencourag": 7059,
      "Ġflavors": 7060,
      "Ġguests": 7061,
      "Ġ10": 7062,
      "Ġhopeful": 7063,
      "ently": 7064,
      "Ġneare": 7065,
      "ĠAbi": 7066,
      "Ġwoof": 7067,
      "ĠFinn": 7068,
      "ounced": 7069,
      "Ġsnuggle": 7070,
      "Ġmesmerized": 7071,
      "Ġsending": 7072,
      "ĠFriends": 7073,
      "fly": 7074,
      "Ġheroes": 7075,
      "Ġcharac": 7076,
      "Ġcharacter": 7077,
      "Ġmuscle": 7078,
      "stick": 7079,
      "ĠRover": 7080,
      "oni": 7081,
      "ĠMilo": 7082,
      "Ġbuzzed": 7083,
      "Frank": 7084,
      "ĠSqueaky": 7085,
      "Ġseaw": 7086,
      "Ġneatly": 7087,
      "Ġgrows": 7088,
      "Our": 7089,
      "the": 7090,
      "ĠCra": 7091,
      "Whee": 7092,
      "ĠMikey": 7093,
      "wk": 7094,
      "Ġwraps": 7095,
      "Ġsteady": 7096,
      "Ruby": 7097,
      "Ġposs": 7098,
      "Ġnibb": 7099,
      "Ġfeeding": 7100,
      "ĠUntil": 7101,
      "Ġmarshmallow": 7102,
      "ĠListen": 7103,
      "Ġhandsome": 7104,
      "Ġcond": 7105,
      "Ġmints": 7106,
      "irrel": 7107,
      "Ġdelivering": 7108,
      "Ġnine": 7109,
      "Ġoh": 7110,
      "antha": 7111,
      "Ġdived": 7112,
      "bba": 7113,
      "Ġpolitely": 7114,
      "Ġzebras": 7115,
      "Miss": 7116,
      "Tw": 7117,
      "Ġonward": 7118,
      "Ġalien": 7119,
      "Ġsuffering": 7120,
      "Ġnapkins": 7121,
      "Ġwarmer": 7122,
      "armer": 7123,
      "years": 7124,
      "Ġsneezing": 7125,
      "Ġbaths": 7126,
      "Ġhonked": 7127,
      "Ġplain": 7128,
      "opsy": 7129,
      "Ġdefe": 7130,
      "Ġplucked": 7131,
      "Ġcrashing": 7132,
      "Tweety": 7133,
      "Ġmatters": 7134,
      "Ġembarrass": 7135,
      "Ġposter": 7136,
      "ection": 7137,
      "ĠthatÃ¢": 7138,
      "meal": 7139,
      "Ġlifts": 7140,
      "By": 7141,
      "Ġrefreshing": 7142,
      "ÅĵMom": 7143,
      "Ġunsure": 7144,
      "Ġseaweed": 7145,
      "Ġlungs": 7146,
      "ĠBirthday": 7147,
      "Ġstudents": 7148,
      "Ġincreased": 7149,
      "ĠJudy": 7150,
      "Ġcrew": 7151,
      "Ġjoining": 7152,
      "Ġstands": 7153,
      "Ġtoddler": 7154,
      "Ġoatmeal": 7155,
      "ĠEx": 7156,
      "ĠMartha": 7157,
      "Ġscen": 7158,
      "allowed": 7159,
      "Ġproper": 7160,
      "Ġpreparing": 7161,
      "Ġswallowed": 7162,
      "Ġdip": 7163,
      "Ġglued": 7164,
      "Ġthud": 7165,
      "ÅĵBut": 7166,
      "Ġexpress": 7167,
      "Ġwhispers": 7168,
      "Ġrespond": 7169,
      "Su": 7170,
      "Ġwatering": 7171,
      "aster": 7172,
      "Ġamount": 7173,
      "Ġdie": 7174,
      "Ġropes": 7175,
      "ĠStar": 7176,
      "Ġperformed": 7177,
      "Ġtoaster": 7178,
      "Ġstarfish": 7179,
      "ĠHoot": 7180,
      "Ġleads": 7181,
      "Ġtrembled": 7182,
      "Ġpresses": 7183,
      "Ġwobbly": 7184,
      "Ġtriangles": 7185,
      "Sadly": 7186,
      "Ġhawk": 7187,
      "Ġlessons": 7188,
      "Ġcushions": 7189,
      "Ġbiting": 7190,
      "while": 7191,
      "Ġpostman": 7192,
      "Ġgeese": 7193,
      "ÅĵWell": 7194,
      "Ġdancers": 7195,
      "Ġpops": 7196,
      "Nemo": 7197,
      "Ġpuff": 7198,
      "Ġtalks": 7199,
      "Ġsniffs": 7200,
      "Ġresisted": 7201,
      "Ġfocused": 7202,
      "Ġscraped": 7203,
      "Ġmerry": 7204,
      "Back": 7205,
      "Ġbully": 7206,
      "Ġadults": 7207,
      "Ġpanicked": 7208,
      "Ġconfl": 7209,
      "Ġrushing": 7210,
      "Ġnecklaces": 7211,
      "Ġfreedom": 7212,
      "vant": 7213,
      "Ġflas": 7214,
      "ĠMaya": 7215,
      "Ġpuppet": 7216,
      "Ġsofter": 7217,
      "Ġslips": 7218,
      "ĠKiki": 7219,
      "Ġfirmly": 7220,
      "Ġwaddled": 7221,
      "Ġtrot": 7222,
      "iona": 7223,
      "Ducky": 7224,
      "ados": 7225,
      "Ġjoyful": 7226,
      "Ġfirefly": 7227,
      "Ġencouraging": 7228,
      "Ġtested": 7229,
      "Ġwrigg": 7230,
      "Ġdropping": 7231,
      "ĠSun": 7232,
      "ÅĵWhere": 7233,
      "Ġdrawers": 7234,
      "Ġfrowning": 7235,
      "onna": 7236,
      "Br": 7237,
      "Ġtables": 7238,
      "Ġwaterfall": 7239,
      "Ġworn": 7240,
      "Ġwiggle": 7241,
      "fia": 7242,
      "ĠZoey": 7243,
      "Ġev": 7244,
      "Ġblast": 7245,
      "Ġnervously": 7246,
      "Ġfaded": 7247,
      "rey": 7248,
      "Ġlifting": 7249,
      "bird": 7250,
      "Ġscampered": 7251,
      "Ġrout": 7252,
      "Ġdrivers": 7253,
      "Ġhumans": 7254,
      "Very": 7255,
      "ippy": 7256,
      "lets": 7257,
      "Ġspat": 7258,
      "Ġexplo": 7259,
      "cake": 7260,
      "ĠOnly": 7261,
      "Mimi": 7262,
      "Ġappreciation": 7263,
      "Ġpours": 7264,
      "Ġfirefighter": 7265,
      "Ġrobber": 7266,
      "Ġdrawn": 7267,
      "Ġsqueak": 7268,
      "Ġthoughts": 7269,
      "Ġpennies": 7270,
      "Ġrespected": 7271,
      "Ġquarreling": 7272,
      "Ġpigeons": 7273,
      "Ġthroughout": 7274,
      "Ġtwinkled": 7275,
      "Ġleapt": 7276,
      "retty": 7277,
      "Bet": 7278,
      "Ġocc": 7279,
      "ĠAlong": 7280,
      "Ġstacked": 7281,
      "ĠLove": 7282,
      "but": 7283,
      "Ġdresser": 7284,
      "ĠThatÃ¢": 7285,
      "rrr": 7286,
      "ĠFrosty": 7287,
      "Ġscient": 7288,
      "Ġfits": 7289,
      "Ġcoc": 7290,
      "ĠStay": 7291,
      "ĠJanie": 7292,
      "Ġmaster": 7293,
      "Ġscientist": 7294,
      "anwhile": 7295,
      "roken": 7296,
      "now": 7297,
      "Listen": 7298,
      "ears": 7299,
      "Ġbravest": 7300,
      "Ġavocados": 7301,
      "Ġovercome": 7302,
      "Ġstrongest": 7303,
      "Ġmonths": 7304,
      "Ġelf": 7305,
      "Ġpolar": 7306,
      "Ġplaytime": 7307,
      "Ġsan": 7308,
      "ĠBaa": 7309,
      "Ġnotes": 7310,
      "Ġgonna": 7311,
      "ĠAsh": 7312,
      "ĠTodd": 7313,
      "fire": 7314,
      "Ġnur": 7315,
      "Ġcertain": 7316,
      "ĠTake": 7317,
      "Ġmanag": 7318,
      "Tony": 7319,
      "Ġwept": 7320,
      "ĠMeg": 7321,
      "Ġnood": 7322,
      "Mine": 7323,
      "Ġmunch": 7324,
      "Ġspins": 7325,
      "Ġscored": 7326,
      "Ġcolder": 7327,
      "Ġechoed": 7328,
      "bage": 7329,
      "eel": 7330,
      "Ġcosy": 7331,
      "Ġconvers": 7332,
      "Ġwakes": 7333,
      "ĠSquirrel": 7334,
      "ĠMarie": 7335,
      "Ġgarbage": 7336,
      "Ġplayroom": 7337,
      "ĊĊ": 7338,
      "Ġdesigns": 7339,
      "Ġperforming": 7340,
      "ĠFrog": 7341,
      "plash": 7342,
      "eezes": 7343,
      "urious": 7344,
      "Ġpeck": 7345,
      "Ġprob": 7346,
      "Ġsank": 7347,
      "Ġflown": 7348,
      "ĠSadie": 7349,
      "Ġtricycle": 7350,
      "ca": 7351,
      "ĠFido": 7352,
      "Ġsweetest": 7353,
      "Ġprove": 7354,
      "Ġforgiving": 7355,
      "Ġprobably": 7356,
      "Ġmarshmallows": 7357,
      "Ġgest": 7358,
      "Ġbehaving": 7359,
      "Like": 7360,
      "cher": 7361,
      "iment": 7362,
      "Ġpumpkins": 7363,
      "oke": 7364,
      "ĠJacky": 7365,
      "ĠBessie": 7366,
      "rying": 7367,
      "Ġexplorer": 7368,
      "Ġguide": 7369,
      "please": 7370,
      "Ġsqueezing": 7371,
      "Ġrobots": 7372,
      "Ġsadd": 7373,
      "Ġtossed": 7374,
      "ÅĵIf": 7375,
      "Ġblinking": 7376,
      "ĠQuick": 7377,
      "bbling": 7378,
      "Ġcausing": 7379,
      "Kim": 7380,
      "Ġbells": 7381,
      "undred": 7382,
      "...\"": 7383,
      "broken": 7384,
      "Ġshown": 7385,
      "Ġcobwebs": 7386,
      "ÅĵOkay": 7387,
      "espite": 7388,
      "ammy": 7389,
      "Ġsquishy": 7390,
      "ĠChe": 7391,
      "Ġspices": 7392,
      "Ġhaird": 7393,
      "Mad": 7394,
      "ĠFire": 7395,
      "Ġpassengers": 7396,
      "Ġcongratul": 7397,
      "Ġcraft": 7398,
      "Ġties": 7399,
      "fus": 7400,
      "Ġtighter": 7401,
      "Ġhealing": 7402,
      "ĠZara": 7403,
      "Ġmate": 7404,
      "Ġangels": 7405,
      "?!\"": 7406,
      "Ġyielded": 7407,
      "ading": 7408,
      "Ġreversed": 7409,
      "ilda": 7410,
      "Ġpound": 7411,
      "David": 7412,
      "Ġaimed": 7413,
      "Follow": 7414,
      "Ġnapping": 7415,
      "ĠFarmer": 7416,
      "Quick": 7417,
      "Even": 7418,
      "Ġgiggles": 7419,
      "upt": 7420,
      "Ġnearly": 7421,
      "Ġpays": 7422,
      "ĠOwl": 7423,
      "Ġoffic": 7424,
      "During": 7425,
      "Ġunw": 7426,
      "Ġdistract": 7427,
      "Ġkittens": 7428,
      "Ġinstruments": 7429,
      "Ġwider": 7430,
      "ĠMouse": 7431,
      "Ġreun": 7432,
      "mates": 7433,
      "aying": 7434,
      "Ġsewing": 7435,
      "alloween": 7436,
      "Ġtil": 7437,
      "Ġnuzz": 7438,
      "Ġdoorway": 7439,
      "Ġconflict": 7440,
      "Ġclues": 7441,
      "ĠUnder": 7442,
      "Ġappreciated": 7443,
      "Ġinj": 7444,
      "Ġpaintbrush": 7445,
      "found": 7446,
      "ĠSimon": 7447,
      "Ġbrushing": 7448,
      "Watch": 7449,
      "Ġcoug": 7450,
      "Ġ2": 7451,
      "Ġshoo": 7452,
      "Ġgrandd": 7453,
      "Ġaction": 7454,
      "Ġyum": 7455,
      "Ġease": 7456,
      "Ġloading": 7457,
      "Ġbru": 7458,
      "Ġpassports": 7459,
      "ancy": 7460,
      "Ġcottage": 7461,
      "onies": 7462,
      "Alright": 7463,
      "ĠHalloween": 7464,
      "ĠJackie": 7465,
      "Ġpaths": 7466,
      "Ġheartbroken": 7467,
      "Ġais": 7468,
      "Ġblocked": 7469,
      "Ġmerma": 7470,
      "ĠMabel": 7471,
      "Ġlaying": 7472,
      "Jerry": 7473,
      "Ġslipping": 7474,
      "ĠLi": 7475,
      "ino": 7476,
      "Ġsweep": 7477,
      "Ġresults": 7478,
      "Ġanger": 7479,
      "Ġbelts": 7480,
      "Ġrepeating": 7481,
      "Ġpins": 7482,
      "Ġfigures": 7483,
      "Ġbits": 7484,
      "isc": 7485,
      "Ġevil": 7486,
      "Ġsoaking": 7487,
      "antastic": 7488,
      "ĠTuna": 7489,
      "idey": 7490,
      "Ġmailed": 7491,
      "Ġwithin": 7492,
      "asty": 7493,
      "Ġtwisty": 7494,
      "Ġtwisting": 7495,
      "ĠWell": 7496,
      "Ġsuffered": 7497,
      "Ġstroll": 7498,
      "ĠPatch": 7499,
      "Ġtuck": 7500,
      "Ġconnected": 7501,
      "ĠWendy": 7502,
      "Ġpuzzled": 7503,
      "Poppy": 7504,
      "âĤ¬,": 7505,
      "Ġshovels": 7506,
      "Ġbuses": 7507,
      "ĠAli": 7508,
      "Ġaccomplished": 7509,
      "Ġdamaged": 7510,
      "Ġnoodles": 7511,
      "Ġund": 7512,
      "Ġcrossing": 7513,
      "Ġhundred": 7514,
      "ĠMichael": 7515,
      "ighting": 7516,
      "Ġbreathing": 7517,
      "Ġsever": 7518,
      "Ġlicking": 7519,
      "Ġbehavior": 7520,
      "Ġroars": 7521,
      "Ġseveral": 7522,
      "Ġtying": 7523,
      "Ġshrug": 7524,
      "Ġresponsib": 7525,
      "Ġbracelets": 7526,
      "Ted": 7527,
      "Ġsurfing": 7528,
      "Ġsurrendered": 7529,
      "Ġrisks": 7530,
      "Ġfinishing": 7531,
      "ĠRalph": 7532,
      "Ġdespite": 7533,
      "Ġfleas": 7534,
      "ĠAmelia": 7535,
      "Ġtoward": 7536,
      "anie": 7537,
      "ÅĵPlease": 7538,
      "Ġencount": 7539,
      "Ġsweat": 7540,
      "Ġlending": 7541,
      "da": 7542,
      "Ġstreamers": 7543,
      "Ġhairdress": 7544,
      "Ġhumming": 7545,
      "Ġdefin": 7546,
      "Vroom": 7547,
      "byes": 7548,
      "lves": 7549,
      "Ġsupported": 7550,
      "Ġshady": 7551,
      "Ġoysters": 7552,
      "Ġcleaner": 7553,
      "Ġquieter": 7554,
      "Ġawoke": 7555,
      "Steve": 7556,
      "Abigail": 7557,
      "Ġgoodbyes": 7558,
      "Ġwhose": 7559,
      "Whenever": 7560,
      "Ġluckily": 7561,
      "ĠBubba": 7562,
      "ĠRobbie": 7563,
      "ÅĵOf": 7564,
      "ĠRay": 7565,
      "Ġignoring": 7566,
      "Ġstitches": 7567,
      "Ġrainy": 7568,
      "Surprise": 7569,
      "Take": 7570,
      "ĠHoney": 7571,
      "Ġrather": 7572,
      "Ġtablet": 7573,
      "isions": 7574,
      "Ġponies": 7575,
      "Ġedges": 7576,
      "Ġcuddles": 7577,
      "ĠFlopsy": 7578,
      "ĠMaddie": 7579,
      "Ġfantastic": 7580,
      "unity": 7581,
      "dding": 7582,
      "ecca": 7583,
      "erk": 7584,
      "Ġslither": 7585,
      "Ġcloudy": 7586,
      "Ġfrowns": 7587,
      "ening": 7588,
      "Ġhanding": 7589,
      "Ġfinal": 7590,
      "Ġsnowflakes": 7591,
      "ppies": 7592,
      "Ġsped": 7593,
      "Ġdrown": 7594,
      "agic": 7595,
      "Ġelbow": 7596,
      "Ġhairdresser": 7597,
      "Ġcotton": 7598,
      "ĠHolly": 7599,
      "Ġthorns": 7600,
      "ĠBirdy": 7601,
      "Ġdefinitely": 7602,
      "Ġcoral": 7603,
      "Ġrains": 7604,
      "iel": 7605,
      "Ġgesture": 7606,
      "Ġkings": 7607,
      "Ġsmallest": 7608,
      "Ġsurv": 7609,
      "Ġsy": 7610,
      "Ġreminding": 7611,
      "Ġwisely": 7612,
      "ĠFuzzy": 7613,
      "ÅĵNow": 7614,
      "crow": 7615,
      "Ġbattle": 7616,
      "ĠBecause": 7617,
      "ĠGreen": 7618,
      "Ġcorrectly": 7619,
      "Ġvines": 7620,
      "Ġdecisions": 7621,
      "Ġdriveway": 7622,
      "ĠUp": 7623,
      "Ġsou": 7624,
      "onnie": 7625,
      "athy": 7626,
      "Ġpeeled": 7627,
      "Ġnewfound": 7628,
      "Hannah": 7629,
      "Ġsqueaked": 7630,
      "whe": 7631,
      "Ġchopped": 7632,
      "Ġsharks": 7633,
      "Ġprick": 7634,
      "Ġstudent": 7635,
      "Ġsnort": 7636,
      "Ġwarri": 7637,
      "Ġgrandson": 7638,
      "Ġsymbols": 7639,
      "Ġweeds": 7640,
      "Ġsimply": 7641,
      "Ġfishes": 7642,
      "hil": 7643,
      "ĠX": 7644,
      "True": 7645,
      "cent": 7646,
      "Ġbandages": 7647,
      "abby": 7648,
      "Ġgranddaughter": 7649,
      "Ġwobble": 7650,
      "onse": 7651,
      "Ġresponse": 7652,
      "Ġnasty": 7653,
      "Ġexcept": 7654,
      "ĠKaren": 7655,
      "Ġexercises": 7656,
      "Ġstopping": 7657,
      "steps": 7658,
      "Ġtar": 7659,
      "ĠFreddie": 7660,
      "Ġoccas": 7661,
      "Adam": 7662,
      "Ġafar": 7663,
      "Ġbanged": 7664,
      "ĠRocky": 7665,
      "Ġdarl": 7666,
      "Ġni": 7667,
      "Beep": 7668,
      "Ġinspired": 7669,
      "Ġdarlings": 7670,
      "father": 7671,
      "Ġtravels": 7672,
      "Ġtipped": 7673,
      "Ġdisturbing": 7674,
      "Ġfills": 7675,
      "Ġmasterp": 7676,
      "Ġlent": 7677,
      "Ġflipped": 7678,
      "ÅĵHey": 7679,
      "Ġfootsteps": 7680,
      "elie": 7681,
      "worm": 7682,
      "Ġpedaled": 7683,
      "line": 7684,
      "Ġbirdhouse": 7685,
      "Ġwindowsill": 7686,
      "Ġpurr": 7687,
      "Ġspits": 7688,
      "Ġtravelling": 7689,
      "ĠPippin": 7690,
      "Ġships": 7691,
      "Ġconvin": 7692,
      "Ġpresented": 7693,
      "Ġscarecrow": 7694,
      "ĠAlthough": 7695,
      "Jamie": 7696,
      "sol": 7697,
      "Ġaddress": 7698,
      "Ġpunishment": 7699,
      "Thomas": 7700,
      "Ġplanting": 7701,
      "Ġapologised": 7702,
      "citedly": 7703,
      "mered": 7704,
      "Ġchocolates": 7705,
      "Ġantic": 7706,
      "eeling": 7707,
      "ĠWelcome": 7708,
      "Ġforests": 7709,
      "ĠRuth": 7710,
      "Ġsurfboard": 7711,
      "ms": 7712,
      "Ġcongratulated": 7713,
      "ĠIm": 7714,
      "ddie": 7715,
      "Ġarranged": 7716,
      "Ġbelieving": 7717,
      "ĠMegan": 7718,
      "Ġreassured": 7719,
      "Ġtrotted": 7720,
      "Ġreunited": 7721,
      "Ġnodding": 7722,
      "Ġencouragement": 7723,
      "Ġcheers": 7724,
      "Ġlies": 7725,
      "Ġimages": 7726,
      "Ġpoppies": 7727,
      "Ġreapp": 7728,
      "Ġcampfire": 7729,
      "iza": 7730,
      "Ġsuits": 7731,
      "Ġbusiness": 7732,
      "Since": 7733,
      "Ġclerk": 7734,
      "ĠSpidey": 7735,
      "Ġtarget": 7736,
      "ooky": 7737,
      "ĠJojo": 7738,
      "Ġmarve": 7739,
      "Ġsails": 7740,
      "Ġmagnif": 7741,
      "issa": 7742,
      "perate": 7743,
      "utter": 7744,
      "Josh": 7745,
      "Ġofficers": 7746,
      "Ġterrified": 7747,
      "Ġbackpacks": 7748,
      "manda": 7749,
      "ĠGina": 7750,
      "Ġgrip": 7751,
      "Ġcovering": 7752,
      "Ġyel": 7753,
      "Ġknots": 7754,
      "Ġfocus": 7755,
      "Ġactivity": 7756,
      "ĠAng": 7757,
      "inkle": 7758,
      "Ġyelped": 7759,
      "Ġsurprising": 7760,
      "Ġwrinkled": 7761,
      "Ġsmelling": 7762,
      "Ġexpert": 7763,
      "ris": 7764,
      "Ġmood": 7765,
      "Ġmasterpiece": 7766,
      "Ġdep": 7767,
      "ĠFighting": 7768,
      "otte": 7769,
      "Ġchanges": 7770,
      "Ġconcert": 7771,
      "Bunny": 7772,
      "Ġchilly": 7773,
      "Ġspills": 7774,
      "Ġspeeding": 7775,
      "ider": 7776,
      "Ġtesting": 7777,
      "ĠSnowman": 7778,
      "Ġtasting": 7779,
      "Ġbraver": 7780,
      "Ġpleaded": 7781,
      "Ġsniffing": 7782,
      "artled": 7783,
      "ĠLia": 7784,
      "Ġcomforting": 7785,
      "Ġdelayed": 7786,
      "Ġgears": 7787,
      "ĠOkay": 7788,
      "Ġcalmly": 7789,
      "we": 7790,
      "ats": 7791,
      "acle": 7792,
      "Jess": 7793,
      "acles": 7794,
      "asha": 7795,
      "Ġlabels": 7796,
      "arlotte": 7797,
      "Ġmermaid": 7798,
      "Mat": 7799,
      "Ġsuggestion": 7800,
      "Penny": 7801,
      "Ġaware": 7802,
      "ĠAny": 7803,
      "ĠRain": 7804,
      "Ġdiscussing": 7805,
      "Ġstumble": 7806,
      "Mira": 7807,
      "Ġjars": 7808,
      "Ġspies": 7809,
      "Ġbelongings": 7810,
      "Ġmischie": 7811,
      "Ġworrying": 7812,
      "Ġmagazines": 7813,
      "Ġbothering": 7814,
      "flies": 7815,
      "Ġcrowns": 7816,
      "Ġartwork": 7817,
      "Ġalthough": 7818,
      "Ġunderstands": 7819,
      "Ġdisplayed": 7820,
      "ĠLouise": 7821,
      "Ġmischievous": 7822,
      "ails": 7823,
      "Chloe": 7824,
      "Ġpuck": 7825,
      "ĠTry": 7826,
      "Ġadmiration": 7827,
      "Ġefforts": 7828,
      "screen": 7829,
      "Ġburying": 7830,
      "Ġheight": 7831,
      "Ġfoxes": 7832,
      "emma": 7833,
      "Ġunfortunately": 7834,
      "pen": 7835,
      "Ġsav": 7836,
      "Ġrefuse": 7837,
      "Ġseller": 7838,
      "Ġhoo": 7839,
      "Ġbaskets": 7840,
      "Ġtoolbox": 7841,
      "rier": 7842,
      "Ġbuddy": 7843,
      "ighing": 7844,
      "Ġbitten": 7845,
      "ĠAlly": 7846,
      "Ġexperienced": 7847,
      "Ġdecl": 7848,
      "Ġbless": 7849,
      "inted": 7850,
      "Ġque": 7851,
      "vroom": 7852,
      "Ġdragonfly": 7853,
      "ĠDavey": 7854,
      "Ġvehicles": 7855,
      "wise": 7856,
      "bell": 7857,
      "what": 7858,
      "Ġpackages": 7859,
      "Ġdisc": 7860,
      "Ġsolving": 7861,
      "Ġdump": 7862,
      "ibbit": 7863,
      "ugging": 7864,
      "Ġpandas": 7865,
      "ĠWally": 7866,
      "Ġannoyed": 7867,
      "Ġtumbled": 7868,
      "Ġmomma": 7869,
      "Ġmemb": 7870,
      "ipes": 7871,
      "aturday": 7872,
      "Ġmembers": 7873,
      "Ġseashells": 7874,
      "Ġfires": 7875,
      "ÅĵThe": 7876,
      "Ġposit": 7877,
      "Ġwarmly": 7878,
      "Ġwealth": 7879,
      "Ġnibbled": 7880,
      "ĠSaturday": 7881,
      "Ġsunscreen": 7882,
      "ĠSofia": 7883,
      "ĠWil": 7884,
      "aint": 7885,
      "Ġpeas": 7886,
      "Ġtreated": 7887,
      "Beth": 7888,
      "Ġtroubles": 7889,
      "Ġsquaw": 7890,
      "Ġrotting": 7891,
      "ĠEva": 7892,
      "Ke": 7893,
      "Ġscent": 7894,
      "Ġmaterial": 7895,
      "ÅĵSure": 7896,
      "Meanwhile": 7897,
      "ĠFroggy": 7898,
      "Any": 7899,
      "Ġconqu": 7900,
      "Ġstomp": 7901,
      "Ġgazing": 7902,
      "Ġcoach": 7903,
      "ĠKaty": 7904,
      "Ġinsisting": 7905,
      "Ġuntied": 7906,
      "Dear": 7907,
      "Rachel": 7908,
      "Ġdiso": 7909,
      "Ġprayers": 7910,
      "ĠOther": 7911,
      "Ġenviron": 7912,
      "Ġparted": 7913,
      "Ġconversation": 7914,
      "ĠDory": 7915,
      "Quack": 7916,
      "Get": 7917,
      "Joy": 7918,
      "aver": 7919,
      "Ġcollap": 7920,
      "Ġencountered": 7921,
      "Ġjoins": 7922,
      "Ġloops": 7923,
      "Ġraces": 7924,
      "ĠPen": 7925,
      "Ġsewed": 7926,
      "Ġsill": 7927,
      "Ġteachers": 7928,
      "Ġenvironment": 7929,
      "Ġscurrying": 7930,
      "ĠSamantha": 7931,
      "attered": 7932,
      "Ġwhispering": 7933,
      "Ġjoked": 7934,
      "Ġargum": 7935,
      "Ġpurpose": 7936,
      "ĠPippa": 7937,
      "Ġtilted": 7938,
      "Goodnight": 7939,
      "Ġstored": 7940,
      "Ġorders": 7941,
      "Ġloses": 7942,
      "Ġexch": 7943,
      "ortunately": 7944,
      "Ġhoops": 7945,
      "Ġgenie": 7946,
      "Ġcowboy": 7947,
      "ppa": 7948,
      "Ġsheets": 7949,
      "Ġspooky": 7950,
      "Ġtweet": 7951,
      "ĠFlo": 7952,
      "ĠPepper": 7953,
      "ĠDuck": 7954,
      "ĠDog": 7955,
      "Ġtoss": 7956,
      "order": 7957,
      "Ġpermitted": 7958,
      "airy": 7959,
      "aven": 7960,
      "Ġquarre": 7961,
      "eedy": 7962,
      "uel": 7963,
      "Ġaim": 7964,
      "ongo": 7965,
      "ĠFiona": 7966,
      "Ġdiamonds": 7967,
      "Ġscram": 7968,
      "Ġtype": 7969,
      "iscuit": 7970,
      "Ġpupils": 7971,
      "Ġanticip": 7972,
      "Ġglittering": 7973,
      "Ġtrans": 7974,
      "Ġqueens": 7975,
      "Ġturtles": 7976,
      "illiam": 7977,
      "Ġbeaming": 7978,
      "Ġnearest": 7979,
      "ĠDespite": 7980,
      "Ġends": 7981,
      "ĠSnowball": 7982,
      "Ġtubes": 7983,
      "Ġmaker": 7984,
      "igger": 7985,
      "Ġservant": 7986,
      "ÅĵSee": 7987,
      "Ġwhimp": 7988,
      "Ġdonkey": 7989,
      "Ġvisitors": 7990,
      "Ġfilms": 7991,
      "Am": 7992,
      "Ġspells": 7993,
      "Ġopport": 7994,
      "Ġgap": 7995,
      "Ġuntie": 7996,
      "ĠHope": 7997,
      "Ġcleared": 7998,
      "Ġfins": 7999,
      "Ġstroke": 8000,
      "Ġrin": 8001,
      "ĠAuntie": 8002,
      "ĠBounce": 8003,
      "Rosie": 8004,
      "Ġtapping": 8005,
      "Ġoppos": 8006,
      "Ġwasting": 8007,
      "Ġcustomers": 8008,
      "Ġnurses": 8009,
      "usty": 8010,
      "Ġpriz": 8011,
      "Ġswo": 8012,
      "Ġshall": 8013,
      "Ġhunters": 8014,
      "Ġger": 8015,
      "Ġconvinced": 8016,
      "Ġwounds": 8017,
      "Ġswollen": 8018,
      "Ġgoats": 8019,
      "Ġsweaty": 8020,
      "Ġdressing": 8021,
      "Ġslowed": 8022,
      "Ġdeclared": 8023,
      "Ġdot": 8024,
      "Ġexamining": 8025,
      "orter": 8026,
      "elope": 8027,
      "ĠBow": 8028,
      "Ġopposite": 8029,
      "Ġcharacters": 8030,
      "Claire": 8031,
      "ilities": 8032,
      "Ġfailed": 8033,
      "ĠQuackers": 8034,
      "Ġtidied": 8035,
      "Ġtransf": 8036,
      "Ġgrandfather": 8037,
      "acy": 8038,
      "Ġwarrior": 8039,
      "Ġforgiveness": 8040,
      "Ġsternly": 8041,
      "Ġgoodies": 8042,
      "Ġguessing": 8043,
      "Ġlipstick": 8044,
      "Ġpeep": 8045,
      "Ġyoungest": 8046,
      "Ġscratching": 8047,
      "Leave": 8048,
      "Ġseagulls": 8049,
      "Car": 8050,
      "mies": 8051,
      "rest": 8052,
      "Ġinchworm": 8053,
      "ĠRos": 8054,
      "Ġbeeped": 8055,
      "empt": 8056,
      "Ġmeowing": 8057,
      "rian": 8058,
      "Stay": 8059,
      "Ġrescuing": 8060,
      "Anne": 8061,
      "Ġthanking": 8062,
      "Ġquestioned": 8063,
      "ĠHold": 8064,
      "Ġattempt": 8065,
      "Ġscrambled": 8066,
      "rie": 8067,
      "ĠYouÃ¢": 8068,
      "Ġgrat": 8069,
      "Ġdripping": 8070,
      "Ġbou": 8071,
      "ĠSplash": 8072,
      "Ġtires": 8073,
      "ĠKevin": 8074,
      "Ġbouqu": 8075,
      "even": 8076,
      "Ġactive": 8077,
      "Ġstall": 8078,
      "Ġform": 8079,
      "Ġanticipation": 8080,
      "rily": 8081,
      "ĠMaisy": 8082,
      "Ġpicnics": 8083,
      "Ġnibble": 8084,
      "Always": 8085,
      "Ġaisle": 8086,
      "Ġblond": 8087,
      "Ġfloors": 8088,
      "Ġresponded": 8089,
      "Ġresponsibility": 8090,
      "ĠSw": 8091,
      "Ġshin": 8092,
      "Ġsmashed": 8093,
      "Ġattacked": 8094,
      "Ġmatey": 8095,
      "Lena": 8096,
      "Ġforce": 8097,
      "ivia": 8098,
      "Ġexplains": 8099,
      "ĠElly": 8100,
      "Ġknocking": 8101,
      "Ġemerged": 8102,
      "Tweetie": 8103,
      "Ġobeyed": 8104,
      "Ġdiscoveries": 8105,
      "Ġgratitude": 8106,
      "Ġting": 8107,
      "Ġinter": 8108,
      "Ġjud": 8109,
      "Ġvibr": 8110,
      "cie": 8111,
      "Ġrely": 8112,
      "Ġrays": 8113,
      "Ġzooms": 8114,
      "Ġdecoration": 8115,
      "ĠMina": 8116,
      "Ġmanners": 8117,
      "Ġcharge": 8118,
      "Ġclassmates": 8119,
      "Two": 8120,
      "Ġsprout": 8121,
      "Ġsens": 8122,
      "Ġsnug": 8123,
      "Ġvisits": 8124,
      "Ġsigning": 8125,
      "innie": 8126,
      "Ġspy": 8127,
      "ÅĵWho": 8128,
      "Ġaeroplanes": 8129,
      "Ġsoot": 8130,
      "ĠgirlÃ¢": 8131,
      "Ġtwists": 8132,
      "Ġsurvive": 8133,
      "ebecca": 8134,
      "yl": 8135,
      "Ġvegg": 8136,
      "Ġinstantly": 8137,
      "munk": 8138,
      "anda": 8139,
      "Julie": 8140,
      "ippers": 8141,
      "Ġloc": 8142,
      "Ġwiggly": 8143,
      "Ġseals": 8144,
      "Ġself": 8145,
      "Ġbreaths": 8146,
      "Ġunwra": 8147,
      "Ġramp": 8148,
      "Ġrumbling": 8149,
      "ĠElle": 8150,
      "hind": 8151,
      "act": 8152,
      "ĠLion": 8153,
      "Ġbuckled": 8154,
      "Ġbrightest": 8155,
      "Ġhen": 8156,
      "Ġshrunk": 8157,
      "Je": 8158,
      "Ġmunched": 8159,
      "Ġbond": 8160,
      "Ġbeeh": 8161,
      "Ġincreasing": 8162,
      "sm": 8163,
      "Ġshimmering": 8164,
      "athan": 8165,
      "Ġpurrs": 8166,
      "Ġmanager": 8167,
      "idence": 8168,
      "Ġdoorbell": 8169,
      "Ġflaps": 8170,
      "Ġearned": 8171,
      "Ġchatter": 8172,
      "gain": 8173,
      "Cindy": 8174,
      "Bang": 8175,
      "oc": 8176,
      "ooking": 8177,
      "ĠWoo": 8178,
      "Someone": 8179,
      "ching": 8180,
      "Ġmovements": 8181,
      "Ġlowered": 8182,
      "udged": 8183,
      "Ġswaying": 8184,
      "iens": 8185,
      "ĠJaney": 8186,
      "ittered": 8187,
      "Ġaliens": 8188,
      "Ġhonking": 8189,
      "Ġcracks": 8190,
      "Freddy": 8191,
      "Ġargument": 8192,
      "ĠJax": 8193,
      "ssss": 8194,
      "Ġchipmunk": 8195,
      "Ġdisobey": 8196,
      "inger": 8197,
      "Ġwhoever": 8198,
      "Ġwinding": 8199,
      "Rob": 8200,
      "romise": 8201,
      "ĠLuc": 8202,
      "Ġannounced": 8203,
      "ummies": 8204,
      "ĠSpeedy": 8205,
      "Ġprevented": 8206,
      "Ġbeaver": 8207,
      "ĠJoan": 8208,
      "ÅĵGood": 8209,
      "ĠKelly": 8210,
      "Ġrowed": 8211,
      "ĠMae": 8212,
      "its": 8213,
      "Ġswitched": 8214,
      "Ġbathing": 8215,
      "lied": 8216,
      "Ġmosquitoes": 8217,
      "ĠMaddy": 8218,
      "Ġtaped": 8219,
      "ĠTaking": 8220,
      "storm": 8221,
      "Red": 8222,
      "belle": 8223,
      "Ġposes": 8224,
      "oscope": 8225,
      "Ġoffering": 8226,
      "Ġswap": 8227,
      "ĠStitch": 8228,
      "ĠJonny": 8229,
      "Ġnuzzled": 8230,
      "Ġcons": 8231,
      "Ġprickly": 8232,
      "aret": 8233,
      "flowers": 8234,
      "Ġswayed": 8235,
      "Ġsteth": 8236,
      "Ġflips": 8237,
      "ĠStan": 8238,
      "Ġdestroying": 8239,
      "Ġlapt": 8240,
      "Ġdesigning": 8241,
      "Ġminds": 8242,
      "Ġcares": 8243,
      "bee": 8244,
      "Ġbadger": 8245,
      "LetÃ¢": 8246,
      "Ġjobs": 8247,
      "Ġdodged": 8248,
      "Ġglimmering": 8249,
      "Ġrats": 8250,
      "Ġcrawls": 8251,
      "Jessie": 8252,
      "Ġwhistles": 8253,
      "lo": 8254,
      "Ġsmelt": 8255,
      "Uncle": 8256,
      "Ġcrops": 8257,
      "rink": 8258,
      "Ġbeautifully": 8259,
      "Ġobserving": 8260,
      "Ġdangers": 8261,
      "yd": 8262,
      "Ġbeating": 8263,
      "Ġshines": 8264,
      "Ġexploded": 8265,
      "ĠBecky": 8266,
      "Ġknives": 8267,
      "Ġmillion": 8268,
      "Ġscolds": 8269,
      "Ġcheckout": 8270,
      "Ġscooters": 8271,
      "Ġstamped": 8272,
      "Ġsnaps": 8273,
      "angle": 8274,
      "Ġcustomer": 8275,
      "ĠSpring": 8276,
      "Ġgenerosity": 8277,
      "lph": 8278,
      "Ġgroan": 8279,
      "Ġdeed": 8280,
      "Ġlanguages": 8281,
      "boards": 8282,
      "Ġgerms": 8283,
      "oor": 8284,
      "Ġrecorder": 8285,
      "Ġhike": 8286,
      "Ġhonesty": 8287,
      "Ġtummies": 8288,
      "Ġstethoscope": 8289,
      "Ġrobbers": 8290,
      "Ġclosing": 8291,
      "Ġpaddling": 8292,
      "Ġcocoon": 8293,
      "lt": 8294,
      "ĠAr": 8295,
      "Ġdrowned": 8296,
      "Ġhaven": 8297,
      "Ġplug": 8298,
      "Ġclicked": 8299,
      "Momma": 8300,
      "Ġexpecting": 8301,
      "abra": 8302,
      "ĠReady": 8303,
      "Ġlaptop": 8304,
      "ering": 8305,
      "ĠFinny": 8306,
      "Out": 8307,
      "ĠTrust": 8308,
      "Buddy": 8309,
      "ĠRudy": 8310,
      "Ġroutine": 8311,
      "Abby": 8312,
      "amma": 8313,
      "Ġsupplied": 8314,
      "Ġastronauts": 8315,
      "ĠSk": 8316,
      "Ġexplor": 8317,
      "Ġdisappoint": 8318,
      "Ġveggies": 8319,
      "Ġcourt": 8320,
      "ulp": 8321,
      "lor": 8322,
      "oosh": 8323,
      "ĠSparkle": 8324,
      "Ġdears": 8325,
      "Ġsteering": 8326,
      "Co": 8327,
      "otch": 8328,
      "Ġtidying": 8329,
      "Ġadds": 8330,
      "Ġconduct": 8331,
      "Ġbouquet": 8332,
      "ĠBongo": 8333,
      "Ġbeehive": 8334,
      "Ġill": 8335,
      "lest": 8336,
      "Ġsculp": 8337,
      "Ġunpacking": 8338,
      "Ġnovels": 8339,
      "ĠTime": 8340,
      "ÅĵMaybe": 8341,
      "arable": 8342,
      "Ġcupcake": 8343,
      "ĠPoor": 8344,
      "Bear": 8345,
      "Choo": 8346,
      "ĠBad": 8347,
      "Ġstatues": 8348,
      "Ġtin": 8349,
      "ita": 8350,
      "ĠSweet": 8351,
      "uddles": 8352,
      "Ġchatted": 8353,
      "Ġparticularly": 8354,
      "Ġreminds": 8355,
      "udo": 8356,
      "pit": 8357,
      "yler": 8358,
      "udolph": 8359,
      "ĠPhil": 8360,
      "Ġshorts": 8361,
      "Nice": 8362,
      "Ġhardest": 8363,
      "Ġcaw": 8364,
      "Too": 8365,
      "ĠEddie": 8366,
      "Ġstretches": 8367,
      "Ġapplause": 8368,
      "Ġhealthier": 8369,
      "rup": 8370,
      "water": 8371,
      "Ġwiser": 8372,
      "Ġfloats": 8373,
      "Honey": 8374,
      "Ġghosts": 8375,
      "Ġconductor": 8376,
      "ĠDonÃ¢": 8377,
      "Arrr": 8378,
      "Ġstrum": 8379,
      "ĠIsn": 8380,
      "Robbie": 8381,
      "Ġheaven": 8382,
      "Ġawful": 8383,
      "Ġdollar": 8384,
      "Ġplugged": 8385,
      "ĠKay": 8386,
      "pril": 8387,
      "ĠTammy": 8388,
      "Ġwildflowers": 8389,
      "ĠElsie": 8390,
      "Ġscri": 8391,
      "Ġelect": 8392,
      "ĠCla": 8393,
      "idents": 8394,
      "idnight": 8395,
      "Ġtraded": 8396,
      "Ġoverhead": 8397,
      "llas": 8398,
      "Ġsquished": 8399,
      "ĠwhatÃ¢": 8400,
      "Ġcombed": 8401,
      "Ġcarries": 8402,
      "ĠMomma": 8403,
      "Ġnests": 8404,
      "Ġopinions": 8405,
      "ĠRobo": 8406,
      "ĠElsa": 8407,
      "earing": 8408,
      "Ġsyrup": 8409,
      "Ġfaint": 8410,
      "Ġfascinating": 8411,
      "anced": 8412,
      "Ġswallow": 8413,
      "ĠJean": 8414,
      "Ġexperiences": 8415,
      "Karen": 8416,
      "Ġsprays": 8417,
      "Ġbeast": 8418,
      "aula": 8419,
      "Ġumbrellas": 8420,
      "omb": 8421,
      "Ġcontainer": 8422,
      "Ġouch": 8423,
      "Ġkilled": 8424,
      "Ġreturning": 8425,
      "Ġbothered": 8426,
      "elieve": 8427,
      "ative": 8428,
      "rough": 8429,
      "Ġgall": 8430,
      "ĠAva": 8431,
      "Ġlocks": 8432,
      "Ġproviding": 8433,
      "five": 8434,
      "ĠAmanda": 8435,
      "Ġsets": 8436,
      "Ġflashing": 8437,
      "Ġshorter": 8438,
      "Ġexamp": 8439,
      "ÅĵOk": 8440,
      "ĠRoger": 8441,
      "Ġsculpture": 8442,
      "Ġflashed": 8443,
      "chy": 8444,
      "Ġchecks": 8445,
      "Ġweapons": 8446,
      "rench": 8447,
      "Mart": 8448,
      "ouraged": 8449,
      "Yesterday": 8450,
      "Ġteles": 8451,
      "Ġtearing": 8452,
      "Ġbounces": 8453,
      "orking": 8454,
      "Ġhotter": 8455,
      "Ġtests": 8456,
      "ordinary": 8457,
      "ĠCrabby": 8458,
      "Ġdefeated": 8459,
      "Snow": 8460,
      "Ġpapa": 8461,
      "Ġinches": 8462,
      "Ġgrumbled": 8463,
      "Ġglided": 8464,
      "Ġfarmers": 8465,
      "Ġsprinkle": 8466,
      "ĠNever": 8467,
      "Ġnights": 8468,
      "Ġscrub": 8469,
      "Ġfaith": 8470,
      "ĠCharlotte": 8471,
      "ccidents": 8472,
      "Tilly": 8473,
      "ĠZoomy": 8474,
      "ĠDaniel": 8475,
      "Ġburnt": 8476,
      "centr": 8477,
      "ators": 8478,
      "ĠSasha": 8479,
      "Ġconv": 8480,
      "Ġtelescope": 8481,
      "Ġsadder": 8482,
      "Aunt": 8483,
      "iving": 8484,
      "ÅĵBe": 8485,
      "Ġconcentr": 8486,
      "Ġtrusting": 8487,
      "Ġapplauding": 8488,
      "Ġconfidence": 8489,
      "ooks": 8490,
      "Ġtwenty": 8491,
      "Ġserving": 8492,
      "Ġelectric": 8493,
      "Mon": 8494,
      "Ġhiss": 8495,
      "Ġconvince": 8496,
      "Papa": 8497,
      "car": 8498,
      "ession": 8499,
      "ĠCle": 8500,
      "Ġgardens": 8501,
      "Ġcheated": 8502,
      "Ġicing": 8503,
      "ended": 8504,
      "lers": 8505,
      "âĤ¬Â": 8506,
      "Ġbluebird": 8507,
      "Ġnecks": 8508,
      "Ġburns": 8509,
      "Ġawhile": 8510,
      "Ġcrystals": 8511,
      "Buzz": 8512,
      "lephant": 8513,
      "ĠHelen": 8514,
      "ĠNancy": 8515,
      "ĠPatty": 8516,
      "Ġinsep": 8517,
      "Ġcubs": 8518,
      "Ġvisitor": 8519,
      "ĠPeppa": 8520,
      "âĤ¬Â¦": 8521,
      "ĠSay": 8522,
      "Ġpetting": 8523,
      "Ġteams": 8524,
      "vy": 8525,
      "Ġraising": 8526,
      "Che": 8527,
      "Ġcollapsed": 8528,
      "ances": 8529,
      "Ġchecking": 8530,
      "Ġextraordinary": 8531,
      "Kids": 8532,
      "Ġinseparable": 8533,
      "Pl": 8534,
      "Put": 8535,
      "Ġblown": 8536,
      "Ġdryer": 8537,
      "Ġgoo": 8538,
      "Ġforgives": 8539,
      "Ġsirens": 8540,
      "Friend": 8541,
      "ĠChick": 8542,
      "Ġtypes": 8543,
      "Ġmunching": 8544,
      "Ġsoapy": 8545,
      "Ġmember": 8546,
      "Ġexample": 8547,
      "Ġborn": 8548,
      "Ġodd": 8549,
      "ĠAna": 8550,
      "Ġgrassho": 8551,
      "Ġimaginary": 8552,
      "Ġinstrument": 8553,
      "Ġbiscuit": 8554,
      "Ġnatur": 8555,
      "Ġbehaviour": 8556,
      "Ġprizes": 8557,
      "Ġplayd": 8558,
      "ĠLina": 8559,
      "bu": 8560,
      "Ġmeows": 8561,
      "Jon": 8562,
      "rick": 8563,
      "Ġsingers": 8564,
      "Ġwaded": 8565,
      "Ġbicycles": 8566,
      "val": 8567,
      "ĠZero": 8568,
      "Brown": 8569,
      "Each": 8570,
      "Ġkit": 8571,
      "ĠmomÃ¢": 8572,
      "Ġcompan": 8573,
      "Bu": 8574,
      "ĠBang": 8575,
      "ĠEric": 8576,
      "shaped": 8577,
      "Ġsprang": 8578,
      "Ġwaters": 8579,
      "ĠRudolph": 8580,
      "Ġflick": 8581,
      "Ġsalon": 8582,
      "Ġpeeped": 8583,
      "Ġupside": 8584,
      "Ġdock": 8585,
      "Ġlim": 8586,
      "ĠTerry": 8587,
      "Ġflip": 8588,
      "ĠFairy": 8589,
      "Ġopportunity": 8590,
      "adabra": 8591,
      "Ġattitude": 8592,
      "Ġexploration": 8593,
      "Ġinvent": 8594,
      "ĠIzzy": 8595,
      "Ġtraveling": 8596,
      "ĠAshley": 8597,
      "Boys": 8598,
      "owing": 8599,
      "Ġlongest": 8600,
      "Ġconquered": 8601,
      "Liz": 8602,
      "Ġunlo": 8603,
      "Ġexpression": 8604,
      "Ġdistracted": 8605,
      "Ġhood": 8606,
      "adually": 8607,
      "Ġsandy": 8608,
      "bl": 8609,
      "Ġbride": 8610,
      "Ġrealizes": 8611,
      "ĠGary": 8612,
      "Ġhunting": 8613,
      "Ġcheaper": 8614,
      "cadabra": 8615,
      "Ġdeserved": 8616,
      "ĠĠ": 8617,
      "Ġenem": 8618,
      "Ġflowing": 8619,
      "Ġenemies": 8620,
      "Ġfet": 8621,
      "Ġunable": 8622,
      "Ġwriggled": 8623,
      "Ġtrigger": 8624,
      "Ġpills": 8625,
      "Ġcoolest": 8626,
      "Ġsweaters": 8627,
      "Ġmommies": 8628,
      "ĠWilliam": 8629,
      "ĠFrankie": 8630,
      "Ġflock": 8631,
      "Ġengines": 8632,
      "ĠAnt": 8633,
      "Ġenvelopes": 8634,
      "getic": 8635,
      "ĠLa": 8636,
      "Ġotters": 8637,
      "ĠMagic": 8638,
      "ĠPretty": 8639,
      "Ġbomb": 8640,
      "str": 8641,
      "Ġgulp": 8642,
      "Ġclearly": 8643,
      "ĠFel": 8644,
      "Ġdiscouraged": 8645,
      "Ġburger": 8646,
      "Ġrows": 8647,
      "ĠSmo": 8648,
      "Ġswimmer": 8649,
      "free": 8650,
      "Ġwhales": 8651,
      "Suzy": 8652,
      "whel": 8653,
      "Ġclip": 8654,
      "Ġcompete": 8655,
      "Ġreappeared": 8656,
      "erg": 8657,
      "Ġchatting": 8658,
      "Ġ5": 8659,
      "Ġtips": 8660,
      "ouched": 8661,
      "Ġgrasshopper": 8662,
      "Ġcountries": 8663,
      "Ġpasses": 8664,
      "Ġglittered": 8665,
      "Ġquacking": 8666,
      "ending": 8667,
      "Ġsometime": 8668,
      "Ġrobin": 8669,
      "jest": 8670,
      "Ġthump": 8671,
      "aptain": 8672,
      "Ġoverwhel": 8673,
      "over": 8674,
      "Ġunco": 8675,
      "balls": 8676,
      "Ġtorto": 8677,
      "icate": 8678,
      "Ġability": 8679,
      "ĠDe": 8680,
      "Ġpatches": 8681,
      "Ġannoying": 8682,
      "off": 8683,
      "Ġmattered": 8684,
      "ĠStep": 8685,
      "Ġspilling": 8686,
      "Ġdetails": 8687,
      "Jacob": 8688,
      "ĠMother": 8689,
      "Ġenjoyable": 8690,
      "Ġstrips": 8691,
      "ĠWooly": 8692,
      "ingo": 8693,
      "ship": 8694,
      "ĠJilly": 8695,
      "Ġtortoise": 8696,
      "Ġcommon": 8697,
      "Ġfond": 8698,
      "Ġcrowded": 8699,
      "Ġwhined": 8700,
      "ĠMake": 8701,
      "Ġcheat": 8702,
      "Ġsincere": 8703,
      "ĠAmber": 8704,
      "Ġgallop": 8705,
      "iter": 8706,
      "Ġtreas": 8707,
      "Ġthicker": 8708,
      "Ġrelaxing": 8709,
      "Ġuniforms": 8710,
      "Ġapproach": 8711,
      "Ġdoz": 8712,
      "Ġsoundly": 8713,
      "Ġsurely": 8714,
      "ĠZack": 8715,
      "Ġyawning": 8716,
      "Ġcompanion": 8717,
      "Ġcheerfully": 8718,
      "Ġhangers": 8719,
      "ĠImmediately": 8720,
      "Ġmarking": 8721,
      "Ġcurl": 8722,
      "Ol": 8723,
      "ĠShow": 8724,
      "ĠEliza": 8725,
      "oard": 8726,
      "Whiskers": 8727,
      "stand": 8728,
      "Ġskies": 8729,
      "iolet": 8730,
      "ĠPrince": 8731,
      "ĠPenelope": 8732,
      "ĠWigg": 8733,
      "ĠCr": 8734,
      "ĠCurious": 8735,
      "Ġprod": 8736,
      "Kayla": 8737,
      "Ġstur": 8738,
      "Ġformed": 8739,
      "Ġcafe": 8740,
      "ĠOlivia": 8741,
      "ĠTessa": 8742,
      "Ġbecomes": 8743,
      "ĠNana": 8744,
      "Ġwhisk": 8745,
      "Ġnatural": 8746,
      "Gina": 8747,
      "ĠJason": 8748,
      "Ġoutfits": 8749,
      "Keep": 8750,
      "Ġwashes": 8751,
      "Ġbeetles": 8752,
      "Ġtreasured": 8753,
      "Ġnoticing": 8754,
      "ĠBobbie": 8755,
      "ints": 8756,
      "Ġjugg": 8757,
      "Ġaboard": 8758,
      "Ġbubbly": 8759,
      "ĠNice": 8760,
      "Ġvibrant": 8761,
      "Ġrepairman": 8762,
      "Ġsqueaky": 8763,
      "Ġairplanes": 8764,
      "Ollie": 8765,
      "bur": 8766,
      "Ġmoat": 8767,
      "Gr": 8768,
      "ĠSparkles": 8769,
      "Ġweighing": 8770,
      "elvet": 8771,
      "Ġmoonlight": 8772,
      "Ġshallow": 8773,
      "shadow": 8774,
      "ĠAccidents": 8775,
      "ĠMatilda": 8776,
      "asmine": 8777,
      "Ġbacks": 8778,
      "iggie": 8779,
      "Ġhaircuts": 8780,
      "Ġmelody": 8781,
      "Ġchin": 8782,
      "uggy": 8783,
      "Ġhab": 8784,
      "Instead": 8785,
      "Ġpleas": 8786,
      "ĠAngel": 8787,
      "ole": 8788,
      "ĠPick": 8789,
      "Ġswirls": 8790,
      "Hold": 8791,
      "ĠYum": 8792,
      "ĠButter": 8793,
      "Ġstorms": 8794,
      "Ġnewspapers": 8795,
      "Matt": 8796,
      "Ġchill": 8797,
      "Ġbund": 8798,
      "Ġcommun": 8799,
      "Ġmugs": 8800,
      "Ġhummed": 8801,
      "Ġfreezing": 8802,
      "Ġblonde": 8803,
      "andra": 8804,
      "Ġsneezes": 8805,
      "hole": 8806,
      "Ġmiracle": 8807,
      "Ġerase": 8808,
      "ĠFoxy": 8809,
      "Ġcowboys": 8810,
      "hny": 8811,
      "Ġdev": 8812,
      "Ġmesses": 8813,
      "faction": 8814,
      "Ġpepperoni": 8815,
      "ĠSir": 8816,
      "ĠDino": 8817,
      "ĠRebecca": 8818,
      "ĠTwinkle": 8819,
      "Feeling": 8820,
      "Ġsatisfaction": 8821,
      "Ġlump": 8822,
      "Ġcompliment": 8823,
      "Ġcalmer": 8824,
      "ÅĵYay": 8825,
      "Ġsquinted": 8826,
      "ĠVroom": 8827,
      "ĠBonnie": 8828,
      "ighty": 8829,
      "endant": 8830,
      "ĠPin": 8831,
      "Ġscattering": 8832,
      "Ġblushed": 8833,
      "Big": 8834,
      "Ġsipped": 8835,
      "Ġclue": 8836,
      "venir": 8837,
      "Ġsuccessfully": 8838,
      "ĠFlora": 8839,
      "Lulu": 8840,
      "ĠSe": 8841,
      "ĠBrian": 8842,
      "roll": 8843,
      "Ġleaking": 8844,
      "Ġsituations": 8845,
      "Ġsouvenir": 8846,
      "Ġoccasion": 8847,
      "Ġjoyfully": 8848,
      "Ġcoughed": 8849,
      "ĠShelly": 8850,
      "Ġmodels": 8851,
      "Ġpositive": 8852,
      "',": 8853,
      "Both": 8854,
      "ĠMidnight": 8855,
      "ĠWo": 8856,
      "Anytime": 8857,
      "Ġglittery": 8858,
      "ware": 8859,
      "Ġmeatballs": 8860,
      "Hop": 8861,
      "Ġsmartest": 8862,
      "Ġbruises": 8863,
      "Zoom": 8864,
      "immered": 8865,
      "Ġyumm": 8866,
      "ĠGus": 8867,
      "Ġweighs": 8868,
      "Ġank": 8869,
      "Ġexplaining": 8870,
      "Ġscenery": 8871,
      "ĠQuickly": 8872,
      "Ġlocal": 8873,
      "Ġanswering": 8874,
      "Ġtickling": 8875,
      "ĠWhoever": 8876,
      "Luke": 8877,
      "bank": 8878,
      "amil": 8879,
      "ift": 8880,
      "ĠGrand": 8881,
      "Zoe": 8882,
      "ĠRicky": 8883,
      "Ġsnowy": 8884,
      "ĠOink": 8885,
      "Ġscares": 8886,
      "Ġunfair": 8887,
      "Ġburgers": 8888,
      "Ġrewards": 8889,
      "Ġpressing": 8890,
      "Lizzy": 8891,
      "Ġtalents": 8892,
      "Ġpinching": 8893,
      "Ġshattered": 8894,
      "Ġwelcoming": 8895,
      "amboo": 8896,
      "Betty": 8897,
      "Never": 8898,
      "ĠHello": 8899,
      "etchup": 8900,
      "Ġpossib": 8901,
      "sie": 8902,
      "ĠSky": 8903,
      "Ġbulbs": 8904,
      "Ġteap": 8905,
      "Ġrewarding": 8906,
      "Ġhisses": 8907,
      "Ġcleans": 8908,
      "belt": 8909,
      "Ġroast": 8910,
      "ĠJenn": 8911,
      "Ġrubbish": 8912,
      "Hmm": 8913,
      "Ġbound": 8914,
      "Ġpantry": 8915,
      "ili": 8916,
      "Betsy": 8917,
      "HE": 8918,
      "Ġscow": 8919,
      "isp": 8920,
      "Ġrowing": 8921,
      "Ġtraps": 8922,
      "Ġpractised": 8923,
      "Ġcrocodiles": 8924,
      "yle": 8925,
      "ĠStri": 8926,
      "Ġbinoc": 8927,
      "Ġdigs": 8928,
      "ĠSeeing": 8929,
      "Ġteapot": 8930,
      "Ġintently": 8931,
      "Ġforts": 8932,
      "spe": 8933,
      "Ġsturdy": 8934,
      "scotch": 8935,
      "Brownie": 8936,
      "Ġminded": 8937,
      "Ġgroaned": 8938,
      "ĠNe": 8939,
      "ĠRight": 8940,
      "Ġpilots": 8941,
      "ĠPeggy": 8942,
      "ĠPet": 8943,
      "ĠZee": 8944,
      "Ġcells": 8945,
      "Ġmarveled": 8946,
      "Mabel": 8947,
      "Ġrebu": 8948,
      "Ġballer": 8949,
      "Cat": 8950,
      "Susan": 8951,
      "Ġtopp": 8952,
      "ĠCara": 8953,
      "beep": 8954,
      "Ġseatbelt": 8955,
      "Ġtempted": 8956,
      "sey": 8957,
      "ĠRich": 8958,
      "icious": 8959,
      "Ġhorri": 8960,
      "ĠTyler": 8961,
      "ĠHo": 8962,
      "Tara": 8963,
      "Ġpipes": 8964,
      "Ġstuffing": 8965,
      "Ġangrily": 8966,
      "amiliar": 8967,
      "Ġketchup": 8968,
      "Ġfinishes": 8969,
      "Ġsandpit": 8970,
      "Ġtunes": 8971,
      "Ġapology": 8972,
      "Ġbends": 8973,
      "Ġunfamiliar": 8974,
      "ĠPlaying": 8975,
      "ai": 8976,
      "Ġfunn": 8977,
      "Ġsmoking": 8978,
      "ĠBehind": 8979,
      "Ġmicrow": 8980,
      "Ġbubbling": 8981,
      "Ġdoorstep": 8982,
      "Ġfireflies": 8983,
      "Ġcroaked": 8984,
      "mel": 8985,
      "ĠBoo": 8986,
      "Ġinvites": 8987,
      "ĠStill": 8988,
      "Bo": 8989,
      "Ġtentacles": 8990,
      "jack": 8991,
      "Ġgoodness": 8992,
      "Ġlookout": 8993,
      "Ġmeadows": 8994,
      "Ġenergetic": 8995,
      "ĠGray": 8996,
      "Ġmicrowave": 8997,
      "ĠBess": 8998,
      "Ġrunner": 8999,
      "!'.": 9000,
      "acock": 9001,
      "Ġsweeter": 9002,
      "Ġtugging": 9003,
      "Ġclut": 9004,
      "Ġshyly": 9005,
      "Open": 9006,
      "Ġembra": 9007,
      "Ġchews": 9008,
      "ÅĵWeÃ¢": 9009,
      "Ġspoiling": 9010,
      "Ahoy": 9011,
      "Ġexchange": 9012,
      "ĠBelle": 9013,
      "ifi": 9014,
      "udy": 9015,
      "Ġacts": 9016,
      "Ġmessages": 9017,
      "Ġcages": 9018,
      "Ġstepping": 9019,
      "Ġshrank": 9020,
      "ĠMelissa": 9021,
      "lish": 9022,
      "rupt": 9023,
      "ĠApril": 9024,
      "Ġwatermel": 9025,
      "Ġstrolled": 9026,
      "Ġoverwhelmed": 9027,
      "ĠSince": 9028,
      "Ġripp": 9029,
      "ĠweÃ¢": 9030,
      "Ġmoons": 9031,
      "umper": 9032,
      "Ġlar": 9033,
      "Ġboards": 9034,
      "Ġslapping": 9035,
      "Ġcheating": 9036,
      "Ġprotection": 9037,
      "Fro": 9038,
      "Ġhesitation": 9039,
      "Jeff": 9040,
      "Achoo": 9041,
      "Ġcaterpillars": 9042,
      "Ġcrisp": 9043,
      "Ġjets": 9044,
      "ulars": 9045,
      "Ġobst": 9046,
      "Ġgasps": 9047,
      "Ġdefeat": 9048,
      "Ġlull": 9049,
      "Ġdou": 9050,
      "Ġchopping": 9051,
      "ĠVelvet": 9052,
      "Ġinju": 9053,
      "Bee": 9054,
      "ĠSuper": 9055,
      "ĠStartled": 9056,
      "Ġpopsic": 9057,
      "ĠOh": 9058,
      "otion": 9059,
      "scar": 9060,
      "Ġconnect": 9061,
      "Ġfade": 9062,
      "ĠWilly": 9063,
      "ĠCaptain": 9064,
      "Ġunderwater": 9065,
      "Ġmelons": 9066,
      "Ġfoam": 9067,
      "Ġaston": 9068,
      "Ġbinoculars": 9069,
      "Ġplayhouse": 9070,
      "Ġalley": 9071,
      "ĠDoes": 9072,
      "Ġdemanding": 9073,
      "Ġcertainly": 9074,
      "how": 9075,
      "ĠAndrew": 9076,
      "ka": 9077,
      "Ġ4": 9078,
      "Ġpouch": 9079,
      "ĠMoo": 9080,
      "Ġsection": 9081,
      "Ġshares": 9082,
      "Ġcrouched": 9083,
      "Ġballerina": 9084,
      "Ġcherish": 9085,
      "Ġslithered": 9086,
      "Ġmonth": 9087,
      "Ġfishy": 9088,
      "ĠBra": 9089,
      "racadabra": 9090,
      "Ġloyalty": 9091,
      "Ġbamboo": 9092,
      "ĠLooking": 9093,
      "Ġdifferently": 9094,
      "Lizzie": 9095,
      "chief": 9096,
      "Ġguards": 9097,
      "ĠBunBun": 9098,
      "Ġpounced": 9099,
      "Ġhopscotch": 9100,
      "Ġrips": 9101,
      "ĠĊĊ": 9102,
      "Ġpeacock": 9103,
      "Ġtransformed": 9104,
      "Ġrecess": 9105,
      "anted": 9106,
      "Ġmeaning": 9107,
      "ĠCarla": 9108,
      "Ġdisappointment": 9109,
      "ĠTiger": 9110,
      "Ġfist": 9111,
      "Ġriverbank": 9112,
      "iciest": 9113,
      "Ġprog": 9114,
      "Ġunwrapped": 9115,
      "Danger": 9116,
      "Ġsqueezes": 9117,
      "Everyday": 9118,
      "Ġicky": 9119,
      "Ġlanding": 9120,
      "Nothing": 9121,
      "ĠLiam": 9122,
      "Ġplaydate": 9123,
      "Ġrack": 9124,
      "ĠJody": 9125,
      "Ġstores": 9126,
      "Still": 9127,
      "Ġcoop": 9128,
      "Ġankle": 9129,
      "Ġpokes": 9130,
      "Ġraking": 9131,
      "Ġsweetly": 9132,
      "Ġfries": 9133,
      "alled": 9134,
      "ĠOf": 9135,
      "Ġcherished": 9136,
      "Ġerupt": 9137,
      "Ġnightmares": 9138,
      "ĠElephant": 9139,
      "Ġamused": 9140,
      "cycles": 9141,
      "ĠChoo": 9142,
      "Ġwhimpered": 9143,
      "oss": 9144,
      "Ġarrest": 9145,
      "Ġnapped": 9146,
      "Ġthie": 9147,
      "iring": 9148,
      "ĠWin": 9149,
      "ĠLight": 9150,
      "Ġsnorted": 9151,
      "solut": 9152,
      ",'": 9153,
      "rum": 9154,
      "Ġthrill": 9155,
      "ĠNora": 9156,
      "ĠGracie": 9157,
      "Ġbirdy": 9158,
      "Milo": 9159,
      "ĠCandy": 9160,
      "Ġteamwork": 9161,
      "Ġjudges": 9162,
      "Lia": 9163,
      "ĠWait": 9164,
[...]
