#version: 0.2
Ġ t
h e
Ġ a
Ġ .
i n
Ġ s
Ġ w
Ġ ,
Ġt he
r e
o u
Ġ h
e d
Ġ b
Ġ o
Ġ m
n d
Ġ i
in g
Ġ c
Ġ '
Ġ f
e r
Ġt o
a t
Ġ he
Ġ d
Ġ l
Ġ n
i s
e n
a s
Ġt h
l l
Ġa nd
o n
a n
Ġ p
o r
a r
i t
Ġ g
e s
Ġo f
Ġ in
` `
Ġ' '
Ġ y
o m
Ġh a
o w
i d
Ġb e
Ġy ou
Ġ e
Ġw as
l e
o t
l d
Ġhe r
a c
g h
v e
s t
Ġo n
e t
Ġs t
i m
l y
Ġi t
a y
Ġh is
Ġth at
i c
Ġ u
u t
Ġ re
Ġ r
a d
a l
s e
Ġ k
v er
Ġm e
ou t
Ġ ?
Ġw h
t he
o o
Ġw e
Ġa s
gh t
Ġm y
ou ld
it h
Ġs he
i r
Ġf or
en t
' t
Ġw ith
k e
Ġha d
Ġd o
a m
Ġa n
Ġl i
Ġa t
u r
Ġs h
i on
a ll
Ġ j
Ġh im
e e
Ġf r
Ġs a
i ght
k ed
c h
re d
r o
p p
ac k
Ġn ot
a in
i ll
Ġn e
Ġb ut
t h
s he
an t
c e
he r
t er
i l
a nd
Ġk n
o re
Ġ out
Ġs o
Ġu p
Ġi s
u st
r ou
r i
om e
Ġha ve
Ġsa id
ar d
e c
u n
on e
Ġfr om
k ing
Ġwh at
Ġa b
t o
Ġg o
Ġd id
i e
Ġl e
r a
Ġc h
in d
Ġc ould
Ġw he
Ġn o
Ġth is
Ġb ack
g e
Ġwe re
Ġa ll
Ġl oo
Ġa l
Ġs u
Ġw ould
t ed
Ġ v
es s
ow n
e l
n t
u s
Ġli ke
l o
Ġthe y
oo d
q u
a b
s s
Ġs p
he d
Ġon e
Ġin to
e ll
id e
Ġc on
i f
a u
ou r
r y
as t
Ġa g
Ġkn ow
Ġw or
er s
h ing
ac e
Ġab out
Ġe x
all y
a ke
c k
Ġha nd
u m
Ġr o
Ġj ust
Ġi f
Ġthe m
w ay
Ġs ee
u l
Ġw ant
Ġo ver
on g
o p
Ġyou r
ver y
at e
Ġan y
ar t
Ġo r
Ġbe en
v en
Ġe y
Ġa re
es t
w e
a p
Ġd e
Ġs m
Ġthe re
Ġt im
Ġg et
l f
Ġd own
Ġb l
a re
Ġwhe n
Ġp l
is t
i g
Ġl o
am e
Ġto o
Ġs e
ur n
Ġb o
Ġc o
Ġag ain
Ġm o
ou s
rou nd
ic e
at ion
Ġc om
Ġthe n
Ġ !
Ġof f
Ġs ome
a g
in k
Ġm an
i ve
Ġb r
Ġtim e
Ġa r
Ġey es
Ġwh o
e w
Ġth ou
Ġp o
Ġhe ad
t ing
Ġu s
Ġb y
in e
u ll
ic k
Ġ qu
Ġm ore
a k
the r
pp ed
ot her
ou nd
Ġc an
Ġc l
t e
Ġa c
Ġs c
Ġs l
Ġt r
Ġn ow
l ed
Ġg r
se lf
v ed
f ore
Ġw ay
i le
Ġt w
u re
b ut
i re
Ġthe ir
Ġ en
Ġu n
Ġth an
Ġh ow
d d
Ġa round
w h
y ou
. .
as s
or t
re at
Ġ ``
e ar
Ġs ay
Ġgo ing
Ġ. ..
v ing
Ġbe fore
f e
Ġo ther
nd er
Ġw ill
om et
Ġp re
Ġhe re
ad e
Ġp ro
Ġe ven
rou gh
Ġr ight
Ġth ink
Ġf l
e p
Ġth rough
Ġne ed
Ġt urn
i p
e m
Ġloo ked
Ġi m
f t
Ġe very
f f
t le
ec t
Ġon ly
Ġthou ght
f ter
w ard
is s
b e
Ġsh ould
Ġth ing
Ġa way
th ing
Ġbe c
Ġs omet
l ing
it e
Ġloo k
Ġg l
ee p
Ġg u
Ġp r
Ġf ace
Ġdo or
on t
ac t
Ġm u
i es
it y
an g
au se
Ġst ill
a ve
i z
Ġex p
d y
o l
en ed
Ġl ong
Ġl et
ac h
a red
Ġc lo
b le
Ġf ee
Ġsomet hing
Ġw at
Ġo p
ab le
Ġa m
Ġne ver
Ġl it
Ġg ot
c t
Ġbe t
ar k
u e
Ġg ood
Ġc he
at ed
an ce
the y
w n
e red
m ed
Ġas ked
ic h
n o
ou gh
c hed
w he
Ġm ade
re e
i ous
Ġmu ch
Ġar m
Ġf o
Ġh o
m ent
a king
a ge
Ġkn ew
Ġro om
at h
t y
Ġw a
Ġc ar
r u
Ġtw o
Ġwhe re
h is
Ġd is
n ing
ad y
Ġf ir
s ide
Ġlit tle
Ġre m
s o
Ġt ell
Ġu nder
o nd
at her
Ġd ay
Ġa fter
Ġ our
s h
Ġm ake
Ġm om
g g
el t
s p
Ġp e
d e
Ġha pp
re ss
ri ed
k s
b er
Ġt ake
Ġw al
Ġt e
Ġbec ause
Ġc all
a ir
a h
m y
as e
Ġwe ll
o ice
Ġcon t
v es
Ġc ome
Ġf elt
o se
Ġfir st
i ed
Ġhand s
p s
Ġwant ed
Ġtoo k
p le
Ġ ;
Ġturn ed
Ġp ull
Ġt al
Ġe m
Ġs w
Ġc a
th at
an s
Ġhe l
Ġj o
r ow
wh at
p t
Ġsu re
ot h
Ġn ight
i ly
i ld
s ed
i a
Ġs k
p l
Ġre ally
Ġa pp
en ce
n e
oo k
Ġv oice
Ġagain st
Ġt ry
u ck
Ġst ar
the re
Ġs ec
Ġwh y
Ġh as
d s
Ġs ur
Ġd es
an c
g et
Ġe l
op le
p er
Ġle ft
b b
Ġto ld
Ġh ard
Ġre al
Ġc ame
Ġfee l
a v
Ġc ou
is e
Ġbe l
is h
ro ss
Ġs ide
Ġp art
Ġbe h
m o
Ġp ut
Ġbo dy
Ġ very
Ġp er
Ġli fe
Ġ -
Ġl ast
a z
Ġw om
Ġf ew
Ġa d
Ġw o
f ul
n ed
Ġpe ople
Ġm ar
Ġhel p
Ġf ind
re n
ear s
Ġf e
Ġmom ent
he s
f or
Ġst r
l es
Ġany thing
Ġe ar
Ġb reat
Ġit s
Ġo wn
Ġwh ich
x t
Ġwa it
Ġne w
en s
ion s
Ġan other
Ġf in
Ġw ent
Ġto ward
Ġw ar
Ġbe ing
Ġen ough
ou se
Ġp h
Ġbeh ind
Ġwh ile
Ġm ight
Ġk eep
Ġc r
ow ed
i gh
Ġb ed
Ġb u
Ġsa w
Ġli ght
Ġl au
Ġw r
Ġbe g
Ġm ay
Ġu nt
Ġdo es
way s
out h
Ġm at
Ġs n
Ġd ark
Ġg ir
Ġha ir
Ġs ound
a il
Ġm ind
ch ing
Ġlo ve
Ġthing s
in ce
y s
Ġe ver
n ess
in t
Ġunt il
Ġc le
Ġd r
Ġf ing
Ġop en
Ġnot hing
Ġo ld
Ġe nd
Ġst u
re am
whe n
Ġd ec
Ġ ent
i an
Ġs et
on s
or d
am p
u c
Ġc are
n er
c o
ie nd
oo l
the n
dd ed
Ġfr iend
Ġgir l
Ġpl ace
Ġthou gh
Ġth ose
ow er
Ġat t
Ġal ways
Ġm outh
Ġh ouse
h ow
Ġs at
Ġf ound
Ġfr ont
mo st
Ġne xt
n ot
a w
Ġm in
Ġsm il
Ġ :
Ġh ome
th is
Ġk ill
l i
re w
at ing
ar y
Ġc ur
Ġst e
Ġr un
Ġloo king
Ġin side
an k
Ġho ld
Ġb oth
Ġs il
Ġh u
or y
Ġhe art
Ġs it
Ġwor k
l ess
u ally
Ġmo st
Ġhim self
Ġs ame
* *
Ġre st
Ġac t
o s
Ġim p
an ge
Ġf ar
Ġb it
Ġwom an
Ġas s
Ġsm all
un g
Ġhe ard
Ġpull ed
Ġsh o
Ġarm s
we en
Ġst and
Ġre l
Ġtry ing
Ġf lo
is ed
er t
Ġbl ood
re t
Ġc our
Ġbet ter
Ġy es
Ġsee med
Ġw ind
Ġh op
Ġre t
Ġg ra
Ġs er
Ġk iss
pp ing
Ġbet ween
Ġsm ile
Ġf ather
Ġc or
Ġan s
Ġme an
Ġwith out
t en
Ġon ce
n g
Ġm other
re ady
Ġg i
a le
ab ly
Ġd ra
Ġhe ar
Ġd eep
p ed
us ed
Ġst o
i al
Ġmy self
au ght
Ġac ross
Ġsec ond
Ġg ive
Ġsp e
Ġbl ack
Ġf am
Ġstar ted
Ġp ass
Ġg ave
c ked
ic t
Ġp u
Ġsome one
Ġbreat h
Ġd ri
Ġh ur
k ay
Ġe ach
ac hed
Ġal ready
p r
Ġst ood
Ġevery thing
i x
Ġy ears
Ġp le
Ġb re
she d
Ġs le
Ġqu ick
Ġm ust
Ġel se
Ġp ain
Ġbel ie
Ġd one
or s
Ġk ind
Ġst op
i ble
get her
Ġw all
Ġa ir
Ġal most
it s
Ġst ay
Ġdo ing
at er
Ġm en
Ġt ried
p h
Ġin st
Ġd ro
Ġli ps
as h
Ġwal ked
d o
Ġwor ld
Ġr u
Ġfo ll
b o
Ġwor ds
e ver
an e
Ġclo se
Ġcom p
Ġt ou
iz ed
Ġh um
Ġno dded
Ġs ince
i v
Ġfe et
Ġrem em
Ġm or
um b
Ġt ra
Ġth ree
Ġs ig
Ġb ig
i et
Ġs we
Ġb ar
Ġmin ut
u red
Ġto gether
Ġhe ld
re nt
Ġo b
Ġse en
Ġdid nt
p e
ull y
Ġst art
Ġm et
g er
Ġne ar
Ġqu est
g s
ain ed
Ġl ot
ow ing
d ay
as on
Ġd if
ir t
Ġm on
Ġunder st
Ġsu pp
ic ked
in king
c l
Ġwh is
i er
Ġm iss
whe re
Ġp ers
Ġd ont
c ed
Ġman y
u d
ak es
i b
Ġ ed
ent ly
Ġsl ow
Ġpl ay
Ġsay s
Ġfee ling
s er
Ġwat er
Ġsmil ed
Ġmo ve
Ġflo or
it her
gg ed
Ġtal k
Ġhe ll
Ġb ad
Ġe v
Ġher self
ri e
ow s
Ġt able
Ġg one
Ġfing ers
Ġle ave
Ġg re
ent ion
Ġbeg an
Ġche st
Ġneed ed
b y
is hed
ac ed
Ġr a
Ġp ast
y ing
Ġe as
ec ted
Ġs im
Ġ z
Ġst ep
ing s
or m
Ġd ist
Ġsh ook
Ġn ame
en se
a x
e ah
Ġo kay
d er
Ġh our
n y
ate ly
ver s
Ġac c
Ġg reat
Ġs qu
w er
Ġthe se
Ġcon f
n ow
Ġcour se
dd en
b ably
us h
Ġal ong
Ġs or
Ġmay be
Ġcall ed
u p
Ġi de
Ġf ore
Ġget ting
ic al
Ġso ft
w ith
Ġal so
Ġcom ing
n a
in ed
Ġf all
Ġb ro
Ġch ild
Ġle ast
Ġin t
i pped
Ġha lf
m s
Ġhapp ened
Ġy et
Ġmo ved
e k
Ġre d
Ġde ad
ar ing
an ed
Ġin v
Ġa w
Ġb est
Ġf re
Ġcont in
Ġre ached
Ġcom m
Ġret urn
Ġt re
Ġsu ch
Ġpers on
Ġpo ss
j ust
Ġre sp
Ġch ar
Ġh igh
Ġey e
Ġre s
bb ed
te red
Ġsto pped
Ġph one
Ġso on
Ġg az
b r
Ġbelie ve
Ġsk in
et h
it ion
Ġt ight
c he
Ġpro bably
Ġc ra
id d
Ġt er
g ed
Ġop ened
a pp
en ing
en e
Ġf ire
i red
Ġp at
j o
Ġb us
Ġas k
Ġus ed
Ġm aking
u al
Ġme et
Ġfam ily
Ġpre ss
Ġl ater
is ter
t on
Ġo h
Ġsur pr
Ġbo y
ious ly
Ġide a
he ad
are nt
id ed
Ġr an
ep t
Ġunderst and
er ing
Ġd am
Ġin ter
Ġsle ep
Ġh or
Ġp ar
f ully
ro om
Ġany one
Ġd ire
Ġpl an
Ġshould er
Ġwh ite
ct ion
Ġfor ward
a ut
g n
Ġg round
Ġbr other
Ġdif fe
Ġde m
ce pt
Ġa p
Ġne ck
in s
Ġh ot
a fter
Ġmor ning
Ġf act
Ġst ra
t s
Ġk ept
m an
Ġpo int
anc ed
Ġ es
re st
Ġl ist
Ġsor ry
Ġmat ter
Ġm r
m ay
Ġf ight
Ġsu dden
a id
w ell
Ġp ower
Ġre ad
Ġl ar
Ġto p
Ġcom ple
Ġday s
Ġc ut
Ġyou ng
Ġremem ber
Ġqu iet
u ed
ent s
Ġre pl
ert ain
Ġc at
ak en
Ġgo d
Ġquick ly
Ġab le
iz e
Ġv is
wh y
Ġpr ot
Ġfin ally
Ġgu y
Ġh it
Ġt aking
o ke
Ġon to
in ess
Ġre p
Ġro ll
Ġ 1
Ġcle ar
Ġwr ong
Ġre g
Ġu se
Ġclo sed
Ġexp l
ut h
Ġal one
Ġm ag
Ġst ared
Ġhur t
e ad
ic ally
Ġans wer
Ġf ull
Ġc ap
Ġre c
Ġre ady
Ġwat ched
Ġquest ion
Ġf ell
Ġlau gh
if e
Ġth inking
Ġth ro
Ġtal king
i o
b l
Ġm ine
Ġle a
air s
Ġs un
Ġin c
Ġd el
Ġd ress
Ġs ch
Ġh ar
ve l
Ġminut es
Ġwhis p
an y
g hed
Ġd ad
et s
ap s
may be
Ġd et
c c
Ġpo l
f ort
Ġf ig
Ġin te
Ġha ving
Ġco ll
Ġbe aut
Ġco l
Ġre f
Ġb ab
Ġt ri
Ġslow ly
Ġst re
ou nt
Ġha ll
Ġme m
Ġgaz e
one y
Ġwo nder
ill ed
Ġp ur
Ġy eah
o h
e y
um p
n ight
g o
Ġcon s
Ġpre t
Ġre ason
Ġlo st
Ġb ot
Ġco ld
Ġgl ass
Ġwor d
Ġout side
Ġd ou
f ect
Ġgu ess
Ġv amp
Ġl ow
Ġm us
ation s
Ġli f
Ġtim es
Ġf ine
k en
Ġdiffe rent
Ġwho le
ip s
c er
Ġe ither
Ġc al
Ġevery one
Ġc aught
Ġk id
id es
ve red
as ed
in ted
Ġj ack
Ġwal k
ap ter
Ġb ur
Ġl and
Ġf our
Ġl ou
Ġpr om
Ġact ually
m m
Ġlau ghed
Ġsh ort
m ing
am es
Ġpret ty
c us
Ġm ur
le t
Ġe le
ure s
Ġgr in
Ġex act
Ġbre ak
Ġag o
Ġb es
Ġwait ing
Ġfriend s
c le
Ġstand ing
Ġt aken
Ġcomple te
e ared
Ġbu ild
al s
ur ing
ard s
Ġsh ot
Ġhop e
rou ght
it ed
Ġf ree
li ke
Ġle gs
Ġde ath
ic ul
Ġthro at
ent y
i ver
ro l
Ġme ant
Ġpre s
g r
Ġbl ue
Ġvamp ire
Ġf ur
h o
Ġgl anced
Ġb lo
Ġj e
Ġwhisp ered
Ġsc ream
Ġother s
e ven
Ġsch ool
id ing
f in
Ġs y
Ġsh ow
Ġl ay
Ġwind ow
Ġstr ong
o sed
Ġi d
Ġb rought
Ġb are
e ks
Ġlook s
Ġwar m
Ġim ag
Ġc ertain
Ġk it
Ġstra ight
un t
ter s
ac ked
Ġin s
Ġf un
Ġhum an
y es
Ġse at
ang er
Ġb urn
Ġg un
at es
Ġs ent
Ġste pped
m ore
e very
Ġm ess
Ġbr ing
Ġl ess
Ġper fect
Ġlar ge
Ġsig n
if ul
im e
z y
Ġle aned
i k
Ġtou ch
Ġd ream
Ġse x
Ġs ister
Ġs ense
Ġfo ot
Ġad m
ie ld
Ġreal ized
Ġan g
l and
Ġin d
Ġem p
Ġsh ut
Ġent ire
Ġdis app
Ġsudden ly
Ġt y
Ġexact ly
o ve
ang ed
Ġhold ing
nd ing
or n
Ġch air
ress ion
Ġqu ite
Ġc ry
Ġwat ch
Ġc ross
ir d
Ġle ad
z e
Ġhapp y
Ġsu b
Ġfoll owed
re ad
ver al
ant s
s ome
Ġex c
a pped
Ġgra bbed
Ġb at
ic ed
Ġwat ching
Ġcontin ued
Ġto m
is on
Ġt en
ap e
Ġclo ser
c om
Ġjo b
as ter
Ġhour s
Ġsh ru
ot ion
Ġc ent
u b
Ġw ood
g an
Ġsit ting
Ġatt ention
Ġrepl ied
Ġrun ning
Ġg en
Ġ er
ou n
Ġpu shed
th ough
m e
Ġcou nt
ac es
Ġl ine
for m
ag ed
Ġlong er
Ġcl ot
s ing
Ġbeaut iful
che n
Ġde al
nd ed
i ent
Ġf ear
Ġth r
Ġshould ers
Ġch ance
au l
Ġsay ing
Ġapp ro
Ġtr ue
Ġw ra
is ted
g y
Ġw in
Ġn a
Ġn ice
Ġspe ak
in a
Ġbab y
m a
h aps
Ġhe s
Ġmon th
Ġh ung
Ġst om
c hes
Ġ )
Ġc ir
Ġto wn
Ġhe av
Ġle ar
Ġf ive
Ġst ru
b ed
Ġbes ide
Ġb ag
st er
ch apter
Ġsl ight
Ġsa fe
Ġen g
Ġy ell
Ġap art
Ġpro ble
Ġinte rest
Ġch ange
Ġs ing
Ġli ving
Ġple ase
Ġp ap
f r
Ġm oney
l s
in es
j ect
Ġcont rol
Ġp ri
Ġkit chen
c ent
Ġro ad
an n
Ġt em
c ess
Ġp a
Ġf ast
Ġd in
c y
l ight
Ġsm ell
Ġdro pped
Ġ ve
Ġli ve
Ġtr ust
Ġc ase
Ġwas nt
Ġp arent
ot s
Ġcou ple
Ġse veral
Ġkn own
Ġp al
ant ly
Ġswe et
ar s
Ġgi ven
Ġsh if
i ally
Ġoff ice
Ġto night
Ġlo ved
Ġsh ad
Ġsh it
Ġdec ided
Ġmo ving
if f
r ist
r or
Ġre co
on es
Ġs ix
Ġy ear
se l
c king
e en
Ġe ff
ou ght
Ġsk y
Ġsh irt
Ġfor m
Ġgr and
Ġs on
Ġbus iness
Ġi ll
im es
Ġlea ving
Ġi r
Ġto day
Ġwhat ever
Ġb ene
Ġc ity
il ity
Ġstre et
Ġm ad
Ġes c
ain s
Ġab ove
as hed
bo dy
Ġtr uth
Ġcou n
is ing
id ent
Ġwom en
ie f
Ġro ck
Ġa dd
Ġs ort
Ġsp ec
Ġdou b
in y
ie w
Ġfing er
Ġa v
um ped
Ġc e
Ġc reat
p ly
Ġsp oke
Ġro se
Ġg ri
el s
Ġpass ed
Ġm a
ain ing
Ġstom ach
Ġm il
un ch
le y
i en
Ġto r
Ġa f
Ġlif ted
Ġb ook
ra id
ll y
Ġh on
Ġparent s
Ġra ised
g ing
i ence
Ġthan k
le x
ar a
o f
Ġwor king
k y
Ġar ri
Ġc row
Ġdr ink
Ġde v
Ġcor ner
Ġwor ry
Ġcomplete ly
w or
b ec
Ġ (
Ġgre en
Ġbeg in
Ġm ut
Ġf illed
med i
g th
nd red
Ġt rou
Ġexp ression
Ġg as
Ġp ict
Ġbr ight
Ġs am
Ġsupp osed
Ġhapp en
Ġsec ret
Ġl ate
te m
Ġp ay
ac ing
Ġc re
Ġkill ed
Ġed ge
on y
Ġt ears
h a
Ġgu ys
Ġn or
Ġn er
Ġfr own
c ome
Ġm akes
us hing
Ġstar ing
ect ion
Ġp icked
Ġf ood
i ke
Ġm ir
Ġfor g
r ight
Ġte eth
Ġbuild ing
Ġsig hed
Ġk ing
Ġsh ar
Ġyour self
Ġr ather
Ġob v
Ġd ie
Ġkn o
Ġn at
ig n
Ġco ff
Ġex t
b s
Ġwe ek
Ġwal king
s omet
d id
v ent
Ġto ng
Ġnear ly
Ġw ond
it ch
Ġm ist
Ġh ang
Ġhu ndred
Ġw ide
Ġinst ead
Ġpo s
at or
s u
Ġple as
t om
Ġtoward s
Ġgu ard
Ġgr ow
Ġse ar
Ġdam n
Ġsh out
Ġnot iced
Ġstu ff
Ġim medi
Ġtw enty
Ġposs ible
Ġgirl s
Ġsil ence
Ġsee m
we red
Ġbo x
Ġcon vers
Ġreturn ed
Ġab s
Ġcould nt
Ġthought s
h n
a im
Ġclot hes
Ġaf raid
s on
ut e
Ġwait ed
p ted
Ġd anger
Ġs ight
Ġlou d
Ġg ro
s et
Ġcap t
y ed
Ġsu sp
Ġg ar
u se
e es
Ġwor ked
Ġroll ed
il t
Ġkiss ed
Ġg rou
Ġs ens
Ġen jo
Ġc ant
ist s
Ġo pp
Ġsee ing
Ġdri ve
ir ty
Ġup on
Ġe at
Ġstu d
Ġeas y
um ber
Ġbec ome
Ġany way
Ġshru gged
Ġst ory
idd le
Ġgi ving
ul t
Ġpo inted
Ġpress ed
Ġde p
Ġth ick
il i
Ġh un
Ġgo ld
l er
sh ip
Ġimp ort
Ġl uc
Ġst ro
u g
z z
al ed
Ġknow ing
Ġsp ot
Ġdes k
Ġwith in
Ġo cc
Ġ *
or row
ment s
Ġtong ue
Ġp et
Ġtell ing
Ġbare ly
Ġwond ered
Ġcl im
rie f
Ġdire ct
Ġche ek
Ġle g
Ġbene ath
Ġans wered
r ic
Ġfig ure
Ġminut e
Ġd est
Ġsl id
Ġor der
Ġpo ck
Ġrem ind
Ġag re
Ġn orm
Ġemp ty
w o
Ġchild ren
Ġcoff ee
e x
Ġn ar
id er
it ies
Ġknow s
Ġsurpr ised
Ġl ed
Ġcon n
Ġproble m
Ġw ife
Ġp ick
Ġs ou
Ġsm o
Ġb all
un k
v in
s c
Ġc am
ic king
am ed
Ġj er
Ġm iddle
be red
Ġm ark
Ġs ad
Ġstr ange
he re
umb led
anc es
Ġcl ass
or ies
it ing
Ġapp eared
Ġch anged
ad ed
sel ves
Ġsp r
Ġexp er
Ġs al
s y
p id
ic es
Ġcrow d
at t
Ġd a
m b
o c
Ġ 2
Ġheav y
Ġb ath
act ion
Ġso l
Ġno se
Ġor d
ain t
il ing
Ġmonth s
Ġd ied
Ġcon cer
Ġconvers ation
Ġimmedi ately
Ġear th
Ġany more
Ġturn ing
as k
Ġa ff
w as
Ġter ri
Ġb en
Ġst ri
Ġwe aring
aught er
Ġadm it
Ġli ked
Ġstep s
Ġp an
ie ce
he l
Ġp ack
Ġco ver
Ġk e
Ġst one
u ff
Ġsim ply
Ġm er
Ġn umber
em ent
Ġkn ees
Ġsound ed
Ġher s
Ġbec ame
Ġcle an
Ġslight ly
p ec
Ġstu pid
Ġl uck
Ġfin ished
Ġin form
Ġcal m
Ġlo c
Ġc ell
Ġl im
is ion
Ġpap er
Ġw ish
Ġdra w
Ġr ing
bec ause
Ġco vered
Ġm ed
Ġan n
g u
u de
Ġatt ack
c on
Ġ- -
Ġf air
c es
Ġsoft ly
Ġad v
Ġal ive
Ġgrou p
Ġdire ction
it al
Ġb le
Ġr ound
Ġth row
ive ly
wh o
Ġsp ent
Ġs el
Ġfor ce
Ġimport ant
il ed
Ġgen er
Ġnar row
bb ing
o lo
Ġsp ace
l a
Ġbed room
ter n
Ġre le
Ġa dded
Ġl ady
Ġd uring
Ġt all
m ar
Ġyou re
Ġche ck
Ġwant s
Ġre ach
Ġwe eks
b and
Ġgr ay
Ġc ool
Ġpull ing
Ġs ir
Ġprot ect
on ce
Ġu r
Ġtou ched
Ġc op
Ġsurpr ise
pec ially
Ġreco gn
ct or
Ġh us
Ġon es
Ġdoub t
Ġto ne
Ġtrou ble
ne y
c i
te en
Ġper haps
Ġsing le
Ġf ly
c an
Ġquiet ly
Ġdin ner
Ġbro ke
ail s
Ġbe at
Ġhes it
Ġch rist
Ġa head
v ous
Ġth reat
Ġso ld
Ġa lex
ic a
Ġpol ice
Ġb ra
a el
Ġcra zy
Ġbro ken
o ld
f l
Ġhead ed
Ġc ast
ac hing
Ġst airs
or ing
Ġex cept
ite ly
y ond
Ġsa nd
Ġare a
oo f
Ġremem bered
Ġli e
ul ar
ren ce
Ġst ate
Ġwra pped
Ġwor ried
ag es
Ġcir c
Ġg ently
Ġd rew
Ġcom fort
Ġpro f
Ġfoll ow
if t
Ġman aged
Ġdoor s
Ġbr u
Ġwor se
Ġkid s
Ġsqu ee
l ie
Ġt iny
Ġsw all
Ġgl ad
Ġw ild
Ġwe ap
Ġpa used
b ar
Ġsound s
Ġfr o
i or
Ġth rew
Ġar t
Ġfor get
Ġf av
Ġl u
Ġdark ness
Ġbr own
Ġsit u
Ġsil ent
Ġsecond s
and ed
Ġme ans
Ġthan ks
Ġs ick
Ġwall s
ck s
ib ly
f er
Ġwe ak
gg ing
Ġpr act
Ġb ill
Ġpre p
Ġp en
Ġpl aced
Ġquest ions
Ġinform ation
Ġst are
Ġsu mm
Ġtom orrow
Ġli p
Ġd aughter
Ġd an
Ġtre es
Ġsu gg
Ġl ord
Ġhu ge
pp er
Ġc ab
Ġexp ected
Ġm ention
he red
Ġv iew
Ġst ret
oo ks
Ġv ict
Ġgot ten
Ġd ar
Ġcom es
Ġg ame
c ing
Ġd en
Ġsp l
Ġw ound
in ation
Ġl aw
Ġdist ance
y our
Ġl a
in ing
r ac
Ġle an
Ġser ious
p ing
Ġsc r
n s
Ġpock et
Ġsome where
Ġr is
Ġnew s
Ġmag ic
Ġhe at
Ġc as
Ġt ree
or ted
in st
Ġoff ic
Ġcat ch
rie nd
Ġmeet ing
Ġjo hn
s ure
Ġf if
Ġb rief
Ġpos ition
Ġsp read
Ġang ry
if ic
Ġf le
z ed
Ġp ath
Ġme l
Ġpart y
Ġr id
Ġv an
Ġp iece
Ġsee ms
Ġe ight
Ġtr ans
Ġwa ist
Ġset t
th an
Ġear ly
Ġj ul
Ġcar ry
ap ed
Ġpri v
Ġsel f
Ġan ge
li er
Ġi gn
Ġj aw
Ġfor ced
Ġsh ip
re en
Ġl ying
Ġbe yond
Ġs igh
al ing
somet hing
Ġan ger
c ious
ous and
ic s
Ġshar p
Ġeye b
Ġm ount
es ted
Ġbot tom
Ġsl am
c ted
Ġh ide
Ġresp ond
Ġw et
Ġmur m
Ġp ee
ec ting
st r
Ġb ir
Ġser v
es h
Ġt ired
ili ar
Ġg ent
Ġsur round
Ġb ull
Ġstru gg
Ġbl ank
Ġagre ed
i pping
Ġf ut
Ġhe y
Ġsn apped
Ġw ed
Ġt u
us ing
Ġch oice
Ġch in
j a
Ġan im
Ġexp ect
Ġto ss
Ġner vous
Ġprom ise
Ġdra g
Ġp un
ch o
Ġforg ot
Ġsu it
Ġof ten
Ġsur v
Ġf it
er y
Ġcom pl
Ġhus band
Ġt akes
Ġst ren
Ġde fin
Ġsh aking
Ġco nd
Ġh ate
Ġm is
Ġch uck
Ġsa ve
d ing
Ġrel ax
Ġre ve
Ġtr uck
Ġde f
Ġth ousand
Ġm ain
Ġat tem
Ġdes per
Ġbath room
at s
Ġgrin ned
Ġsl ipped
Ġm ass
a ked
ro ll
Ġu nd
Ġto t
ter ing
Ġr ain
Ġm ill
Ġsw ord
Ġbo ys
r is
ig g
be fore
Ġplay ing
id ence
Ġwor th
Ġsitu ation
Ġsmil ing
r on
y eah
Ġpleas ure
Ġv al
Ġsomet imes
Ġeven ing
Ġarri ved
oo king
Ġbel ow
Ġexp lo
Ġhe d
Ġre qu
ell e
Ġlo cked
Ġfur ther
Ġcross ed
Ġeyeb row
Ġdem on
Ġth in
Ġte am
Ġj umped
Ġear lier
Ġl ap
Ġas king
Ġt ast
ar m
Ġsome how
Ġnorm al
Ġapart ment
er m
Ġre pe
Ġfrown ed
Ġb al
uc ked
Ġen c
that s
Ġkeep ing
Ġd ry
i am
anc ing
an a
is hing
Ġinv ol
Ġfl at
Ġcent er
Ġche eks
Ġmut tered
re s
Ġlist en
Ġp ound
Ġlight s
Ġreal ize
Ġam az
Ġr ich
on ly
Ġsh owed
Ġse nd
Ġin cl
Ġli ved
Ġn one
Ġhop ed
ress ed
Ġs ar
b es
Ġgl ance
Ġexpl ain
Ġv i
Ġcon st
ot e
Ġdo g
and er
Ġv o
Ġfo ld
Ġb ow
at ive
wh ile
Ġthem selves
Ġc amp
ag er
Ġlet ting
fr om
Ġw ip
Ġc ru
Ġlo se
Ġg rew
Ġclear ly
Ġm id
Ġpict ure
k es
r it
Ġo dd
Ġhop ing
Ġwe ight
Ġear s
Ġstren gth
Ġi ce
Ġsou l
Ġc up
t wo
a ire
p ite
g ar
Ġass um
Ġw ore
ow ers
Ġr ad
Ġfav or
Ġbe ll
Ġtr ack
m er
Ġen er
f ied
Ġmus ic
Ġnot ice
Ġli ves
g es
Ġcare fully
Ġgent le
u ct
Ġwhis per
Ġbr ain
Ġsp ir
not hing
Ġoff ered
Ġus ing
Ġbreat hing
m en
Ġb and
Ġho sp
Ġf ix
Ġfut ure
st s
Ġtal ked
Ġbegin ning
z en
Ġan t
m iss
Ġvis it
Ġhand le
Ġsil ver
or ge
Ġb as
Ġdis co
ill s
Ġwhe ther
Ġf ield
Ġdress ed
Ġsu per
Ġas h
Ġfore head
Ġt a
Ġt un
Ġf ail
Ġcl ou
Ġqu een
Ġwo lf
o g
Ġeas ily
Ġk ey
Ġsc ared
Ġev ent
Ġdif f
Ġav o
Ġimag ine
Ġcol or
Ġhelp ed
idd en
Ġbat tle
Ġfam iliar
Ġdes er
Ġall owed
Ġlaugh ing
Ġent ered
Ġsn ow
Ġstay ed
Ġes pecially
Ġspec ial
Ġrem ained
Ġsh all
ur al
Ġp air
Ġmem ory
Ġm otion
Ġkn ife
Ġfir m
Ġg est
a ld
Ġdo ctor
v al
Ġhand ed
o ss
Ġit self
as ing
Ġapp ear
Ġl ower
aul t
Ġ ver
av id
Ġcoun ter
Ġsho ot
Ġun c
Ġrel ation
Ġhon est
st ill
Ġaw are
Ġf em
Ġa ge
Ġp ot
Ġneed s
g ood
Ġbo d
inst ead
ie l
Ġthat s
in ked
Ġd im
Ġmet al
Ġmus c
r act
Ġt est
Ġcertain ly
w ill
Ġeff ort
Ġph ot
she s
s es
Ġmr s
Ġcomp any
Ġsur f
Ġmiss ed
Ġget s
Ġhor se
Ġg lo
no on
is es
Ġdanger ous
Ġhosp ital
ri an
r ing
in ct
te nd
Ġdiff icul
qu e
Ġp ush
Ġfl esh
g in
Ġfight ing
Ġwould nt
ot t
id ge
Ġfore ver
Ġe qu
Ġp in
Ġwe l
iz ing
Ġcr ack
Ġp ale
ple ase
Ġsim ple
Ġhow ever
Ġwill ing
Ġsc ent
u es
Ġdefin itely
Ġlo ck
Ġar g
Ġcont act
Ġmo on
Ġle vel
Ġpro per
Ġfre sh
Ġshout ed
us ion
l ine
Ġold er
Ġph ys
p ar
ri es
u dd
u ly
Ġp op
Ġnot e
i pp
icul ar
Ġener gy
Ġam ong
Ġje ans
Ġdest ro
Ġexpl ained
Ġn ick
b el
Ġperson al
Ġobv iously
ay ed
Ġj en
Ġst ore
Ġfall ing
ess ion
Ġfo cus
d ed
Ġgr ace
Ġst ick
Ġal though
Ġmar ried
al th
Ġl en
Ġdro p
arent ly
ver n
Ġcou ch
l t
y le
on ed
uc king
Ġlear ned
Ġc ried
Ġafter noon
Ġshad ow
Ġas ide
Ġh ated
Ġg on
Ġfre y
Ġl ad
h ad
Ġapp re
Ġg e
Ġc and
ur ity
ol ute
Ġvampire s
Ġpres ent
Ġem otion
Ġem er
ust r
Ġsc ar
am b
i ved
st airs
Ġl ab
Ġch o
Ġt reat
Ġsho ck
Ġdes ire
Ġsh ower
Ġr iver
Ġdis cus
i ves
m r
Ġdro ve
le ep
t ime
Ġsp o
Ġgo es
Ġsh ake
0 0
Ġsett led
ich ael
c her
Ġp ort
c ri
Ġt ar
Ġas ks
Ġwant ing
Ġus ually
Ġm ot
Ġf il
l in
Ġh at
he ll
Ġpart icular
Ġno ise
j ack
Ġwonder ing
Ġth igh
Ġst uck
Ġp ark
Ġj ud
Ġm aster
Ġspe ed
Ġswe at
d en
o kay
Ġbus y
Ġfoll owing
Ġcar ried
Ġh ips
Ġwind ows
Ġblo nd
s ion
Ġdisapp eared
Ġesc ape
Ġlike ly
al k
Ġr ide
Ġf ill
Ġpro v
as hing
Ġj ump
Ġturn s
Ġmoment s
ast ic
Ġbot tle
Ġcl aim
i ers
Ġshif ted
Ġunderst ood
l an
op e
Ġput ting
il s
Ġd ust
a ff
ru pt
Ġcall ing
Ġhang ing
Ġs en
Ġend ed
Ġscream ed
Ġsc reen
p et
Ġmir ror
Ġcapt ain
g en
Ġhapp ening
Ġd ate
Ġstart ing
Ġfig ured
Ġbur st
Ġth ird
Ġgri p
Ġshe d
Ġf uck
on se
ro d
Ġkn ee
Ġb ent
Ġhall way
Ġf ool
Ġcour t
Ġte le
Ġmurm ured
Ġre ce
Ġgr im
as m
Ġmiss ing
Ġstu dy
Ġpower ful
Ġf a
you re
Ġrel ief
Ġoff er
Ġbel ong
Ġse a
Ġe ll
Ġspe nd
ac y
Ġp ants
Ġcam er
ve lo
Ġfrey ja
Ġvi ol
Ġtast e
Ġdet erm
ell a
b all
Ġbod ies
Ġlear n
Ġw it
r ance
st em
Ġp ill
Ġr y
Ġm ax
Ġma j
Ġopen ing
Ġth irty
Ġcomp ut
Ġdifficul t
ac her
th ank
Ġw id
Ġex am
Ġd ance
Ġtw isted
Ġwe ar
Ġsh are
Ġfl ash
Ġgu ards
Ġth umb
Ġrelation ship
ly n
he n
b ing
Ġsec urity
Ġcl ub
r id
Ġimp oss
Ġcount ry
om ing
Ġhe a
i us
Ġcl en
Ġcare ful
in ting
ant ed
Ġp i
Ġpe ace
side red
i ans
Ġp ul
Ġhard er
t r
Ġno d
Ġap olo
ad ing
Ġresp onse
the ir
Ġp or
if ied
in c
at tered
Ġpu bl
Ġw ake
en a
Ġde ar
Ġswall owed
Ġhis t
and a
Ġsleep ing
Ġus ual
Ġsy stem
re m
p o
at ic
Ġd on
Ġpro p
Ġp ink
Ġst ation
Ġway s
Ġl aid
led ge
Ġb other
Ġrem o
Ġm al
Ġd ru
re l
un ity
Ġmess age
Ġtr uly
ath an
Ġcon sidered
Ġe cho
Ġpl aces
Ġle ather
Ġen em
Ġhor ri
Ġw ave
d es
r ass
f ast
c a
Ġyour s
st on
Ġwr it
Ġh y
Ġas leep
Ġt ear
d ie
Ġwa ved
s aid
Ġgra b
Ġhad nt
Ġsumm er
Ġbl inked
ill y
d am
l ooking
ust ed
o b
Ġobv ious
ous ly
Ġw ine
Ġhot el
Ġeff ect
Ġbl ind
u nder
Ġpres ence
Ġmo v
ur y
w ould
Ġb ooks
Ġpur p
Ġabs olute
m it
per haps
Ġdoes nt
bar rass
Ġfeeling s
bb y
as ted
Ġfore st
Ġburn ed
Ġsmo oth
Ġgr owing
Ġis land
Ġd ig
Ġc ard
Ġbir th
Ġde fe
Ġr ough
Ġim m
Ġd om
Ġspe aking
Ġb ast
wh ich
Ġhum ans
Ġsm oke
Ġread ing
an na
Ġyell ed
i ot
er ic
Ġremind ed
Ġv ill
Ġj ames
Ġappre ci
Ġburn ing
Ġwe ird
Ġfin al
Ġac cept
Ġcra w
Ġtri p
Ġin f
Ġpal m
Ġany where
ic ious
Ġpriv ate
Ġnor th
Ġsh op
Ġhe n
Ġfor th
Ġcab in
Ġh ol
ber t
Ġcomm and
an other
Ġconf used
ut ion
Ġl unch
Ġbelie ved
a i
a ur
Ġu t
ur ch
Ġp iss
Ġfall en
fin ally
om b
Ġem barrass
c ar
Ġcons ider
Ġpr ison
Ġvis ion
Ġh idden
Ġbe ar
Ġst ee
Ġse ven
y n
Ġsat is
Ġshad ows
Ġm ort
oun ced
Ġsupp ose
Ġsho ved
Ġfeel s
se e
Ġp ushing
Ġsurf ace
Ġdoor way
Ġlist ening
Ġne cess
Ġf aint
Ġpo or
Ġmil es
Ġluck y
Ġdirect ly
Ġsho es
Ġs ong
Ġfind ing
Ġb ite
Ġb ase
im p
Ġent rance
er n
Ġjack et
Ġj am
Ġto w
Ġs ides
as ked
Ġv ar
Ġopp os
oo se
it ive
oo ked
Ġclim bed
Ġst orm
Ġall ow
Ġenjo y
om ed
Ġun cle
Ġsu ff
Ġru bbed
Ġcoll e
Ġcon v
Ġcor re
Ġele ct
Ġexper ience
Ġm ach
Ġimposs ible
Ġme re
Ġgr ass
Ġso c
et y
Ġar r
Ġsu cc
Ġappro ached
Ġel b
ing ing
Ġf ought
d ont
Ġsp ell
ad es
com fort
Ġext ra
fort un
Ġf aces
Ġw ished
Ġ est
Ġtr ick
Ġplay ed
Ġr om
c il
n ers
Ġg ard
Ġw ont
Ġloo se
ra ge
ens ion
Ġrepe ated
ri age
ic ated
y er
Ġfin ish
e v
Ġm ale
Ġdem anded
Ġdo ll
Ġev il
Ġ 3
as ion
Ġslam med
Ġlow ered
Ġfun ny
Ġin de
Ġj ake
Ġi g
Ġcir cle
Ġwar ri
Ġpo st
Ġcry ing
Ġinvol ved
every thing
Ġco at
Ġjo in
Ġho le
ed ing
y al
wor k
at hered
Ġtoss ed
Ġfr ustr
Ġtra il
Ġv ol
w ise
Ġinv est
Ġcle ared
bo ard
o ff
Ġwar ning
ang ing
Ġj on
g l
Ġf ist
Ġl ung
Ġr ap
iss a
Ġwr ist
rou d
r ick
l uc
Ġcomput er
Ġst iff
Ġr oof
b ack
h ood
Ġbe er
ec es
Ġmusc les
f riend
Ġag ree
Ġange l
Ġcl ut
Ġbo ard
b ers
iz z
Ġdri ving
Ġf aster
Ġfor t
Ġl ang
Ġc u
Ġpro d
Ġch urch
Ġinterest ed
Ġthr ust
Ġm ent
Ġincl ud
Ġpro cess
Ġin no
Ġperfect ly
om as
Ġt ip
ou red
Ġg ho
Ġmem ories
b or
Ġdis c
all en
Ġcontin ue
Ġs outh
Ġbreat he
Ġim age
Ġad am
Ġsa v
Ġacc om
Ġgas ped
Ġk icked
Ġa ut
Ġweap on
every one
Ġd avid
Ġne ither
no red
Ġac ce
Ġlau ght
Ġresp ons
Ġdec ision
Ġwhe el
Ġtot ally
Ġmat t
ib ility
Ġattem pt
Ġce iling
Ġhead s
Ġlaught er
Ġche cked
Ġfo c
Ġord ered
Ġr ul
Ġg ate
Ġw est
Ġsw ung
Ġsub ject
Ġbu y
Ġamaz ing
Ġbrother s
Ġtre mb
Ġl at
Ġn ur
Ġd u
Ġhard ly
Ġarm y
Ġr ac
Ġbru shed
s am
Ġlean ing
to p
Ġsquee zed
Ġc ass
Ġb uck
sh irt
Ġd iv
Ġp ant
it ched
Ġa ud
Ġprom ised
Ġr ush
v y
Ġresp ect
Ġf ully
Ġbl ow
Ġco ck
Ġh iding
Ġforgot ten
Ġfe at
Ġbut ton
with out
Ġpurp ose
Ġex ist
Ġrep ort
Ġre se
l ish
Ġig nored
Ġfoc used
d om
Ġdri ver
k n
Ġre v
Ġris k
ir st
Ġg igg
Ġhead ing
Ġcomfort able
a it
i vers
m on
iet y
ke nd
m in
go d
Ġfle w
Ġm ood
Ġser iously
ag ue
Ġbit ch
Ġgr as
Ġbe ast
id s
s l
am ing
ess ed
Ġg ut
Ġn umb
Ġst ream
n el
lo ck
Ġan c
p ro
Ġe than
et t
Ġt il
Ġterri ble
Ġsugg est
o red
i um
Ġinc red
Ġp aid
Ġkill ing
te nded
Ġp roud
Ġyell ow
Ġne igh
Ġj our
Ġfem ale
Ġposs ibly
Ġconcer ned
Ġup set
Ġreg ret
Ġdisapp o
Ġpubl ic
Ġfr ight
Ġo ri
b it
k er
Ġsc ene
Ġru shed
Ġbe ach
id ay
Ġan no
Ġro b
Ġsm art
Ġp ool
Ġna ked
Ġun less
u ce
Ġi ve
u nd
Ġref le
a ly
Ġsold iers
Ġbl ur
Ġsp ark
Ġop er
Ġstru ck
Ġhist ory
Ġli ft
Ġbl ade
Ġtight ly
Ġb orn
Ġl ines
Ġstret ched
Ġb ound
Ġfly ing
Ġgener al
Ġse par
Ġwed ding
Ġlen gth
Ġs ize
Ġjer ked
Ġbreak fast
Ġwood s
Ġpi eces
Ġso f
Ġa unt
in n
h ouse
ra p
Ġexc ited
Ġk at
Ġwood en
Ġpar king
Ġoppos ite
he t
ne ver
Ġpl ate
s m
Ġbo at
st ep
Ġc ause
sh it
Ġele v
Ġwor st
am a
Ġte ch
ic o
g round
Ġr h
as y
ot ions
Ġhear ing
Ġjo ined
Ġsear ch
Ġbo ots
l ook
Ġf er
Ġtw ice
f ather
or k
Ġbr ow
f o
ab les
st and
ann ah
Ġcom b
Ġcur rent
we re
Ġp ier
o ver
some one
Ġdes pite
Ġlea ves
Ġfl u
rac ted
Ġmar y
Ġin j
Ġback ward
Ġf ault
th ose
Ġtr ain
cent r
less ly
il ar
Ġk ick
c ase
Ġbre ast
Ġhun ter
ag ged
Ġpl ans
ic ate
t ell
Ġstud ied
Ġr ising
Ġm ike
Ġ x
Ġcur led
Ġdream s
Ġun able
Ġste ady
Ġevent ually
h ave
Ġte xt
ter day
Ġcl aw
Ġid ent
Ġdes cri
Ġscream ing
e ve
s ince
Ġg ab
Ġsle pt
ale x
Ġhapp ens
bes ides
un e
m other
Ġf at
Ġbu ilt
Ġcreat ure
Ġc oo
z ing
Ġp sy
ive red
Ġre action
Ġop t
Ġn on
Ġrele ased
ic le
Ġinst antly
Ġbr and
ens ive
Ġmove ment
' s
i as
Ġnarrow ed
anc y
Ġpan ic
Ġca used
Ġl ake
Ġbro ad
Ġfl ashed
m as
Ġem otions
Ġd irt
Ġprep ared
Ġir on
Ġh oney
k in
Ġacc ident
Ġm ic
Ġh ill
Ġgold en
Ġmist ake
Ġgre et
Ġeas ier
Ġr ang
Ġlist ened
ect ive
Ġblood y
ation al
Ġp ad
Ġknow ledge
Ġr um
it ting
Ġsh udd
Ġtou ching
p or
Ġsh ape
Ġbre aking
Ġsc an
Ġf ren
uc ed
Ġt ent
Ġs ink
Ġgrow led
li v
or ds
Ġmost ly
Ġqu ar
ic ip
Ġh ig
are t
Ġsa f
Ġdeep er
Ġspir it
Ġd ut
Ġex ha
Ġdec ide
ch ar
Ġkiss ing
Ġhung ry
Ġwe e
Ġsupp ort
Ġcon centr
is m
Ġhesit ated
Ġm art
Ġinter ru
Ġconcer n
Ġthink s
Ġfl ight
Ġopp ort
r al
Ġmur der
um e
Ġwo ke
Ġe ating
w ers
Ġm ix
Ġclen ched
Ġa ri
Ġun f
Ġsqu are
Ġfavor ite
Ġch allen
Ġtight ened
Ġj ason
Ġsp un
ag ger
est s
ar ily
Ġwel come
Ġeng ine
Ġm ichael
Ġty pe
ke y
Ġtra vel
Ġremo ved
Ġland ed
Ġtra ve
Ġan x
ho ld
Ġt ick
Ġf ier
Ġsmil es
Ġa h
Ġwho se
Ġst un
Ġa uth
Ġre aching
Ġeyebrow s
Ġs ne
g re
Ġchuck led
Ġo w
Ġabsolute ly
Ġref used
Ġd ying
Ġentire ly
Ġsh ield
Ġanim al
Ġapp arently
Ġs our
Ġlo sing
u el
Ġob ject
k ward
Ġch apter
n at
it ude
e nd
Ġw ings
Ġm ac
Ġfr ank
Ġrecogn ized
Ġun comfort
Ġrep ly
Ġsear ching
Ġinst inct
Ġavo id
Ġweap ons
Ġplan ned
g ie
Ġcolle ge
Ġg ather
Ġbo ss
ig ned
Ġgo vern
Ġd irty
ten se
Ġsh ared
Ġbreat hed
Ġkno cked
Ġp it
Ġpet er
Ġte a
an ked
Ġgo ds
as c
Ġstay ing
Ġp aul
c ould
umb ling
Ġcur t
w ood
ent ed
Ġpr ince
Ġg athered
Ġyes terday
Ġinst ant
Ġob ser
p ting
h am
Ġsh owing
Ġsugg ested
Ġexc use
Ġscr at
Ġgi ves
Ġc rew
Ġpr ay
al though
Ġso ph
Ġg ift
Ġmount ain
Ġcarry ing
Ġsa ved
Ġcom ment
for med
Ġbe lly
Ġhar m
Ġhu g
Ġb ones
Ġvict or
Ġaw kward
Ġdou ble
Ġnear by
b ast
cl aim
Ġsm ir
Ġans wers
Ġy a
Ġdr unk
Ġgr own
h u
Ġsu cked
Ġgre y
Ġh ors
Ġb ought
Ġrest aur
Ġinterest ing
Ġa im
ant ic
Ġadmit ted
Ġgro aned
Ġc ook
i ving
Ġdeep ly
Ġhur ried
Ġgo dd
fortun ately
ar ch
Ġbast ard
Ġwonder ful
Ġbr idge
Ġli br
ur a
f ive
Ġse nding
Ġcall s
Ġcon vin
Ġst ories
Ġinst ru
Ġpre gn
Ġgi ant
nd ay
Ġsol id
he y
Ġbring ing
Ġrec ord
the se
Ġc ow
c ol
Ġco st
Ġj es
Ġsc rew
d a
Ġu h
Ġin h
Ġshe l
Ġdri f
un ted
Ġch ase
Ġr are
all ed
Ġsho cked
Ġgl ow
Ġdra gged
p ort
re me
Ġjo y
Ġv ir
Ġinvest ig
Ġar ch
Ġmag n
r ay
ra ph
Ġdisapp ear
Ġbur ied
Ġdesper ate
Ġst age
Ġreg ard
Ġwarm th
Ġj ess
Ġbut t
j ul
Ġkno ck
Ġocc asion
Ġb an
n ie
Ġmaj or
Ġj u
Ġex ch
Ġrac hel
Ġst ir
d r
Ġhelp ing
Ġsex y
Ġpict ures
Ġst aff
m p
** *
it or
it ted
us s
Ġcar s
Ġimag ined
Ġple ased
Ġpre fer
Ġaw ake
as ons
Ġpull s
Ġnecess ary
Ġs an
Ġf aded
i os
Ġauth or
Ġd are
um ent
Ġswe ar
Ġmy ster
Ġmar ry
b oth
d an
Ġc ust
Ġevery where
Ġsucc ess
Ġsp in
Ġlet ter
Ġis nt
Ġsh a
Ġdrag on
id ering
su dden
Ġst at
Ġt our
Ġsurround ed
Ġrem ain
Ġam b
Ġs lo
Ġdem and
Ġf ucking
Ġfif teen
Ġp ure
Ġfold ed
Ġreal ity
Ġw and
as hes
y et
Ġn ine
Ġhors es
Ġin tense
wh ate
Ġbeaut y
Ġhea ven
pl ay
Ġh i
Ġwip ed
n es
Ġloc al
whate ver
Ġact ion
am ber
is a
Ġserv ice
Ġc ig
Ġg le
Ġtr aining
Ġl ing
Ġsil ently
Ġe ager
Ġglass es
Ġapolo g
sudden ly
Ġbe th
Ġlang u
Ġocc ur
Ġb ank
Ġlead ing
Ġdra wn
Ġmention ed
Ġinde ed
Ġchar ge
Ġam ount
Ġl ack
Ġpr in
le ts
ce ed
Ġdisco vered
Ġboy friend
Ġr ow
Ġmean ing
Ġn ames
Ġp ause
Ġ1 9
it ement
Ġori gin
Ġy e
Ġex h
Ġopport unity
Ġb ree
Ġint rod
Ġrel ie
Ġhur ry
Ġa id
Ġsl ip
Ġgl ared
Ġj ew
it ary
Ġanc ient
Ġnat ure
Ġmov ie
Ġyoung er
Ġin ch
Ġr and
Ġstre ets
Ġle ap
el ess
Ġz ane
Ġcomm on
Ġroom s
Ġs ac
how ever
ot ed
i que
th ree
ire s
Ġgr ate
ac hes
im ent
Ġnat ural
Ġhe els
Ġstee l
Ġin sp
Ġk y
Ġt ur
ke ep
Ġf al
Ġr out
Ġgho st
Ġproble ms
l or
Ġdeterm ined
Ġass ist
Ġc ave
Ġdet ails
Ġlight ly
Ġtor t
Ġch at
d on
Ġpo inting
Ġho ll
Ġcon c
Ġdr inking
Ġexp ecting
Ġem ma
ill e
Ġbl ame
Ġw itch
Ġint im
Ġphys ical
Ġrelax ed
by e
Ġenem y
Ġru b
Ġwa ves
Ġab and
Ġgard en
Ġre n
Ġy ork
Ġroll ing
ag ain
Ġj im
Ġlo ss
Ġpass ing
al ous
Ġb ul
Ġmo d
Ġexper ien
m om
ic ation
Ġho st
Ġke ys
Ġch ick
Ġsc ra
Ġdis g
Ġmem bers
es e
h ol
Ġsar ah
il ities
a f
Ġblank et
Ġe ld
g ress
Ġr ise
Ġpre v
Ġmat ch
Ġsaf ety
Ġhor ror
h ar
Ġh ous
Ġbad ly
Ġwrit ten
Ġpress ure
Ġrest ed
Ġi an
Ġwee kend
Ġab ility
lf riend
Ġinc re
Ġord ers
Ġkiss es
Ġve h
Ġres ist
Ġbel t
Ġfeat ures
Ġblo ck
Ġdraw ing
Ġthigh s
Ġr age
ab eth
Ġvo ices
k i
Ġre ar
Ġtar get
Ġinterru pted
Ġam eric
Ġstrong er
Ġexc itement
Ġelev ator
Ġcor rid
Ġign ore
gr am
bast ian
Ġm ate
Ġco le
Ġf ab
Ġf ac
Ġoffic er
Ġfail ed
ro p
k a
Ġhen ry
Ġpl enty
Ġpiss ed
Ġstar s
Ġt v
Ġdo zen
Ġwit ness
Ġsl iding
Ġchrist mas
i ant
t oo
Ġcoun cil
somet imes
Ġfe ed
Ġswe pt
Ġpl ane
op h
f our
Ġg all
Ġconf ir
Ġt an
Ġpsy ch
dam n
Ġh int
Ġt ied
Ġfif ty
Ġcur ious
Ġw is
or a
Ġp oured
er ial
Ġth or
Ġfirm ly
Ġpor ch
Ġman age
Ġ 4
Ġsk irt
Ġtem per
Ġt ucked
pe ople
Ġsmell ed
Ġbec oming
Ġdec k
ur ies
Ġrestaur ant
Ġp red
Ġn amed
Ġev idence
el ve
v is
Ġinter n
Ġshif t
Ġt ail
Ġcomm un
Ġtr an
Ġclo sing
ag ing
Ġmiss ion
p es
ol ves
Ġeng lish
ne ath
Ġstart s
ain e
Ġdep art
Ġor gan
Ġhon or
Ġrespond ed
Ġstrugg led
Ġent er
ver ing
Ġthrow ing
Ġf ol
Ġf ish
Ġacc ount
Ġvill age
Ġnow here
Ġset h
Ġcomp an
Ġl y
Ġc ared
Ġset ting
Ġmill ion
ers on
Ġbig ger
iv al
Ġpro ve
Ġhell o
Ġt ang
Ġfl ick
Ġcorre ct
Ġrele ase
o v
_ _
Ġs ed
Ġs ell
ir a
Ġwor ks
Ġp ace
se y
ant e
et te
Ġhig her
dd ing
pl es
se c
Ġdiffe rence
w ar
Ġplan ning
Ġwid ened
Ġf aced
Ġsc ow
Ġgri pped
Ġd un
Ġsqu e
ib r
Ġan k
Ġfl ames
m are
Ġr ot
Ġc ous
Ġmass ive
Ġto wer
Ġhe alth
Ġter ror
at ure
Ġgir lfriend
u it
Ġr ipped
Ġjo e
Ġe ast
Ġlet s
Ġg er
ro g
Ġmat erial
Ġno body
ict ion
Ġda wn
iz abeth
Ġf ant
al ity
Ġplan et
Ġs in
Ġlu ke
Ġde b
v iew
Ġst ab
s or
ap er
Ġpur se
Ġup stairs
Ġir rit
Ġc y
Ġsim on
Ġrid icul
Ġpap ers
Ġpre c
Ġfren ch
Ġsim ilar
Ġre asons
Ġm c
Ġpress ing
Ġpar ked
Ġtw ist
Ġuncomfort able
Ġenjo yed
Ġins isted
Ġfl ood
Ġcast le
Ġext reme
Ġspo ken
Ġlo gan
in ary
Ġcons idering
b ook
ic ing
Ġthere s
Ġwh om
Ġmach ine
iz ation
ile y
Ġsurv ive
Ġpass ion
Ġsl ide
Ġclo ck
t urn
ian a
Ġfl owers
Ġmar riage
Ġo ce
Ġbu zz
Ġsw im
Ġhu h
Ġheav ily
Ġlove ly
j e
Ġur ge
b re
Ġp owers
Ġlibr ary
Ġmon ster
Ġcre ep
Ġnight s
ri el
Ġv ac
Ġab rupt
Ġli qu
o e
Ġp age
Ġble w
Ġst air
Ġf acing
Ġpl astic
Ġwar ned
Ġsn ar
Ġch oose
Ġwin ter
d ra
Ġpract ically
Ġdis p
Ġu pper
Ġad just
Ġtun nel
Ġsp ar
g ot
Ġpro ject
Ġgu ilt
Ġbit ter
Ġb acked
Ġbrief ly
Ġlo g
oc ol
Ġpart s
Ġcamer a
Ġg orge
Ġf ed
oun ce
ret t
Ġdo c
Ġconn ection
Ġc ream
Ġat e
if y
o ll
int ment
Ġv ibr
Ġrad io
Ġsatis f
Ġdec l
Ġhands ome
i ber
ang s
Ġpl ain
is to
as ure
Ġje alous
d own
Ġbr ush
ant age
an ing
Ġr ace
Ġgra ve
Ġnight mare
Ġtw elve
i ently
Ġs ank
Ġinc hes
Ġlead er
Ġk en
idd ing
h al
Ġd i
in ated
Ġmere ly
Ġrul es
ack s
Ġsn iff
re k
Ġc ash
Ġb ay
f irst
Ġkn ight
Ġwr ite
Ġfor ty
Ġrelie ved
ex p
Ġant icip
Ġt ension
whe l
lo y
n ick
Ġdem ons
Ġother wise
Ġd ancing
Ġinno cent
Ġr if
Ġsw ir
Ġclou d
Ġfro ze
Ġtell s
Ġprin cess
d ad
h and
Ġassum ed
Ġunder neath
Ġvict im
v ision
Ġth omas
Ġem br
a pping
b et
Ġinclud ing
in o
Ġspl it
Ġst umbled
ab out
Ġcra p
Ġcl aire
t w
Ġt it
Ġthr own
Ġgun s
Ġadd ress
Ġgr ad
Ġsil k
Ġhorri ble
Ġre ass
Ġdan iel
Ġpound ing
nd on
Ġno ds
s ue
um ps
Ġfl ipped
Ġcreat ures
Ġcreat ed
Ġconf usion
Ġo k
Ġp il
Ġte en
claim ed
Ġclo set
Ġshe s
Ġfr ame
Ġlung s
Ġfar m
fe rence
Ġde velo
Ġr ail
ac le
Ġte acher
m el
Ġappreci ate
Ġcry st
w alk
Ġfix ed
Ġy ard
Ġchar lie
ons cious
Ġid iot
Ġun if
Ġc art
Ġcoll ap
Ġ 5
than ks
Ġwr iting
h an
Ġint ell
Ġover whel
Ġstand s
Ġf ists
id ly
Ġhu gged
Ġn i
Ġgl are
Ġe ase
bl ood
Ġconvin ced
ash ion
Ġacc ess
Ġcig aret
Ġsp ine
what s
Ġp ile
Ġwill iam
Ġk ate
b en
re y
Ġsw ift
Ġte x
en ger
Ġb one
Ġw ard
Ġh ood
Ġer ic
Ġme al
Ġpregn ant
Ġso ot
Ġloud ly
Ġev ents
Ġtow el
att oo
Ġmil itary
c r
Ġu m
Ġche er
ell ed
Ġanim als
Ġdestro y
Ġoce an
Ġres c
Ġrecogn ize
Ġbe ating
Ġm ap
te nding
Ġl one
Ġgrate ful
Ġstart led
Ġsto pping
g est
Ġt aught
p an
Ġtil ted
Ġa le
Ġrest ing
Ġtem ple
Ġspr ing
ph one
Ġut ter
le br
Ġcust om
Ġfa ith
Ġacce pted
Ġsh iver
ak s
Ġf ired
om es
Ġdel ight
l ot
Ġd amp
Ġact iv
Ġfier ce
Ġelb ow
pp y
ess or
Ġdist ant
Ġd ug
pl ess
Ġaw ful
Ġte nder
Ġstr ang
t ake
nd s
Ġv en
Ġhe ight
Ġtu gged
Ġunderstand ing
Ġdam age
Ġfre ed
Ġtor n
Ġpain ting
Ġh ip
Ġsu ck
f it
ash a
m or
Ġb ird
Ġb on
Ġcorrid or
Ġt attoo
Ġlangu age
Ġag ent
Ġk ell
Ġclot hing
Ġpract ice
ent ial
jo hn
Ġdist ur
Ġpre tend
j en
Ġf urn
re al
Ġtremb ling
Ġp our
Ġd read
Ġbuild ings
er al
Ġsh akes
Ġcr acked
Ġor ange
Ġjo ke
Ġhar sh
Ġch ose
Ġme at
Ġr ust
Ġce lebr
ce ll
Ġsens ation
Ġgu il
Ġun e
Ġch ain
Ġjam ie
Ġpill ow
Ġsusp ected
Ġstr anger
ee ch
Ġsk ull
Ġclou ds
h un
ess a
Ġsear ched
Ġgorge ous
Ġpee red
Ġspot ted
m et
Ġwarri or
Ġfl ut
Ġli ly
Ġinte nded
s a
Ġp icking
Ġsure ly
Ġt ing
Ġwas te
Ġch ill
Ġwe ather
Ġwas h
Ġch airs
Ġhe al
Ġesc aped
lo e
com ing
Ġcr im
Ġt ie
Ġa ck
do es
Ġgrand mother
os en
Ġrece ived
Ġp ip
i ven
r am
it ions
Ġca using
Ġdam ned
Ġrock s
Ġje ff
Ġgovern ment
Ġbirth day
Ġch ris
Ġwh ir
Ġc red
Ġch a
Ġbree ze
Ġry an
c ass
Ġac ting
Ġfro zen
j am
Ġj ac
Ġkill er
Ġph il
f uck
Ġu g
e ach
Ġpo pped
Ġto re
Ġchar ac
Ġsmall er
Ġset tle
Ġbeg un
Ġpol it
s il
Ġwor n
Ġreg ular
ore s
Ġvar ious
Ġguil ty
pt ion
Ġclim b
Ġjo sh
Ġridicul ous
Ġtran sp
ul ation
at o
Ġsusp ic
Ġdown stairs
al es
Ġf ate
Ġatt acked
ke red
Ġc ro
Ġha mm
Ġf an
Ġc rou
Ġass ured
Ġpal ms
Ġsecret s
Ġsold ier
as es
Ġhis sed
um ed
en ces
r an
g ers
l it
Ġd ue
des pite
pl ace
Ġru bbing
Ġgest ure
at ors
Ġwhen ever
Ġpu zz
Ġenjo ying
Ġwal ks
Ġch osen
Ġdrif ted
Ġr ay
Ġin fl
Ġrel uct
Ġpart ner
ul ts
Ġbes ides
Ġsister s
ath y
Ġfur y
Ġbr it
Ġg y
Ġy anked
Ġfrustr ation
Ġpul se
Ġdes ce
Ġcap able
Ġb unch
it ation
Ġch amber
step s
amp ed
Ġnot es
Ġher o
Ġameric an
Ġsa ke
Ġdesper ately
Ġc iv
Ġexpl an
Ġsen sed
Ġr ib
ri f
Ġcare ss
Ġdis play
Ġmus cle
Ġpr im
Ġbag s
Ġe gg
Ġs ip
dd y
em s
v or
Ġro de
Ġ vers
Ġbal ance
Ġfar ther
y e
Ġpain ful
gen cy
Ġno ah
Ġpro gram
Ġd ick
Ġb ri
there s
Ġche w
Ġdut y
oo p
Ġint ent
Ġmount ains
Ġde pe
ag o
Ġphot og
Ġdiscus s
Ġcirc um
st e
bo y
it a
Ġland ing
ak er
iv id
lo red
Ġsn at
Ġw on
Ġlo ndon
Ġjud ge
Ġal arm
Ġnur se
ord ing
Ġstud ents
Ġgaz ed
m ark
Ġsurpr ising
ri ff
b ur
i est
ump ing
ac he
Ġhous es
Ġpr ide
Ġre act
Ġdet ail
Ġlar ger
Ġfor med
Ġca le
Ġcon cl
p re
Ġbr ows
Ġunif orm
Ġsn orted
aw k
Ġdro pping
us es
ad o
ast y
Ġl icked
int s
Ġdisg ust
Ġtra pped
ul f
Ġcover ing
Ġadv antage
Ġcur se
Ġgar age
Ġsign s
Ġsusp ect
Ġecho ed
Ġre b
Ġli ed
Ġstraight ened
miss ion
Ġcut e
cept ion
sh o
em on
Ġsh r
Ġar ched
ff ic
Ġn av
Ġen velo
Ġbull et
Ġack now
Ġge orge
Ġfing ert
Ġar row
l en
Ġann ounced
Ġexha usted
Ġgrand father
Ġpoint s
Ġgl owing
he art
Ġappro ach
s im
Ġr aced
Ġcons cious
Ġdeser ve
Ġterri fied
Ġsof a
az ed
Ġb ry
Ġru le
Ġj an
ish ment
Ġsw eep
m at
Ġstun ned
Ġvan ished
s ar
Ġbr ill
Ġdad dy
Ġsu s
um ble
Ġforg ive
Ġli z
Ġlad ies
n or
Ġwas hed
Ġm ask
Ġch ief
Ġbow l
Ġment al
Ġimp at
t aking
Ġra ise
u le
Ġshoot ing
Ġparticular ly
io let
Ġneigh bor
Ġr am
s al
Ġcoll ar
Ġenc ou
Ġret reat
Ġbe ck
Ġmo ves
Ġhold s
Ġmatter s
l ord
Ġat tend
Ġem ily
Ġt ables
Ġm umbled
Ġreturn ing
t les
Ġt ask
Ġbr ick
Ġshe et
Ġdo gs
Ġh unt
re ally
Ġug ly
Ġall ey
g un
Ġm s
Ġex it
Ġnumb ers
Ġconv ince
Ġjour ney
Ġin ner
f ire
Ġr ip
Ġpur ple
ut s
Ġben ch
Ġli kes
Ġcut ting
Ġch ocol
Ġocc up
Ġe ve
Ġbl ast
Ġt ense
ward s
Ġcon tem
Ġlo ving
exp ected
ist ic
i ance
ad s
Ġop in
Ġfill ing
ot ic
Ġrh y
Ġun like
en cy
Ġappear ance
Ġblond e
Ġfr ag
sor ry
Ġsome body
Ġgest ured
Ġwh it
Ġdestro yed
Ġconf ident
ve t
p ack
Ġabrupt ly
Ġt apped
Ġconn ected
Ġrem aining
Ġin it
er ie
Ġluc as
Ġembarrass ed
an th
Ġpr ice
y ear
Ġc el
Ġins ane
a ves
Ġintell ig
Ġpl at
Ġn in
Ġshe ll
Ġro pe
Ġgre g
Ġwhisp ers
Ġr at
Ġtot al
Ġv ide
lot te
Ġsh ame
au d
av in
ak y
Ġdist r
Ġsl apped
az e
Ġjul ian
Ġli es
Ġche cking
ir ing
Ġst al
w en
bb led
Ġser ved
im m
Ġch anging
Ġman ner
Ġn ap
Ġs way
Ġg ames
unt il
Ġj ared
Ġdom in
Ġb er
Ġho ly
Ġf ile
Ġwr ote
Ġdr own
n one
c ast
b ble
Ġbut ter
Ġelect ric
Ġal co
b al
Ġfab ric
Ġprot ection
ex cept
ur s
Ġk ar
Ġsurround ing
em ma
Ġarg ue
Ġchallen ge
Ġguess ed
Ġpay ing
Ġo liv
Ġcous in
Ġeas ed
Ġgra bbing
Ġsens es
and ra
Ġkeep s
be at
l u
un ched
Ġprot est
Ġprof ession
Ġn ic
Ġdev il
Ġpo ison
Ġfright ened
Ġball s
Ġsp eech
Ġse bastian
Ġchrist ian
Ġcond ition
Ġapp l
Ġveh icle
Ġlo ves
Ġtr ay
Ġhel pless
Ġlot s
Ġsoc ial
Ġr iding
Ġa i
Ġpat tern
Ġour selves
Ġen orm
lo g
Ġdr ank
Ġshar ply
Ġhonest ly
c all
ag on
Ġi vy
Ġdec or
Ġr aw
Ġor g
Ġfl in
Ġsour ce
Ġsat ur
Ġsoon er
' m
Ġsh ade
Ġexperien ced
Ġe tern
Ġrich ard
Ġl ur
Ġp unch
Ġj ane
Ġdrive way
Ġha l
et er
Ġw es
Ġprof essor
c ra
Ġoccur red
Ġaff ord
ask et
Ġdin ing
Ġsc hed
ord an
Ġb oo
Ġstro ked
ill ing
Ġs illy
Ġclose ly
Ġgl ancing
Ġyou ve
Ġrec ently
Ġcircum st
Ġbr an
Ġsy mp
f all
Ġmem ber
Ġw il
Ġjes us
Ġstri ke
v an
Ġha vent
Ġbl ake
Ġne at
Ġv ul
Ġfell ow
f fe
ic les
Ġcle aring
Ġexplan ation
Ġpat ted
Ġl ined
Ġhit ting
j on
Ġ vel
Ġfoot steps
Ġt ough
Ġcat ching
Ġr ick
Ġdis miss
Ġdru g
Ġpal ace
d ge
iver se
Ġrepl aced
Ġn et
Ġthey re
Ġoliv ia
Ġbot hered
Ġstate ment
Ġey ed
Ġthrough out
Ġarr ange
Ġd umb
v i
Ġne are
Ġt ed
so on
Ġlif ting
Ġper io
Ġliqu id
Ġlet ters
Ġclo s
Ġsl owed
j ake
Ġwra p
ather ine
ru ction
Ġatt ract
Ġassum e
Ġha ul
Ġmar sh
Ġsh rie
Ġpl ant
Ġcur sed
Ġposs ibility
Ġlou der
Ġdoll ars
Ġth under
at ically
l ong
Ġloc ation
Ġdes p
Ġto es
Ġl ust
Ġstrugg ling
Ġser ies
Ġgas p
h awk
u gg
Ġhun ting
Ġhalf way
Ġun ivers
ot ted
es pecially
n al
Ġsee ming
Ġun expected
Ġbeh av
ri er
Ġrese arch
Ġcont r
Ġv ague
Ġdes ign
Ġcl ay
er o
ch an
Ġbl ink
i ents
Ġcop y
Ġac qu
Ġchocol ate
Ġrespons ible
Ġexist ence
e nded
re r
Ġpres ident
Ġsun light
ct ions
ap ing
Ġtra ffic
Ġre ser
Ġbre ad
Ġmo aned
Ġcop s
Ġ2 0
Ġd ull
ing er
ink led
Ġint ens
Ġan na
Ġtr ained
Ġsome what
Ġcr ime
y l
Ġinv is
Ġtr ace
Ġcl ue
Ġfall s
Ġro yal
g ra
Ġm ult
pro bably
Ġcon ce
Ġprev ious
Ġel izabeth
Ġin qu
Ġfriend ly
u ine
Ġav ail
ul ated
Ġfor cing
Ġey el
Ġimp ress
ang es
Ġp acked
Ġd ang
Ġpleas ant
Ġcas ual
Ġgras p
Ġtech n
Ġw ink
l ies
k at
Ġcl oth
Ġcar ol
u ction
Ġposs ess
wo lf
Ġwas hing
Ġnot ed
Ġent h
Ġtrust ed
Ġun w
Ġk idding
Ġagre ement
Ġform er
Ġpain t
Ġwh ist
Ġign oring
Ġaut om
Ġste pping
Ġun lo
Ġp isto
eth an
Ġs ke
app arently
Ġscr amb
Ġun us
Ġg al
Ġc her
Ġsquee ze
Ġgrin ning
Ġf ence
Ġstop s
Ġsn ap
Ġtra iled
Ġr acing
Ġcigaret te
Ġf angs
Ġnorm ally
Ġsound ing
u h
m ag
Ġwhat s
Ġs ection
Ġwere nt
t or
Ġimag es
t a
Ġte ach
Ġca ut
Ġpock ets
Ġst or
are n
Ġal i
Ġlaugh s
Ġbo red
j ected
Ġn ate
Ġdis bel
Ġcryst al
Ġdrink s
Ġthreat ened
Ġt rent
Ġn ails
Ġto ny
Ġtele vision
Ġve ins
Ġstro de
v ation
on a
roll ed
Ġy ards
re my
Ġaband oned
Ġcl iff
w ait
Ġyou ll
Ġble eding
Ġm as
ind a
er c
Ġis ab
Ġle x
Ġrec all
Ġproper ty
Ġf asc
Ġpre vent
Ġpant ies
p a
Ġdet ective
Ġatt ached
Ġf ashion
el ed
Ġdist racted
Ġdr um
Ġcom for
Ġshru g
Ġbr ad
Ġex claimed
Ġpain ted
Ġex tended
Ġrun s
Ġcass ie
be ing
Ġj ace
Ġte asing
Ġcl as
Ġb ord
Ġhum or
Ġ 9
Ġbo nd
Ġis sue
p art
Ġcar pet
am ps
Ġextreme ly
Ġf ake
Ġsex ual
Ġse es
m ad
Ġar rest
Ġshe ets
re te
Ġb owed
Ġsac rif
Ġgen uine
Ġco vers
sl ow
Ġam used
ios ity
light s
Ġstudy ing
Ġcont ain
is y
m ist
Ġ ess
Ġt ank
c lock
** **
Ġfingert ips
Ġco de
Ġg own
g ive
Ġv all
i j
Ġoff ering
Ġrif le
Ġd iss
Ġrest r
Ġpar ted
Ġexp osed
sh ould
gg er
Ġun iverse
ed s
Ġlit er
z ane
Ġcomp et
Ġ 6
Ġconst ant
Ġw icked
Ġbelong ed
Ġdes ert
Ġorigin al
Ġback ground
Ġs id
Ġdisappo inted
Ġre ver
al i
Ġfe ared
st ers
t ry
ol as
Ġe re
Ġenorm ous
at ively
Ġmed ical
Ġconf idence
fo ot
Ġdeser ved
Ġshudd ered
Ġli am
het ic
Ġemp loy
Ġt ub
Ġcl ar
Ġsh ips
kn own
Ġswall ow
Ġro be
Ġend s
Ġclaw s
Ġn ipp
Ġky lie
Ġsatur day
Ġpur ch
Ġsur ve
y a
Ġcru el
d ar
Ġex ec
Ġso le
Ġm aint
Ġvis ible
Ġper form
st op
Ġz omb
p ut
Ġde rek
Ġse m
Ġshort s
Ġte nd
Ġl ee
Ġc age
el ine
Ġcent uries
il a
ey ed
Ġsw ing
Ġc ot
Ġexp ress
ro se
Ġd iam
Ġsh ivered
mr s
Ġh ast
at ory
Ġw ing
Ġpass enger
Ġt ap
re g
Ġvul ner
f ield
Ġphot o
ist an
Ġcollap sed
Ġt ax
oun ted
Ġsh ining
Ġam use
Ġsh own
Ġacc ent
Ġmur d
Ġsqu ir
Ġst ated
ou d
Ġremember ing
u ous
r un
Ġr i
Ġlight ning
Ġanswer ing
Ġinvis ible
Ġhor iz
Ġh ook
b ly
Ġinv ited
if er
Ġfl ame
st one
c lo
Ġrhy th
Ġadv ice
Ġg rief
for d
Ġimm ort
Ġpri est
Ġn ik
Ġrequ ired
Ġim pl
Ġner ves
Ġhapp iness
Ġwr ists
Ġmid night
Ġclaim ed
se qu
Ġsh ore
Ġlo yal
ort s
Ġsc ru
Ġsh uff
Ġemer ged
Ġact ions
o d
Ġn ud
or ter
d le
Ġciv il
Ġn athan
Ġe p
anc hes
or ting
Ġsu nday
b eth
Ġsh y
Ġd or
m ary
Ġdel icate
Ġret rie
Ġal right
Ġman s
Ġall owing
Ġfl icked
Ġed die
Ġr ig
Ġfreed om
Ġser ve
Ġwarri ors
Ġac he
Ġnervous ly
am ent
Ġr on
Ġcraw led
Ġvide o
Ġg ear
Ġgu ests
g al
Ġth read
Ġrem ark
Ġopin ion
Ġexplo ded
Ġhur ting
Ġcomple x
Ġass ass
' d
at a
gr ay
Ġspe nding
m ate
Ġscan ned
Ġmark et
Ġha w
Ġse ated
Ġ ing
em ber
ar i
p at
Ġwho ever
m ax
Ġcont ract
stand ing
Ġrequ est
ind ing
the w
Ġhundred s
Ġinter view
Ġst ones
w al
Ġsc ott
Ġd ating
Ġreve aled
w in
Ġgro an
Ġkn elt
Ġbar n
Ġexp ensive
Ġcho ked
Ġcircumst ances
Ġpass age
m ike
oo ped
Ġst ates
Ġact ual
Ġch amp
Ġpre cious
Ġint ention
ch ie
Ġm ail
h ard
Ġtra p
Ġj ay
Ġd er
Ġse an
Ġappro aching
s ix
Ġdel iber
Ġv ent
Ġperio d
Ġcou rage
ch rist
Ġconn or
Ġmort al
Ġjer k
Ġm ia
Ġ 7
Ġcur iosity
Ġe t
Ġbrill iant
Ġab by
Ġany body
Ġw olves
g ab
Ġgr an
Ġconc rete
Ġbar s
Ġm um
Ġwound s
Ġsp are
Ġr ushing
Ġdepart ment
Ġtrack s
Ġsoc iety
Ġgr ant
Ġsit s
ill a
Ġmotion ed
Ġmu ff
Ġbreath s
Ġrhyth m
Ġand rew
g ue
Ġshe riff
Ġsl ipping
Ġstr and
Ġro bert
m ichael
Ġz e
Ġstu bb
Ġse vent
ic kered
Ġcr is
Ġsand w
Ġunc ertain
Ġvir gin
h h
Ġdep th
as per
it es
Ġsatis fied
Ġfre ak
c ur
Ġsho pping
Ġbir ds
Ġmark s
Ġtrou b
Ġc ad
Ġpro gress
Ġflu shed
Ġjul ia
Ġcharac ter
ap h
man y
Ġfair ly
Ġc ards
Ġsc are
Ġr ab
Ġfr iday
un fortunately
h ind
it ure
Ġoffic ial
Ġbo l
ne ither
Ġalco hol
Ġr uss
Ġcoo per
Ġd ial
Ġc ore
Ġspin ning
Ġst ern
Ġt asted
Ġtr unk
Ġmix ed
j ames
Ġin formed
Ġstro ll
Ġdru gs
Ġthousand s
Ġdro ps
Ġmag az
Ġembr ace
im ate
Ġbe am
Ġden y
Ġrem ains
Ġgodd am
Ġres ult
wor ld
Ġr as
Ġcr ash
th rough
Ġcor ners
Ġgl ances
Ġmot or
Ġshout ing
Ġmu d
Ġb ike
Ġte ased
Ġbet ray
ree k
Ġdig ging
Ġqu it
Ġbo ot
Ġsy mb
Ġgu est
ol en
Ġbra ve
es ome
Ġst all
Ġter ms
Ġle ans
Ġl ink
Ġscream s
Ġsp ect
Ġopt ion
Ġam y
Ġm aid
Ġhung er
Ġa x
Ġsm ith
Ġre aches
Ġair port
Ġkno cking
Ġcred it
ge red
Ġw ise
us i
Ġu lt
Ġsec ure
Ġco ast
Ġmil k
Ġno dding
Ġrib s
Ġbe ard
Ġover head
Ġpun ched
Ġlo ver
Ġfo g
Ġsc ient
Ġreve al
Ġgl it
Ġsc en
j ason
Ġsp an
Ġbehav ior
Ġpat ient
Ġp ec
Ġwin ked
Ġkn uck
ic ted
ri but
Ġide as
Ġc it
ver t
Ġch ann
and y
g a
Ġpu ff
Ġreve aling
Ġrap idly
Ġneigh b
Ġavail able
Ġdel icious
b i
om s
ab ility
Ġtight er
Ġevery body
Ġaccom pl
Ġsing ing
Ġh id
Ġm all
az z
Ġb asket
Ġl ace
d avid
Ġbr anches
Ġra ising
Ġcre ate
Ġa is
Ġanno yed
Ġfam il
r ich
Ġp ages
Ġch loe
Ġseat s
Ġsh attered
Ġbeg ins
Ġsurv ived
slow ly
Ġtr ad
Ġcol ors
Ġmo der
h app
Ġste ad
Ġamuse ment
p ri
s ay
l aw
in al
Ġj et
Ġsa ving
Ġfurn iture
Ġdisbel ief
Ġsymb ol
Ġm ile
Ġstru ct
Ġg ul
Ġchick en
ar on
Ġop ens
Ġstubb orn
Ġed ges
ur ally
Ġj un
Ġcre pt
Ġbig gest
Ġv ast
Ġwa ving
some how
Ġbox es
Ġdra gging
r um
Ġhol iday
Ġr att
Ġdiam ond
Ġrem ote
sp ect
Ġsw itch
Ġrand om
Ġhand ful
Ġpar is
Ġclut ched
Ġpisto l
Ġser ge
te ars
Ġcomm ander
Ġj ol
n ate
Ġpro ceed
Ġl ately
Ġb rian
Ġbl u
any way
Ġmar ked
Ġsk ills
Ġst yle
Ġste al
Ġd agger
Ġbr ushing
Ġimp ro
Ġcirc les
t ail
Ġmor gan
r ison
Ġadd ition
b ell
Ġgather ing
Ġgrow l
v a
Ġr iley
Ġb omb
Ġch anges
an ne
Ġarg ument
Ġunc onscious
b ro
Ġl az
Ġqu e
rac hel
Ġj ose
it ar
Ġside walk
Ġnew sp
Ġlu x
Ġeld er
Ġref er
Ġg age
Ġmind s
Ġs ore
ha ired
Ġapp o
Ġd y
ou l
Ġeat en
Ġimp ression
Ġcont ent
Ġa rou
Ġphotog raph
Ġgr unted
Ġfool ish
Ġvers ion
Ġcare er
Ġreal izing
nd a
Ġcomm it
Ġexp ert
Ġwin ced
hun ter
Ġins ist
ling s
Ġapp e
Ġequ ip
Ġwh ipped
Ġimp ressed
Ġb art
ik a
Ġvall ey
Ġj a
Ġj ail
th y
Ġro ar
Ġtreat ed
Ġco cked
w at
Ġtr ade
he ar
Ġarri ve
Ġsc attered
Ġcalm ly
Ġstret ch
Ġexch ange
Ġincred ible
Ġsto ck
Ġw re
ter y
Ġrem ove
Ġt ill
to gether
Ġha bit
t own
Ġmar cus
Ġw ren
Ġstud ent
Ġanx ious
e le
Ġmake up
Ġare nt
Ġex cell
Ġput s
Ġsle eve
Ġthr one
Ġhar ry
Ġha m
Ġapolog ize
Ġmo an
sar ah
Ġdeal ing
Ġp ow
Ġd anced
Ġal ert
o k
Ġup ward
w ater
Ġsp at
ur ance
Ġprec ise
en cer
oo ps
Ġw ishing
Ġmis er
Ġenth usi
ul ate
Ġunus ual
Ġrep res
Ġequip ment
Ġemotion al
Ġcu pped
Ġenem ies
Ġemer gency
Ġs ara
ac ted
Ġc ord
Ġv iolet
Ġprov ided
Ġfoot ball
Ġele ven
Ġr ipp
Ġthey d
Ġlaw yer
Ġstrugg le
Ġquar ter
Ġha y
be hind
Ġre nt
t ar
Ġfur ious
v ille
Ġd ucked
Ġfamil ies
Ġho lly
Ġste ve
Ġbo b
Ġgreet ed
Ġra ven
bel ie
Ġdefe nd
Ġwe alth
j ess
c al
Ġclos est
Ġsne ak
Ġdirect ions
Ġgab riel
Ġind ivid
l uck
Ġsatisf action
imp se
Ġmatt ress
iz zy
Ġgl impse
Ġcr own
gr ace
s ie
Ġres ol
Ġdar ling
Ġlo bby
g as
Ġup right
Ġn asty
Ġresc ue
ell ing
Ġst olen
Ġb ust
on ing
Ġsweet heart
th ink
Ġmove ments
Ġclo ak
Ġob s
Ġgodd ess
thing s
an o
Ġo il
il es
l ace
Ġad vent
r in
Ġneare st
Ġ1 0
rem ember
Ġill um
Ġheart beat
Ġgigg led
s eth
el ia
ad am
Ġdra wer
j es
Ġru in
Ġgy m
Ġdef ense
um n
Ġwound ed
Ġholl ow
Ġlear ning
lo gy
Ġcr ashed
Ġsepar ate
Ġro ared
ly ing
Ġfl ow
Ġstri p
n ic
Ġoffic ers
Ġk im
Ġdar ted
Ġback pack
Ġw an
Ġw iz
h i
Ġsc ri
Ġluc y
l ar
Ġflo ating
see ing
ven ge
Ġj ax
e z
Ġr ange
Ġown er
Ġd ude
olo g
Ġsent ence
Ġcur ve
Ġis su
Ġsho ve
s w
x y
u ing
sh ot
we ar
Ġro le
bl ack
Ġchar ged
Ġtort ure
Ġfl ower
Ġam ber
Ġfre aking
Ġmother s
u ch
Ġne g
Ġp ig
Ġfour th
Ġfr uit
w ind
Ġsw ore
Ġchar les
Ġbe gged
Ġc ough
Ġthreat ening
Ġsu gar
re ll
Ġw ow
Ġdri ven
Ġmart in
Ġn est
Ġpr oof
Ġpr ick
Ġmat tered
Ġdisco ver
Ġcr ad
Ġk icking
Ġgood bye
Ġrel ig
Ġt ab
Ġt ipped
Ġp ra
Ġwand ered
ac on
Ġter rit
Ġshot s
Ġf el
Ġo we
er ica
ile t
Ġanticip ation
Ġru ined
Ġeight een
Ġto dd
m al
or ia
y ard
Ġal ien
Ġvictor ia
Ġdel iver
ve re
is ions
Ġt am
Ġun known
Ġv in
Ġsa il
Ġstuff ed
Ġconn ect
Ġbu bb
g ment
Ġwra pping
Ġcas ually
le e
Ġd art
av ier
Ġcl icked
h at
et ch
Ġsn ake
ra w
Ġsh ows
Ġbr ut
Ġsnar led
Ġdead ly
Ġas p
Ġper cent
Ġlim bs
Ġse le
Ġ ought
e ight
Ġcrowd ed
Ġbo oth
Ġper man
Ġch ic
Ġgrad u
Ġpot ential
e ither
Ġtw in
p aul
ne xt
ad d
ar ies
Ġyell ing
Ġprov ide
Ġprofession al
Ġrare ly
Ġsusp icious
Ġinj ured
l ist
Ġc ult
Ġleap t
Ġs ire
Ġo be
Ġjew el
est y
Ġper mission
Ġstare s
no body
ou ch
Ġking dom
in ating
Ġpound ed
d or
sure ly
Ġent ertain
Ġunivers ity
z zy
ir on
Ġ 8
Ġside ways
Ġhapp ily
Ġa ston
Ġex isted
Ġl un
Ġfather s
Ġme chan
Ġelb ows
ce l
Ġreal m
Ġha lt
Ġmar ch
ri ly
Ġgu ide
ay ing
Ġsto le
ud ed
Ġaud ience
Ġtr istan
ig er
Ġb oun
Ġclim bing
Ġd ried
Ġg ain
Ġrec ent
Ġag ony
Ġfor ces
t ra
al most
Ġbas ement
Ġm ild
Ġsu c
se veral
g reat
Ġacc ording
m ail
Ġdoub ted
Ġtem por
Ġp izz
Ġcoll ect
Ġvulner able
Ġinfl u
Ġde an
p ain
Ġcale b
Ġcompan ion
gre g
Ġrad i
Ġattem pted
gg y
s ur
Ġarm or
Ġstra w
Ġtr ash
Ġbill y
b u
Ġa ching
Ġke nd
Ġla wn
Ġscramb led
Ġown ed
Ġmyster y
Ġv ic
Ġfl ashing
so ci
Ġac ted
ic y
Ġmov ies
Ġce rem
Ġcrou ched
Ġten sed
Ġshif ting
Ġmag gie
Ġindivid ual
Ġsad ness
Ġhoriz on
Ġst ress
Ġswift ly
Ġjump ing
Ġs out
f an
Ġcl ick
sp e
Ġaff ection
l ife
Ġe ur
Ġg if
Ġrev ol
ide on
Ġst ag
Ġfe ather
Ġkind s
Ġas soci
Ġmar ble
Ġgreat er
Ġsur ge
or g
Ġst ack
Ġstro ke
Ġim per
ad a
Ġsur re
ar se
i pper
Ġre ception
any thing
Ġthor ough
Ġg ates
Ġj ar
it able
Ġt ape
u ary
pet er
l au
Ġorg asm
Ġhesit ation
Ġco ach
pl us
et ic
Ġclean ing
Ġpl acing
n is
Ġh ills
gu ing
Ġarr anged
l ast
Ġconfir med
Ġtremb led
Ġmo b
Ġaw esome
al ine
Ġfol ks
Ġsix teen
Ġbull shit
Ġcr it
Ġpre tending
Ġsign al
f ee
Ġsp it
he ns
Ġs ite
Ġend less
Ġviol ent
ra ged
ct ors
Ġsp illed
Ġbab e
Ġrefle ction
Ġc ake
they re
Ġsh aring
Ġassist ant
Ġa ver
Ġele g
Ġcompl icated
Ġar med
Ġcomm unity
Ġimp act
Ġcand le
Ġdisappo intment
Ġquestion ing
Ġfl owing
Ġchar lotte
Ġenvelo pe
Ġsou ls
Ġhe aling
Ġpat ch
Ġp ity
Ġneighbor hood
i xt
b ow
Ġr ings
Ġdra ke
s ized
Ġapp ears
Ġdark ened
Ġsupp lies
Ġsens itive
Ġlone ly
et r
Ġr uth
Ġcur ved
Ġmed ic
Ġr agged
Ġmel ted
Ġche ese
Ġliter ally
Ġyou th
c ting
Ġsc ary
Ġwhisper ing
Ġsnat ched
Ġposs essed
Ġru de
Ġrom antic
Ġcross ing
Ġstr ing
Ġmoder n
Ġo ak
Ġbe gging
ar med
Ġexplo sion
Ġv ig
Ġen v
Ġcont ents
Ġfre qu
Ġrout e
Ġf u
ic ating
Ġtrave led
re sh
m ond
Ġuse less
Ġatt itude
Ġclass es
Ġknuck les
Ġuse ful
c ont
Ġmo ist
Ġin n
Ġconst antly
im med
Ġl ic
Ġk al
Ġd ee
c ut
Ġblo cks
Ġabs or
an or
Ġde ce
Ġg ang
un ting
t al
Ġac hed
Ġjon athan
Ġd ipped
Ġang le
in side
Ġcontem pl
Ġsh iny
Ġcapt ured
Ġintens ity
Ġbreast s
Ġsw inging
Ġincred ibly
Ġfair y
at tering
Ġtwist ing
Ġsmir k
ass es
Ġissu es
Ġf ancy
Ġhigh way
Ġh ired
Ġit ems
Ġinc ident
Ġpos itive
Ġest ab
Ġcle aned
a ving
is c
act ually
cl aire
Ġimag ination
Ġphot os
Ġfrustr ated
Ġcha os
Ġev an
Ġstiff ened
Ġshe er
Ġpl ung
Ġshe ep
Ġsmo ot
ry an
Ġale c
os ing
Ġfro st
Ġt uck
Ġal oud
Ġcur ls
Ġdec ent
Ġweak ness
Ġer r
Ġell ie
Ġhu ff
Ġscow led
h ope
Ġch ances
Ġscrew ed
Ġr ate
Ġmag ical
Ġsl umped
Ġwere wolf
Ġal ph
Ġback s
g ent
Ġgrim aced
Ġpol ite
Ġjac ob
Ġpin ned
Ġsp ite
Ġfam ous
p he
Ġattract ive
Ġf red
Ġthe ory
Ġth ir
Ġr ome
Ġn u
Ġstir red
Ġf lex
h on
Ġlap top
Ġfal se
Ġpour ing
Ġsuff er
Ġshort ly
Ġent ry
Ġfl ag
ay lor
Ġnipp le
Ġcl ung
o y
ound s
Ġun b
h um
Ġw aking
Ġst ool
Ġfo nd
Ġhealth y
Ġbet r
th omas
wh ite
Ġfriend ship
Ġinno c
Ġdri pping
Ġcent ury
Ġbit ing
Ġya wn
Ġdecl ared
Ġpro ved
Ġmer cy
Ġhe ated
Ġcon sequ
Ġdy lan
c ons
Ġmo nday
Ġprot ected
Ġdev ice
Ġfl ung
Ġlo aded
Ġcar ved
Ġord inary
Ġsc out
s us
Ġcent ral
m ade
Ġst y
Ġwar n
Ġsal t
Ġl amp
Ġhur ts
Ġcl an
Ġsha ft
Ġtri es
Ġproper ly
Ġviol ence
oll en
Ġf led
Ġse ason
Ġwip e
Ġsafe ly
Ġexcell ent
Ġchar m
Ġsign ific
Ġman e
Ġear n
Ġtri gger
c or
Ġt ips
Ġsw ords
Ġbran ch
Ġsw ollen
Ġsh imm
Ġpizz a
n ifer
Ġtw ins
Ġprep are
Ġchuck le
turn ing
Ġam erica
Ġclut ching
h ip
ro y
Ġke vin
Ġro cked
Ġre ck
Ġun sure
id y
en ess
Ġexha ust
Ġdan ny
Ġpat ience
Ġs ons
Ġest ate
Ġrespons ibility
Ġswe ater
Ġb oring
Ġsepar ated
p ower
de v
Ġf ears
c ony
Ġsee k
n orm
u a
Ġh annah
k ins
Ġless on
Ġjust in
Ġdr am
e vent
Ġmoon light
nat ural
Ġstro king
Ġste am
Ġst ark
Ġchild hood
Ġbr ings
Ġbo lt
Ġserge ant
ion a
Ġcont ained
Ġst icking
Ġbu ddy
ap t
ut ed
az ing
Ġsu cking
Ġdel ivered
Ġarri val
o le
Ġexch anged
Ġcour ty
Ġz ach
Ġsig ned
Ġbal cony
v ict
ee red
Ġar rog
co le
Ġloo s
Ġbackward s
Ġpl anted
Ġank le
Ġlif et
Ġprefer red
a way
ens es
p se
Ġwait ress
Ġmurd ered
h or
in i
m ake
Ġmu g
Ġfun eral
Ġpri or
Ġhigh ly
Ġbit s
Ġring ing
Ġsoph ie
Ġdr ained
ul ous
Ġcontin ues
Ġele ment
Ġty p
Ġblo cked
Ġjack son
Ġp ed
Ġdu ke
bb ie
Ġsu ite
Ġl ump
Ġa ye
Ġphys ically
event ually
Ġserv ants
Ġa pr
Ġbl owing
Ġsmir ked
Ġspread ing
Ġat l
Ġfield s
Ġcru shed
Ġref use
Ġround ed
Ġb ald
Ġd war
roll ing
Ġsuc ceed
Ġspec ific
our s
v ie
Ġsh one
Ġam anda
Ġcraw l
Ġgar ion
l ig
Ġal tern
sh ips
Ġsub st
rou s
Ġtr aced
Ġcl ient
Ġi cy
Ġp y
Ġcol in
om i
Ġl in
Ġdist inct
Ġwild ly
Ġno vel
ve led
d rew
Ġtrave ling
Ġend ing
Ġutter ly
Ġspir its
Ġs ought
lo s
Ġsar c
Ġexh aled
Ġfor k
Ġsk ill
Ġyou d
Ġstair case
Ġfore ign
Ġoverwhel ming
__ __
z ie
Ġsuff ering
Ġw ire
Ġintrod uced
Ġsc o
Ġb ased
Ġner ve
Ġp ear
Ġfig ures
Ġg a
ing ed
Ġun it
Ġk yle
Ġwat ers
j im
Ġg avin
Ġcot ton
Ġdiscus sion
Ġneed ing
Ġglo ves
Ġass ign
ap es
Ġjour nal
Ġsc ience
Ġdri ft
Ġr it
Ġl ick
Ġcar riage
Ġsu ffe
Ġshel ter
m ble
Ġal ice
Ġegg s
Ġv iv
d ney
Ġlead s
Ġchic ago
Ġa z
Ġp ony
Ġcourty ard
ac c
Ġsw ip
g ree
Ġter m
Ġenc oun
Ġpound s
lo ve
Ġje remy
k ate
Ġg wen
Ġfl owed
Ġm ama
Ġsw itched
Ġty ler
Ġkn ot
Ġgentle man
Ġl as
Ġfin n
Ġb un
Ġsl ave
Ġprot ecting
Ġc ries
Ġset s
Ġkid na
Ġche ap
Ġneck lace
ic op
Ġs ang
Ġcirc led
Ġappro pri
lo gan
Ġp ir
Ġmat thew
Ġbr ide
Ġdream ed
Ġapp le
c at
Ġstr ained
Ġlim p
Ġobser ved
m n
Ġr ag
Ġtear ing
Ġcol t
sh ine
Ġro land
Ġgra bs
Ġhy p
Ġacknow led
Ġsuffe red
Ġjohn ny
Ġh ooked
ha ving
Ġmyster ious
Ġfl ickered
Ġman ip
one l
Ġprep aring
jo sh
Ġl ane
Ġdiv or
Ġsout her
Ġsched ule
id ently
al ie
Ġsus an
Ġb ark
Ġm ason
m ic
Ġhop es
Ġjust ice
Ġbe nd
s we
Ġpo nd
Ġtall er
av a
if orn
Ġhe el
Ġno str
Ġn ail
Ġcit iz
Ġst ake
Ġrepe at
Ġm ack
Ġb ounced
Ġpriv acy
h in
Ġw y
all as
Ġh omes
j ac
Ġsc ars
Ġav a
Ġhol es
t an
Ġcomp ared
Ġsp raw
Ġcr ashing
Ġsoot hing
anth a
Ġself ish
Ġlat est
Ġdirect or
Ġpl ates
Ġinter ior
Ġan ton
Ġcurt ain
in te
Ġpil ot
Ġprotect ive
Ġdis e
Ġo l
s oph
f ying
Ġtrans fer
iz es
Ġmess ages
Ġd orm
g ir
Ġimmedi ate
Ġrout ine
Ġinstru ctions
Ġtrad ition
Ġfun ction
Ġpre y
Ġj ordan
Ġbot tles
Ġdrag ons
un less
Ġfind s
Ġdire cted
Ġavo iding
Ġinclud ed
m ind
Ġl or
Ġdevelo p
Ġto oth
Ġsc re
Ġtang led
Ġrep ut
Ġhel icop
bec ca
omed ay
Ġg n
Ġetern ity
Ġc ooking
Ġbutt ons
o on
Ġd ave
dan iel
ul ating
Ġcal c
Ġmiser able
Ġre venge
Ġad or
Ġed uc
Ġchar ming
Ġdo ck
Ġcomm anded
Ġloc ated
l ad
Ġflash light
Ġmic ro
Ġfl ared
ho le
go ing
hal f
Ġbr ace
Ġn y
um ing
fr ank
ar ms
Ġcal iforn
ber ry
al so
Ġtri al
Ġcle ver
Ġk ay
Ġfr anc
Ġhun ters
Ġjen ny
Ġgras ped
sim on
Ġaccom pan
ch a
Ġbo ld
Ġgo ss
Ġflo ated
Ġle ge
Ġst ew
Ġsp ider
is k
Ġgreat est
Ġinv itation
Ġstruct ure
w ow
b urn
Ġpr inc
Ġquestion ed
Ġheart s
Ġvis ited
Ġda emon
Ġgri pping
ul ations
ul a
Ġdo ctors
b on
o dy
pr om
Ġm ont
Ġaim ed
Ġt roll
Ġtech no
Ġinter rupt
Ġslam ming
Ġw are
Ġsl im
Ġanx iety
Ġpuzz led
Ġb io
gu ard
Ġpun ishment
Ġscrat ched
Ġcas es
Ġeur ope
Ġcor n
Ġbab ies
Ġk ings
l ay
Ġterrit ory
Ġr ack
Ġme x
bo x
Ġ1 8
Ġleg al
Ġtal ent
Ġw igg
Ġwh im
Ġstret ching
Ġbe e
bl ue
Ġfl ip
Ġroll s
Ġs ant
Ġmuff led
Ġh its
Ġob lig
f red
Ġqu inn
Ġintellig ence
Ġmon sters
Ġconcentr ate
g iving
Ġequ ally
Ġinvestig ation
Ġto ilet
Ġco inc
n n
Ġha z
Ġob sc
Ġd ared
Ġdesce nded
Ġpur su
Ġsl ap
Ġint ently
Ġquar ters
ip le
Ġunder ground
Ġda ily
Ġcr ush
f ar
Ġch ains
Ġwhere ver
Ġlad der
Ġreluct antly
happ y
Ġmod el
Ġunder wear
co vered
b one
iven ess
Ġsmell s
at ter
Ġment ally
Ġsqu ad
Ġa chie
Ġswim ming
Ġd ante
m ates
Ġme asure
ump led
Ġfor b
Ġwip ing
ip er
c am
Ġf und
Ġsort s
d is
b ot
Ġrequ ire
Ġgl owed
g age
d el
gr and
Ġvel vet
Ġcaliforn ia
Ġtre vor
Ġmir acle
Ġgo al
ess ing
ro s
Ġsc ot
Ġspar hawk
Ġar c
k ind
Ġd uck
Ġnewsp aper
Ġb ore
ib ilities
ren aline
Ġcoun ted
ent h
ch ris
Ġman ager
Ġank les
p ass
Ġplat form
Ġstr ate
Ġdefe at
Ġshould nt
Ġthir teen
r ant
Ġpre tended
Ġhat red
f ine
Ġhel met
r ad
Ġfur row
Ġopt ions
Ġsquee zing
ing e
Ġfle et
ch ief
Ġind icated
Ġfe ver
Ġadm ir
Ġrefle cted
em ily
Ġsle nder
n ec
Ġtw itched
kn owing
Ġpant ing
Ġgr umbled
f act
j i
Ġexam ple
Ġprison er
Ġsl ick
Ġintim ate
Ġsouther n
Ġbull ets
to day
Ġnostr ils
Ġjose ph
ant ically
in ate
Ġworld s
Ġme as
Ġange ls
i ar
Ġb orrow
Ġb ik
jo e
Ġdec isions
Ġlifet ime
ut en
Ġun ited
Ġeng land
Ġsh aky
l ers
Ġmu se
Ġmar ie
Ġres ults
Ġjul ie
Ġfrown ing
Ġsp ear
Ġab ilities
mo ving
um ents
ab or
iss ion
Ġto e
Ġex erc
Ġauthor ity
Ġgar b
Ġkell y
Ġr az
av i
Ġent ering
as ant
Ġdescri bed
Ġl id
ac les
ur i
Ġcra ft
Ġem ph
n ew
Ġf uel
Ġro d
Ġconscious ness
d ec
Ġsniff ed
Ġais le
Ġhope fully
Ġcar ing
Ġmet ho
a a
Ġt ack
Ġeffort s
Ġdark er
Ġn ak
v o
ico le
Ġperson ally
Ġsuccess ful
Ġbar rel
Ġmagaz ine
an ie
jam ie
al ways
Ġpl us
Ġcomfor ting
l ow
Ġserv ant
Ġexcept ion
am m
lu ke
Ġhand ing
Ġsqu inted
Ġag ents
Ġsee king
Ġwr inkled
Ġpers u
Ġd ip
Ġrec ords
it ching
st ick
he m
Ġland s
Ġworry ing
um ph
Ġmist ress
i ge
Ġcor por
you ve
Ġrec alled
Ġpop ular
Ġp itch
Ġcurrent ly
Ġpen etr
Ġst eep
Ġground s
Ġinh aled
Ġed ward
Ġsen ior
Ġfle e
Ġl ect
Ġrepl ace
Ġout er
Ġfour teen
Ġsub tle
Ġh ank
Ġalex ander
Ġsacrif ice
ret ched
Ġlock er
Ġcand y
Ġdist ract
Ġin ev
op s
Ġbetr ayed
wor ds
Ġspec ies
Ġgl aring
r ont
Ġpr ayed
m att
Ġs inking
k ar
Ġc ott
Ġdes igned
Ġcurt ains
Ġflood ed
Ġt ale
Ġout fit
Ġso aked
Ġc ush
Ġj ung
Ġjob s
Ġreput ation
Ġt in
Ġgrou ps
Ġk ane
Ġcerem ony
Ġfe eding
Ġmy th
Ġat op
Ġjo king
Ġbr on
Ġcaut iously
Ġcont rolled
Ġimpress ive
r ain
Ġsh ane
Ġconfir m
Ġactiv ity
Ġprot ested
cass ie
um s
Ġint ri
Ġrep orted
s ky
se ven
Ġshall ow
Ġshe lf
ph y
Ġtoss ing
ind er
Ġgu itar
Ġpat rick
ific ation
ant ing
Ġunlo cked
Ġland sc
ky lie
Ġmat ching
m ill
Ġflo ors
w om
v ity
Ġeng age
Ġc uff
Ġdra ped
Ġbright ly
Ġexam ined
Ġd ata
Ġro ger
Ġcoll ection
Ġclas ped
Ġsandw ich
Ġmel issa
Ġbar ked
Ġhel en
ich olas
Ġcamer as
Ġde gree
Ġcon ven
Ġwhir led
Ġob liv
i i
Ġsy n
Ġincre ased
Ġj ill
qu ar
Ġavo ided
me nd
Ġcreat ing
with in
Ġoccup ied
ic ations
Ġgrand ma
Ġeng aged
Ġsoph ia
Ġmin i
Ġdev on
Ġdescri be
p y
Ġmay or
Ġve get
Ġluc ien
Ġa st
Ġfl ush
Ġass ault
ag ne
Ġrail ing
Ġadjust ed
t re
Ġrough ly
Ġran ch
old ed
Ġlab or
ect or
Ġgr itted
Ġch asing
Ġad op
Ġem pt
Ġval ue
d ark
Ġso b
Ġper f
sp here
ap ers
Ġdemand ing
Ġgu ar
t im
Ġcl ary
Ġwe ve
ound ed
Ġpart ies
Ġw agon
Ġstri pped
Ġt ug
Ġaw a
Ġch im
Ġho arse
Ġstrange ly
v as
b an
Ġhu dd
Ġdis hes
Ġr av
Ġscrat ch
Ġmaj esty
ic an
Ġform al
Ġdress ing
Ġreport s
Ġbl ades
Ġdeliber ately
Ġno pe
Ġdun can
Ġlight ing
Ġcon ference
Ġspr ay
Ġca vern
Ġbl ush
Ġbord er
Ġalong side
it ated
Ġas se
Ġsm ug
ic ide
Ġcur l
p ath
Ġre ward
Ġhe ather
Ġmem or
Ġimmort al
Ġvictim s
id ents
Ġf ading
Ġdust y
Ġreg ister
mb led
Ġere ction
Ġcabin et
Ġn an
al ian
Ġju ice
ar ian
Ġchann el
Ġhum ili
Ġling ering
f ace
g us
Ġcu ps
ist r
Ġtor ment
Ġlay ing
Ġfil es
Ġgar rett
en ch
Ġprod uct
~ ~
Ġac ade
ob v
Ġtri umph
Ġsupp ly
ent ine
Ġer up
Ġste ering
Ġcut s
ist ered
Ġfire place
Ġdream ing
Ġguard ian
Ġp aw
Ġacc ur
Ġoccasion ally
Ġfor ming
Ġh mm
Ġj eep
hen ry
su ch
Ġintim id
Ġplay er
Ġt act
Ġg ig
m ine
00 0
Ġpro pped
Ġgoddam n
Ġf ade
Ġjud gment
Ġan aly
Ġlo ad
Ġsurprising ly
w ild
Ġsmo king
r s
Ġs om
Ġsho ving
Ġis a
Ġv irt
Ġli l
Ġter min
Ġsett ling
ho ly
Ġgigg le
Ġfl or
Ġgoss ip
Ġd al
Ġscar let
Ġrid ge
Ġincre asing
Ġanno ying
n on
Ġme red
f aced
Ġpray er
Ġle aped
Ġto ast
Ġlead ers
Ġash amed
Ġpo ked
Ġmered ith
Ġvict ory
w r
i ah
Ġday light
Ġmir anda
Ġflin ched
Ġneed le
Ġc ub
Ġad ult
hell o
un ks
Ġlou is
Ġi v
Ġv es
Ġtrans l
Ġca f
Ġp ave
Ġbother ing
Ġn ational
Ġsu v
Ġsor row
Ġinte nd
Ġe h
Ġs ung
ur ry
Ġkat ie
Ġstag gered
Ġeyel ids
d ro
Ġpack age
Ġembarrass ment
Ġcomp ass
Ġamaz ed
Ġvague ly
Ġme lo
Ġin k
Ġsurround ings
Ġha unted
Ġblank ets
Ġmin or
m ir
Ġadd ing
Ġseeming ly
Ġsevent een
Ġmat ched
Ġslight est
Ġanno y
Ġo li
Ġdis h
ard on
Ġhamm er
Ġsuspic ion
Ġl ashes
ut her
ag ers
Ġcor pse
Ġhor n
Ġstal ked
Ġsp ots
Ġstat ue
l iz
th or
Ġpl ants
Ġcho ices
Ġfort une
Ġfant asy
t led
Ġcontin uing
obv iously
Ġs ipped
p ull
ab by
Ġcomb at
Ġcamp us
Ġm asc
Ġat mo
ic ient
Ġbr id
he st
b ie
Ġdo ve
Ġsu its
co lored
Ġlight er
Ġmar ched
Ġblu shed
Ġirrit ated
Ġind ust
Ġconf ront
Ġass ure
us ive
ud ge
Ġsix ty
i qu
lo ved
Ġad rian
aw are
Ġro cking
Ġbu ff
Ġang rily
uten ant
he ard
Ġno ble
Ġj ab
Ġexc iting
Ġdeterm ination
Ġoper ation
Ġar guing
sil ence
Ġg inger
Ġy ep
Ġswir ling
s k
Ġm ath
Ġinstru cted
ot ing
asm ine
Ġwiz ard
Ġwe ep
Ġfr idge
Ġho pped
Ġbelie f
Ġbu shes
Ġpan icked
Ġwe b
th ur
Ġst ained
Ġeleg ant
Ġex asper
Ġlung ed
Ġstri king
Ġsm ashed
Ġt ag
Ġan ne
Ġbu ying
at ives
Ġfil m
ing ly
Ġappropri ate
Ġthro bbing
Ġrom an
Ġto ler
Ġbl own
Ġpeace ful
Ġgro cer
id ers
es ter
Ġk il
Ġsan ct
z ens
is er
Ġreal ised
Ġcomp ound
Ġst if
Ġwit ches
Ġem ail
Ġtu gging
Ġbu nd
Ġpain fully
Ġgl im
Ġcl it
Ġd umped
Ġsun shine
Ġa ug
Ġa ra
Ġdepth s
w are
Ġhesit ate
m art
Ġ1 2
Ġso ap
Ġneat ly
Ġoccasion al
Ġm im
Ġrock y
m aking
Ġnat urally
Ġpan el
Ġman sion
Ġvac ation
Ġch oo
Ġqu ality
d uring
Ġaff ect
Ġd ed
Ġour s
Ġreal ization
Ġel ena
Ġbreath less
Ġdo d
Ġbreak s
sec ond
um es
h y
Ġsad ly
Ġstrang ers
Ġbl inking
t es
Ġse vere
Ġa we
Ġmer c
Ġcons umed
Ġgr at
ol a
head ed
Ġbene fit
Ġsof ia
Ġn uts
Ġint ru
Ġappro val
Ġsoft ened
Ġcl er
p ret
Ġp aced
Ġsho e
Ġblo cking
Ġdwar f
Ġtit le
Ġbrit ish
h ot
Ġattem pting
id a
Ġad renaline
Ġd av
bet ter
om y
Ġje an
Ġw ry
Ġdest ruction
Ġbr aced
Ġatt racted
Ġrel ated
Ġd ump
Ġhe m
mo d
Ġwas ted
Ġhelicop ter
Ġs ib
Ġs omeday
Ġfr antic
qu is
Ġblur ted
Ġinit ial
Ġfr antically
Ġdistr action
Ġwis hes
ab elle
Ġcomm itted
Ġintern et
b ag
Ġsn apping
Ġow en
Ġsp y
Ġpu shes
Ġcomb ination
jul ian
Ġd ash
Ġm it
Ġbu d
Ġcand les
l ater
Ġalph a
Ġstat us
Ġmoment arily
f ic
Ġhead ache
Ġnot icing
b ra
Ġpol itely
will iam
Ġstab bed
Ġse aled
Ġare as
Ġg au
j an
Ġtemper ature
w w
Ġc ure
Ġhe aled
Ġarg ued
Ġexper iment
Ġshout s
b ones
ress ing
h ou
n an
Ġodd s
Ġgl or
hu h
Ġcou ghed
Ġch urn
n els
Ġgaz ing
Ġwall et
Ġjung le
Ġto n
do or
ar ia
Ġconf l
Ġla ura
Ġhaul ed
en ced
Ġcount ing
Ġjes se
Ġsecret ary
Ġreco vered
Ġg ap
Ġdesp air
Ġimp ul
ish ly
Ġjo ining
Ġequ al
Ġst an
Ġgif ts
Ġpat rol
Ġbase ball
Ġappo intment
Ġflut tered
you ll
Ġesc ort
Ġr ows
Ġj ones
Ġto y
Ġt at
Ġste fan
Ġamong st
Ġtransp ort
Ġpu p
Ġse ized
Ġ1 1
Ġn um
Ġgr ins
Ġcl apped
Ġgho sts
Ġbl iss
Ġoverwhel med
Ġexpl ore
Ġpol ished
Ġ #
Ġdev ast
cra ft
Ġg ideon
Ġw rest
Ġmouth s
Ġme g
Ġt essa
Ġmon itor
Ġb ush
Ġsc off
Ġsm ack
Ġth us
l asses
cle ar
Ġqu al
Ġcompl ain
Ġrepres ent
j ared
Ġp ine
ep end
Ġmane u
Ġsc or
n ice
Ġen sure
Ġabs ence
Ġcott age
Ġr amp
Ġgl ist
Ġdisappear ing
Ġrem ar
Ġgr ade
Ġstrand s
Ġmo lly
Ġst ing
Ġwre ck
Ġrit ual
Ġcoll ected
Ġjess ica
Ġco lored
ad in
ren a
Ġune asy
Ġtre asure
Ġhorri fied
Ġthe rap
Ġpe ering
Ġsigh s
st ay
Ġtele phone
Ġencoun ter
am y
Ġun ique
Ġgre ed
Ġsad dle
Ġy an
Ġbrand on
Ġconsequ ences
Ġho vering
Ġfa e
Ġident ity
Ġtor so
Ġen s
Ġt aylor
Ġvis iting
Ġfin anc
Ġroad s
Ġwh ip
Ġfire s
Ġadvent ure
Ġqu iver
Ġright s
Ġgreet ing
h mm
Ġmed ia
Ġsymp athy
Ġspr ang
Ġsol ution
Ġz ero
Ġaff air
Ġlim ited
Ġk een
Ġshudd er
Ġgentle men
z er
Ġsle e
Ġbeat en
Ġa ven
Ġbas ic
Ġinflu ence
Ġhy ster
Ġreass uring
Ġse am
Ġt iger
Ġjim my
ur t
Ġsh red
Ġpat hetic
Ġatmo sphere
th irty
Ġlaw s
Ġexplo s
Ġruss ian
Ġf ishing
u ish
Ġl ore
Ġno ises
Ġel abor
Ġph r
Ġfor ms
Ġthr illed
Ġann ounce
Ġ20 1
d eep
Ġpee ked
b a
Ġprod uced
Ġling ered
Ġbec omes
Ġm our
Ġremind ing
Ġwashing ton
r at
Ġre in
it ors
Ġpsych ic
Ġprecise ly
s ers
ra k
Ġtou ches
Ġm es
Ġp acing
Ġst able
Ġneighb ors
m ont
Ġhold en
z o
Ġpolit ical
Ġe z
Ġtr oops
out ed
ain ted
Ġan th
Ġgood ness
Ġviol ently
Ġgas ping
Ġsp ed
Ġrece ive
Ġsweep ing
Ġte aching
ur d
ons ense
Ġth irst
Ġill e
Ġapolo gy
hell e
Ġapp arent
ol iv
Ġcrim son
Ġha ven
Ġnud ged
po int
Ġd ag
Ġelectric ity
Ġb ang
Ġas he
for ce
g reen
Ġcar ter
it ri
Ġerup ted
Ġdis gu
Ġnightmare s
Ġwes tern
Ġre vel
Ġow ed
Ġda isy
Ġspeak s
Ġtex as
b in
Ġt ate
Ġbar rier
Ġur ged
Ġm ik
Ġcol onel
Ġcomp re
Ġtem pted
Ġsince re
Ġtu be
Ġgab e
Ġacknow ledge
Ġfir ing
Ġmusc ular
Ġtrail er
Ġse al
tw enty
iv an
o cc
Ġany time
if ying
Ġinstinct s
Ġt umbled
Ġho vered
ch ild
Ġdrif ting
m ber
Ġfore arm
Ġw ider
Ġsy l
Ġ q
Ġgu ided
sp ir
ton ight
Ġdress er
Ġr al
Ġsurre nder
no ah
Ġshru gs
Ġchamp agne
Ġsp orts
Ġsl iced
Ġsl it
Ġwand ering
Ġshot gun
oo led
x ed
Ġpier ce
Ġbuck et
Ġp lo
Ġcraw ling
f ight
v able
Ġch ap
Ġcur iously
Ġf bi
Ġautom atically
Ġtechno logy
k o
bre ak
Ġdise ase
Ġwh ore
Ġrec on
Ġcow ard
Ġfinger n
Ġcur b
Ġsuit case
Ġear ned
Ġthumb s
ind e
Ġres our
Ġcomple ted
os ition
em et
Ġdest ination
Ġsh ay
Ġthan ked
Ġjess ie
Ġd anc
Ġnote book
d ri
ixt ure
Ġsurv ival
oliv ia
Ġwar y
Ġfact s
Ġri bb
Ġfrag ile
z es
Ġn ause
Ġp ie
Ġn ina
ag ging
Ġbeing s
Ġrev iew
Ġmo ck
s is
Ġar cher
Ġsong s
w olves
Ġbas ically
Ġterri bly
Ġdesper ation
Ġpet e
Ġtick et
Ġwor ries
f ear
jes us
if ully
Ġstand ard
Ġt iss
Ġa aron
Ġinvol ve
Ġaid an
list en
Ġadv anced
b orn
s at
Ġag es
Ġpill ows
Ġwith drew
Ġm ounted
r om
ut tered
Ġcl in
Ġm ing
Ġdown town
Ġemp ire
Ġoli ver
li am
Ġgra vel
Ġskin ny
Ġla unched
Ġl am
fee ling
ss a
tr ust
Ġv om
Ġgle aming
Ġe c
Ġger man
e nding
Ġmar ia
Ġodd ly
rich ard
Ġguess ing
Ġwhe els
Ġdam ien
Ġsl ice
b ig
in ity
Ġp ent
got i
Ġlift s
Ġpier cing
Ġv est
Ġs ally
Ġinv ite
Ġmess ed
Ġspo on
Ġreco ver
s ir
Ġisa ac
Ġtor ch
Ġtreat ment
Ġste aling
Ġun ple
Ġafter ward
Ġconcentr ated
Ġhuman ity
ard ed
k ill
Ġmel t
aught ers
Ġde x
Ġlie utenant
e nder
Ġshel ves
Ġthere fore
Ġknight s
Ġt el
Ġmaint ain
con nor
Ġpave ment
ast e
Ġcur ling
Ġli ber
Ġsa le
Ġno on
im ately
Ġtem pt
Ġand re
Ġconvers ations
we ve
Ġm ck
ry n
Ġsomet ime
Ġlic ense
Ġremind er
b ill
Ġfl aw
Ġzomb ie
Ġperman ent
Ġware house
ij ah
Ġpurch ase
Ġpin ched
Ġincl ined
Ġsmoot hed
Ġdeser ted
Ġfright ening
Ġsole mn
Ġdam on
Ġexplo de
Ġab o
f ree
Ġassass in
Ġrig id
o en
r action
Ġreason able
Ġr ipping
Ġthought ful
Ġlo cks
jul ia
ac ious
t ies
Ġcorre cted
Ġta pping
Ġh ut
Ġt ara
Ġk ir
Ġf ount
Ġnav y
Ġex cl
Ġnew ly
ad en
Ġcris p
Ġtop ic
Ġsch ol
Ġz oe
Ġadm in
g ic
Ġhard ened
Ġshif ter
ay e
Ġann ie
l ady
ul ted
Ġkn ives
u able
ad or
Ġdis ag
Ġrum ors
Ġb ould
Ġve gas
Ġaff ected
ad ia
Ġcell s
Ġsn ugg
Ġbo ston
Ġcount y
Ġswir led
Ġser ving
Ġdevelo ped
Ġcrim inal
Ġ1 5
t ling
Ġfac ility
Ġlandsc ape
n ine
Ġsa int
r ors
ian o
Ġsmooth ly
ren ces
f ted
Ġsp encer
Ġport al
Ġcar l
Ġp ic
Ġd allas
Ġry der
Ġins ides
os ure
ines e
je ff
Ġsuper ior
Ġpot ato
Ġsou p
Ġchew ed
m uch
Ġbill s
ve y
Ġburn s
Ġm ister
Ġslee ves
Ġcl amped
t alk
Ġl icking
Ġrub ber
f un
Ġsuggest ion
Ġboun cing
Ġf oul
Ġmedic ine
Ġf ulf
Ġpony tail
Ġsav age
Ġli on
Ġvol ume
he a
Ġem per
est ly
Ġcl ients
Ġserv ices
Ġse v
Ġfree zing
Ġmin im
Ġple ading
Ġamb ul
Ġplung ed
c ale
Ġhat ch
ish a
k im
Ġwitness ed
Ġl isa
am iliar
Ġbelie ving
Ġsm acked
Ġcr ooked
Ġmagn ific
sh aped
Ġregard ed
Ġgl ory
Ġterri fying
Ġlaz y
wor th
t in
sh all
igh ing
Ġposs ession
Ġr im
Ġexpl aining
it ute
Ġtyp ical
j ay
Ġdo zens
Ġit alian
Ġbar g
Ġtw ir
Ġle on
Ġmis ery
Ġs ack
Ġv icious
Ġg ained
Ġk a
Ġinj uries
Ġwith dra
Ġfo x
in er
Ġlay er
Ġpl ot
iv ar
Ġatt or
ted ly
Ġd izzy
Ġt ee
Ġlong ing
Ġis ol
th ought
Ġmuse um
Ġsm ash
Ġbl ouse
Ġpr on
Ġj ude
im ents
Ġjen nifer
Ġre e
Ġex ited
Ġlege nd
Ġde af
j ose
Ġwar med
Ġeffect s
se en
Ġbrut al
st o
Ġmight y
Ġsp illing
Ġpro spect
Ġl es
Ġrepl ies
Ġcl ust
Ġd well
Ġgri ff
se at
Ġbur y
Ġfif th
Ġaccompan ied
er on
Ġvin cent
Ġm ouse
Ġmad ness
Ġflick er
Ġcons c
Ġdec ades
se an
Ġarrest ed
ou b
st orm
Ġimag ining
Ġwin ning
Ġback ing
en elle
Ġaid en
c onscious
Ġro y
Ġcl am
Ġfin ishing
Ġbu g
Ġdiscus sed
iv a
Ġk in
Ġ >
Ġsung lasses
k no
Ġpow der
Ġdeal t
s en
Ġpip e
Ġple aded
h as
w ord
st ar
Ġratt led
Ġdet ect
Ġlau nd
Ġso cks
Ġscow l
de rer
Ġp ry
Ġtort ured
Ġmagn us
Ġc er
Ġro ses
Ġimpat ient
Ġn ut
ip her
Ġveh icles
ton y
Ġa ura
Ġhel ps
Ġpers p
Ġfo yer
Ġdr ama
Ġ $
Ġlea f
bb ling
Ġsy dney
Ġmist akes
Ġh om
Ġtempor ary
Ġpersonal ity
Ġcustom ers
Ġhu gging
o id
Ġmy st
Ġbo bby
p it
ch ase
luc as
Ġstun ning
Ġfail ure
it ches
Ġch ased
Ġelect ron
Ġso ber
Ġd aughters
Ġun re
Ġaver age
Ġd il
Ġne ut
Ġstor age
Ġthorough ly
ad er
Ġtra iling
Ġz one
Ġb a
Ġzomb ies
nd y
Ġper ched
Ġintrod uce
Ġfranc is
Ġle o
Ġopp on
Ġlim it
Ġtest ing
Ġwe ary
Ġcapt ure
Ġdemon str
bet ween
Ġc ities
char lie
Ġk aren
ac ting
Ġk el
Ġb ump
Ġart icle
Ġhea ved
oo ping
Ġch inese
Ġinter rog
Ġat h
Ġcreep y
et he
Ġcon ver
Ġa fr
Ġassign ment
Ġj ap
ru ct
Ġa k
un ken
Ġand y
Ġp iled
Ġinstinct ively
gar ath
Ġtroub led
Ġlevel s
Ġin se
Ġcl inging
Ġch ip
Ġun fortunately
Ġcamer on
ar re
Ġbl unt
un ts
Ġsu ll
Ġdis aster
Ġwait er
Ġpuzz le
Ġne goti
Ġtem ples
Ġha ze
Ġref using
er ous
Ġeye ing
Ġir re
Ġshad es
Ġdeath s
our ne
t t
Ġsw orn
keep er
Ġecho ing
ri a
Ġd ies
Ġencou rage
au de
Ġpec ul
Ġt ire
ri ger
Ġp ump
con n
Ġb unk
Ġbl ows
Ġdr ain
l est
Ġc ain
Ġdistur bing
Ġstud io
out s
Ġkend ra
Ġc reek
Ġind epend
Ġgreg or
Ġdel i
Ġwhis key
Ġtoo ls
Ġgener ally
Ġjealous y
Ġshuff led
Ġte ase
Ġscan ning
Ġnin et
Ġaband on
iss y
an i
Ġbe loved
Ġintent ions
Ġsl ides
ul sion
Ġref riger
Ġworth y
Ġenv iron
uc ing
Ġdest iny
ab s
Ġse ed
Ġtax i
Ġcall um
Ġsam antha
Ġunple asant
en n
Ġdifferent ly
Ġbu bble
Ġfr amed
v ant
get ting
Ġmur derer
Ġbeast s
at hed
Ġall e
Ġbl azing
Ġde er
Ġthought fully
Ġart ist
Ġbry n
sc ar
Ġappreci ated
Ġremar ked
ll e
rac ting
r us
zz le
Ġpray ing
ink ling
Ġcompl iment
Ġstead ily
l im
Ġemph as
z a
Ġbart ender
ane ously
j er
Ġtun nels
Ġmo ld
Ġcl ip
Ġgarb age
Ġjen ks
Ġrep orter
Ġl asted
Ġhop eless
Ġchar ges
Ġcr umpled
Ġnor ther
Ġawkward ly
it er
Ġdang ling
out hed
Ġh art
Ġrec om
Ġcur ves
Ġimpat iently
Ġpr ime
w a
Ġin her
Ġpre ser
Ġpa uses
Ġcare s
s mo
Ġgener ous
Ġenthusi asm
Ġcon so
ol ved
out side
Ġam elia
Ġconcl usion
Ġco in
Ġaw ak
Ġfort un
ri ley
Ġstep han
Ġacc used
Ġprison ers
ch air
Ġt ess
Ġconcentr ation
Ġannoy ance
Ġins ult
om a
Ġa ust
Ġdescri ption
Ġstroll ed
c ertain
3 0
Ġbur den
Ġtest s
Ġacc us
n ge
Ġless ons
Ġg ene
c are
Ġpecul iar
bl ake
Ġbru ises
Ġoff ended
Ġca ution
Ġmotor cy
Ġrec ru
Ġfem in
Ġcent re
Ġstr ict
Ġaug ust
Ġintellig ent
r as
fin itely
Ġfl are
Ġregard ing
oo ling
Ġdecor ated
ann ie
olo gy
Ġhast ily
w ing
Ġo c
Ġp ills
Ġsc al
Ġsu icide
Ġspark ling
Ġprom ises
Ġcho king
Ġsp ill
Ġa while
se bastian
Ġpat iently
Ġsp ike
Ġglo ss
j ud
Ġpick s
Ġinj ury
Ġsqu at
Ġassum ing
Ġst er
w is
Ġjen na
Ġpart ners
Ġsens ual
Ġli ar
Ġsto ve
Ġbr ains
Ġjap an
Ġsa fer
Ġpass es
Ġwalk er
Ġf est
Ġon line
Ġdivor ce
Ġa int
m ac
gr at
ent ially
Ġsweat y
Ġprinc ip
Ġcap ital
Ġretreat ed
Ġacce ler
Ġemper or
Ġinev itable
Ġambul ance
Ġwis dom
lit tle
Ġear l
Ġmen u
l ined
Ġloyal ty
oo ke
Ġdiscus sing
gab riel
ang le
Ġsw ell
Ġso il
Ġcat s
Ġjewel ry
ot es
Ġbe aring
oll o
re ed
Ġd ashed
Ġral ph
Ġguard ed
u k
Ġl yn
oen ix
Ġass igned
Ġst ung
re ne
Ġpresent ed
w est
Ġpo le
Ġbed s
Ġsk ipped
m ight
Ġsell ing
ig hed
Ġfier y
Ġb in
Ġshiver ing
Ġhum ming
m ur
Ġsh orter
Ġarrog ant
ph il
Ġvisit ors
m aster
gl ass
Ġa str
Ġcarol ine
Ġb or
Ġfierce ly
Ġslo pe
Ġgrand pa
Ġshrie ked
Ġmess y
en gers
Ġstream ing
Ġcook ies
pp ers
Ġattempt s
Ġresist ance
Ġcon qu
Ġfl ir
Ġy el
Ġsur ged
ant on
ien na
Ġdisapp ro
r r
Ġpop ulation
m es
Ġto by
Ġdry ly
b its
Ġrust y
Ġbit es
Ġari a
Ġpaper work
Ġec st
s itting
le ave
m ie
Ġcon cept
Ġfaint ly
Ġguar ant
Ġfurrow ed
el izabeth
un like
Ġro ots
Ġregard less
Ġcomment ed
m ia
u ge
Ġmin ister
col m
Ġbell a
Ġk atherine
Ġapp et
Ġwere wolves
Ġexerc ise
Ġcompl ained
if ting
Ġhudd led
uff ed
Ġaware ness
Ġsu cks
Ġdistur bed
Ġpier ced
Ġf en
Ġthank ful
Ġdam aged
Ġcor ps
ger y
s ara
Ġfinanc ial
gar ion
christ ian
Ġenviron ment
Ġnorther n
Ġcompass ion
Ġs ession
Ġbe ep
luck ily
inte rest
j ace
Ġill usion
Ġcar go
Ġdel ic
Ġhun ched
Ġembarrass ing
Ġdis pl
Ġl ant
Ġw ool
Ġal together
Ġwat ches
Ġkind a
Ġrab bit
Ġf id
Ġm ixture
Ġprom pt
Ġexhaust ion
f if
Ġhist or
Ġmurm ur
Ġintern al
Ġch ips
Ġa very
Ġbol ted
Ġaw oke
whe ther
Ġd ella
ish op
l ily
br and
Ġlau ren
Ġstick s
Ġm age
Ġback seat
Ġphil os
Ġval uable
Ġeager ly
Ġn icholas
Ġfant astic
Ġm ant
Ġer in
et an
Ġnot ion
Ġhaw k
ail ed
hold ing
al ice
Ġdelight ed
h anded
t rent
Ġstra p
Ġun s
Ġur gent
Ġover come
Ġsh aped
Ġk er
Ġcar a
ne ed
Ġin ward
Ġtrou sers
Ġoffic ially
Ġflick ering
Ġrap id
qu ick
ic ian
Ġraz or
Ġinv iting
Ġthe ater
p iece
Ġre nd
Ġan ch
g aret
ist ent
Ġcat ches
Ġdismiss ed
Ġw ander
Ġbr isk
Ġro gue
Ġdistr ict
Ġatt raction
Ġspl in
ge on
Ġsl ack
Ġcan cer
Ġm itch
Ġresol ve
Ġrest less
Ġback yard
Ġex agger
Ġtw itch
Ġbru ised
Ġgr uff
Ġspeak er
Ġth ud
ced ed
sh a
ur g
Ġval entine
jo y
Ġto ps
Ġra fe
Ġdel ay
Ġperform ance
Ġwar ren
ic ia
os al
n ar
th a
quar ters
for ming
Ġo xy
is her
Ġshirt s
Ġlou nge
Ġsand y
Ġm ast
g on
Ġpart ially
Ġtrave ll
Ġsc ul
Ġjun ior
Ġm and
Ġthr ill
Ġso bbing
Ġspan ish
Ġgr anted
Ġtight ening
Ġbe wild
Ġspark s
Ġme ad
Ġwork ers
Ġtra vis
Ġf et
Ġswe ating
Ġadv ance
it o
Ġconst ruction
Ġpict ured
Ġj agged
Ġb rew
urs day
Ġsupp er
Ġsched ul
Ġcompan ions
Ġign or
Ġcr ushing
Ġtun e
Ġdown ward
Ġprof ile
de ad
Ġprop he
Ġreg istered
Ġsway ed
Ġd ated
Ġsanct uary
Ġgenuine ly
Ġche m
Ġcon grat
Ġfree ze
Ġstill ed
Ġclo ses
Ġg oose
an es
Ġnap kin
Ġr ational
Ġc emet
ac ity
Ġcrack ing
Ġsal v
Ġattack s
ro be
ab el
Ġabo ard
Ġadm ire
Ġcast ing
Ġsl aves
Ġwind ing
Ġf are
Ġcemet ery
al f
Ġn onsense
Ġhis s
Ġstra pped
Ġpen ny
Ġcirc ling
any one
Ġmach ines
Ġstr ain
Ġelabor ate
Ġanc est
Ġtre mble
ap or
Ġcaress ed
Ġmist aken
c ause
Ġb iz
Ġvis ions
sh ield
Ġsun set
Ġmo cking
f illed
st ra
s qu
Ġd ess
n athan
Ġmill er
iv y
Ġun ion
Ġh ire
Ġpress es
Ġscal p
Ġj une
Ġtrack ing
un te
Ġpen cil
Ġmist y
if ically
Ġold est
Ġmer ch
if fe
hel p
Ġsh aken
f its
Ġstr ay
Ġsleep y
Ġrefriger ator
j ax
n ik
Ġcom ments
lyn n
Ġcommun ication
Ġirrit ation
Ġwh imp
f ly
Ġz o
Ġreluct ant
o st
Ġtrans form
lo ad
Ġdr unken
Ġsw am
Ġmetho d
Ġfe ast
Ġpar ano
ot a
Ġcoinc idence
Ġun aware
Ġpri ze
clear ly
Ġind ian
st an
Ġlog ic
a ver
Ġsh apes
Ġteen ager
Ġlaund ry
i able
Ġemer ald
re aching
Ġsh am
Ġdoub ts
Ġsav annah
Ġb umped
Ġobliv ious
Ġspell s
Ġfol k
c our
Ġhe ir
o ken
Ġtoo l
j ane
Ġpr int
im eter
Ġj unk
Ġmal es
Ġfant as
un ching
Ġstar ving
Ġgo in
Ġprep ar
con f
Ġfr ance
Ġb om
Ġwhim per
ber g
Ġc ri
us k
ag an
nes day
Ġmult iple
Ġsc ooped
Ġscen ar
Ġille gal
Ġsal es
Ġknee ling
Ġreturn s
Ġpark er
c ies
Ġun p
Ġblack ness
fl ies
Ġg reek
Ġel ise
us ually
Ġpract ical
umb les
Ġre acted
th inking
Ġstep hen
Ġfold s
Ġretrie ve
ds on
Ġob st
w ed
is hes
Ġrel ent
Ġbr un
Ġdress es
Ġmagnific ent
Ġhand led
Ġco pper
Ġmarsh all
Ġsac red
Ġun belie
fr ont
Ġwr ath
Ġspraw led
az ar
u ps
Ġcomb ined
ag ues
Ġemp lo
Ġmeet ings
other wise
Ġcitiz ens
Ġtal ks
Ġbu dd
Ġcler k
Ġabs ently
n ame
a unt
Ġpack ing
Ġbuzz ed
ul ting
Ġsec ured
Ġdri vers
pull ing
Ġte nded
Ġproceed ed
se ll
Ġun happy
Ġcar n
Ġg ust
Ġl ind
Ġden ied
Ġp el
Ġreser ved
as er
Ġfil thy
Ġsymp at
i anc
sur pr
Ġbo ats
Ġcr inged
Ġru ff
Ġtom my
Ġpregn ancy
ange l
Ġpur sed
ut y
Ġag gress
Ġc udd
Ġro pes
op en
Ġin fect
Ġextra ord
land s
Ġrec ip
norm ally
Ġne il
Ġ1 7
ount ered
Ġbuzz ing
Ġposition ed
Ġind ul
zz ie
Ġbe nding
Ġy er
Ġforget ting
Ġscoff ed
Ġround s
Ġd azed
Ġgut s
Ġinit i
ar ound
Ġdemand s
Ġlur ched
br is
Ġn icole
Ġobject s
h igh
ust omed
Ġwhist le
r ical
Ġhelp ful
iz a
Ġi zzy
Ġnav ig
Ġsl ung
Ġport ion
Ġb ac
Ġj asmine
Ġdut ies
Ġattack ing
Ġmot el
r il
Ġlex i
Ġvar iety
p her
ri gg
mit ted
Ġins urance
Ġgrad ually
Ġcan vas
Ġarrow s
Ġneut ral
Ġh anna
us ions
Ġaddition al
Ġconvin cing
Ġb ern
ill ip
Ġjon as
Ġrep air
Ġunlike ly
Ġfount ain
Ġmotion less
Ġchar ity
Ġfold ing
es y
Ġz ack
Ġdisg usted
Ġp ix
k al
Ġconcer ns
Ġident ify
Ġlect ure
ed die
Ġund ead
st retched
b ad
re et
acc ording
Ġenc ountered
Ġr umbled
Ġal tar
Ġall y
ann on
Ġscar f
Ġsumm oned
st art
Ġmon ica
Ġfocus ing
Ġsc he
Ġhope ful
Ġvol unte
s ued
Ġu she
Ġgen ius
Ġup side
qu et
Ġstr ings
Ġcow boy
ances ca
f lo
Ġsurv iv
Ġru by
Ġso bs
phe w
Ġrefer ring
p ier
Ġactiv ities
Ġso ck
Ġbas is
Ġfem ales
Ġtre y
Ġsignific ant
d in
Ġsen ator
Ġfree ly
Ġlo vers
Ġclass room
ke ll
Ġexpress ions
v est
Ġbiz arre
ser iously
Ġsol ve
Ġtip to
Ġsc rap
ink le
iff any
Ġg rie
Ġg h
Ġaccident ally
Ġstom ped
Ġgr unt
Ġed en
Ġres isted
Ġcol on
Ġwind s
Ġb ou
Ġlar gest
Ġbright er
Ġdef ensive
Ġpart icip
Ġproud ly
Ġglit tering
Ġs ly
all s
Ġd ign
Ġexam ine
Ġt ires
Ġpu dd
Ġvo id
Ġoxy gen
Ġcomp ar
Ġvig or
Ġsil ky
iv ity
Ġad ults
Ġr ats
Ġch ina
Ġfit ting
Ġsuper natural
Ġfur iously
Ġp iano
Ġbed side
Ġmax im
Ġli king
Ġph oenix
b rian
Ġgra ham
Ġsc ore
fo ll
Ġattor ney
ee z
Ġst ench
Ġbl asted
Ġcal med
Ġschol ar
Ġhe ck
Ġst ance
Ġunf amiliar
Ġflu id
Ġdeli very
Ġven ge
Ġsev enty
Ġremind s
Ġpun ct
is o
Ġre ject
Ġd ome
Ġacce pting
be y
Ġaven ue
Ġcher ry
Ġcrack s
Ġretrie ved
Ġex quis
Ġra ises
Ġru g
Ġinde x
Ġpun ish
Ġremo ving
Ġrepeated ly
Ġbetray al
he rent
al ia
Ġgra vity
Ġassist ance
Ġl inked
p ol
Ġrom ance
Ġrob ot
ee l
Ġlo cking
dom en
Ġbr ass
gre es
Ġbr ady
Ġstrong ly
l ou
Ġsh ack
Ġsystem s
Ġblind ing
ct s
Ġheaven s
Ġsh ine
Ġcan e
1 1
Ġcontr ast
Ġg aping
Ġtan ner
Ġf iction
Ġdep os
Ġscra ped
Ġpo d
Ġstor med
Ġstick y
Ġmid st
Ġrob in
Ġde le
Ġlau rence
Ġar thur
Ġwel com
Ġstay s
Ġm used
Ġshif ts
Ġtri be
Ġsc ree
Ġin ex
Ġgul ped
Ġfeather s
Ġshe r
Ġoff ers
g ently
Ġle ah
Ġpu ppy
cl ay
Ġit em
Ġbat tered
Ġled ge
Ġfl ashes
Ġch oke
Ġge org
Ġdifficul ty
Ġdisgust ing
top her
Ġde grees
try ing
Ġglor ious
Ġlower ing
Ġ ]
Ġd na
en zie
Ġ /
Ġrele asing
Ġplay ers
Ġcol umn
Ġdin er
Ġdial ed
Ġdec iding
Ġrelig ious
Ġsem i
h all
Ġelse where
Ġp umping
Ġstart ling
Ġasp ect
Ġfemin ine
Ġgall ery
Ġsal ad
Ġf umbled
some where
Ġpe nd
co ld
Ġdistur b
Ġeduc ation
Ġam id
ul ously
Ġe con
Ġposs ibilities
Ġident ical
b lo
cale b
Ġinf ected
ge orge
Ġconf essed
Ġske pt
Ġj umps
Ġcaut ious
ig an
Ġoff ices
Ġimm ense
sh aking
Ġco ven
Ġd ates
Ġpee led
Ġpre ston
Ġsa ge
Ġma e
Ġfasc inated
Ġl aced
Ġfingern ails
Ġfoll ows
Ġhig hest
Ġcollap se
Ġpainting s
Ġsun k
Ġed ged
Ġshut ting
Ġev a
am ble
Ġfl ipping
Ġdepe nd
Ġjo int
l iness
Ġrum ble
Ġax e
Ġto b
Ġb acon
le nd
Ġpos itions
Ġbe amed
Ġbl essed
Ġal ter
Ġth ursday
Ġg aped
ri elle
Ġsu m
Ġsu p
Ġabs urd
Ġdram atic
lo c
Ġmad ame
i ac
Ġmon k
Ġc ade
Ġguarant ee
Ġcreep ing
Ġsuspic iously
Ġt aut
ou ched
Ġf iona
Ġro ot
Ġoff ense
Ġisab ella
Ġto ll
um my
Ġhapp ier
Ġhus ky
Ġkit ten
b reat
Ġc yn
Ġnight stand
Ġmelo dy
est e
Ġresour ces
m aid
Ġwilling ly
Ġchew ing
Ġstir ring
Ġpu b
Ġpee k
Ġjo sie
Ġtruck s
Ġgigg ling
Ġdrown ed
Ġtal es
Ġlog ical
a e
Ġpat ients
Ġst acked
Ġout stretched
Ġarri ving
ex c
re nd
Ġe go
Ġv ote
Ġto nes
Ġor le
mo on
Ġup d
Ġobe y
Ġeas tern
Ġtra itor
Ġe erie
Ġsa b
Ġb ren
per fect
Ġdrown ing
Ġt ut
Ġre becca
fortun ate
' '
Ġmotorcy cle
Ġre ed
Ġr ank
Ġdomin ic
pr ot
Ġle ague
hope fully
Ġg oo
Ġkno b
Ġag ency
l ooks
Ġpain ed
Ġth ump
Ġsa un
ri k
Ġdri pped
other s
Ġne phew
Ġcelebr ate
ig ail
Ġblur red
Ġs ust
Ġc rest
Ġprom pted
Ġh ates
wal king
al a
es day
Ġscar ce
Ġhall s
b illy
Ġth resh
ak able
Ġp ac
Ġst umbling
ad el
Ġrequ ested
Ġout rage
Ġappl ied
Ġcond om
but ton
mag gie
Ġweak ly
Ġph ones
Ġsarc asm
Ġunc ont
Ġarou sal
Ġachie ve
Ġ1 4
Ġsed uct
Ġdoc ument
Ġteacher s
no ld
Ġstr ide
Ġtiss ue
Ġtri pped
in ent
Ġc ue
Ġfor d
d ia
Ġth orn
Ġst ain
ar ted
Ġmeant ime
Ġacknowled ged
Ġdoll ar
ey es
y ers
Ġvir us
Ġj ase
Ġmasc ul
Ġcous ins
Ġemploy ees
Ġhe ap
Ġtu esday
Ġhuff ed
Ġgest uring
Ġres ent
Ġw ag
Ġown ers
Ġsp aces
Ġst il
Ġelder ly
Ġo o
Ġdefe ated
Ġm cc
Ġgard ens
Ġmad die
are r
Ġsky la
v ia
Ġcount less
h anna
g ued
Ġadd s
o lyn
ut es
es c
Ġthreat s
Ġadd ressed
Ġthresh old
Ġqu ir
Ġess ence
Ġd ense
Ġbelie ves
Ġmill ions
Ġshop s
al t
Ġro aring
Ġchoo sing
s av
Ġst alk
Ġg ross
Ġjo kes
Ġl inc
Ġal ike
Ġdess ert
Ġl ame
Ġtrick s
Ġstud ies
Ġbast ards
Ġb um
Ġse qu
Ġv ital
con cer
ar ming
Ġas sho
Ġv ale
Ġdem e
Ġtim ing
Ġm ah
Ġo x
Ġbre ed
Ġsho cking
an ks
Ġtown s
Ġrelation ships
he nd
Ġpro ven
Ġassho le
Ġste ven
t rist
Ġver on
Ġdist ress
Ġted dy
Ġg ary
Ġappre hens
Ġbuck s
Ġf ans
co ll
Ġpe er
Ġty pes
os es
Ġmas ters
Ġg ay
Ġlim its
Ġbell e
Ġex ter
Ġstro kes
Ġmot ions
u ght
Ġblo ss
Ġreg ion
Ġst ink
Ġp am
Ġhaz el
Ġli a
Ġacade my
ith a
Ġfl av
Ġhar per
po or
Ġorle ans
Ġt ested
wor ks
Ġre cl
Ġsecret ly
ell y
Ġgrat itude
l ines
reg ard
Ġwas ting
the less
Ġme gan
Ġsl ips
Ġpass engers
Ġflin ch
Ġgriff in
Ġadm ired
Ġwe ighed
Ġtrust ing
Ġfre aked
Ġamaz ement
Ġhome work
Ġsim ult
Ġwelcom ed
Ġpat io
Ġh oo
vict oria
Ġre dd
le ar
Ġtattoo s
Ġh ilt
Ġdeb t
Ġo min
Ġcom prom
Ġu l
ra ging
Ġinnoc ence
Ġab d
Ġv ik
Ġtight en
Ġdo l
Ġnor a
o ch
Ġsc ale
Ġper ry
Ġdis comfort
Ġde bris
Ġwed nesday
Ġuncomfort ably
Ġe ag
ld er
Ġsucceed ed
Ġus es
ony m
bl ance
Ġcamp a
Ġk h
Ġt ide
Ġmet all
Ġd aring
Ġun fortunate
Ġaccom mod
Ġjo ked
Ġconso le
Ġres umed
Ġteen age
p arent
Ġillum inated
Ġdeterm ine
Ġm ich
Ġloo p
Ġgo lf
Ġexpl ains
Ġha v
Ġappear ing
n in
Ġna omi
Ġarrange ment
Ġal er
Ġsway ing
Ġves sel
c apt
Ġperf ume
Ġesc aping
Ġimpro ve
Ġstr aining
Ġperfect ion
be yond
Ġbee f
Ġr ic
thank fully
and rew
Ġorgan ization
Ġh ind
Ġpl ague
Ġfight er
Ġmob ile
u its
Ġso da
Ġsweet ie
Ġre li
Ġtheir s
Ġc ement
ot ch
Ġsun ny
b ru
Ġr aging
tom orrow
Ġc ul
Ġk or
it t
tr ue
Ġsk ip
Ġincl ude
turn ed
au gh
Ġvol unt
Ġl ance
Ġfl irt
wat ch
Ġb anged
Ġro bes
n et
Ġdes ired
el come
Ġsne aking
Ġsle ek
Ġco y
Ġdec lan
Ġmex ico
u ated
Ġhair s
au x
Ġpo king
zz led
Ġt ies
Ġall ie
Ġre ct
Ġsh ark
Ġmer ry
Ġrel atively
Ġash ley
Ġdisco very
as ks
Ġwind shield
Ġult imate
Ġas ce
Ġgrim ly
Ġhal ted
Ġmom my
mar cus
Ġcol our
Ġestab l
Ġimport ance
Ġphr ase
Ġcell ar
Ġnum erous
bo ards
Ġgr inding
Ġcar son
Ġninet een
gir l
Ġbelong s
Ġo ath
le aning
Ġint act
ke l
Ġmot iv
Ġell a
Ġdepe nds
Ġhu gh
Ġk rist
Ġspec ifically
Ġacc ustomed
Ġtom b
amb ling
Ġn ah
Ġdan ie
Ġcheer ful
Ġgo at
Ġlux ury
c ross
Ġkind ness
Ġcon j
s ided
Ġund o
Ġb ice
Ġdispl ayed
Ġglim ps
Ġpo se
Ġconcl uded
Ġrelax ing
s ad
Ġun ison
Ġk ent
Ġcase y
Ġg in
ra el
Ġsp ur
Ġcl ipped
Ġhe ctor
row ing
ke lly
Ġpear l
Ġjo ey
Ġn ation
Ġeng ines
Ġapolo get
Ġinh ab
Ġme als
Ġjol t
Ġout ward
Ġp and
h ail
Ġind icating
Ġ1 6
Ġl ush
Ġconf ession
or se
Ġ1 3
Ġabs ent
Ġeight y
Ġel im
m us
Ġnat alie
Ġanth ony
Ġpred ict
ch al
Ġstore s
Ġpo pping
Ġhun ted
r ise
Ġn ed
s un
Ġpurch ased
Ġstair well
Ġsim pl
n i
Ġpl ucked
Ġn aught
Ġpar aly
Ġcorrect ly
Ġfl ies
Ġwealth y
Ġscri pt
Ġcoff in
Ġover ly
Ġm mm
Ġgovern or
m c
Ġthrow s
Ġneg ative
Ġbar re
Ġgood s
Ġb id
ch loe
Ġru ins
Ġkell an
Ġnet work
Ġconsc ience
Ġal b
Ġce ased
Ġor b
Ġris es
sm iling
ethe less
Ġaut umn
Ġdiv ine
Ġcirc ular
Ġb ible
Ġle ver
inde ed
Ġun le
Ġres ort
Ġgrocer y
pp led
Ġmurm urs
Ġcompet ition
Ġol ive
Ġconf ess
Ġcl aud
Ġbur nt
Ġdis m
Ġspl ashed
Ġeld ers
ik es
ll a
Ġg em
Ġabsor bed
Ġbr im
Ġali ens
g ard
in ar
Ġcomm ission
Ġdesce nd
r ons
Ġvis ual
Ġetern al
Ġmo de
Ġhas nt
Ġb umps
Ġpa using
Ġsweet ly
Ġrecogn ition
Ġnin ety
Ġkidna pped
em p
dan ny
Ġfort ress
amb ers
Ġdeep ened
ac ie
Ġsur real
Ġesc orted
Ġtra um
p en
Ġpr ow
co at
Ġe lf
Ġdam mit
Ġcomput ers
im medi
Ġcur sing
Ġgas ps
Ġbeam s
Ġbe au
ale c
Ġplay ful
cher s
Ġjud ging
Ġbr ood
Ġregret ted
Ġbeck y
Ġsco oted
Ġfer oc
Ġfo ster
Ġinter fe
w ant
se ction
Ġpl um
w es
Ġhar bor
Ġd ive
Ġl ining
her s
Ġind ign
Ġmel ting
Ġb ared
Ġcrad led
de ath
Ġlif eless
Ġpattern s
Ġlet hal
Ġexp osing
Ġsant a
Ġthor ne
Ġdoc uments
Ġjer king
Ġsur gery
Ġact ive
Ġglo ve
Ġcoun sel
Ġapr il
Ġwar ily
Ġaccompl ish
Ġkind ly
Ġout line
Ġstrate gy
Ġexam ining
Ġw ield
Ġsn aps
Ġestab lish
n ear
Ġch art
Ġisab elle
Ġhand y
Ġsw ive
ro bert
Ġbul k
Ġg ag
Ġv ivid
Ġne ared
Ġarrange ments
Ġth ief
Ġag on
k ers
el ing
jon athan
Ġsens ing
Ġmetall ic
f old
Ġun set
Ġo m
Ġwar lord
k now
Ġt ad
Ġf etch
pr ints
Ġpo nder
keep ing
d un
Ġwra ps
Ġsu ited
Ġind ication
Ġplay s
Ġart if
Ġb ind
Ġex cus
Ġflo at
Ġm ush
ro b
Ġl issa
as ions
Ġinvestig ate
Ġexp and
us sy
Ġscrat ching
ov an
Ġhead quarters
Ġwo ken
Ġtuck er
Ġdeser ves
Ġlay ers
Ġinv ent
Ġshimm ering
Ġd uff
Ġdim itri
Ġd ale
Ġl air
Ġhonest y
Ġgle am
Ġal an
Ġcharac ters
n ah
oo per
Ġco ins
bo d
Ġre app
Ġl um
immedi ately
Ġto ys
Ġthrust ing
or ters
Ġphotograph s
Ġret ire
Ġnur ses
Ġja enelle
Ġgaz es
Ġx avier
Ġover heard
nec ess
Ġbarg ain
Ġforb idden
Ġfail ing
Ġtechn ically
aul ted
Ġclaim ing
Ġmar co
al o
Ġr ue
oo oo
Ġwa x
.. .
Ġnice ly
Ġpath s
Ġpart ly
will ing
Ġprod uce
Ġco ke
Ġg room
Ġjer ry
Ġ ounce
che ll
Ġloos ened
Ġinqu is
Ġy o
y ep
Ġplay fully
Ġcond itions
Ġhead lights
Ġd at
am anda
Ġban ks
Ġorigin ally
Ġflir ting
any a
Ġover night
Ġla unch
l ooked
Ġc ath
ay ne
Ġen ch
Ġyell s
Ġt ro
Ġass ess
Ġlang don
Ġcampa ign
d em
Ġbill ion
d ream
Ġpic nic
Ġt ant
Ġa ly
w yn
Ġp ardon
Ġfold er
w an
Ġpro ced
Ġut tered
Ġel i
Ġpul sing
cri pt
Ġencou raged
Ġsw amp
Ġsil hou
Ġer otic
Ġsl owing
hu ndred
wat ching
Ġst umble
Ġmess enger
Ġwe bs
sp oken
Ġin fer
Ġb ishop
Ġcush ion
Ġcertain ty
s um
het t
Ġsat in
Ġsent in
who ever
Ġphotog rap
or gie
r ot
v ol
Ġoppon ent
Ġthe e
Ġjaw s
Ġatt ic
luc y
Ġchat ting
Ġcount ered
Ġnat ive
Ġvisit or
me an
Ġsam uel
Ġbell s
Ġpar ad
luck y
dev on
Ġv oc
Ġa j
Ġdis may
Ġcon spir
Ġlo s
Ġcomp art
Ġle mon
Ġatl ant
s ounds
occ up
Ġeffect ive
Ġm aze
Ġb anging
Ġanx iously
Ġd ent
Ġpolit ics
Ġtermin al
im ag
Ġsub d
Ġle v
b uck
Ġbo om
er aire
Ġrh ys
c rap
Ġun mist
Ġun ner
Ġpost ure
Ġcool er
Ġca fe
Ġengage ment
Ġmo aning
Ġfid get
Ġbund le
col in
Ġcaf eter
Ġadmin istr
Ġth u
p ent
Ġco ord
Ġpo et
Ġve il
Ġappe al
Ġenc lo
Ġo ven
Ġsa uce
Ġwhimp ered
Ġf ucked
Ġd ab
Ġintri gued
Ġswip ed
Ġrum m
Ġur gency
kend ra
Ġmar king
fin n
Ġconfl ict
parent s
f ucking
Ġchuck les
he ld
Ġp umped
Ġrece iving
og raph
ol ine
Ġstra ps
Ġtex ted
Ġman ners
Ġpad ded
y on
Ġa de
Ġco ax
Ġsque aled
Ġbitter ly
Ġcough ing
Ġev ident
Ġann oun
Ġtr acing
Ġjul iet
Ġir ish
Ġaccompl ished
ay s
Ġpu pp
Ġr oth
Ġtow ers
Ġl ass
Ġcont ribut
Ġst amm
Ġsw elled
Ġab domen
Ġroom mate
Ġunder world
Ġneed les
Ġra ked
sus an
Ġre ins
Ġret orted
Ġprompt ly
Ġp out
Ġk ira
Ġdri ves
Ġch and
Ġanticip ated
hum an
Ġtradition al
Ġt ile
Ġin fin
Ġret ired
Ġtrans formed
j ordan
Ġheal er
Ġmascul ine
le ton
Ġcafeter ia
Ġmen acing
Ġmu ddy
Ġem b
Ġmut tering
ig ner
Ġpract iced
Ġhand c
Ġshif ters
Ġexcited ly
s ch
Ġunb ear
Ġcommun icate
Ġdisc ip
d ou
Ġmel anie
Ġfav our
Ġmar a
Ġbl amed
Ġmild ly
Ġdevelop ment
st eve
ha ven
Ġphilos oph
Ġbat tles
Ġdraw ers
Ġbrace let
ic it
op y
d im
g avin
Ġstr add
Ġresp ected
Ġgle amed
Ġmo ss
Ġsl ur
Ġdestro ying
Ġdisgu ise
Ġpe pper
Ġj ag
cl oth
Ġper formed
Ġsusp ended
Ġmajor ity
Ġca ves
Ġencou raging
Ġexec ut
Ġhu shed
trist an
b ab
Ġfight s
Ġpre m
Ġyawn ed
Ġrece iver
l on
Ġd aw
Ġbr ist
Ġwill ow
Ġimp rison
Ġsl apping
Ġbit ten
Ġinf ant
al ready
log ical
Ġb raid
da emon
Ġteam s
Ġc ooked
m ph
Ġflor ida
Ġscr ut
Ġth y
Ġch ad
Ġsc roll
w y
Ġre un
Ġat tended
s kin
Ġb ait
Ġv lad
Ġb ure
Ġble ed
Ġel ijah
Ġport ra
Ġso bbed
sh ad
Ġmut ter
in ter
Ġeng ulf
ound ing
co ver
swe et
Ġartif act
v amp
Ġsurve yed
en ough
ak ers
de an
Ġz ipper
Ġclaw ed
ing es
Ġbel garath
Ġchallen ged
ul s
Ġjul es
r im
Ġen h
Ġun button
Ġglo om
Ġver ge
soph ie
Ġsimult aneously
h im
r ated
ur ried
Ġarou sed
Ġang ie
Ġcontem pt
erc ial
u bl
ir c
d al
Ġli zzie
Ġref lex
d et
Ġmess ing
Ġjosh ua
Ġsp here
s aw
Ġclin ic
Ġthey ll
Ġreg ain
Ġd iet
Ġocc asions
Ġrelig ion
Ġcrow ds
Ġac id
Ġvenge ance
Ġste aming
im ated
Ġsw at
Ġres idence
Ġconce aled
Ġopen ly
Ġob t
cl ass
Ġpassion ate
br own
Ġre aper
Ġprof ound
Ġtick ets
Ġy ank
Ġwar ming
mor gan
Ġfl our
Ġobe yed
Ġli v
mind ed
Ġchem ical
Ġle vi
ace y
Ġinc om
Ġkn ots
Ġair craft
Ġchamp ion
ic ity
Ġall ison
Ġha ck
Ġend ure
Ġgrace ful
ir ation
hel en
Ġtast ing
Ġhide ous
gy pt
Ġcal vin
Ġadv ised
Ġun seen
Ġprom ising
Ġkill s
capt ain
Ġas hes
Ġall iance
Ġsn akes
Ġhouse hold
Ġador able
Ġt umbling
as he
Ġlong ed
v iolet
Ġsan ity
Ġhea ving
il st
Ġback up
r ina
Ġse ld
Ġmo ans
Ġext ent
Ġliqu or
Ġting ling
Ġtempt ation
Ġlim o
Ġlo dge
Ġanton io
Ġch ambers
Ġhor ns
f ashion
idd ed
Ġwor ship
c ade
ri al
Ġsnar l
Ġaccur ate
Ġemotion ally
Ġbell owed
Ġr ory
mo b
Ġembr aced
ac ular
Ġper imeter
Ġtherap y
t ee
in ations
Ġli lly
or ient
Ġpersp ective
Ġschedul ed
Ġet ched
Ġf ang
Ġso aking
Ġlo ft
Ġskirt s
Ġun necess
ev an
jess ica
len gth
Ġentertain ment
Ġl ords
ro ck
Ġcigaret tes
Ġexquis ite
Ġr aces
Ġpun ching
Ġd j
Ġg ren
Ġshield s
Ġdart ing
Ġcontain er
Ġn ash
Ġtower ing
xt on
Ġfact ory
Ġsandw ic
Ġyoung est
Ġlo d
Ġep iso
Ġsn uck
Ġam using
sm ith
qu in
Ġfrown s
Ġseat tle
Ġpick up
Ġbeth any
Ġide al
Ġap ollo
Ġcass idy
Ġgras ping
Ġch or
Ġtem pting
Ġlim b
it ution
Ġin ched
op ing
Ġwho s
Ġob ed
Ġmic ah
Ġray s
cl ary
Ġfat ig
Ġtour ists
Ġvis ibly
Ġcur ly
Ġconc ert
ser v
Ġextraord inary
r ace
Ġnecess arily
Ġweep ing
Ġlat ter
bur g
Ġs izz
Ġout s
Ġcapt ive
op ard
Ġstu art
z ach
ail ing
am on
Ġsitu ations
o x
ous ed
Ġpe ak
l as
ub en
Ġpriv ile
ick s
a ved
Ġsp ort
Ġfresh ly
Ġpo ker
Ġwhist led
Ġd uc
Ġrem n
Ġexcus es
g il
Ġmon st
Ġtroub les
Ġwhit ney
Ġbl essing
ned ra
Ġheav ier
Ġfu zzy
Ġopt im
Ġanch or
g ara
k ane
Ġshow ered
Ġor ph
Ġcult ure
Ġbrief case
Ġincre ase
Ġfr ig
Ġch u
Ġex otic
Ġimpul se
c alled
Ġwel coming
Ġsumm on
Ġsk etch
Ġal t
Ġgl int
Ġun st
r ust
Ġcost ume
Ġf ills
ren ched
l ang
Ġintern ational
an ity
ell ie
gu ess
Ġstal king
aph ne
Ġscient ists
Ġgrow ling
Ġsol ar
Ġcont est
Ġcompl aining
olog ical
Ġorgan ized
Ġloc ate
Ġgrim ace
Ġmarry ing
Ġlaw yers
Ġv ain
Ġv ia
act ly
belie ve
Ġj ade
Ġbr ooke
Ġp all
Ġre ference
Ġcont rolling
Ġtri ps
Ġrestr ain
Ġflex ed
Ġ &
Ġpap a
h ab
Ġauthor ities
Ġp ang
ol es
Ġbure au
ill ian
ore n
r h
all e
Ġfl uff
Ġm am
Ġcomm ercial
Ġell e
Ġe gypt
Ġj ut
Ġman or
Ġre x
Ġsend s
Ġdiamond s
Ġerr and
most ly
Ġviv ian
Ġuncont roll
Ġtra ged
Ġcand id
Ġnon chal
p res
Ġad vert
Ġcra ved
iffe rent
Ġsn ort
g le
Ġshrie k
Ġpr inted
Ġsn eered
Ġsat ell
Ġren ew
Ġjapan ese
Ġv amps
Ġgr ain
ned y
Ġaccount s
Ġch unk
Ġrock et
Ġward robe
l ene
Ġsympat hetic
Ġcaress ing
r ome
Ġw rigg
Ġst ella
Ġ2 00
Ġgr ows
Ġfl att
Ġfel ix
Ġlo omed
Ġinterest s
Ġcolor ful
Ġtr acked
Ġcr imes
Ġhar ness
Ġlou ng
Ġbon nie
Ġelectron ic
Ġsor ce
Ġpl ast
anc he
gl ancing
Ġmes mer
Ġs ipping
Ġper pet
b ound
Ġjew els
Ġrel ative
Ġcomp osure
Ġbut ler
bo b
Ġcry pt
Ġth om
Ġrever se
d ante
Ġch ir
Ġfasc inating
Ġven om
br ad
Ġestabl ished
Ġbox ers
wom an
y ton
Ġclen ching
Ġl uther
Ġe lo
Ġglist ening
u ished
Ġaltern ative
k iss
Ġmic helle
Ġtw ent
ker chief
ol ai
Ġwild er
Ġmis under
Ġj uly
ill ance
Ġconf ron
Ġmad ison
Ġspr inted
Ġgo bl
Ġact s
Ġdar ius
jen ny
br ush
n ut
m ust
Ġsign ature
Ġaud ible
char lotte
Ġblank ly
a ith
Ġsmell ing
Ġbeh alf
Ġcompar ison
Ġst agger
1 0
Ġreb u
Ġemploy ee
Ġsl ower
h ank
Ġout come
Ġadm iring
Ġfrequ ently
Ġflut ter
ir m
Ġhand kerchief
Ġsar cast
Ġpar lor
hon estly
Ġfr ied
sp encer
Ġem an
Ġg ee
Ġinc on
Ġconf using
Ġsh aw
Ġscre ec
Ġparad ise
h annah
Ġf iled
Ġdoub led
Ġp eep
Ġsuggest ing
Ġdepart ure
Ġband age
Ġo t
and re
Ġgle e
Ġang uish
ple te
gu er
Ġcru c
Ġc atherine
Ġtw itching
Ġpup ils
p ad
Ġint ric
Ġclaim s
Ġman if
Ġadop ted
Ġsarcast ically
st ream
to ber
Ġr ape
Ġpursu it
a us
se x
Ġvom it
Ġluc ivar
Ġflut tering
Ġstr ides
ook ie
Ġmar c
Ġm oo
Ġrevel ation
Ġdoor bell
Ġhesit ant
Ġeyel ashes
Ġcat tle
Ġsele cted
Ġs ect
Ġag ed
Ġpy ram
Ġflat ly
Ġmat es
Ġt id
Ġexasper ated
Ġmaint ained
ank y
Ġgigg les
v ik
Ġsome place
f ind
Ġran ks
Ġrot ten
ist a
Ġprev iously
do x
Ġfound ation
Ġjon ah
Ġfin est
char les
Ġc ate
Ġapp ly
Ġapolog ized
as ia
ack ing
ced es
Ġmal colm
Ġinst ance
ay den
ke e
w arm
Ġchat ter
Ġp anc
Ġwigg led
Ġd ur
Ġten nis
so ever
m un
Ġwitness es
Ġpotato es
ud ing
Ġb out
Ġn ape
Ġche ating
Ġtre mend
Ġgu id
r ather
Ġjam med
Ġdisp at
mean while
Ġd itch
ke vin
Ġcal ming
olog ist
Ġdep uty
Ġsa gged
ind y
Ġund e
Ġscient ist
certain ly
qu ite
gg age
Ġquiver ing
Ġprot ru
Ġmar garet
v ar
it ect
Ġh ating
Ġr ho
Ġsw ings
Ġdisc reet
Ġinqu ired
r ument
her on
str ong
fashion ed
uck er
sc ott
Ġcontact s
de rek
Ġre y
Ġgener ation
Ġv ines
she ll
Ġsurve illance
Ġhum med
Ġguard ians
Ġshudd ering
i at
m il
are s
Ġt ilt
Ġv it
Ġcold ly
Ġv ine
ex actly
al right
sh ut
Ġd ub
oth y
Ġsnugg led
Ġinterru pting
Ġsix th
Ġsuspic ions
rell a
Ġbeh ave
Ġinto x
sh ar
ear ing
Ġras ped
Ġble ak
Ġrepe ating
Ġrefer red
Ġd ict
Ġlin en
Ġpun ished
Ġbasket ball
Ġcustom er
Ġgl am
cont rol
Ġecst asy
Ġa ub
ay er
ith ing
che ck
Ġaston ishment
Ġdanc er
Ġburst ing
Ġb ass
Ġpop s
Ġ3 0
Ġacqu aint
ien ne
Ġconnect ions
j u
Ġsto red
Ġsky e
bo at
Ġinst rument
Ġdeme anor
Ġlu ggage
Ġribb on
f ol
Ġ ~
Ġlant ern
Ġab use
Ġs ut
Ġprophe cy
Ġspl ash
uff s
Ġautom atic
pret ty
b ooks
Ġgran ite
Ġt icked
Ġwho a
Ġremark able
g wen
Ġdim in
olute ly
Ġawak ened
Ġdec ade
ol ic
Ġbar king
Ġclar ity
Ġwe ars
Ġhow led
br id
Ġcall ie
thor ne
our ing
Ġbl ed
c iously
Ġbru ise
f air
r ion
Ġhesit antly
she r
Ġfrancis co
f ur
Ġang led
Ġapr on
Ġhow l
ain a
Ġcelebr ation
Ġmouth ful
Ġaim ing
Ġmagaz ines
Ġnest led
Ġp anted
Ġres igned
Ġappet ite
t ie
Ġn iece
st u
Ġle f
Ġuncertain ty
Ġr umbling
Ġcompart ment
en ne
Ġcar los
Ġameric ans
Ġt ren
Ġref uge
let cher
l ana
greg or
r and
Ġpat ting
Ġill ness
Ġunf air
Ġhelpless ly
Ġexh ib
Ġmicro phone
Ġel ves
Ġsaw yer
Ġbould er
Ġr ou
Ġswall owing
og ue
st ate
Ġfr action
Ġarch itect
just in
Ġspr ings
Ġspect acular
Ġd izz
for get
g one
Ġac heron
il ah
Ġbody guard
Ġg ret
Ġbo ards
ud ged
Ġlay la
m pt
ay a
Ġm outhed
Ġgro in
Ġro s
pro f
do ors
Ġgul p
Ġbe ars
mel issa
Ġresc ued
Ġover t
g iven
Ġleap ing
Ġstream ed
Ġlar ry
Ġcrit ical
s ame
Ġpl ac
Ġpres um
at ore
n ett
Ġgro ve
Ġant i
Ġscar red
Ġf idd
Ġripp led
Ġyour selves
Ġb usted
un cle
il ight
pat rick
ild a
we ight
dy lan
Ġwom ans
aid an
Ġcook ie
Ġaust in
Ġw ives
Ġman ic
Ġd ot
Ġreb ell
st ory
Ġconce al
Ġl ana
Ġsib lings
b ird
Ġpri ests
Ġesc al
Ġpurp oses
Ġspirit ual
Ġdisc arded
Ġmart y
Ġlur king
ig o
Ġchap el
Ġsub ur
Ġscenar io
Ġappreci ation
Ġexec ution
ath om
Ġgl ided
Ġtra ils
ne ys
Ġhand ling
Ġcompre hend
Ġstamm ered
Ġt iffany
do ll
Ġele ments
Ġze ke
Ġris en
Ġwhat soever
Ġthe at
Ġcommand s
je remy
Ġpir ate
Ġrese mbled
Ġpil es
Ġan onym
Ġph illip
Ġtang le
r ice
Ġprincip al
y o
Ġshadow y
occup ied
Ġcass andra
Ġwar s
Ġjohn son
Ġlinc ol
Ġag itated
ist ing
Ġwren ched
Ġthro bbed
Ġdesire s
Ġta vern
ru cted
te x
bb les
Ġbar b
Ġbeat s
Ġbo iling
Ġmon key
Ġun willing
Ġafter wards
Ġex tend
ky rian
Ġcust ody
Ġu mb
Ġind icate
Ġcontrol s
Ġaccept ance
l ots
Ġcris is
Ġyan king
Ġgreat ly
c ame
Ġun z
Ġband s
Ġsha ved
ipp ers
s n
ard o
ous es
Ġsw elling
Ġthreat en
str om
f ig
Ġd iver
Ġflatt ened
Ġsupp orted
Ġrot ting
Ġspeech less
Ġcre ation
Ġcan s
sp ar
Ġscra ping
f ish
Ġg us
ha el
z ar
Ġvac ant
Ġdal ton
ber ts
Ġtow els
Ġcheek bones
Ġting le
Ġv ow
Ġdip l
sat is
Ġty ped
u ation
i antly
Ġgl ued
Ġinvol unt
Ġd ane
Ġt ucking
Ġsens ations
Ġflo pped
Ġgr am
Ġgu ild
he ss
est ic
ower ing
Ġappro ve
up id
Ġstrang led
Ġs ienna
in als
Ġrespond ing
Ġsire n
Ġse p
Ġune as
er a
Ġdread ful
Ġsurpr ises
Ġpip er
Ġv ial
Ġh ush
Ġn adia
Ġcomp osed
Ġaff airs
Ġempt ied
Ġlip stick
Ġwr ithing
el ie
Ġaggress ive
Ġbar on
Ġgun ner
ik o
guer ite
Ġo dor
h ift
Ġ2 4
Ġshe ath
Ġexc ess
Ġk i
Ġreass ure
Ġr us
Ġlu is
Ġrul ed
er ia
Ġbl ushing
Ġcre aked
Ġcou ples
Ġcr amped
Ġbron ze
Ġp itched
Ġsk im
mir anda
b ul
Ġmain ly
Ġd iana
nat urally
f inger
Ġl ac
Ġchar ging
p ress
ac ross
ic ians
h our
Ġunmist akable
Ġbu gs
Ġluc ian
st al
Ġcourt esy
Ġpain ter
Ġfrank ly
t am
jes se
n am
Ġal armed
oub tedly
Ġisol ated
Ġm ound
Ġwid en
Ġvent ure
Ġpers ons
ky le
Ġnon etheless
Ġcompan ies
Ġbl ess
Ġball room
st yle
quick ly
Ġan a
Ġfit ted
ls on
Ġsl ipper
Ġincreasing ly
Ġexpl oring
bes ide
Ġque ens
c ant
it ter
sh ow
Ġchim ed
Ġsc and
wor thy
Ġb aff
Ġcon ner
Ġharm less
Ġca uses
Ġmoist ure
Ġmusc led
Ġg um
Ġhot ter
Ġperman ently
Ġplast ered
Ġparano id
ul ars
Ġmakes hift
Ġco ats
Ġhu dson
se a
Ġare na
ear th
Ġsick ness
Ġden ying
Ġcock y
pr oof
wom en
Ġun in
Ġhard est
Ġbad ge
in ous
Ġgen etic
har ry
Ġmead ow
Ġident ified
Ġcu pping
Ġrow an
w yl
Ġd azz
Ġelect rical
Ġcarol ina
Ġno v
v ations
Ġdie go
d ain
ord on
Ġle wis
Ġmut ed
jam as
Ġcommit ment
sh ane
Ġred uced
Ġstre aked
Ġe th
Ġmet ers
Ġwheel ed
d u
Ġhow ling
Ġsu nd
Ġlincol n
Ġrefle ct
d ressed
g or
Ġste ak
Ġmir rors
Ġm ig
Ġd ing
Ġobser vation
is p
str ange
Ġpen n
Ġgro ans
Ġpack s
rol and
Ġmut ual
Ġhay den
d ee
Ġjo gged
Ġbat tery
Ġclub s
Ġtun ic
ary n
clo sing
Ġsh ir
Ġcl ark
c les
ens ively
Ġp airs
Ġcra ving
Ġinc ap
te enth
Ġse rena
Ġtele path
Ġtraged y
Ġnot ing
row s
Ġharsh ly
ens ing
Ġisland s
ick er
ec k
up on
Ġback side
Ġp ouch
un ning
ink les
Ġsl ashed
Ġco al
Ġcas ino
Ġbe ans
Ġadd ict
Ġbuck led
Ġstrong est
Ġexperien ces
there fore
Ġcl icking
Ġconven ient
Ġfig uring
Ġstre ak
Ġannounce ment
Ġdi ary
Ġsmash words
sy l
Ġbl aze
**** ****
n ope
che l
Ġtong ues
d est
f y
Ġcomm otion
Ġcl ues
Ġcuff s
Ġher d
Ġwaist band
ast ically
Ġst inging
Ġspark led
Ġquick er
Ġshut tle
Ġcorps es
Ġl av
Ġmo le
run ning
ah l
Ġw ires
Ġrem orse
Ġp aces
Ġtre as
Ġsmall est
Ġtast es
Ġwhir l
Ġn uc
t ara
Ġdo in
le gged
ick en
Ġal bert
Ġvibr ated
Ġhurried ly
Ġwh ipping
Ġtransfer red
Ġh ull
Ġwh ilst
Ġtal on
Ġfl aming
Ġwrit er
Ġsmo ld
Ġsweat shirt
Ġris ked
Ġch illed
Ġimport antly
Ġbl azed
Ġpay ment
Ġhy per
Ġclut ch
Ġnik ki
Ġcap acity
Ġstu bble
c ount
Ġstiff ly
Ġsubject s
Ġoper ations
ro ger
Ġmust er
Ġshuff ling
Ġdep ressed
Ġlace y
Ġconcentr ating
Ġwal t
qu iet
Ġm i
Ġco ve
Ġgrand parents
Ġeag le
Ġmat ches
el a
vict or
Ġn ancy
Ġm ull
gr own
Ġse et
Ġcond em
c and
Ġp ussy
Ġbat hed
Ġk ee
c orn
in cl
Ġj ury
Ġbutter fly
Ġdim ly
Ġwould ve
tem ber
Ġv ice
gu ards
p any
Ġh an
b les
sm all
Ġund ers
child ren
Ġcorrid ors
al one
Ġa ur
az a
s leep
Ġbewild ered
Ġdo dge
Ġclim ax
Ġmort als
Ġdor ian
ig ning
Ġcr am
Ġclen ch
Ġpol icy
Ġtreat ing
Ġar ts
Ġrep orters
b ir
Ġsk ies
te ch
Ġtw ig
every body
Ġexter ior
Ġgest ures
Ġwe pt
Ġpe op
Ġbrand y
Ġaston ished
Ġcross es
Ġhyp not
Ġmeas ured
al ong
Ġch illy
Ġwor m
Ġcap e
Ġang les
d rop
wn y
Ġso fter
Ġdes igner
Ġhar ley
Ġam u
Ġtan ned
Ġs asha
at hing
ak i
h ill
Ġl amps
ly mp
Ġna ive
Ġgener ations
Ġrap hael
Ġhu gs
Ġscen es
Ġg il
Ġ2 5
dra ke
Ġsubst ance
he aring
un able
Ġdis cer
Ġrevol ution
Ġper ce
Ġfre ck
r ings
Ġele anor
Ġmur phy
Ġobs essed
Ġseduct ive
aid en
lit er
john ny
Ġomin ous
Ġsp a
ho lly
Ġtext s
i ors
Ġrecord ing
Ġneg le
an se
Ġse aring
Ġreg ained
Ġbright ened
Ġwater fall
c ro
Ġr ider
t ical
Ġbutter flies
Ġcount s
gr im
Ġpul sed
Ġoc tober
f ound
Ġover sized
Ġscarce ly
o dd
Ġschool s
er in
Ġmad eline
ri fied
Ġhood ed
Ġinterfe re
Ġlong est
Ġbab ys
p itched
Ġden ial
Ġpin ning
Ġdi ag
Ġward en
Ġr ash
jul ie
g led
Ġholly wood
w all
Ġthank fully
Ġleg it
Ġgn aw
Ġr iot
ort ion
Ġcont aining
um an
Ġsu e
Ġforg iveness
mo lly
tr uth
Ġsche me
Ġpo ised
Ġchris topher
s ighing
Ġvirgin ia
Ġhel m
w ide
Ġab ack
Ġble nd
iqu es
Ġginger ly
Ġsuff oc
Ġsquir med
chie vous
ign oring
Ġun natural
Ġcru de
Ġrecord ed
Ġsuit able
mat thew
ed ge
Ġfl icking
Ġdawn ed
rop ri
Ġsurviv ors
Ġgreed y
Ġv owed
kat ie
Ġtem eraire
Ġand erson
Ġacc using
Ġsupposed ly
he at
Ġo clock
____ ____
Ġguard ing
Ġcommand ing
l isa
ps on
Ġtender ly
jac ob
Ġborrow ed
Ġveget ables
no x
Ġsho ots
d ale
Ġb ax
Ġslo ane
Ġunbear able
Ġspeak ers
Ġsp ared
Ġvis its
Ġthrust s
head s
Ġbo il
1 2
Ġmechan ical
Ġcru ise
bro ken
dam mit
Ġmis chievous
Ġk ara
Ġpart ing
Ġple a
th us
Ġad ri
Ġdag gers
d ear
Ġchor us
Ġcol um
Ġdis dain
Ġrecom mend
Ġsh attering
Ġman aging
Ġsandwic hes
Ġspo iled
Ġrel atives
Ġsk illed
uc ted
Ġhall uc
Ġstephan ie
Ġprior ity
Ġl ids
Ġfr ancesca
Ġaud rey
Ġsent iment
Ġth umping
s ize
Ġcou p
g ies
Ġno ve
gr ant
Ġcy cle
Ġrese ar
hun ters
Ġscul pt
Ġdeb ate
st upid
Ġrad ar
Ġmar s
Ġso lo
Ġkick s
Ġsymbol s
f le
ps y
Ġdangerous ly
Ġend ured
Ġgro aning
Ġl ure
Ġindepend ent
Ġdis orient
Ġcoll aps
Ġtr aces
Ġind ia
Ġco dy
Ġtarget s
Ġf its
Ġco co
ra ven
ro e
br ing
Ġsh ap
Ġle is
Ġuniform s
Ġtw ilight
Ġdet er
ric s
Ġsight s
Ġbal anced
gre y
ab ove
ph ones
Ġhear th
Ġgrow th
ar n
Ġlit tered
Ġh orm
Ġnause a
Ġd usk
Ġmurd ers
Ġth umped
pan ic
b led
m i
Ġel iza
b est
Ġwarm ly
en er
Ġreck less
Ġdiss ip
o ck
Ġg or
Ġexp anse
Ġblind ly
Ġconv iction
Ġdeep est
Ġad en
Ġtem p
Ġscreec hed
old ing
Ġsl ut
r ation
Ġth ie
ro ad
d ella
r idge
Ġjo el
Ġbedroom s
Ġa y
in ch
Ġnaught y
gl as
Ġjol ted
Ġwond ers
Ġscient ific
Ġo lymp
Ġar k
Ġplan es
Ġdav is
Ġve in
Ġhear s
Ġmad dy
dun can
Ġd aim
Ġpeop les
Ġdis conn
Ġcheck s
Ġell iot
ic ting
Ġse ver
let te
Ġruth less
de al
Ġfix ing
Ġqu in
Ġsl acks
Ġwry ly
Ġluc an
c as
Ġsweet ness
Ġy ield
qu es
Ġst amped
Ġpost ed
d ave
Ġp iv
j os
go ld
Ġmoment um
b ri
Ġat tending
Ġbl uff
Ġisab el
Ġant ique
le on
Ġtempor arily
Ġgal ax
Ġinsp ector
Ġclass ic
Ġsarc astic
Ġev idently
Ġrear view
Ġdoor kno
Ġdiv ided
Ġlas er
Ġt its
ers ed
Ġfore arms
Ġprov iding
f el
Ġw ince
s i
Ġthe o
Ġscre ens
ad rian
Ġsho vel
Ġgr ind
Ġbeaut ifully
tre vor
hold en
b ene
Ġcra ig
x im
w ife
Ġal tered
Ġdraw led
sh ort
Ġhur led
Ġlo oming
Ġair pl
Ġteen agers
Ġawa iting
Ġleis ure
Ġhis sing
Ġdisappear ance
col t
im er
Ġcont acted
Ġsand als
Ġfed eral
Ġpoint less
Ġgr it
Ġnarrow ing
Ġappe aling
Ġprop osal
Ġg aw
b us
Ġund oubtedly
Ġur ging
al an
Ġhang s
Ġsc ales
Ġcan non
Ġsun rise
Ġange les
Ġqu ant
Ġcreat ive
Ġun spoken
rac y
Ġn ix
Ġch an
Ġleg ion
le aving
Ġduc hess
Ġmor al
Ġshit ty
Ġse as
Ġtr im
Ġkill ers
Ġdeaf ening
id dy
Ġbrit t
Ġreco very
Ġdod ged
Ġexagger ated
ud es
Ġl isted
Ġsupp orting
Ġmack enzie
Ġres ur
Ġpl ump
she l
Ġgot h
Ġcare less
Ġatt ent
Ġpar all
Ġdep arted
Ġscru bbed
it ively
Ġsp i
Ġpudd le
Ġsh ards
g ression
Ġcar ries
d aughter
l ied
Ġtre acher
whe never
Ġratt ling
ul es
Ġsatisf y
Ġup wards
Ġcan opy
Ġbubb a
Ġcitiz en
Ġst atic
Ġco ated
Ġpond ered
b are
Ġc able
Ġempt iness
Ġsam ple
Ġj ett
e at
mar ie
Ġdepe nding
Ġult imately
Ġless er
Ġre id
Ġtal ents
Ġpred ator
c ases
Ġfasc ination
ir y
h ang
p oss
Ġunexpected ly
Ġstif led
ah n
Ġmon it
Ġpat ches
Ġplo pped
Ġsque aked
lang don
Ġgrow ls
Ġsoft ness
Ġclust er
st ood
el ena
Ġmar ching
Ġimm une
Ġm are
Ġafr ica
Ġdim ension
Ġfal tered
m ered
Ġt ents
Ġdou g
se ls
did nt
Ġaccom pany
u ously
Ġconsider able
Ġfer al
Ġglad ly
Ġsuff icient
Ġg aining
Ġcup board
t essa
st age
om p
Ġstri kes
m ans
Ġun com
Ġpro st
al on
ch y
Ġown s
Ġdign ity
b as
pain ter
Ġpaw s
Ġb ert
Ġwait s
Ġche mist
ri et
Ġsire ns
Ġb inding
spar hawk
Ġun h
Ġprim ary
b ling
i ots
Ġw ist
Ġpur sue
Ġ. .
Ġshr ink
so ft
Ġre ly
Ġiv ory
Ġprod uction
Ġfren zy
gab e
Ġtr ance
Ġbelong ings
gra bbing
Ġl acked
y x
Ġli la
Ġele ph
Ġbe aming
Ġkeep er
Ġr ivers
Ġinsp ect
Ġst ale
Ġhar ris
Ġcheer fully
u pt
Ġcra z
Ġed ition
Ġre jected
Ġsa iled
Ġstand ards
Ġcor a
Ġremn ants
Ġmed ium
Ġden nis
or ous
Ġpro b
Ġchallen ging
Ġt we
Ġbubb les
Ġres ign
Ġall ies
Ġv as
Ġasse mbled
Ġrich ards
Ġdev ices
Ġc ert
Ġm au
lo st
br idge
Ġresol ved
Ġbat hing
Ġrif les
Ġsom ber
Ġtent atively
dro pping
Ġbo bbed
be aut
Ġbuck le
Ġcad en
Ġblind ed
Ġrever ber
Ġcontin ent
Ġbur ying
Ġbru shes
r ill
Ġsa iling
Ġlab el
ian na
Ġhost ile
Ġh ust
m ack
Ġexp ed
Ġsatell ite
Ġcam ps
Ġb ounce
ren ia
Ġbar ry
Ġadmir al
Ġst ations
Ġche ered
Ġvo d
Ġpa jamas
Ġze us
l ic
Ġcor rupt
Ġl ash
Ġst ables
ir k
Ġsick ening
Ġchurn ing
Ġev apor
Ġsm eared
Ġre apers
Ġradi ated
Ġwhe e
Ġperson nel
ste ady
Ġins ight
Ġhon ored
Ġrum or
mo ve
Ġsty x
Ġh ans
t ale
Ġearn est
Ġt roy
Ġcan yon
ry ker
Ġg urg
Ġha unting
Ġcount ries
Ġsh ag
Ġno elle
Ġvolunt eered
Ġwell ed
Ġsk i
ust ered
Ġappl ause
Ġbitter ness
b ond
Ġj em
Ġlat ch
ud ging
Ġsm ar
Ġwid ow
Ġro ast
p erson
Ġvent ured
he ather
Ġtr amp
Ġdist ing
Ġent r
Ġw oo
Ġtal ented
Ġcolle agues
Ġunnecess ary
Ġplan ets
Ġdoorkno b
Ġg emma
Ġpro sp
o bs
Ġtr otted
gg ie
Ġtil ting
bur st
Ġsep tember
t all
Ġin sec
Ġas her
ab ella
Ġwh ined
Ġtremend ous
ane ous
fun ny
g ary
Ġcoll ecting
Ġpres ents
Ġit aly
Ġmar ine
Ġhall ow
Ġstat ues
Ġflood ing
st ained
app ropri
Ġphil ip
it z
Ġpe an
Ġsuccess fully
m aker
jam in
op ed
Ġ2 1
Ġpron ounced
Ġnan ny
Ġath let
de finitely
Ġfrank lin
d ers
Ġron an
Ġre bel
Ġregular ly
d i
Ġushe red
Ġr ice
Ġling er
el ope
Ġmus ical
lau gh
Ġmit chell
c arm
Ġell en
Ġadjust ing
Ġs ane
Ġcons ult
Ġadmir ation
Ġinf uri
Ġfat al
Ġdisag ree
Ġthey ve
Ġm ab
ke ys
Ġres on
Ġcomfort ably
bed ded
Ġspir al
Ġpossess ive
ch uck
Ġfac ial
Ġkal adin
Ġpar ade
Ġadop t
Ġsk immed
Ġimp ass
Ġshad owed
Ġvod ka
Ġvibr ating
Ġwil son
Ġancest ors
Ġbr ooks
Ġepiso de
Ġmar vel
Ġpot ent
Ġcur ses
Ġcig ar
Ġtre k
Ġtur key
dom in
Ġa ustr
jen ks
ut ter
Ġunf olded
Ġl inda
Ġthirst y
b ber
k aren
ink y
Ġper ple
Ġinv asion
Ġpee king
Ġde ed
Ġw ad
iz er
Ġmod est
n us
Ġworth less
Ġsoot he
n ell
Ġwal ter
Ġbik ini
th ia
Ġdra ft
Ġfear ful
ass y
Ġshr ill
Ġinter ven
Ġthe r
irt s
Ġnick name
ry ing
Ġwalk way
Ġhen ri
Ġdiffe rences
Ġwid ening
t ri
Ġreass ured
Ġkn otted
Ġser ial
Ġru bs
Ġre jo
Ġr aining
wor king
Ġben ny
Ġfall on
Ġmeet s
Ġev ol
Ġeffect ively
hear ted
Ġm ak
Ġacqu ired
Ġimper ial
Ġcomp elled
Ġconn ecting
Ġwarm er
Ġwork er
jose ph
Ġdist racting
Ġview s
e enth
f ew
Ġsign aled
Ġdun geon
Ġplain ly
c ars
s it
Ġph ant
Ġwy att
sh op
Ġren ted
Ġsa pp
Ġvol can
op ening
Ġentertain ing
inc aid
Ġaccept able
Ġto ns
Ġwho d
Ġandre a
Ġfair ies
Ġris ks
Ġemer ge
Ġcond o
man n
Ġbroad cast
Ġscrew ing
Ġsatisf ying
Ġn ave
Ġth ri
Ġneare r
wr iting
Ġins anity
Ġprotect or
Ġgeorg ia
Ġun even
Ġel ite
Ġbur sts
Ġsing er
Ġst ur
Ġassass ins
Ġapolog ies
u x
Ġslipper y
Ġtor ches
Ġy og
st ri
Ġmom ma
Ġappro ved
Ġrub ble
Ġwar rant
br ide
c u
Ġrat tle
Ġtrick le
Ġdaw son
Ġch ained
p ow
ant ial
Ġche f
Ġkey board
2 0
Ġir ony
Ġfar mer
rid an
Ġconfront ation
am ic
Ġsp lend
Ġobser ve
Ġglit tered
om ic
ow en
Ġped est
Ġr in
Ġsee ped
Ġste alth
a very
Ġrul er
Ġgradu ated
Ġf isted
Ġch ast
Ġdiv ision
Ġbul ging
z oe
qu est
Ġtrick led
g ro
Ġsoph ist
Ġl ashed
Ġmut e
Ġsl aughter
Ġgu iding
Ġthanks giving
Ġrese m
Ġche ated
ey e
Ġgloss y
Ġfr ail
Ġmer cedes
sc reen
Ġout ta
Ġdist ribut
urn ik
about s
Ġintimid ating
Ġbru ce
Ġk o
jack son
ty ler
Ġbu dge
Ġqu ivered
Ġhurry ing
Ġst ressed
Ġv ince
Ġread er
mon ica
Ġsp itting
Ġcr on
Ġtre ad
hand s
c ond
d ep
Ġover looking
Ġspar ked
Ġdipl om
Ġdon ovan
Ġpol ish
Ġpyram id
Ġdisapp ears
m ons
Ġdis ple
s ab
Ġdev oted
ci ating
Ġsurv iving
Ġexpect ations
Ġimpat ience
Ġc unning
Ġlau rel
Ġreg ina
Ġbra kes
Ġtransform ation
Ġpol gara
w ee
Ġbe ver
Ġsl icing
qu inn
rum ents
Ġshe pher
Ġblack ened
ix ed
Ġgar go
Ġcom r
Ġinterrog ation
Ġnuc lear
g ideon
mor ning
Ġart ific
Ġreception ist
Ġv ault
Ġar tem
to ld
Ġd otted
Ġweak ened
Ġfleet ing
c ard
Ġn un
is elle
Ġfl own
Ġrefle cting
Ġacc ord
Ġgun fire
Ġfast ened
Ġpersu ade
Ġbo iled
Ġi van
Ġen vy
Ġsnat ch
Ġmar ina
Ġb ail
Ġsw ig
Ġdef ined
Ġwe ed
Ġinter jected
Ġcommit tee
ru ly
Ġpointed ly
Ġex ists
Ġar ching
Ġrent al
in to
Ġd re
Ġway ne
Ġcolum ns
ang led
Ġl ull
Ġdes cent
Ġcol ony
und ered
t ight
Ġdep ression
at i
f ia
Ġl an
Ġman u
Ġinst ruments
Ġdeliber ate
Ġt art
Ġtick led
Ġess ential
Ġcl ing
Ġpract icing
Ġcush ions
Ġz ipped
Ġjan et
Ġn am
Ġr aped
Ġen force
le g
Ġco sts
oe be
Ġresem blance
Ġter ry
Ġch ron
Ġpro ving
Ġexplo ding
ic ism
Ġdraw s
Ġcheer le
Ġsc urried
Ġhumili ation
Ġha iley
Ġconsider ation
Ġdo se
Ġmorning s
g i
g os
Ġsh annon
Ġbe ers
Ġwe eds
Ġage nda
Ġconfirm ation
Ġdec ides
Ġunde rest
Ġred head
Ġgran ny
Ġbrun ette
Ġfantas ies
Ġstab bing
r aine
Ġf letcher
Ġle ash
av an
Ġexperien cing
ot y
Ġexp ose
Ġres ident
Ġsh im
Ġdef enses
Ġbudd ies
Ġgl azed
Ġexasper ation
Ġsapp h
le en
f ell
Ġindividual s
Ġhigh ness
Ġsentin el
Ġhusband s
Ġha zy
Ġrestaur ants
Ġartem is
Ġbe ads
Ġboard ing
Ġexpect antly
Ġfool s
Ġadm ission
m ort
Ġ1 00
Ġm aps
Ġer ror
Ġshimm ered
at he
g own
de f
Ġintim acy
Ġportra it
g row
n as
Ġsu z
Ġeas ing
Ġ/ /
Ġclaud ia
Ġp ins
Ġawa ited
k an
Ġpro sec
Ġev ans
Ġpend ant
Ġhome less
Ġfer gus
Ġfulf ill
Ġsil very
spe aking
Ġunbelie vable
ve ling
Ġbac hel
Ġproced ure
h att
ab e
Ġinsp ection
Ġse vered
Ġmarsh al
Ġtoler ate
Ġbice ps
Ġpra ise
Ġlen a
luc ien
t ur
off ic
wa iting
ne il
Ġcomp are
Ġcar rie
Ġsin ister
jen nifer
Ġpir ates
Ġburn ett
Ġl est
Ġrust ling
Ġcoo p
Ġst em
Ġapp rent
Ġer ase
Ġscra pe
a els
Ġcr umbling
Ġintru der
to s
Ġpl un
Ġsniff ing
Ġattend ant
Ġsa etan
re spect
Ġstern ly
Ġsad d
Ġpuff ed
ol in
Ġtom ato
Ġbattle field
Ġto l
Ġcr ick
Ġjan uary
ri ers
Ġsens ible
Ġm ick
Ġtour ist
swe at
u gged
ne g
b ull
Ġsa uc
Ġgradu ation
Ġpo ll
um sy
Ġnipp les
Ġveron ica
sc rew
Ġvibr ant
5 0
ment ed
Ġb ount
Ġin ser
Ġconfron ted
ip e
Ġrain bow
Ġfer ry
Ġseld om
Ġguns ling
Ġhum id
Ġt et
Ġded icated
augh n
Ġcontr ad
Ġsolemn ly
Ġinst itute
Ġaccus ation
Ġrep ubl
Ġtable t
t ic
Ġtw ists
Ġpat ron
Ġpet ite
st ore
Ġsmo ked
Ġvac u
b ourne
w ra
Ġd yn
it ate
Ġfight ers
Ġpal ed
su it
Ġreg an
l ifting
Ġ %
ic orn
they d
Ġsup reme
Ġdark ening
Ġdrum s
Ġv iper
Ġco zy
Ġch alk
Ġlo ading
ang ular
Ġle nd
ct ic
ens on
lex i
Ġdram atically
Ġsoot hed
Ġis sued
Ġtr unks
Ġinter v
Ġbol ts
Ġpolice man
st ru
ce eding
Ġasse mb
Ġspeed ing
Ġdetail ed
Ġreck on
ste pping
Ġm ace
Ġche ss
Ġunderstand s
Ġde mo
ah a
Ġ2 2
Ġpubl ished
sp ring
Ġab igail
Ġfl ap
c re
Ġl ave
Ġcrack led
Ġpack et
Ġfare well
Ġmo l
Ġsull en
Ġwe aving
Ġbrick s
Ġelement al
Ġloose ly
Ġvan essa
ed ward
Ġcountry side
Ġp ew
Ġs ins
Ġchemist ry
m und
ett a
o ft
Ġrepres ented
ord er
Ġsu lt
inst antly
Ġmex ican
ess ions
Ġex tending
Ġgre asy
Ġh inges
Ġdo yle
Ġmay a
Ġcat hed
Ġbeck oned
in um
Ġmanu fact
v ard
Ġdo omed
Ġcock tail
d ist
Ġg erm
Ġstraight en
ir o
Ġste re
Ġjer sey
Ġmus k
Ġst acks
Ġem erson
ic iently
ell i
Ġph ase
Ġdece mber
Ġby e
Ġen vision
Ġdad s
Ġpin ch
p ushing
Ġtit an
Ġgrace fully
Ġcold er
Ġac ute
Ġwra ith
Ġam os
u gh
Ġf uss
Ġdru gged
Ġenvelo ped
Ġcel ia
Ġhamm ering
Ġg ree
Ġmut ters
Ġarg uments
Ġst amp
Ġcar mine
Ġdr ill
Ġsque al
Ġcopy right
en sed
Ġcr otch
Ġtri g
Ġe aves
Ġun lock
Ġamu let
Ġw ig
Ġpleas antly
y an
Ġland on
Ġglo be
ll ie
Ġor ch
Ġbl at
exc use
er ies
Ġout right
ath on
Ġrest room
Ġden ny
Ġne on
Ġbat ter
Ġar oma
Ġbec ca
min ute
h ome
Ġk et
g her
en g
gg s
Ġflee ing
Ġprot ocol
Ġlex ie
ait lyn
Ġretreat ing
Ġgreg ory
where s
Ġsmo ky
Ġintense ly
Ġd ough
Ġhast e
sp ec
Ġn az
Ġche at
Ġcongrat ulations
do g
Ġdang led
Ġsn ickered
Ġnot hin
Ġread s
bre aking
Ġkno x
Ġmanage ment
f ood
jess ie
Ġwe igh
alex ander
Ġa ce
Ġign ition
Ġnur sing
Ġforg iven
Ġattack er
Ġscramb ling
Ġscot ch
Ġe ug
Ġscot land
Ġinfect ion
it ating
Ġforce fully
Ġtil es
clo se
Ġv ag
ce lyn
Ġwh ine
Ġd renched
Ġr iv
en cies
Ġcl umsy
Ġhyster ical
Ġmour n
Ġsu l
Ġk ath
Ġbrisk ly
don ald
Ġnove mber
Ġk am
Ġrid ers
Ġcabin ets
Ġfrank ie
Ġinse cts
Ġmom s
Ġcoll ins
res a
Ġbar r
Ġfr ies
Ġlone liness
Ġeven ly
w elcome
Ġt icking
Ġhol ster
Ġbul b
Ġgr ill
Ġke ith
Ġfab ulous
jim my
Ġro ss
Ġtender ness
Ġhigh light
gar rett
u ate
Ġken nedy
Ġun its
Ġpr ints
Ġsaun tered
li est
Ġpresum ably
Ġhe ed
ru p
ut tering
ist ics
Ġpro xim
Ġcur ving
f ull
Ġgra zed
Ġorder ing
Ġsucc umb
Ġpray ers
Ġs i
Ġhoney moon
Ġmaneu ver
Ġfortun ate
Ġn as
Ġtab itha
Ġarrog ance
Ġsto cking
Ġassoci ated
Ġda is
Ġvirt ually
g the
m itch
Ġor nate
Ġunt ouched
Ġun ra
Ġsupp ressed
b ry
Ġto x
Ġsqu inting
Ġhel ena
Ġfly nn
t iny
Ġp hen
Ġcourt ney
log ne
ten ance
Ġmac con
Ġkend all
Ġsh in
Ġbl and
Ġgl en
Ġfollow ers
wo nder
Ġpen is
Ġsmar ter
ra ising
Ġclou ded
Ġsque ak
Ġsevent h
Ġcrack ling
Ġgl iding
Ġgi ants
Ġscrat ches
Ġrelent less
Ġwh oo
Ġdo om
Ġpool s
ri x
Ġr ico
Ġpet ty
Ġsharp ened
Ġger ald
Ġnewsp apers
Ġtent ative
Ġune ase
Ġbr ook
ur o
Ġf athom
Ġsw er
Ġreve rend
Ġcorpor ate
ra h
Ġwink ler
Ġinh ale
n ament
Ġb ourne
Ġmu nd
Ġexp ressed
Ġhar ass
Ġblack mail
Ġeff icient
Ġpo ster
Ġwheel chair
Ġex ting
Ġband ages
Ġin appropri
Ġadmit ting
z i
ant er
ick y
Ġer ik
Ġatt ach
la ura
Ġb isc
Ġdefe nding
Ġd iving
Ġsk idded
Ġcontr ary
Ġsal on
m em
Ġfew er
Ġprevent ed
Ġcard board
Ġdar cy
Ġmonst rous
s cent
k ira
not iced
sk irts
Ġn om
cour t
Ġpur red
Ġpo ke
Ġobs ession
fin ished
Ġ19 8
f elt
Ġb ully
doll ar
Ġhit ched
Ġur gently
au c
Ġinnoc ently
Ġdoor step
iz able
Ġreal ise
Ġalex andra
l ust
Ġsal ute
Ġcivil ization
Ġre ese
Ġcy l
Ġpsy cho
Ġg oof
Ġpat ri
Ġsl ing
Ġoper ating
all ing
i ate
Ġfeat ure
ir in
Ġintell ect
Ġgig antic
Ġi i
Ġnu zzled
Ġcl ad
Ġdan a
te xt
Ġcr unch
Ġcliff s
Ġpat rons
ry der
Ġun icorn
Ġjer ks
Ġcl apping
Ġra id
Ġchild ish
Ġre uben
Ġcar path
ic he
Ġres id
satis fied
Ġcoll ective
Ġm un
Ġg an
Ġnight gown
Ġlaz ily
Ġf ooled
Ġsk it
Ġradi ating
Ġinter pret
Ġpip es
ich o
Ġrespond s
Ġintric ate
ul us
a is
Ġsha wn
Ġpoison ed
Ġo d
Ġch ant
Ġstr iding
Ġpet als
Ġtran qu
Ġdelic ately
Ġcar ly
f are
Ġfr act
Ġlar a
cer ity
Ġproxim ity
Ġres idents
wor se
Ġspi ked
s ight
in is
Ġgunsling er
ge l
Ġdr aining
Ġweak er
way ne
Ġsc ents
Ġoblig ed
Ġcas c
Ġcock pit
Ġgradu ate
Ġ 0
Ġwear ily
Ġimposs ibly
Ġencourage ment
Ġmel an
Ġpar as
Ġsmold ering
Ġsn ack
Ġter rain
Ġclaw ing
Ġinher ited
ask a
Ġproject s
as ms
Ġle veled
Ġcontempl ated
Ġmerc en
sh ire
su pp
Ġabsor b
b ella
Ġstill ness
Ġdown ed
Ġmat ing
Ġwill ed
ric ted
Ġmed ication
Ġlyn n
Ġed itor
Ġbom bs
t ly
Ġming led
Ġwebs ite
Ġmaterial s
Ġhamm ered
Ġcrou ch
est yle
Ġprec aut
Ġtwent ies
in able
Ġtra gic
Ġpre occupied
Ġjack ie
Ġha bits
Ġpee ling
Ġprepar ation
Ġdar lin
Ġco iled
Ġwin cing
isa ac
Ġexec uted
Ġsem ester
Ġfluff y
Ġim mob
Ġsus annah
en ance
Ġsh ivers
Ġstur dy
w ren
Ġr ival
Ġghost ly
Ġtub es
l ah
Ġpun ches
Ġbr am
Ġcr ook
og en
Ġst im
Ġcale nd
il ia
Ġexp ense
Ġmu zzle
Ġsp iders
Ġthick er
Ġmat ure
Ġpret t
Ġdig ital
p aper
ens ions
Ġswir l
dad dy
r ained
Ġa ld
Ġlo ser
Ġval id
Ġbreath lessly
Ġinte gr
Ġdist aste
Ġting led
Ġmik hail
Ġhow ard
Ġheight s
Ġcl own
Ġdepe nded
Ġrest s
Ġsign als
Ġbound aries
Ġarm ies
ph renia
mm a
Ġout skirts
Ġcor r
Ġno isy
abs olutely
Ġa qu
Ġro ver
Ġwide ly
Ġindust ry
Ġfe y
Ġsigh ing
fr ame
Ġsut ton
g ins
Ġbar ren
Ġsol ved
Ġpoet ry
Ġstre aks
cons idering
Ġmor ris
Ġv or
Ġcop ies
Ġrestr ained
Ġparall el
Ġm ons
Ġnorm an
Ġris ky
Ġfatig ue
Ġper se
Ġloc als
mar ia
Ġcollar bone
Ġfest ival
Ġcal f
Ġapart ments
Ġfaith ful
Ġmat he
Ġcon ceded
Ġsne er
sch ool
some body
Ġd ots
Ġinhab it
Ġengulf ed
Ġhorri fic
Ġtr ot
Ġem bro
Ġgray son
Ġconst ructed
Ġvolunte er
Ġg iddy
Ġv ile
Ġpent house
Ġj ed
Ġslam s
Ġh tt
Ġc ed
Ġbur ger
Ġ [
Ġreact ions
Ġdiss olved
Ġster ling
Ġcel est
Ġcl aude
sp ond
Ġreason ing
res ist
ru ciating
Ġver bal
f ro
Ġtri o
Ġhorri bly
Ġecho es
Ġincon ven
Ġguid ance
Ġfut ile
Ġpure ly
Ġind ec
Ġpanc akes
se nd
Ġbl ah
Ġquick ened
Ġphen om
l ink
h art
Ġmer it
Ġorph an
Ġfoot ing
Ġapologet ic
Ġsp ears
Ġsp ew
Ġund one
Ġiron ic
all ie
gh an
Ġnecess ity
Ġincred ulously
Ġcrim inals
Ġdis like
Ġre eling
Ġwet ness
Ġhallow een
c ia
Ġre fe
Ġnew est
Ġsqu ared
Ġge orgie
Ġpreser ve
ou st
br ight
Ġmass age
Ġsm ugg
Ġlo gs
Ġem bedded
cl ad
Ġarri ves
ra ham
Ġmil it
Ġhall ways
Ġbr ink
Ġtri bes
Ġimag inary
Ġsomet hin
Ġcons isted
Ġa uction
Ġbar bar
Ġz ip
Ġmix ing
Ġclas p
rel ief
red ict
Ġsp ied
Ġper forming
Ġsail ors
Ġell is
Ġdet ected
Ġf ished
Ġcar ving
Ġch is
Ġab e
Ġpain s
Ġdet ached
Ġlay ne
Ġexc used
Ġlibr arian
Ġreco vering
Ġsneak ers
Ġ <
ter m
Ġsp ook
Ġbene fits
m ath
Ġt asks
sc ream
Ġ2 3
Ġexper iments
Ġmotion ing
Ġwave red
Ġincred ulous
Ġco logne
Ġprop osed
us al
Ġden ver
Ġamb ass
Ġas ph
Ġsee ping
Ġdest ined
Ġcathed ral
Ġf isher
Ġspr ung
Ġhoo ves
Ġmon a
ent in
Ġsn agged
Ġmini ature
n icole
Ġsn aked
bo ys
Ġlou ise
Ġir is
Ġwiz ards
Ġfund s
Ġche ering
Ġadam s
Ġte ens
Ġb ates
Ġmon itors
Ġstraw berry
Ġeurope an
i ago
Ġreject ion
Ġcol ton
Ġstorm s
Ġch r
Ġglimps ed
m ason
mart in
Ġminim um
ver se
on er
Ġsp ikes
Ġmir a
blo nd
Ġtransp arent
Ġper ipher
Ġcro aked
Ġlo an
Ġal che
mag nus
Ġco bb
Ġindust rial
is nt
Ġal ison
Ġpe yton
Ġsour ces
Ġsnar ling
e ous
m outh
f ting
Ġdry ing
Ġbaff led
Ġbe et
Ġbubb ling
os ity
j un
b id
Ġb ows
Ġact or
Ġd ak
for ced
Ġrest ored
Ġlif estyle
Ġfa erie
Ġcrad ling
Ġch unks
sh i
Ġreal izes
Ġinv aded
Ġr ans
Ġsl umber
Ġthie ves
Ġre ared
Ġignor ant
Ġhost age
Ġkidna pping
pier re
Ġpop corn
t est
Ġi re
Ġcomp ulsion
Ġsor ted
Ġfire works
Ġhous ed
Ġgalax y
Ġsal ty
Ġhair y
Ġdisappro val
sum mer
Ġstupid ity
Ġcons uming
el o
Ġbreath taking
Ġcontempl ating
Ġsmoot hing
Ġro sie
Ġdis o
Ġt umble
Ġevery day
Ġsn ug
Ġgen es
Ġrenew ed
hatt an
Ġsh atter
com plete
Ġrob ots
qu ate
Ġarr ay
Ġstream s
Ġaw fully
ll ed
Ġsin cerity
Ġchuck ling
Ġlave nder
Ġo s
Ġgra ves
Ġsil enced
Ġatlant a
ad ers
Ġid ly
Ġview ing
Ġt ul
Ġunw anted
Ġg el
Ġor che
Ġblur ry
t able
Ġgri ps
Ġtan ks
v iv
Ġtrans ition
Ġly dia
to dd
Ġexc ruciating
Ġpe ach
Ġspark le
Ġ19 9
Ġover fl
Ġsupp ress
Ġez io
a ust
Ġse rene
int on
amp oo
Ġsalv atore
Ġear rings
Ġdark ly
Ġloos en
Ġw its
Ġbo nds
ister s
Ġdefin ition
m ik
Ġ5 0
Ġartific ial
Ġske let
Ġlux ur
Ġsele ct
Ġw ins
as her
Ġmar issa
Ġdel ilah
Ġpa wn
Ġinf o
Ġlu ce
Ġlat ched
4 5
Ġlat in
Ġpl aster
Ġid iots
Ġsp uttered
Ġbal th
Ġt avi
Ġcr ate
Ġtw inge
Ġm aker
Ġdef le
uct ions
Ġreass urance
Ġwater y
Ġad ored
Ġweekend s
Ġmanip ulate
Ġh ul
se ems
Ġconcer ning
Ġmain tenance
Ġl amb
Ġun read
to ps
Ġtrans f
Ġliber ty
Ġbow ls
Ġcrad le
Ġan ts
ro red
ma e
vin cent
le igh
Ġh ats
Ġbo omed
Ġmill enn
Ġhed ge
Ġinvolve ment
Ġb aked
Ġprim al
ot hes
Ġsubd ued
Ġstee red
Ġj elly
pr im
Ġhead board
Ġsub sided
1 5
Ġto pped
Ġjo an
Ġstair way
Ġcand ace
Ġt ying
go ds
ro ph
Ġtr act
Ġdiscer n
Ġj in
Ġrele ases
Ġspl ayed
regard less
c ap
Ġvig il
Ġstalk er
Ġvik tor
ic able
Ġun noticed
Ġdark est
Ġremote ly
Ġstagger ing
Ġtr acy
Ġche ers
Ġden im
Ġpand ora
Ġbr at
Ġbound ed
Ġbri g
lau ren
Ġh ound
Ġmar i
Ġc ia
ch ance
Ġpl ains
Ġatt ire
ad ium
Ġthread s
Ġt ina
ad ian
ian e
Ġsc olded
Ġcan n
Ġshield ed
Ġ19 7
Ġdou glas
ex pl
Ġripp le
g ate
Ġpo em
Ġagree ing
or an
Ġno ses
pt ions
Ġblo om
Ġboard ed
Ġstrict ly
h urry
Ġcon vent
Ġart icles
Ġgab rielle
Ġo y
iet h
Ġdevast ating
Ġcle arer
Ġcryst als
Ġmot ive
Ġshell s
Ġpar ch
Ġblind s
Ġinvestig ating
Ġw retched
Ġstret ches
Ġcond uct
Ġman kind
Ġins ulted
Ġprim itive
Ġtwir led
ane y
Ġj ai
Ġpr one
Ġany a
Ġja ime
Ġanonym ous
Ġairpl ane
w rit
po d
Ġtravel s
pre p
Ġmush room
n um
il ized
Ġsav oring
Ġball oon
Ġta unting
Ġch op
Ġremem bers
st ones
Ġprof it
Ġt attered
Ġmar guerite
Ġhistor ical
m all
Ġintens ified
Ġwe ighing
Ġagre es
Ġripp ling
Ġsh ampoo
il ton
Ġmir rored
on ic
Ġr ained
Ġper mit
Ġmet aph
Ġinsp ired
j ude
Ġo g
Ġins ign
Ġlo la
ru pted
Ġtattoo ed
Ġbritt any
Ġbount y
Ġw rought
Ġinher it
Ġsm ashing
ale y
Ġr idd
bl inking
you ng
gu es
Ġremain der
Ġman hattan
Ġtre mor
Ġtre m
Ġc au
Ġspl ashing
Ġit ll
Ġover looked
Ġres ume
Ġras p
d ling
Ġsn oring
Ġdem et
Ġlack ing
Ġher bs
Ġup coming
Ġc ack
Ġo ct
are k
Ġopport un
Ġinsist ent
Ġsepar ating
b elt
Ġamb ush
Ġdesce nding
r ational
nat alie
Ġfl ustered
Ġflav or
r ane
Ġk ier
Ġro berts
Ġboo ze
a aron
Ġshe en
c ooper
Ġwilliam s
vie ve
st en
Ġsquee zes
Ġj avier
Ġno lan
Ġwrest ling
Ġexplos ive
Ġex ert
Ġcre ased
Ġflo ck
u shed
ro c
Ġfoot age
is abelle
Ġme nd
Ġsil as
Ġfil tered
Ġinsp ected
Ġcon serv
Ġvibr ation
Ġun cl
cc er
r ate
j ill
Ġscr unched
Ġspraw ling
Ġd ipping
Ġben ches
Ġdim med
Ġni bbled
me re
Ġw akes
Ġlow ers
Ġhouse keeper
Ġdevast ated
Ġsilhou ette
Ġinter section
Ġeve lyn
p ark
Ġt ier
Ġhe ating
u v
Ġdon na
Ġexh ale
Ġcommun ications
Ġimmort ality
ill on
Ġvan ish
Ġg ordon
Ġp ots
Ġde fl
Ġball ed
never theless
Ġinward ly
Ġconf idently
Ġtom as
Ġdanc ers
Ġscow ling
Ġep ic
Ġmerch ant
st aring
Ġc aine
Ġsk et
Ġopp osed
Ġtun ed
interest ing
an im
Ġsquir m
' re
o ked
ann i
Ġchat ted
Ġste er
Ġter race
Ġfell ows
c row
Ġdeal er
Ġconsider ably
Ġv ase
Ġstre wn
Ġswip e
laugh ing
Ġthem e
Ġfl apping
Ġgood night
Ġstr ung
Ġne al
Ġid le
Ġb umping
im il
Ġbut cher
Ġwhere abouts
Ġspr ayed
Ġwhist ling
fif teen
Ġd aphne
Ġmaid en
Ġwr inkles
Ġignor ance
Ġphilosoph y
th in
Ġhor de
Ġpet ers
ra fe
Ġstraight er
Ġken ny
inte gr
r ils
Ġpass port
Ġplum met
Ġfr aser
Ġmark er
jon as
Ġru shes
Ġd ivers
Ġhum ble
Ġstraight ening
Ġuncontroll ably
Ġe u
et a
Ġdisappo int
Ġirrit ating
Ġnervous ness
Ġdesign s
Ġj ur
Ġab b
Ġmir ac
Ġpl ush
Ġform ation
Ġcl are
Ġday dream
ple ts
k atherine
Ġb owing
Ġcop e
t is
are st
Ġro sa
Ġro bbie
Ġhar vest
Ġsy ring
Ġwithdra w
s ally
s and
Ġb i
ival ent
ys on
Ġbrad ley
Ġsophist icated
Ġbright ness
Ġsed an
Ġl acy
Ġk ur
Ġimp ending
com m
Ġsco ot
p in
Ġapprehens ion
v ial
Ġv imes
Ġadv is
Ġf ert
Ġval ky
m ers
in ates
Ġmas ks
Ġhe nd
Ġw ate
Ġalex is
g om
Ġun steady
Ġkim ber
Ġglim mer
the st
cl aude
Ġchurn ed
lo aded
Ġsl iver
Ġapp les
Ġmar is
shar p
Ġl ud
ry ph
Ġag gra
soph ia
Ġhard y
sh ots
Ġenclo sed
se em
Ġcat al
Ġcons ume
Ġcirc uit
Ġoper a
Ġsed uce
Ġperple xed
Ġvic inity
Ġbin oc
un ches
Ġgrocer ies
Ġg ull
Ġrequ ires
Ġr ides
Ġfl ing
Ġdefin ite
Ġind ifferent
Ġholiday s
Ġoff ensive
Ġeven ings
Ġwo ven
Ġthr ong
Ġnovel s
Ġend elle
Ġb ash
Ġp ines
Ġsc oop
Ġmad am
Ġhandc uffs
Ġh ass
Ġdid n
shirt s
cal m
Ġj asper
Ġvill a
Ġruff led
Ġofficial s
lo ss
Ġhost ess
Ġreward ed
Ġj ug
Ġsc aring
Ġscru b
Ġsincere ly
Ġsh ard
Ġfrequ ent
Ġcr ust
Ġsp ies
Ġimpro ved
Ġpenetr ated
hum ans
re acher
Ġbrian na
Ġjab bed
Ġwilder ness
pp ling
Ġrestr aint
Ġexh ilar
Ġchat tering
Ġgl ide
Ġint r
Ġhero es
Ġcomfor ter
Ġsl ot
oth aire
Ġpred icted
Ġinappropri ate
Ġemer ging
Ġchand el
Ġben nett
ol ph
Ġsh h
Ġenter pr
is ons
Ġinst alled
Ġrep rod
Ġbio logical
Ġinser ted
f am
Ġhit ch
Ġsignific ance
Ġskept ical
Ġis rael
it i
Ġchar red
Ġsw arm
Ġgif ted
co gn
Ġconv ention
Ġsy ll
ed e
Ġdo cks
Ġenc irc
Ġparaly zed
Ġsect ions
Ġso ccer
Ġk u
Ġsp ying
Ġsorce rer
Ġimprison ed
ra e
Ġinte nding
Ġcom a
Ġobser ving
Ġha ley
Ġz oo
Ġexp anded
Ġgun shot
Ġmurm uring
bene ath
Ġper mitted
Ġho ver
Ġinvestig ator
Ġg ash
Ġsa us
Ġb ak
Ġover power
Ġca val
Ġrepubl ic
Ġa then
Ġst adium
Ġnot or
Ġlabor atory
vamp ires
Ġcl ap
Ġgl inted
Ġopin ions
Ġuneas ily
Ġn ipped
ien cy
Ġboo bs
Ġs ector
Ġsink s
Ġin e
Ġtr aded
Ġwa il
Ġsub conscious
Ġman ny
Ġp as
mar ked
Ġhar rison
c ool
Ġmoment ary
Ġcomfor ted
Ġasph alt
Ġre na
Ġtw inkling
Ġenthusi astic
Ġst itches
Ġha il
Ġalex ia
Ġkil omet
Ġcon vey
Ġh ilar
iv ated
Ġsitu ated
f ing
Ġoff end
Ġexcl usive
Ġt idy
Ġplung ing
av y
d ust
it ll
Ġwhir ling
Ġsl ab
Ġval erie
Ġcourt room
Ġre ign
Ġdet on
Ġcapt ains
Ġess entially
Ġc d
Ġcross bow
oc used
Ġbr ack
Ġtrig gered
st ed
Ġt ink
Ġstead ied
Ġco sm
Ġar isto
Ġdis he
Ġknee l
sh ake
Ġev al
Ġm oth
Ġbuff et
Ġribb ons
Ġagon izing
Ġexecut ive
it age
ron ia
Ġi l
Ġho lo
Ġange la
Ġmechan ism
t ot
amp ered
Ġrun ner
Ġcalend ar
Ġben jamin
uck s
Ġanim ated
Ġst uttered
Ġemplo yed
Ġs ie
Ġsol itary
Ġpr ud
Ġstuff ing
Ġbinoc ulars
st ered
Ġwed ged
da isy
Ġsy mpt
Ġf ianc
Ġremark ably
Ġgr acie
Ġgrand son
Ġcre ak
Ġpassage way
Ġphotograp her
f inding
el ise
Ġglo ved
put ting
Ġev ac
Ġrebell ion
id ian
Ġma am
Ġre yes
n ora
sh outed
Ġbut ch
Ġcall er
Ġs is
le o
Ġfact or
Ġmetho ds
t ural
an ny
Ġd aze
wh os
Ġmad ly
Ġbould ers
Ġfrig id
el f
Ġpast or
Ġpill ars
Ġrick y
Ġwin ston
Ġre acher
Ġer a
Ġresign ation
. -
Ġbr ay
Ġcompl aint
Ġk l
Ġgal en
Ġdown right
Ġen light
Ġab bey
Ġal arming
Ġcir cus
Ġow l
Ġear ning
Ġrob ber
Ġs essions
Ġson ia
s ol
Ġfuck in
the l
Ġent it
Ġske leton
Ġachie ved
Ġumb rella
th ouse
Ġtr udged
Ġmar ian
Ġbro om
Ġpos itively
Ġvill ages
Ġsam ples
Ġconv ul
Ġshel by
Ġsevere ly
Ġsl aught
Ġinvol ving
acher s
Ġpurpose ly
Ġhang ar
s ub
Ġthe ories
Ġbo bbing
Ġwrit hed
Ġeffort lessly
Ġinfin ite
Ġe book
Ġpre nt
Ġris king
Ġsurve y
Ġpsych iat
er ation
or ation
Ġdisco vering
Ġy ach
to by
Ġunread able
ced e
Ġbud get
li ving
Ġdread ed
Ġdiss ol
brand on
Ġreapp eared
Ġkel sey
Ġle ak
Ġbat s
Ġelev ators
Ġst ump
Ġcol by
Ġenjoy ment
Ġing red
b ol
Ġpro dded
is ms
Ġthro b
Ġsapph ire
b ren
Ġadvent ures
Ġgo gg
ai ah
e re
Ġrand y
tan ner
Ġm andy
ac co
pet e
Ġemphas is
Ġmust ache
Ġsurge on
Ġpill ar
Ġf iance
Ġha unt
Ġk ade
Ġman iac
Ġass es
Ġintrod uction
Ġgr unts
gr ad
Ġarm chair
Ġblink s
Ġwink s
Ġhaul ing
Ġchann els
Ġbet ty
Ġst akes
Ġsel ena
ste in
Ġch anting
Ġce real
Ġflight s
jen na
Ġassess ment
Ġro am
Ġcar olyn
als ki
he nt
Ġlet o
Ġtact ics
by es
Ġshield ing
Ġkit ty
Ġle y
Ġsp orting
Ġhold er
Ġn ations
Ġsl ash
Ġaub urn
Ġdim ples
Ġe er
Ġdis integr
Ġjo st
Ġduff el
e asy
Ġjo g
Ġcoll ided
Ġvacu um
Ġridicul ously
mered ith
Ġa rose
Ġmar tha
t at
Ġcolor ado
Ġstri ps
cil ess
Ġcar to
av ia
Ġinc or
Ġvo y
ou rage
Ġqu izz
Ġli bby
ir s
Ġbreat hes
Ġbro ck
ac o
Ġgre ase
Ġfrustr ating
Ġlangu ages
Ġm asked
Ġview ed
b at
Ġqu ad
y ears
Ġclear s
Ġcath olic
Ġcons ent
Ġsad i
Ġunbutton ed
Ġhad es
aul ts
Ġt aps
sh aw
ral ph
c s
Ġfingert ip
Ġface book
Ġfo am
Ġa ward
Ġfore finger
inst inct
Ġrespons ibilities
Ġlil ith
sav annah
Ġg ps
Ġout burst
Ġl ens
ot hed
if ter
Ġbr acing
Ġreco ll
Ġrelie ve
Ġcon greg
e in
Ġloc ations
Ġreser ve
Ġun moving
c ake
Ġwa iled
Ġtraum a
Ġsec re
Ġho se
Ġadd iction
Ġyel ped
Ġpower less
Ġgrave yard
Ġleaders hip
Ġflaw less
Ġb our
ou fl
Ġgo ble
Ġinter com
Ġt ak
rie ve
Ġassemb ly
Ġshy ly
Ġhoarse ly
Ġash ton
l ain
co al
Ġresent ment
Ġover se
Ġlef to
Ġto ppled
for ms
po st
ear l
Ġam bit
Ġab und
Ġger many
Ġf ret
Ġsc ope
br other
Ġsid el
Ġ19 6
Ġpo sts
Ġru ining
Ġafr ican
Ġdiag no
Ġsl ippers
Ġpean ut
Ġbat tling
Ġconspir acy
Ġir rational
Ġbry an
ang ie
Ġfro g
Ġnic er
Ġi ced
ow alski
Ġc ows
Ġkn it
Ġstee le
Ġsof ie
Ġcram med
Ġspec k
Ġspo il
Ġarch way
Ġbon us
Ġint u
Ġscree ching
Ġassoci ate
Ġo scar
ous y
Ġgoddam ned
in ne
Ġb ony
Ġdiscip line
do ing
Ġmed all
Ġdecl ar
Ġara b
g raph
Ġall ows
um m
Ġmo cked
Ġreluct ance
Ġs ized
Ġsole ly
Ġswive led
Ġre hab
Ġexplo red
back s
emp ty
Ġpoor ly
Ġsull ivan
Ġunz ipped
jos ie
Ġnot ch
Ġdef iance
Ġtele p
o i
Ġheaven ly
t ure
own ing
ier ra
Ġhur ric
Ġviol a
Ġdecl ined
k as
Ġper cept
Ġassum ption
dam on
Ġscare s
Ġs no
Ġcap it
Ġsuper st
Ġwa vy
Ġdan i
Ġdivor ced
Ġlod ged
j or
ab led
Ġscand al
Ġcr ates
Ġprop ose
Ġincap able
Ġplun ge
p ants
Ġb ooked
Ġnot ices
Ġtr ading
Ġdemet ri
ist ine
Ġblood ied
Ġpit cher
Ġw ade
ol ation
p ick
Ġg am
Ġacquaint ance
th ousand
Ġal c
Ġtransl ated
they ll
Ġi ra
Ġd red
Ġimpl ied
Ġsupp lied
Ġregret s
Ġsuspect s
Ġp oo
Ġcra zed
Ġluc ia
Ġreb els
ak a
Ġlink s
is l
Ġbl ues
os aur
af raid
ans as
Ġari z
Ġenforce ment
n ap
Ġher itage
no s
me et
bru ary
art s
Ġdra pes
Ġquiet er
Ġce ase
Ġtechn ical
d one
Ġf iling
Ġo z
Ġr aged
Ġvalky rie
1 9
Ġver ity
mo il
Ġpa ige
Ġdar ren
Ġglare s
Ġsele ction
Ġcalc ulated
Ġphant om
g ri
Ġdoubt ful
bab y
fl owers
Ġment or
alex ia
is abella
el i
Ġv ows
Ġyear ning
Ġreun ion
Ġgret chen
Ġpl ag
Ġdri p
bel ow
le vel
ber n
Ġequ ipped
Ġunp redict
b il
Ġwh ining
Ġcrow s
je an
Ġdomin ant
Ġshred ded
Ġtob acco
b ury
t el
Ġn ico
Ġkar l
c ers
Ġin ject
ld on
Ġlun a
Ġmall ory
fif ty
pl an
Ġinc ome
Ġty ping
Ġreplace ment
f en
Ġglist ened
let ting
Ġdis char
Ġev ie
Ġinit ially
Ġs ookie
Ġcomp ens
Ġmer ciless
Ġtam my
Ġunle ashed
Ġdisconn ected
Ġearth qu
Ġhorm ones
Ġchar ms
Ġcru iser
Ġparch ment
Ġras py
Ġv ance
Ġprom inent
cri ption
Ġket tle
Ġgr ump
cam eron
Ġs izes
Ġunset tling
p ot
Ġdol ph
Ġproduct s
Ġtur moil
Ġread ily
lo cks
Ġmon roe
inn amon
Ġbare foot
Ġh ike
Ġhe ath
Ġsad ie
Ġb ask
Ġsim one
Ġtrick y
sil k
Ġambass ador
Ġn ude
ac ia
Ġh unch
au g
Ġmck ay
id al
ig ible
Ġshrie king
Ġalle g
sp ace
Ġamount s
fuck er
Ġfav ors
sc ow
Ġcivil ian
Ġpuff y
Ġunner ving
as ive
Ġappro x
Ġcomplex ion
Ġmy r
ar o
a head
on ies
Ġconf ined
Ġmot ives
Ġwate red
f itting
Ġme ek
ins on
Ġb angs
Ġ4 0
Ġc ull
w ick
Ġal ight
Ġimp r
Ġtherap ist
Ġscree ch
Ġmund ane
Ġbalth azar
Ġother world
Ġdesp ised
Ġd ax
Ġact ress
Ġfright en
Ġt ails
Ġir resist
Ġunder water
Ġrip e
Ġcan oe
Ġdanie ls
cel ain
Ġshap esh
Ġorg ans
second s
Ġb ianc
Ġun covered
Ġintox icating
Ġth undered
ans on
Ġsick ly
Ġprepar ations
Ġenh anced
Ġspl itting
Ġpant ry
g io
Ġha lo
Ġdazz ling
v ic
Ġor bit
Ġquiet ed
Ġsc ab
ich an
Ġariz ona
qu ila
Ġfl anked
Ġsail or
Ġha mb
tal king
Ġsp ont
Ġsoft en
Ġvill agers
Ġtechn ique
nec k
Ġcon gress
Ġalb um
Ġcam oufl
Ġcollaps ing
ert ained
2 2
f iona
Ġsig ning
Ġmanif est
Ġann abelle
ific ations
Ġcat cher
Ġen raged
sh an
Ġscr amble
Ġequ ivalent
Ġinvest ment
r uth
Ġstation ed
Ġcream y
Ġf us
Ġe b
ill es
Ġsub mit
Ġbox er
Ġcoo lly
Ġpad s
Ġterror ist
Ġsquat ted
Ġhard wood
Ġdec ipher
Ġprotru ding
Ġd ow
h ouses
me g
Ġren ee
Ġo val
Ġathlet ic
Ġr idden
in qu
Ġsh ave
Ġrepl acing
Ġtex ting
Ġanaly sis
Ġnail ed
bo bby
Ġshepher d
Ġmeaning less
Ġcomprom ise
Ġcon vert
Ġsl anted
Ġret ali
Ġaver ted
z il
Ġass aulted
na ked
you d
Ġshru gging
Ġext ensive
Ġsa ils
Ġsc urry
Ġkir an
Ġro x
Ġglo bal
Ġbren nan
Ġgargo yle
Ġve nd
Ġpriest ess
Ġcr ut
Ġter ra
Ġjo gging
Ġtra ps
Ġfal con
Ġh ooks
am elia
Ġclot hed
Ġt rop
Ġsec l
Ġsk ipping
ash ley
Ġmer cer
Ġt ir
Ġsp ins
Ġbad ass
ately n
Ġfavour ite
th rop
Ġpan els
Ġban ner
Ġprec ision
sa fe
Ġbou quet
Ġpo sed
Ġdou che
Ġeld est
Ġmour ning
Ġh ue
Ġmurder ous
Ġtr u
Ġpop e
om on
Ġmic row
Ġtravell ing
Ġso ak
ither ing
Ġori ent
ire ct
Ġwes ley
Ġf umbling
Ġcont ented
Ġengine ering
Ġsmir ks
ov a
Ġpupp et
Ġn im
Ġta unted
Ġrus sell
s ons
sho ck
Ġw i
Ġro amed
l ena
Ġb idding
Ġbul ge
e i
Ġk incaid
Ġhard ness
Ġere ct
Ġsheep ishly
Ġbe es
Ġcr inge
Ġpor celain
Ġfac ade
Ġqu ote
Ġtoss es
Ġbas in
tw ice
Ġbra ith
Ġgirlfriend s
Ġscri bbled
c key
Ġroll er
Ġam pl
Ġpe aks
Ġent ers
Ġgau ge
Ġn ad
Ġra e
Ġinv ented
Ġtri pping
Ġind ians
Ġswall ows
Ġmagn et
Ġthr ashing
stra ight
Ġso ared
Ġsc iss
in ty
Ġlo af
Ġmor p
Ġreason ably
Ġcan al
Ġneck s
Ġadm on
Ġatt ribut
c ain
Ġwip es
Ġg ale
ut ions
a ired
f re
Ġdis lo
Ġangel ica
Ġdevelo ping
Ġchill ing
Ġst ains
Ġper il
Ġear lo
lar ge
ing ton
Ġlaw rence
Ġstr icken
Ġintimid ated
Ġquir ked
Ġbianc a
s om
Ġh ier
Ġpro long
e av
Ġcorre spond
Ġhar old
Ġdex ter
Ġch ores
ond a
Ġann wyl
Ġvan illa
Ġdom inated
Ġt aryn
gu y
Ġpee l
Ġtob ias
Ġqu ilt
Ġign ited
Ġcour ts
Ġexp ans
j ecting
Ġdeliver ing
u ating
Ġt ipping
un a
ig or
mom ents
ol iver
Ġcr umb
Ġplant ing
Ġenthusi astically
fur ther
Ġse ren
irt ies
Ġje opard
Ġcamp ing
Ġgrate fully
h ist
Ġwe ndy
Ġro aming
Ġdef ensively
ste fan
Ġnew com
Ġslo ppy
c ara
Ġpre car
Ġcon sp
Ġscru ff
Ġp otion
Ġha gg
Ġl enses
Ġsw ooped
Ġrun e
pr int
walk er
Ġrest ore
Ġbrad en
Ġeleph ant
Ġentry way
imag ine
ie ur
re c
hu gh
foll owing
Ġro bbed
Ġfarm house
Ġscen ery
Ġdod ging
Ġdetect ives
Ġluxur ious
Ġa pt
Ġbre ach
Ġcap s
ood le
p al
Ġcle ans
Ġend eav
Ġscra w
pass ed
Ġblunt ly
Ġl ain
Ġer ased
Ġcruel ty
at ures
Ġwin ner
Ġillum inating
Ġm umble
Ġcon rad
Ġtr ump
Ġmeas ures
Ġcre aking
car ter
Ġav i
Ġm op
Ġhand writing
Ġdev otion
Ġund en
Ġprod uc
Ġc innamon
Ġapp ar
Ġar se
ber ries
Ġtri angle
Ġstrugg les
Ġmesmer ized
Ġeer ily
Ġbe acon
Ġmad dox
Ġattack ers
Ġblast ing
Ġobliv ion
Ġtw inkle
pt on
Ġart ists
Ġgrave ly
kal adin
Ġr ut
Ġrag s
het ically
Ġf anc
Ġfrag ments
Ġcel a
Ġhonor able
Ġpod ium
re becca
Ġl ys
Ġspot light
Ġsett les
Ġan ita
lo de
ores cent
Ġgl inting
Ġfore sts
ul u
Ġly can
Ġunus ually
Ġsid he
Ġthan king
Ġexam ination
Ġcooper ate
Ġth ong
h l
Ġun imp
t ate
Ġf ib
as ar
Ġsa p
Ġtri ple
Ġtap est
surpr ising
Ġse eds
Ġprin ces
Ġexplos ions
an orm
jac ent
Ġwh iff
Ġvigor ously
Ġlit ter
Ġchest s
Ġruss ia
y ss
Ġprot ests
Ġpan ther
Ġt ah
Ġtr immed
Ġfarm ers
Ġshar on
t u
Ġsit es
grand ma
Ġshag gy
Ġmeaning ful
Ġf ul
Ġwatch ful
Ġde ft
Ġun char
Ġlim ped
c ried
d ress
Ġve ter
Ġground ed
Ġstri pping
Ġalco ve
w il
Ġhead y
Ġbar ric
cus sion
Ġvan ity
Ġconcl usions
Ġjay ne
f at
ble m
Ġtick ling
Ġconven ience
Ġsacrif iced
Ġthe ft
Ġbrood ing
t ucker
ill ion
Ġover grown
Ġvoc al
Ġcl amp
Ġglass y
Ġor deal
Ġmal ach
Ġphenom en
Ġgo als
Ġbu bbled
che ster
Ġreason ed
Ġdal inar
Ġt ainted
Ġpl ug
f i
Ġbody guards
Ġlun atic
Ġfreck les
be ats
Ġnik olai
Ġvulner ability
Ġsab ine
o lf
Ġpo ppy
Ġremark s
Ġfr an
in ning
Ġho isted
1 6
Ġche l
Ġfree zer
Ġimmort als
Ġsl ay
Ġbachel or
Ġv aughn
Ġgar lic
Ġdep ressing
Ġund id
Ġtend rils
Ġkingdom s
Ġbo do
Ġcrou ching
Ġwhit es
o es
Ġhtt p
Ġch ills
cl air
Ġpen elope
Ġnur ser
Ġrust le
Ġthread ed
be it
er ick
ily n
Ġbusiness es
Ġbrother hood
Ġsequ ence
Ġli ons
Ġne phil
Ġcl atter
Ġpal p
Ġre no
Ġab yss
Ġpo les
Ġfl ailing
Ġstupid ly
who a
Ġfl aring
Ġengine er
Ġsp ade
Ġmind less
Ġinf ilt
Ġfr ames
Ġac res
Ġper ch
k rist
ed en
Ġgrand daughter
ar r
Ġdev oured
Ġpot entially
joy ah
Ġpenetr ating
Ġtu gs
des per
Ġemplo yer
Ġd v
Ġent w
Ġram med
Ġt ig
ann el
Ġsky lar
res hing
ou x
for ward
Ġinter act
Ġpay s
Ġpit iful
Ġsc attering
hu inn
Ġfan ned
Ġpenetr ate
Ġgr udging
bb ly
Ġez ra
ich i
Ġh ic
Ġexp osure
Ġmon ot
Ġreco iled
Ġg ears
Ġgr id
Ġlege nds
mill ie
so ld
Ġhot els
domin ic
Ġdel ayed
Ġprivile ge
Ġtren ch
h ung
Ġsyl via
re ct
Ġle aking
Ġpl aid
Ġwreck age
ves ted
con st
Ġbul ky
Ġrever sed
incl uding
sh am
Ġcont orted
Ġcent ered
Ġsal vation
Ġfact ion
Ġbo oming
Ġmar ines
Ġhor ny
Ġmis chief
n icholas
y enne
Ġd uct
Ġgl oria
again st
Ġsettle ment
Ġbord ers
Ġinex pl
Ġsex ually
Ġobsc ured
Ġad jacent
Ġpac ific
Ġinvolunt arily
Ġho pping
Ġretire ment
Ġd ia
Ġtil ts
t ub
Ġsun s
Ġfur ry
Ġjud ged
Ġit ch
Ġmo ons
th al
Ġcour sing
Ġhon our
Ġtack le
Ġst ony
Ġgrass y
Ġcan ada
Ġsyring e
ast asia
Ġser pent
Ġchar coal
Ġdishe veled
Ġgruff ly
Ġrebu ild
a que
Ġro sy
Ġfe bruary
Ġlea ked
Ġlad s
mon k
Ġdang ers
Ġstee ly
Ġaccommod ate
Ġse ared
Ġpar anorm
Ġhous ing
Ġly rics
ball s
Ġsubst antial
Ġconqu er
Ġr umpled
Ġden ise
cr ack
ruct ive
Ġopportun ities
Ġdeb ated
Ġru gged
Ġtravell ed
Ġt aped
Ġli ver
Ġrand all
Ġappo inted
Ġcela ena
Ġmind ed
Ġra ft
Ġmiser ably
ac ter
Ġfing ered
Ġsuggest s
car l
Ġtort uring
f ounded
Ġth ad
che t
mar i
ww w
Ġcr umbled
Ġcour sed
Ġbern ard
Ġadv ise
Ġmention ing
Ġreli able
k ara
og any
Ġsmack ing
Ġfl ips
Ġbag gage
Ġlab eled
Ġliz a
Ġador ned
Ġp ried
Ġte quila
y ell
Ġfoot prints
d ane
pp le
Ġloo ped
if ted
Ġcr unching
Ġdom ain
Ġkat y
Ġto rak
ro ach
Ġpers isted
Ġer upt
Ġpursu ing
Ġp av
Ġse phrenia
Ġsmir king
prom ise
Ġscrut in
Ġg ad
Ġte et
Ġuncertain ly
luc ent
Ġni all
Ġsal iva
Ġnurser y
Ġkay la
v on
nd ered
Ġcl attered
Ġgra zing
Ġscout s
Ġfr y
Ġglit ter
ate ment
Ġpresent ation
Ġrad iant
Ġmasc ara
Ġb unched
Ġbre nda
Ġa ph
u ar
as ide
Ġbe nds
Ġis le
Ġcal ves
Ġga unt
Ġpur sued
Ġrein force
Ġandrew s
Ġre ah
Ġsweet est
Ġpre acher
Ġr anger
Ġro oted
Ġrec ess
sam antha
th o
ra ble
Ġsquir ming
Ġfor ged
Ġz ev
Ġrevol ver
Ġsham an
Ġleisure ly
iam i
Ġproper ties
Ġrear r
Ġnever theless
Ġsuggest ions
Ġgy psy
car oline
ld a
el ijah
Ġleg acy
Ġtroll s
am i
Ġneed y
Ġfear ing
Ġdel usion
Ġbl az
Ġcustom s
Ġh asty
Ġpro bing
Ġglam our
Ġm umbling
Ġfl ute
na omi
Ġam mun
Ġmad d
Ġinstru ction
Ġp umps
Ġfl urry
Ġmah ogany
Ġacc um
Ġsy nd
read ing
Ġkn ead
Ġsent ences
Ġdust ed
Ġsat an
Ġcoo ling
Ġupd ate
Ġs ings
Ġde als
Ġpat s
Ġpe as
Ġcelebr ating
Ġhar vey
Ġinh aling
i age
Ġdoll s
ee m
Ġartifact s
h il
Ġme ow
Ġel vis
Ġspl attered
Ġcelebr ity
Ġspect acle
Ġcorn ered
v ir
Ġwere s
Ġtent h
norm al
un ned
Ġshr ank
Ġsheep ish
Ġammun ition
Ġgra ph
Ġthr um
Ġbo nded
Ġcr an
Ġwork out
Ġpriv ately
Ġpi geon
Ġdon ald
Ġhill side
b ryn
Ġt inted
Ġl is
ge ons
say s
c ad
n est
u ity
jo ey
Ġbur row
Ġsucc ession
ur ous
Ġwa iling
Ġconf ines
Ġdep ri
Ġscarlet t
nd an
Ġrecogn ised
ced ing
Ġlab ored
Ġeas iest
Ġjew ish
Ġwag ons
Ġrun way
Ġover all
Ġpor k
Ġunpredict able
s lee
Ġstar ved
Ġrab id
Ġd ucking
nold s
Ġpro g
Ġspec im
Ġentit led
Ġpe ers
beaut iful
Ġins ulting
Ġcorpor ation
in ery
Ġsh oo
ress ive
Ġsil ken
Ġdin osaur
k it
Ġc unt
Ġfit z
ra z
Ġob jected
Ġkno cks
Ġarch ie
it ably
Ġwom b
id ra
Ġne ur
Ġp m
mb ling
skin ned
Ġn agging
r ising
Ġdev oid
Ġcron us
Ġp ooled
Ġprof ess
Ġsh ak
Ġgar ment
Ġvirgin ity
Ġbe in
Ġph oebe
gr ade
Ġmod els
Ġfol iage
st re
Ġk urt
Ġch asm
Ġimpul s
Ġlegit imate
1 4
Ġdis li
ict ions
com p
Ġskull s
ic eless
are l
Ġtr ist
Ġme ll
ante ed
Ġtorment ed
Ġsh rew
Ġarm ored
me gan
ast on
Ġmiss ile
Ġgl imm
Ġmaneu vered
Ġmur ky
Ġwho lly
Ġimp osing
Ġbelief s
Ġdis respect
Ġrecogn izing
Ġform id
Ġassoci ation
o cks
Ġsense less
Ġheight ened
Ġcl ara
t aylor
Ġh ipp
Ġb ile
Ġass ail
Ġshuff le
Ġrecru it
Ġexped ition
Ġhus k
Ġhi king
Ġlay s
Ġeat s
Ġsc ut
Ġscholar ship
Ġmor on
Ġsc uff
Ġge off
Ġintri guing
nd i
Ġman ual
Ġbre th
Ġbottom s
Ġcom ed
go dd
fo cus
Ġyog a
ed ged
Ġcrew s
ric ia
Ġintention ally
or med
Ġradi ation
m outhed
Ġappro aches
Ġirresist ible
Ġt um
bu ild
Ġp ans
Ġj ing
op ened
Ġbe m
f ri
Ġd urnik
Ġsome ones
Ġstep father
Ġb icy
Ġcar cass
Ġfr iction
no dding
Ġne v
pl ate
Ġappl ication
Ġaler ted
Ġpl aza
Ġcr aned
Ġadv ancing
Ġcel este
b ased
the a
Ġaut op
Ġpred ic
Ġcounsel or
Ġoff spring
Ġspr int
Ġbow ling
mar shall
Ġfresh man
Ġmult i
Ġpiv oted
all owing
Ġang us
Ġhurric ane
i ope
Ġdemon ic
Ġmyster ies
Ġgr ades
Ġstruct ures
1 3
v ish
do c
Ġpast a
Ġbarb ara
ross ed
Ġmen ace
Ġminim al
prof essor
Ġlever age
Ġph arm
Ġmag ically
Ġmedall ion
i ated
Ġcar rot
Ġprotect ively
Ġcu be
f ael
Ġhar b
own ed
Ġharm ony
Ġbroad ly
Ġapolog izing
Ġbrit tle
Ġ2 7
Ġb asha
Ġst out
Ġunderst atement
br inging
Ġmagn etic
Ġl aken
Ġbu cked
Ġlight en
Ġclean er
Ġde w
Ġdist orted
Ġspread s
Ġno is
Ġte resa
Ġliz ard
p ur
Ġm iami
Ġmass es
Ġl ark
ie val
co lo
Ġglow ered
Ġab used
Ġsl ices
Ġtight ens
Ġrect angular
Ġl l
Ġdelight ful
pass ing
Ġmol ten
Ġco herent
qu o
Ġdistinct ly
tom my
Ġclip board
Ġnephil im
v ably
Ġtransp orted
Ġclay ton
Ġref reshing
Ġver tical
Ġe cl
Ġl akes
de x
slee ved
t ow
Ġl umber
ro k
dri ve
Ġinhabit ants
Ġd wind
le ft
Ġshut s
fr ustr
Ġwing ed
Ġm ong
Ġarm our
Ġdev our
fol k
Ġevol ution
Ġstri ped
Ġnud ge
qu er
Ġsl its
Ġbar bie
out ing
s ort
gu ilt
Ġcandid ate
Ġser aph
Ġdefe nded
e cho
Ġcan cel
cho ly
ri ages
it als
Ġg ambling
fort y
Ġtrans mit
Ġwren ch
Ġformid able
len ess
Ġch au
o ly
Ġo me
Ġbeh old
Ġappear ances
Ġdisp osal
Ġshim mer
Ġnear ing
Ġsub sequ
Ġpurpose fully
Ġpossess ions
Ġmiss ions
Ġunst able
Ġscrut iny
k ids
Ġv on
Ġnathan iel
Ġstew ard
Ġsecre cy
Ġt asha
Ġg agged
foll ow
Ġdisorient ed
Ġc rop
Ġj azz
Ġear shot
Ġm ish
h anging
Ġsat chel
Ġben ji
ee ling
es to
Ġobject ive
it ious
Ġy up
Ġshe ridan
le ys
ret urn
Ġrend ered
Ġwe athered
Ġpig s
Ġrumm aged
Ġstradd ling
Ġby ron
Ġsk ir
id i
Ġprop osition
Ġsur ging
Ġir ises
Ġpow ered
Ġgr u
ver ns
sw ord
Ġc indy
Ġcr unched
Ġmaxim um
Ġill ustr
Ġphys ician
Ġplat ter
Ġp ep
Ġr ive
Ġnotice able
Ġstubborn ly
Ġclick s
Ġc ater
Ġtr oop
oc aly
Ġtur tle
be en
Ġpr istine
Ġspar se
Ġgogg les
z el
Ġsho ves
Ġgobl in
Ġha ired
ap art
Ġsub miss
y elled
Ġbet ting
c ry
Ġse ize
Ġple ad
sa etan
as se
Ġpeace fully
t ook
Ġaston ishing
Ġne ll
Ġpers istent
Ġfamiliar ity
Ġf aye
Ġu mm
Ġwa fted
Ġpres ume
Ġbik es
complete ly
Ġind ic
Ġrecall ing
Ġwa vering
Ġcar avan
Ġslit hered
Ġbarre ls
m iles
ur able
ist ically
z ack
gra ham
Ġcon co
Ġtransport ation
Ġpry ing
Ġdisappro ving
Ġpredic ament
Ġoper ate
Ġpier re
Ġnegle cted
am ous
cl ar
Ġdeclar ation
Ġhor ace
cass andra
Ġthin ned
Ġdeb ating
Ġsplin tered
g art
Ġhar med
Ġrespect ful
Ġa ster
Ġsav or
Ġmust ang
Ġn ay
Ġerr atic
am el
Ġsurf aced
luc ivar
call um
cars on
l at
Ġb aking
Ġr usted
Ġcare free
Ġgener als
Ġphys ics
dam ien
step han
Ġdash board
Ġmicrow ave
1 8
w anted
Ġsp on
Ġtwir ling
Ġhand bag
Ġpost ers
n ina
t il
Ġout fits
Ġun int
Ġfree ing
Ġstall ion
Ġcarpath ian
Ġh inted
Ġp outed
fr owning
Ġcon str
Ġlow est
Ġmemor ial
Ġre prim
Ġacade mic
Ġestablish ment
Ġmelan choly
m ain
Ġjeff erson
Ġcalc ulating
Ġble nded
Ġtorn ado
t ina
th ol
if ters
how s
1 7
Ġbreth ren
Ġsn ee
Ġoper ator
Ġinsp iration
Ġcra ppy
Ġmich aels
Ġferoc ious
Ġsub way
Ġtruth fully
Ġlim ous
Ġglo omy
gir ls
e h
Ġp ater
Ġj as
Ġent ertained
Ġdev yn
Ġcolle ague
arch y
zz ling
ett es
Ġwe ave
Ġdr ac
Ġclou dy
Ġpor ter
Ġaddress ing
4 0
Ġbr ute
Ġfin ishes
Ġrecon c
Ġacceler ated
Ġout door
Ġbar riers
h av
Ġdire cting
Ġlarge ly
Ġcond oms
Ġop ted
Ġresist ing
Ġbored om
Ġinse ct
Ġi ona
Ġsl ate
Ġamazing ly
j in
Ġst ash
Ġdr one
Ġbetray ing
Ġmonit oring
Ġk ad
Ġdis concer
Ġmed ieval
Ġpear ls
Ġp ens
Ġplay ground
s asha
Ġout lined
Ġreser vation
Ġam elie
p ie
Ġa pe
Ġtal ons
ra ved
Ġthick ly
Ġba iley
e ys
Ġdart s
Ġstom ping
Ġstradd led
Ġcom bed
Ġmath ias
Ġapprent ice
Ġl ava
Ġscor ched
fight ing
Ġmu gs
f u
re x
ne al
hin x
Ġbl an
bor ne
he ars
Ġchis eled
Ġdee med
Ġluc a
Ġsl aps
Ġassoci ates
Ġin ability
Ġpo lly
Ġrel ations
Ġelim inate
Ġmin us
Ġstall s
pec ting
Ġcad ence
Ġhol t
Ġsed uction
Ġpalp able
cour se
ze ke
Ġtrans lucent
cons ciously
t ess
he ro
Ġcoo led
t avi
Ġmid day
Ġsnow y
Ġobsc ure
Ġbarr acks
ld in
ore t
Ġnar c
Ġsumm ers
hol iday
Ġcompre hens
Ġhilar ious
ic idal
Ġsol itude
Ġvar i
friend s
Ġst acy
Ġpar amed
Ġpict uring
Ġju an
Ġtend ency
andre a
josh ua
Ġse er
dor ian
Ġgr otes
Ġdem ise
Ġf iber
Ġpr icked
inn ie
ah an
Ġflat tered
Ġcou ches
Ġamid st
wh it
Ġs ass
and s
Ġcr iss
Ġsympt oms
Ġnot ep
Ġgh ast
Ġrun es
Ġcontin ually
mic helle
Ġinterview s
d allas
k ah
Ġli ll
Ġdom estic
w right
Ġredd ish
Ġwhe at
Ġsn iper
Ġmass aging
Ġaut o
Ġtra pping
rel uct
Ġb aker
Ġsp acious
Ġaustr alia
Ġm int
Ġearlo be
b art
o ons
Ġfe igned
Ġk ale
Ġdis em
Ġhood ie
Ġbri a
Ġdis k
Ġbreak down
Ġfee ble
Ġrep ay
Ġinstru ctor
Ġmaint aining
Ġth al
Ġfl ask
Ġlou isa
p age
cl ub
t ens
are th
may a
Ġde ception
Ġwo bbled
Ġsoft ware
Ġeager ness
Ġd ank
Ġr ita
ad vert
Ġf ades
Ġpart ial
Ġgren ade
Ġmaterial ized
Ġmoo re
ur ice
Ġhand les
Ġmill ie
Ġloving ly
m w
Ġingred ients
Ġwhis ky
Ġbusiness man
Ġshall an
Ġholl ered
th ias
reg ular
bir ds
Ġcert ific
loy d
Ġdisplay ing
fee l
Ġtant al
Ġf ain
Ġsuck er
Ġdepos ited
Ġdro plets
Ġbrid ges
Ġperce ived
** ***
k or
t ons
x on
Ġsepar ation
Ġves sels
Ġyach t
Ġsecure ly
Ġas ian
Ġan cho
op ath
Ġbul ged
Ġcandle light
Ġbl aring
Ġcont ra
Ġcontent ment
Ġguar anteed
Ġ @
Ġst oop
Ġapp alled
h r
Ġfre ight
h ib
ted dy
Ġfrequ ency
Ġgan sey
ch ad
ag hett
Ġent ity
Ġrespect able
Ġlength s
p op
Ġt ous
Ġr io
Ġrav ine
Ġm ated
Ġcomp elling
Ġtipto es
Ġ2 8
Ġsquare ly
Ġfac ilities
Ġtriumph ant
uc cess
Ġtreacher ous
c up
in arily
Ġtr icked
Ġdream y
Ġclass mates
Ġto ri
Ġdel ir
Ġspec ulation
Ġconfident ial
p his
Ġar d
Ġun con
Ġflor al
re ls
Ġal beit
Ġfl annel
Ġslaught ered
am s
Ġad vers
Ġhu go
Ġscent ed
Ġbry ce
Ġfashion ed
om er
int age
Ġcho pper
Ġshar per
Ġsl ugg
pl aced
Ġcivil ized
Ġexpand ing
Ġunders ide
Ġtit les
Ġcur ran
Ġjac obs
et ers
ll or
Ġbl ot
Ġto ry
Ġrep orting
Ġeyeb alls
Ġbak ery
j ase
Ġgr oo
Ġadd icted
Ġlick s
care fully
ell en
Ġweek ly
Ġjo celyn
Ġhint s
per ing
Ġdu el
Ġre nder
Ġsc orn
Ġlife mate
Ġban ished
Ġmanip ulated
Ġstif le
i our
Ġce o
Ġfaint est
Ġclar ified
Ġar ches
Ġseat belt
Ġtest im
v iet
Ġare s
Ġstar buck
Ġmach inery
Ġro bb
az ard
Ġcat ast
Ġtor rent
Ġthu gs
Ġjust ify
Ġg ulf
Ġsp hinx
jo el
sy dney
Ġactiv ated
m ara
Ġf ates
Ġag nes
Ġem ails
Ġcor ds
Ġstrang le
Ġattend ance
Ġda unt
Ġmass aged
h ap
Ġshe athed
Ġfl apped
sho ot
anc er
gen eral
Ġlor i
Ġl on
al bert
uel ess
Ġdism ounted
il ot
ul ent
gg ling
Ġnat asha
Ġmont gom
br ick
rest on
anth ony
Ġduck s
Ġade le
Ġwater ing
Ġver d
Ġimpl ications
Ġcra ve
Ġdig est
Ġstate ments
Ġevapor ated
h it
Ġgra pe
Ġpec k
Ġext ension
jo an
Ġag gression
Ġgu shed
sp ons
Ġsurre ndered
Ġ2 6
x avier
Ġp um
ic iency
Ġhaw ai
Ġforb id
Ġfil ter
Ġcar rier
Ġto wered
Ġsub mission
Ġflex ing
Ġzach ary
Ġbillion aire
ag ny
Ġwed ge
Ġinv ading
Ġcontempl ate
ll ey
Ġr anc
Ġde bbie
Ġtreat s
Ġcl ans
Ġunf old
aghett i
Ġc inder
t rey
Ġhor rors
Ġbe an
Ġsquir rel
ra ught
Ġcon ve
Ġcons ort
Ġjack ets
g ret
Ġso aring
Ġex claim
Ġout law
br an
in ction
Ġqu art
Ġstr ut
Ġass ets
Ġjut ting
Ġdes ks
case y
Ġscul pted
Ġf ame
g ee
Ġwor sh
Ġz ak
ili ans
ele anor
Ġf ift
Ġret ain
Ġpersu aded
a vering
Ġan astasia
Ġbur ial
Ġform ally
h us
Ġh ooking
Ġfo e
gl ad
Ġcurt ly
flo or
Ġmer lin
tra vis
Ġprom otion
under stand
sp ass
Ġcomplain ts
Ġall er
Ġcruc ial
Ġch ore
Ġv antage
Ġad ept
Ġmin es
Ġmin ions
Ġwre cked
Ġplot ting
Ġqual ified
Ġgrotes que
Ġcould ve
Ġac hes
iss ance
Ġrequ ests
Ġv ane
Ġal fred
fore ver
Ġserious ness
Ġwarning s
Ġun real
ol is
ah o
rel ax
Ġsciss ors
Ġright eous
Ġmon ument
oren ce
r oth
Ġco b
Ġsor ting
Ġvale t
Ġrestrain ts
is ive
th ick
ure ka
Ġob nox
is ie
as is
Ġr ak
blood ed
surprising ly
Ġh ides
Ġc ages
Ġinsp ecting
Ġstrang est
Ġco arse
Ġwis er
Ġinc oming
Ġbat tled
near ly
Ġeman ating
Ġam mo
aw ed
Ġdepos it
Ġem ber
Ġke ira
Ġshel tered
br ady
Ġny mph
Ġor acle
Ġdom en
Ġleon ard
concer ned
Ġl ent
Ġsand ra
Ġgut tural
pe are
Ġsun ken
Ġins ults
Ġtravel ers
Ġshut ters
Ġbeard ed
a j
Ġv and
Ġgr ues
Ġam ple
Ġshred s
Ġexpect ation
Ġneighb oring
fun ction
Ġinter ference
Ġi c
im ir
ink s
t ails
ion ed
jud ging
d ies
Ġf ug
Ġpr iceless
Ġconsequ ence
Ġbe ige
tern at
Ġcompl iments
Ġban ana
Ġky rian
and ro
Ġvi be
Ġre acting
de us
Ġaut hent
Ġseet hing
Ġcount enance
Ġr oused
Ġbear ings
Ġh ou
Ġag ing
Ġun for
blood y
fic ial
p ion
p icking
Ġs ash
Ġc ec
ass uming
Ġsw itching
Ġint ake
Ġbri ggs
Ġroyal ty
Ġunderstand able
ipp i
Ġsock ets
Ġhome coming
Ġma ia
Ġsol omon
Ġsav ored
dec lan
Ġmole c
Ġsp ice
Ġsim i
gg ers
Ġrev ulsion
Ġswe aring
Ġbelong ing
Ġtrick ling
Ġde arest
ass ie
ol i
elt a
Ġheart ache
Ġting ed
Ġastr on
l il
Ġen for
Ġgr ated
Ġpro claimed
Ġprocess ing
Ġasce nded
en cing
Ġmar veled
Ġcr inkled
Ġboyfriend s
Ġhumili ated
art agny
Ġmother fucker
Ġdist ressed
Ġrecom me
rou ded
Ġdec re
Ġbod ice
u ki
might y
Ġclim bs
Ġscott ish
ec hes
Ġle igh
Ġunivers al
Ġunw ra
artagny n
Ġp ets
Ġab raham
Ġpu ke
Ġdizz iness
Ġl othaire
Ġpul s
Ġmap le
Ġtrop ical
Ġsam my
Ġann ivers
Ġbrid get
Ġsuffoc ating
Ġd ahl
to ck
Ġro sal
Ġnew found
Ġch i
Ġident ification
Ġpad dle
Ġbe f
Ġget tin
Ġsub s
Ġve t
Ġjer icho
Ġinh uman
Ġw ired
Ġmilit ia
Ġinsign ific
Ġgrues ome
Ġco des
Ġsur m
ann ers
Ġact ors
Ġkind er
Ġpil ots
Ġexpert ise
Ġdaunt less
Ġslur red
Ġab bot
Ġfour s
Ġbrew ing
Ġmanic ured
Ġmad man
Ġqual ities
if ies
Ġlou ie
Ġr hea
Ġbunk er
Ġmet icul
Ġassign ments
din ner
l uther
Ġk ore
Ġse ating
Ġsust ain
per t
Ġref usal
Ġindepend ence
m atic
Ġspr aying
rem iah
mark s
b ear
Ġa er
Ġha cked
Ġav alon
Ġdraw ings
Ġdumb founded
Ġd ashing
Ġcount ess
Ġwrigg led
Ġorder ly
Ġinterrupt ion
Ġp unk
Ġgre aves
Ġaim ee
Ġsp aghetti
pow ered
im ented
g w
Ġt ame
ut on
Ġrepe ats
Ġroof top
Ġtheres a
Ġnight fall
sec ret
Ġjax on
Ġaggra v
Ġsh hh
ol an
Ġdis rupt
Ġunc ons
sm art
m ama
it an
lo cked
bur gh
Ġblo omed
Ġer ica
Ġprop het
Ġcreep s
t ick
Ġbum per
Ġcate g
n adia
Ġst ashed
Ġjack s
Ġevery ones
uc kered
Ġlay len
Ġloung ing
Ġha ught
ru d
Ġhaz ard
Ġgoof y
d ue
Ġd irk
Ġk ah
ist air
izz ie
Ġintim ately
Ġclar issa
Ġaspect s
s in
Ġa eron
Ġhesit ating
Ġadam ant
poss ibly
Ġc asket
at us
Ġag itation
Ġunif ormed
Ġpisto ls
rane an
Ġtim ber
ange line
Ġstroll ing
Ġecon omy
Ġno va
Ġqu en
Ġhar mon
l ash
Ġele ction
Ġmort imer
Ġapprox imately
Ġst ooped
Ġr oo
ful ness
Ġcam ille
Ġwo bbly
Ġjew s
Ġj ak
Ġent icing
Ġtalk in
yes terday
Ġaud itor
b ee
if ference
Ġun finished
Ġfl itted
ser ge
Ġpar am
Ġhoriz ont
p ast
they ve
Ġz ig
Ġcold ness
Ġsuper vis
Ġaccus ations
Ġbun ny
Ġpix ie
Ġk le
os c
Ġbre nt
Ġclos eness
we nd
Ġexpression less
Ġtin iest
Ġunset tled
Ġsa ff
Ġblo g
ev a
gthe ned
ort ant
Ġap ocaly
Ġaf ghan
Ġju dy
prep ared
ber to
tell ing
Ġbe v
ger ald
Ġcand i
Ġron nie
Ġb ane
Ġpo ly
Ġit ching
Ġca ffe
Ġcorpor al
Ġj ets
Ġen qu
Ġpre ternat
Ġmu dd
Ġve ered
Ġpath way
Ġph oned
che res
Ġray mond
Ġl ousy
gh ast
Ġbath tub
Ġtheat re
am ong
Ġrem inis
Ġsw armed
Ġb rett
li pping
Ġrece ip
Ġconver ted
Ġrecip e
Ġdra gs
Ġze al
j asmine
Ġw ards
Ġmiss iss
Ġcha otic
Ġreser vations
Ġparticip ate
Ġth o
le ah
Ġam ar
w ig
Ġc akes
an as
car ol
Ġvic iously
Ġlook in
Ġsal uted
Ġinter state
Ġcons um
Ġthin ner
smo ke
Ġlo go
j ew
Ġw inking
le vi
Ġre hears
Ġcoll in
adel ph
Ġbl aming
do ck
Ġdist raught
Ġeduc ated
Ġjo ints
iv able
Ġmagic ian
ry s
Ġser ver
Ġcompet e
Ġpiss ing
Ġbeat rice
Ġchick ens
Ġdisbel ie
Ġroy ce
d ig
Ġele cted
Ġam ate
Ġbra ke
Ġeight h
Ġj ars
Ġrest lessly
Ġbur ly
Ġthroat s
c ong
h ur
Ġe ly
Ġtre spass
Ġancho red
Ġgr acious
Ġca it
Ġimm inent
Ġvictor ian
Ġskim ming
Ġcontain ers
Ġin advert
ch i
Ġdear ly
mark et
sky e
am azing
gr anted
Ġmist aking
ix on
Ġfire light
Ġmons ieur
ver ity
ick ers
Ġgu ides
Ġesc apes
Ġwicked ly
scar let
Ġbon fire
Ġrans om
s lo
ar an
Ġcarn ival
all ister
Ġvi king
li pped
Ġwall ace
Ġnud ging
Ġgn ar
Ġdat ab
c ans
Ġtract or
Ġlimous ine
Ġprinc iple
u z
on ia
Ġst ages
so aked
Ġunc les
Ġon coming
em er
Ġmiss es
Ġbrist led
Ġser ves
Ġsign aling
Ġcreat or
Ġpl uck
Ġelb owed
w ake
Ġball et
Ġv apor
Ġexplan ations
Ġree ce
Ġg ou
Ġsin clair
Ġstif ling
am ation
Ġmo squ
Ġsc ored
Ġper ception
Ġres ulted
Ġshow ers
Ġbren na
Ġeu ph
ack le
Ġcl ueless
Ġbet a
Ġgregor i
Ġgobl ins
Ġbour bon
s ave
Ġsyl vie
Ġb il
Ġch al
Ġcr ane
Ġk athy
ss on
Ġwar lock
Ġconst able
Ġv iet
Ġchel sea
Ġwe ir
Ġdr ool
c age
s ister
the m
Ġex its
Ġrhythm ic
vol ent
Ġrey nolds
z ied
Ġass essing
Ġthr ashed
Ġsens ors
wood s
Ġchick s
u gs
ot hered
Ġhome made
Ġbrief s
Ġbust ling
Ġk an
Ġswe ats
st even
aren ce
Ġno el
Ġcon or
Ġport land
m akes
wal ks
reluct antly
Ġunt ied
Ġchallen ges
Ġirre le
Ġgoble t
Ġcl int
ili pp
Ġluc ius
Ġprogram s
Ġcomr ades
Ġstocking s
or ic
ar is
Ġquar ry
Ġst ating
act ive
Ġref uses
mic ah
Ġdoor frame
Ġdef ine
le m
fall s
im a
sam uel
Ġearthqu ake
c ash
be ard
Ġnew born
Ġb is
Ġbeh aved
Ġmart ial
Ġanticip ating
Ġwise ly
Ġinsist ing
ol s
co dy
Ġwigg le
g ically
ev idently
breat hing
Ġquin lan
r immed
bec ky
et ics
Ġk ra
Ġsub tly
Ġfrag rance
g it
Ġ2 9
p am
z ac
Ġo st
Ġne lson
ide red
bb s
uh l
Ġaltern ate
Ġins ists
Ġsecl uded
b ank
Ġfo il
Ġpip ed
Ġlo ses
Ġtext ure
Ġobt ain
Ġthumb ed
Ġapp lying
bb ish
Ġco ating
Ġbro dy
Ġpl ugged
Ġdef iant
Ġlore n
Ġapologet ically
a ed
Ġal ab
Ġwhimper ing
Ġferoc ity
Ġund ressed
jose phe
Ġju icy
Ġacqu ainted
Ġinvent ory
Ġg ina
br ook
sl aught
ham mer
Ġbatter ies
Ġsoft ening
Ġoblig ation
Ġsplend id
Ġmississ ippi
Ġcur ts
Ġclo aked
Ġpart icles
sil ver
Ġgr ac
Ġwin ters
Ġstere o
Ġbe aded
Ġwell ing
Ġfirst hand
Ġunb uck
Ġsn ot
Ġhor rid
Ġalley way
Ġemploy ment
Ġdece ased
Ġas c
Ġfre aks
ot to
cri bed
step hen
dark ness
c aine
Ġfun ctions
Ġang rier
Ġannivers ary
Ġb mw
ath a
Ġaw aken
Ġcho pped
Ġfianc ee
Ġvoy age
Ġl loyd
Ġper me
Ġev alle
mill er
iet ta
Ġluck ily
Ġdun no
Ġpass word
Ġblood shot
Ġcol umb
dim itri
j ama
v ag
Ġcon cussion
p ay
Ġbed ding
v ised
Ġha le
Ġtw inkled
occ asion
Ġf ainted
Ġdef iantly
Ġd ances
Ġper ked
Ġtax es
Ġcaval ry
Ġdump ster
Ġsupp le
Ġblind fold
Ġobs idian
Ġatl antic
bel garath
Ġb aw
Ġu gh
Ġj aim
Ġv intage
Ġter se
Ġindul ge
Ġrul ing
adelph ia
Ġf ooling
Ġwar ner
Ġpun ishing
Ġintrod uctions
Ġtyp ically
Ġbe thel
Ġrel ish
ez vous
Ġemb assy
Ġso viet
Ġher ald
jo ining
n ames
Ġvan ishing
Ġbod ily
Ġprov oc
Ġprevent ing
Ġscor ching
Ġr ation
est one
Ġqu entin
Ġyel p
is ation
Ġtodd ler
Ġannoun cing
Ġtox ic
Ġs ans
Ġb anter
Ġth irties
Ġvolcan o
Ġfr aud
ab igail
k h
Ġfil th
g riff
ro bin
Ġro c
Ġbrand t
ly de
da wn
Ġmarking s
ri um
Ġind ifference
Ġmill ing
Ġexhaust ing
ood les
Ġcour thouse
Ġjag uar
Ġsie ge
Ġnic olas
Ġelev ated
Ġyawn ing
Ġmat ted
Ġboy ish
Ġext ract
azz i
Ġsc a
Ġmount ing
Ġplag ued
n ian
Ġp uckered
Ġdar n
p ool
anc o
Ġbab bling
Ġpen al
udd ing
Ġrestr aining
Ġbre eches
p ers
Ġp int
Ġcalm er
Ġcontract s
Ġt iled
Ġafter math
Ġnotep ad
Ġmor g
shad ow
re le
Ġz en
ins ley
Ġmusic ians
Ġgene vieve
Ġmax well
Ġvir gil
Ġg ryph
Ġfloor boards
or gan
orn s
Ġtact ic
Ġaly ssa
m oney
st aff
Ġredd ened
Ġfl im
Ġcre scent
t ion
Ġsal ary
Ġsteady ing
Ġv ary
Ġem mie
Ġconj ured
Ġre eled
Ġover re
Ġcra b
f us
Ġjer ky
Ġmort ified
spe ed
rh ys
Ġl us
ret ion
Ġmon ks
Ġsky ler
Ġcre v
Ġcompl ied
Ġgarden er
cass idy
Ġnave l
he le
en na
app o
Ġinter pre
Ġwest on
Ġmil ky
Ġvirt ue
Ġunbelie vably
l ia
Ġecl ip
ar us
Ġmust y
Ġshakes peare
def ense
Ġtre ason
after ward
Ġmid air
Ġtele port
il ogue
Ġinter tw
Ġcolon ies
se rena
Ġknowing ly
Ġlegend ary
iz ations
Ġling erie
Ġa rian
Ġar nold
cl othes
Ġsult ry
Ġsto ic
Ġscra ps
Ġjan ice
need ed
Ġtail ored
Ġrend ezvous
Ġgo sh
Ġal arms
Ġcur s
Ġinst all
Ġinclud es
Ġripp les
Ġsm other
ib hear
Ġkid nap
ot tle
ri g
Ġmo ses
Ġnew t
Ġf iend
Ġso d
bod ied
Ġl ino
es the
Ġlength y
p reston
Ġun har
Ġher b
Ġpre jud
Ġmic key
ab lo
Ġwor ms
Ġtim id
Ġlove making
Ġimm ac
Ġbeep ed
Ġpredict able
Ġd umping
Ġmy ri
Ġbr us
Ġlight house
Ġrecord er
Ġdistr ust
Ġs issy
r ants
Ġp ors
ri ans
Ġzo omed
Ġsh ri
un tle
Ġpo lo
Ġmor gue
Ġauth ors
Ġpred atory
mad ison
Ġhav oc
Ġillum ination
Ġparanorm al
Ġco cks
grand pa
h ah
Ġhumili ating
c ru
ir able
Ġawak ening
ac cept
Ġno bles
Ġman us
Ġsc ant
Ġenc ased
Ġband aged
Ġunw elcome
Ġisol ation
Ġcour ses
cl im
Ġcat ac
Ġdim ple
Ġdescri bing
Ġdesign ated
mag ic
Ġswer ved
Ġfree way
Ġbother s
nd o
th s
Ġout doors
Ġsuz anne
ons ider
aud rey
Ġcobb lest
rent ly
Ġviv ienne
Ġstain less
Ġd illon
Ġst ilet
war ren
Ġclust ered
Ġbryn na
p ity
Ġany how
Ġrel ate
bl er
Ġunder cover
Ġmain e
Ġoutrage ous
Ġb enson
ol ate
Ġpass ages
Ġfinger prints
Ġobs ess
Ġdisple asure
Ġle aps
Ġret ort
e ur
g ill
Ġsn ag
rol im
~~ ~
Ġmult ip
Ġd ile
em ents
Ġtut or
cross ing
Ġtestim ony
Ġbe ad
Ġsaus age
ce nding
Ġentw ined
Ġnothing ness
Ġway ward
Ġinter action
Ġfav ored
start led
dal ton
Ġgerm ans
car los
Ġperio ds
Ġgall ey
Ġimpass ive
Ġread ers
Ġsymp ath
Ġtrent on
mal colm
cra zy
Ġim ple
Ġdeal ers
ep h
Ġgrand children
Ġgr unting
Ġexplos ives
Ġs ill
Ġtang ible
Ġpoison ous
Ġglimps es
Ġp its
Ġde eds
Ġend lessly
Ġgrump y
Ġon slaught
mur phy
and ers
Ġab om
Ġbur ke
Ġbra w
Ġtack led
h air
Ġwh ips
Ġpin ching
Ġexist ing
Ġmate o
ado gan
Ġoverpower ing
Ġ ou
Ġc aged
Ġd ived
Ġbur d
mel anie
Ġenth r
Ġman ly
fr ancesca
Ġwork shop
Ġi pod
Ġg ild
Ġflu orescent
Ġorgan ic
Ġappo int
Ġd ice
Ġg urn
ul ator
we ed
Ġangel ic
Ġtranqu il
Ġbar bec
Ġphil adelphia
Ġcol oring
Ġsec uring
Ġlad en
m um
ans wered
Ġpl edge
Ġun ch
Ġabsor bing
Ġwith stand
Ġen ig
Ġprocess ion
Ġall en
Ġte ren
Ġrele vant
friend ly
Ġthunder ing
Ġgown s
Ġdim ensions
Ġsp ain
Ġbo ast
Ġcrack le
Ġlock et
Ġcher ished
mad eline
surpr ised
Ġfulf illed
Ġhorri fying
Ġunre ason
Ġnonchal antly
Ġbem used
Ġgrie ving
Ġtri als
Ġdon ned
interest ed
Ġhair cut
Ġj inn
Ġen com
ince wind
Ġj igg
Ġdwell ing
Ġuncons ciously
so fia
Ġmu ck
Ġruss ians
Ġjen kins
lest on
Ġmotiv ation
Ġk as
Ġdis hon
Ġbu ds
v ance
Ġfr at
Ġgir ly
Ġtight ness
Ġaff irm
aff ected
Ġdecl are
Ġdrum med
Ġacknowled ging
Ġmerch ants
Ġin dy
le a
Ġre pt
ann is
Ġhy brid
Ġunchar acter
Ġpr ank
Ġoh io
Ġlux en
Ġsp icy
Ġspeed s
ell er
Ġthr ottle
Ġfl inging
Ġdis order
m id
Ġm ice
all ison
Ġfo ggy
Ġhung rily
l ake
Ġinsignific ant
Ġauditor ium
Ġpl owed
Ġprogram med
Ġregina ld
Ġi z
h ound
c ott
Ġsm it
Ġexp elled
Ġem bers
Ġshrie ks
Ġdomen ico
we bs
Ġrespons es
Ġterror ists
Ġfre aky
Ġirrele vant
y the
Ġh oof
en et
l orn
Ġp es
Ġhal ting
Ġtreas ures
Ġcomp act
ez io
l izzie
ary a
Ġsecret ive
Ġha g
Ġwell s
Ġspell ed
Ġfunction ing
Ġdissip ated
Ġg rolim
Ġsl ain
Ġwhere as
Ġoccup ants
du ke
bl own
Ġsub mer
uls ive
Ġel aine
Ġrose wood
Ġadministr ation
Ġon ward
be an
Ġprod ucing
Ġw anda
Ġhard ware
Ġcurrent s
Ġcheek bone
Ġadvert ising
Ġch ided
Ġprop elled
Ġstiff en
Ġreverber ated
Ġprog ressed
Ġst ryker
Ġcont ag
Ġob liter
sw allowing
quo ise
Ġr hett
Ġop h
Ġfe nd
Ġfidd led
carm ine
Ġpark s
Ġmanus cript
Ġfor ge
Ġass ert
Ġtem pl
Ġshirt less
Ġmail box
Ġfund ament
Ġpolit icians
Ġcit adel
Ġshadow hunters
Ġciv ilians
Ġmant el
Ġsa gging
Ġmar red
Ġbit ches
Ġhost ility
Ġg hou
Ġst am
Ġfr inge
Ġdec line
Ġinst itution
ster n
Ġver a
Ġcard inal
il o
Ġcl air
Ġsleep s
Ġhot test
tr ack
l aid
Ġh iring
Ġf auc
Ġstri pes
Ġclut ches
hear tedly
Ġchim ney
Ġhair line
k id
and o
Ġsav ior
Ġover r
Ġjill ian
Ġresur re
c ore
Ġpol ar
Ġshoot er
Ġdust ing
Ġthu dded
Ġmisunder standing
ul ative
Ġmar gin
Ġboun cer
Ġsl ashing
Ġarr anging
ing ale
Ġsl ime
Ġfl ank
Ġbar ak
Ġpack ages
Ġwo ve
Ġbre eding
Ġlist s
Ġsaf est
Ġjoy ah
fact ly
ick i
Ġjack ass
Ġann ual
Ġoptim istic
Ġegypt ian
Ġle m
Ġaw ed
Ġpa ired
Ġbl aine
Ġbutton ed
Ġdream t
Ġb amb
Ġsh ipping
Ġpassion ately
lu is
Ġliter ature
Ġoo zing
r ine
Ġcr umble
Ġinc idents
kell an
Ġsp art
Ġsc rolled
Ġsubmiss ive
Ġgr ady
Ġbar red
Ġtwig s
Ġunhar med
h ours
Ġhang over
Ġp elt
Ġle opard
Ġfin ch
Ġwar ped
Ġcle ment
Ġbehav iour
Ġhand gun
Ġdecided ly
Ġdismiss ively
Ġlun ge
Ġveget ation
Ġtipto e
Ġfidget ed
Ġyouth ful
asar ala
2 3
Ġfar thest
Ġbel ts
Ġsy rup
Ġamaz on
Ġfren zied
raph ael
Ġslim y
Ġcarn age
Ġjut ted
k ov
n ys
Ġm m
Ġqu er
Ġexert ion
Ġet c
writ ten
Ġrun g
every where
Ġintu ition
Ġl ops
am eric
bb a
Ġble achers
cal vin
il ian
Ġte gan
Ġlight ed
Ġreg al
Ġken zie
b out
Ġun to
Ġhome land
Ġtray s
Ġhyp oc
Ġsc am
spe ak
Ġd um
Ġr ally
Ġr ambling
Ġgre ens
Ġmir iam
Ġsweep s
Ġscru bbing
Ġmemor ized
Ġconserv ative
Ġb ened
Ġvol umes
Ġdiscreet ly
Ġoverfl owing
b lock
Ġgra v
Ġur ges
Ġmal ice
Ġire land
godd am
t ab
Ġre med
Ġman gled
Ġtra it
Ġtier ney
j ade
imp oss
occasion ally
Ġboo st
Ġrack et
Ġcom ic
Ġpro c
Ġexp enses
s ent
Ġnegoti ate
Ġsimpl er
Ġgo ats
Ġflick s
bare ly
Ġcrick et
Ġl aps
Ġam end
Ġindign ation
Ġte nding
Ġbe gg
Ġfuel ed
Ġsmug ly
Ġfortun ately
Ġcoax ed
el in
Ġster ile
Ġembro idered
d ana
Ġfift ies
ick ering
Ġdis gr
Ġv aulted
ll ing
Ġup ro
jan et
Ġspa wn
l aine
ield ing
Ġinf amous
Ġcyn thia
Ġench ant
Ġaj ar
Ġun sc
Ġbat he
Ġdu pl
Ġpr ices
Ġbra ided
Ġtroub ling
Ġcoy ote
e ating
Ġsuit cases
Ġcost umes
Ġflag s
Ġvibr ations
Ġexpert ly
Ġdecor ations
Ġsher ry
Ġarchitect ure
stru ck
if es
Ġmass ac
Ġrue fully
st yx
Ġed ging
Ġrome o
y r
li hood
Ġpav il
Ġbo one
ab ilities
bl ade
r ative
Ġp ike
Ġtr uce
Ġun pack
Ġran n
Ġlim ping
Ġspir aling
Ġflim sy
Ġl anes
Ġmiss y
Ġman ages
ress es
Ġgate way
Ġg aps
Ġbook store
Ġc adogan
Ġsqu int
Ġobst acle
l am
Ġd iane
Ġcom in
Ġmet res
gu ys
ja enelle
f resh
Ġj ael
Ġcl ums
Ġstom p
rum s
Ġhe ft
Ġre hear
ell ar
Ġweakness es
Ġinev itably
Ġbr ides
Ġthroat y
Ġtur quoise
Ġaffection ate
Ġturn er
sy n
Ġsurve ying
Ġenvision ed
Ġdec ay
Ġbreath y
Ġcond es
Ġsust ained
Ġward ens
Ġclam bered
Ġabd ucted
Ġwist ful
Ġgas oline
Ġtour nament
Ġparano ia
Ġinfer no
ell iot
Ġbrut ally
Ġsw iss
Ġvoice mail
Ġcor al
Ġneck line
Ġfear less
fl ower
gen er
Ġcro ps
Ġcomprom ised
Ġn ag
Ġst unt
Ġse asons
per ry
Ġchandel ier
do ctor
Ġhamb ur
ri ver
Ġgar rison
Ġsha ving
Ġponder ing
Ġlops ided
Ġsc ald
Ġdisag reed
Ġshak ily
Ġb apt
Ġstan ley
hus band
sto pping
Ġswat ted
Ġtous led
Ġlook out
Ġmean while
Ġsuff iciently
Ġobnox ious
lo yed
Ġret ro
Ġhmm m
Ġoppon ents
lode k
ib ble
Ġpad ding
Ġming ling
s ant
er ns
Ġlay out
Ġunner ved
t aker
Ġgau ze
c atherine
Ġwill s
Ġjohn s
Ġshir ley
sp ike
Ġbar ing
Ġacc use
Ġvill ain
Ġtechn iques
Ġcooper ation
j ar
Ġar sen
Ġlouis iana
Ġsalv age
Ġcrypt ic
s age
Ġfl orence
Ġbord ered
Ġkal ten
Ġsecond ary
Ġny kyrian
Ġfore ns
il ize
ph ine
Ġdev ils
Ġfood s
Ġresour ce
Ġoccup y
Ġga untle
Ġal aska
Ġr ake
Ġtu xed
Ġtiss ues
Ġn ip
ar thur
Ġref resh
Ġsem blance
Ġset up
Ġstor my
Ġdub ious
ir cle
li ved
Ġcart s
Ġpro jected
Ġgra ze
Ġir regular
Ġcamp fire
Ġtap es
Ġwrest led
Ġcudd led
f ury
Ġpred ators
Ġho ckey
Ġform ula
Ġdile mma
f olded
er ment
Ġcyl inder
m ina
Ġhad ley
Ġmir th
Ġprofess ors
Ġce il
pid ation
Ġcustom ary
Ġfurn ished
Ġatl ante
Ġnov ak
Ġbisc uits
Ġa insley
Ġk aitlyn
Ġvolunte ers
Ġinadvert ently
Ġm ashed
et ed
Ġmet e
Ġtick le
min utes
Ġreassuring ly
Ġforce ful
Ġawkward ness
Ġced ar
c racy
i ably
ort on
Ġreg ards
Ġmurder ing
ee ee
Ġber ries
Ġmaid s
re pl
ag ent
Ġfo oth
Ġobsc ene
Ġrecomme nded
d anger
Ġmed s
Ġaband oning
Ġy uri
Ġout raged
Ġtr ains
Ġwa ff
ans wer
Ġadd ison
ha iley
Ġsumm oning
Ġsubur ban
Ġme and
Ġreal ms
Ġcamp bell
Ġhand shake
Ġbat ch
Ġlant erns
Ġki ara
ld or
Ġperse phone
ar ic
Ġmy ra
aus ible
Ġsc um
ib al
Ġvibr ate
y rin
Ġan ew
Ġcaffe ine
ort ions
Ġgar ments
Ġl ime
Ġext rem
Ġre ne
sp ot
Ġleg ally
Ġamb rose
mist y
at is
no ff
num bered
Ġbund led
e er
Ġpleas ing
lau rence
Ġfingern ail
Ġst inking
Ġblat ant
2 5
Ġk hal
ch amber
Ġde cept
Ġlo b
Ġ201 4
ort ment
Ġmu le
Ġty rion
clo sed
Ġaccompan ying
Ġshe ila
Ġroof s
Ġclam my
Ġb ah
Ġhou ston
Ġde fect
Ġgl ac
Ġins in
jul es
Ġclas ping
Ġit ched
Ġrespect ive
Ġobject ion
Ġo re
Ġd elta
le i
Ġmay fair
here s
Ġbill owing
Ġhen ce
Ġassass ination
Ġwigg ling
Ġj or
ge orgie
Ġdistinct ive
Ġk ansas
Ġso bered
sho cked
Ġf ern
aa aa
g all
Ġwas tel
Ġsto cked
Ġdev ious
ver ted
Ġloo ps
Ġprent ice
Ġtelepath ic
Ġsl ayer
Ġcor inne
Ġsal i
Ġc um
Ġpro be
Ġrem y
Ġbra very
Ġmont ana
Ġr acked
Ġpa jama
Ġlab yrin
ring ton
dar ius
half way
ry l
Ġdaim ons
Ġmontgom ery
Ġmosqu ito
Ġsm othered
Ġk ai
Ġacc idents
Ġinc ess
Ġdaim on
Ġappro ving
Ġcar r
sp read
Ġextra vag
Ġacknowled gment
Ġin vested
Ġchest nut
Ġs ips
Ġl ashing
Ġplate au
Ġdisbelie ving
hmm m
Ġtel esc
ll is
Ġz ander
Ġexpect s
ron an
Ġbust er
Ġalc ide
det ective
th rowing
Ġcamoufl age
Ġpo inty
uck y
log ue
Ġcrumb s
Ġs ierra
Ġg av
Ġsa bot
Ġimp erson
Ġni bbling
jer ry
Ġcont racted
for give
Ġint el
Ġwalk ers
Ġbold ly
s an
omet er
Ġnotor ious
Ġex ile
Ġmer ged
Ġblood line
tal on
Ġcondem ned
d oub
ear lier
Ġtent acles
Ġench anted
oo o
Ġed gy
Ġgener ator
Ġknuck le
Ġbik er
Ġin ching
Ġequ ation
Ġchemical s
Ġprosec ut
j as
Ġkh aki
s aken
Ġlemon ade
Ġb ung
Ġha ph
ce la
us ively
Ġsl icked
Ġham ilton
Ġceil ings
f a
ist ry
Ġunf ur
Ġdimin ished
Ġh ounds
Ġal mighty
ated ly
Ġsib yl
Ġtransf ixed
Ġhaph azard
Ġass urance
Ġcam den
Ġpreternat ural
Ġport able
is abel
Ġgood byes
Ġfig ur
Ġacqu ire
Ġkn itting
Ġpat ty
ll i
Ġy ar
Ġinv inc
sm ile
Ġfurn ishing
Ġalcohol ic
Ġhust led
Ġt s
Ġha uk
Ġmar ion
Ġpal er
Ġbio logy
Ġecst atic
Ġgnaw ing
bo ding
Ġvo iced
Ġf ences
Ġgo ver
Ġdrum ming
Ġdemonstr ation
Ġcaution ed
Ġe cc
st ro
Ġan at
ij i
Ġsw an
Ġhorse back
nat ured
Ġundo ing
Ġch ipped
Ġcon text
mit t
Ġpsych otic
he avy
am an
Ġting les
Ġped al
Ġdemonstr ate
Ġj um
Ġmo g
Ġdeep ening
Ġexpert s
Ġgnar led
Ġn our
Ġlong bow
Ġmar athon
Ġlay ton
Ġlind sey
Ġmetaph or
Ġjust ified
Ġconf ided
Ġext racted
Ġimm ig
Ġmont y
instinct ively
er ted
Ġsh abby
Ġmicro sc
aly a
Ġmc donald
Ġasp en
Ġdevil ish
Ġr acks
Ġfar ms
Ġgro ped
acher on
Ġconfir ming
Ġram sey
ij ana
Ġbewild erment
Ġbat ted
Ġnumb ness
l ind
l ara
van ia
pier ce
cept ible
Ġrein forced
Ġflour ish
b ard
v il
Ġarcher s
Ġsurviv or
Ġoo zed
Ġshould ve
Ġcrack ers
Ġoper ated
Ġsant iago
Ġwe lf
Ġbice p
r d
br ina
Ġg amble
ren na
Ġz ayne
Ġbag gy
ot hing
Ġrab bits
Ġsale m
ian ez
Ġbal ancing
Ġshore line
b ret
k u
Ġl anc
ly ph
Ġtre pidation
Ġdefl ated
Ġshrew d
th orn
Ġun happ
Ġpsych ological
Ġdrift s
Ġc ort
Ġsm ear
Ġhyster ically
Ġpump kin
anche z
d iana
Ġloss es
Ġimmense ly
p ical
Ġhe ave
Ġcont ains
Ġshad ed
Ġdivers ion
Ġgrudging ly
Ġc ured
Ġass et
Ġhit ler
Ġtri vial
Ġcr amp
Ġund ress
Ġinvol ves
Ġult ra
Ġstar ve
Ġheart y
Ġdisli ked
u ber
Ġp ing
Ġam en
Ġmeas uring
Ġbo oted
Ġsl ade
Ġchar ley
Ġdan ika
Ġdisc lo
Ġblast s
Ġbuff alo
Ġmyst ical
Ġplan ks
Ġspend s
Ġamb ition
j eez
and ria
Ġlo ads
Ġpro ves
Ġun fast
Ġaccur ately
rak ian
Ġhypnot ic
h m
Ġl urch
Ġdin ners
Ġlive ly
Ġdev ouring
Ġrepresent ative
Ġouts ider
Ġpum mel
h oney
Ġho bby
Ġsol ace
Ġfil ms
Ġdiv ide
Ġpuff ing
Ġsumm it
Ġver b
par is
Ġtrans mission
viv ian
Ġh ark
Ġlab s
Ġbeck oning
Ġcomp on
Ġro l
pr ince
Ġbas il
Ġlus cious
Ġsh ined
Ġpe a
Ġstall ing
Ġpors che
Ġth ur
Ġlo ki
Ġtri but
su per
Ġmer rill
Ġmechan ic
Ġres ulting
Ġvide os
Ġencirc led
Ġcon ting
ens itive
cr atic
Ġsizz ling
Ġto yed
Ġr amb
Ġveget able
Ġm ul
on to
Ġal um
Ġun rel
Ġche ery
Ġsculpt ure
Ġt amp
Ġun affected
Ġmon aster
cur ran
yell ow
n ia
Ġbo som
Ġcarto on
Ġstret cher
Ġscurry ing
gr ate
Ġmiss iles
Ġhead phones
Ġthink in
Ġmet er
Ġjud ges
Ġgab by
pain ted
Ġd ime
au m
Ġank h
Ġval ued
Ġun blinking
mm m
Ġtar n
Ġspect ators
ch ange
th row
eless ly
Ġwelf are
we ird
Ġcor p
Ġthom pson
Ġb ing
Ġaw ait
Ġgr umbling
real izing
Ġrandom ly
at ics
Ġbot tled
Ġdelic iously
Ġalleg iance
en c
to k
Ġmin ing
Ġru bbish
Ġmist s
enet rable
to e
Ġdis ney
Ġsing ular
Ġinfl icted
th ird
whe el
Ġbru ising
r ann
Ġto ned
Ġup s
Ġsque aling
Ġpron ounce
lo v
Ġange red
cus s
bod ies
Ġ9 11
Ġp ia
Ġal icia
Ġf umes
for cing
Ġchest er
Ġp ou
Ġdismiss ive
Ġconver se
Ġscenar ios
tw elve
ribut ion
Ġfor lorn
Ġj ub
Ġcant een
Ġkee ly
Ġfl int
Ġgl ue
Ġdem ol
Ġupset ting
Ġprec ip
Ġth udding
Ġimprove ment
4 7
b able
Ġstu por
Ġur ban
Ġcho pping
Ġjac ques
Ġlur ked
Ġintr usion
Ġpsychiat rist
Ġtest ament
ver on
Ġli gh
Ġbu cking
Ġpriv y
Ġperipher al
str ing
liter ally
l ance
in as
ic uous
Ġr ift
ent on
Ġhar low
Ġmil o
Ġdry er
Ġsignific antly
Ġga ius
Ġnavig ate
grow th
Ġban quet
Ġwren ching
Ġvor tex
Ġre ceded
Ġfr ayed
Ġgr udge
Ġc in
it iously
Ġdo e
ge org
con ner
Ġhosp itals
hol es
l inda
sp ark
Ġclass ified
Ġsha un
ver b
Ġal oft
Ġcan ce
Ġgut ter
prot ected
w s
st ella
ab ul
Ġra pped
i om
Ġs ated
Ġpre st
Ġdab bed
ec c
Ġhar p
p ap
Ġfore boding
Ġboss y
Ġc one
Ġme ld
Ġshare s
Ġsl ug
she e
fter s
Ġres ented
Ġsc ores
em otion
t i
Ġw ager
Ġu k
udd y
Ġ ouch
Ġr ips
Ġpe g
Ġcare lessly
Ġlast ing
Ġele nd
Ġoccur s
Ġmall ore
cond ition
as an
Ġche yenne
Ġcar nal
Ġqu aint
Ġad joining
Ġd ips
ap ollo
Ġcar amel
Ġligh the
Ġlike wise
just ice
Ġtransl ation
mem ories
Ġo ily
Ġmal ik
Ġsaving s
Ġto ken
mo s
Ġresol ution
Ġdish was
Ġobed iently
Ġchrist ine
jul iet
Ġas hen
ra ised
Ġlock ers
Ġplant ation
Ġtro phy
Ġmat ern
Ġland lord
Ġnonchal ant
Ġnor the
s af
Ġeff iciency
Ġbra v
Ġpin point
Ġmathe mat
Ġcertific ate
Ġbound ary
Ġq huinn
Ġstarbuck s
Ġam ara
Ġwid th
Ġwear iness
Ġthunder ous
remember ing
Ġrelent lessly
Ġlabyrin th
Ġb ib
Ġg ore
Ġcop ied
Ġdisgu ised
he ctor
che cked
Ġin finitely
Ġimp ecc
Ġerrand s
Ġsca ven
Ġot to
Ġhard en
does nt
Ġimpl ant
Ġbicy cle
he im
Ġwonder fully
Ġpur r
Ġcoun ters
Ġvo lley
Ġclut tered
g then
th ro
Ġhospital ity
hh h
tab itha
Ġre ds
Ġalex a
at ious
Ġfever ish
Ġm esh
Ġp ounce
Ġtooth brush
Ġimp enetrable
en joy
Ġsh ady
Ġro les
Ġbrill iance
Ġtransl ate
t ruly
Ġside walks
Ġintrod ucing
Ġkell er
Ġcircumst ance
Ġd row
Ġprecaut ion
h op
Ġr aking
Ġtri b
Ġgurn ey
n als
ra x
old s
Ġvo ss
play ing
imposs ible
c aden
ous ing
Ġpat ter
Ġcoinc ident
d strom
Ġass ortment
Ġdef ence
w anting
co herent
fel ix
Ġdeft ly
n umb
es ar
Ġch ur
Ġoppos ition
ki ara
Ġdispat ched
Ġtar p
Ġfeat ured
Ġtal en
br ooke
Ġbathroom s
Ġgad get
Ġr ails
Ġjo ck
cl aud
Ġrich ie
Ġinherit ance
Ġshould ered
Ġill usions
Ġholl and
Ġmc bride
Ġany ways
ang ling
Ġchar leston
br on
tern al
Ġaunt ie
Ġvers us
gun ner
Ġprick led
dec k
Ġsupervis or
st ool
Ġcl ump
Ġfavor ites
j our
Ġst ap
Ġforward s
Ġins ert
Ġlunch time
Ġf able
Ġv innie
Ġpa ved
Ġspr inting
Ġdisconcer ting
Ġd oo
Ġheart beats
Ġirrit ably
Ġelim inated
Ġhe fted
Ġfr uits
Ġdev in
Ġdisplay s
Ġcub icle
Ġbl ister
Ġwa ver
Ġthorn s
as ters
Ġmon arch
gw ene
Ġm umbles
Ġg ill
Ġun concerned
Ġp uck
Ġimmob ile
p ink
Ġsh rouded
Ġcondes cending
Ġp act
Ġrobber y
Ġbe ak
Ġcond ucted
Ġinterv ention
Ġinter cept
Ġtoll iver
k illing
Ġ }
Ġj it
Ġco loss
Ġsound ly
Ġaur ora
Ġcr anked
Ġcommun icating
b ows
Ġth re
Ġall an
Ġfast est
Ġhy de
Ġprocess ed
boy friend
Ġdomin ance
Ġinsist ence
Ġ201 3
f ering
Ġnight club
Ġcor on
Ġtab lo
bon nie
Ġcraft s
Ġtat um
Ġspon ge
Ġsand s
tot ally
Ġin ade
Ġbow els
Ġdut ch
Ġpour s
Ġnic ola
anton io
f ires
Ġha cking
Ġcont am
ex cell
Ġglo ck
Ġinvolunt ary
n ies
Ġon yx
ver ty
ust er
Ġhapp iest
Ġshadow hunter
Ġjud ith
Ġpl ato
Ġho bbled
p iper
Ġbo bbie
ft s
Ġdr ooling
Ġcol ours
Ġpan icking
Ġbloss om
Ġch anted
Ġsw itches
Ġbeginning s
Ġbark s
Ġoper ative
Ġfrost y
Ġsp as
Ġcart on
park er
Ġa u
Ġwill power
Ġdes olate
Ġeng aging
v ince
Ġinv al
Ġhun k
Ġpolice men
Ġrap t
Ġpra x
Ġelectron ics
Ġrin sed
u an
ast rous
Ġel ong
Ġsn uff
Ġdisting uish
Ġsh ipped
Ġheart less
Ġrecoll ection
k ier
Ġp om
Ġgl um
Ġeas ter
Ġmir acles
Ġspecim en
Ġmood y
am as
Ġbo nding
Ġcomp ose
Ġdet ach
sl iding
Ġshark s
Ġa ke
all ow
Ġbox ing
lar ry
Ġcongreg ation
Ġa unts
Ġob li
Ġembr acing
Ġsnat ching
Ġemph atically
Ġbliss ful
v lad
Ġad apt
cl ick
dar cy
sh ay
Ġrever ie
Ġsever ance
shel ves
Ġmyri ad
Ġmur gos
Ġpres umed
Ġdisag re
Ġbever ly
ab et
Ġer nie
s hing
Ġcover t
ald ar
Ġsqu ire
igg ins
Ġscra wny
d av
Ġfort ies
col by
Ġapprehens ive
Ġade quate
Ġt anya
Ġluc ifer
luc an
act ic
Ġearn estly
Ġbar rage
Ġred uce
Ġto ad
Ġan ci
Ġun att
ah s
after noon
gu ndy
ub us
Ġapocaly pse
Ġm air
Ġe there
she lf
Ġun se
Ġwill y
Ġser um
ser vation
roph ob
Ġfauc et
Ġfire fight
Ġco als
ass ed
Ġsw arming
Ġorphan age
Ġl anky
Ġed win
Ġev olved
hundred s
mel ody
Ġscraw led
am os
Ġback stage
Ġrot ated
Ġcelebr ated
Ġdisturb ance
Ġchr issy
or i
sim ple
Ġmult itude
Ġl ec
Ġcr anky
Ġta unt
Ġsupport ive
Ġday time
bag s
d led
ang ry
Ġcomp ly
Ġdesp ise
Ġcyn ical
land er
Ġjo ins
Ġnorth west
Ġscan ner
w ire
Ġadv ances
Ġassist ants
Ġsa ber
Ġdar la
Ġscru bs
b ang
w art
Ġsp ooked
Ġwhis ked
Ġbry son
Ġtipto ed
Ġambit ious
Ġo aks
we aring
Ġair lock
Ġprof use
kn ew
Ġfr is
Ġuns uccess
conf used
Ġwhirl wind
ac ies
Ġfl ats
Ġdis astrous
Ġge ograph
Ġa kin
ab rupt
Ġconf use
Ġpoison ing
Ġout numbered
Ġel astic
Ġcateg ory
grand father
Ġtriumph antly
Ġr ach
Ġgro ggy
Ġtu x
Ġtrack er
Ġquestioning ly
Ġinqu iry
Ġchu bby
Ġ ***
Ġi on
Ġwe as
Ġcons ist
Ġclim ate
Ġconj ure
fam ily
Ġghast ly
Ġon going
Ġre per
Ġdisappo inting
Ġcrit ic
cand i
Ġse iz
Ġwhis kers
Ġbas ics
Ġwrit ers
Ġorgan ize
Ġmum my
it ory
et on
Ġalex ei
Ġtab by
l ive
Ġwh ale
Ġcri b
can ny
Ġswir ls
Ġatlant is
Ġinterv als
Ġp ell
im an
em ption
Ġjo anna
Ġtarget ed
foot steps
Ġdemonstr ated
Ġpavil ion
- -
t one
Ġm ens
Ġsl ump
Ġsacrif ices
Ġdo zed
Ġsn orts
Ġla pping
Ġmort on
Ġexch anging
Ġfred erick
Ġstew art
c ils
m ile
Ġp iling
go i
Ġlif es
cle an
m ale
hard ly
Ġtantal izing
Ġra j
Ġest imated
Ġf ails
Ġforth coming
Ġrecl iner
u u
Ġun armed
call ie
wr ong
Ġis aiah
el iza
qu el
wra pped
Ġsn acks
Ġkar ou
Ġperpet ual
abrupt ly
b is
r ory
am ar
Ġsam son
Ġting e
Ġanci ents
Ġno ct
Ġblood lust
Ġcor set
Ġtur ret
Ġcoord inates
Ġs ardon
Ġev angeline
Ġtast y
Ġmike y
Ġron in
Ġecon omic
Ġtig ers
Ġverd ict
excell ent
Ġbush y
mar co
Ġwit hered
Ġdwar ves
c ial
l ins
Ġhis ses
ab as
Ġpel vis
Ġx ander
Ġwhoo sh
Ġt ensing
Ġpe re
Ġinterrupt s
the o
Ġmo scow
Ġfl ushing
Ġtur f
mad die
Ġseren ity
Ġbrav ado
Ġrel ented
Ġdeath ly
Ġlim ply
Ġwrit es
Ġinj ected
Ġlit he
Ġenjoy able
Ġcons olation
Ġgent leness
Ġf aked
on i
an ah
ra g
Ġpre tense
ail a
Ġphenomen on
b alth
Ġyear ned
pres ent
Ġsubsequ ent
Ġinv ade
Ġmarket ing
griff in
Ġchar med
mat ched
Ġd yed
Ġexec ute
Ġens uring
Ġtelep athy
Ġpublic ity
Ġrick ety
Ġinvinc ible
Ġe ard
Ġad ore
Ġval ent
Ġslo pes
Ġnin ja
g ical
er able
Ġed mund
Ġtruth s
Ġrid ges
v ael
Ġcor bin
gg led
Ġdismiss ing
Ġrecru its
aust rophob
iz zed
Ġair borne
o z
Ġcam el
Ġnarrow ly
rom an
Ġrehears al
s now
Ġb ake
Ġco con
Ġun prepared
Ġdiv ul
Ġrumm aging
oo h
Ġpres ently
Ġdown hill
sc ale
Ġrespect fully
Ġsquare s
Ġincom pet
Ġorch ard
m ick
Ġp ooling
us a
Ġgr illed
Ġcapt ors
Ġquar rel
Ġsne aked
Ġgall op
Ġunden iable
p m
Ġreal istic
ens en
Ġpast ure
Ġcred its
a vers
d aphne
Ġwe aken
Ġroom mates
Ġsub ter
Ġcuff ed
bol t
Ġfurnishing s
m ount
Ġacc ented
Ġblo ke
Ġneighb our
Ġhul king
Ġkeep ers
Ġweight s
Ġappreci ative
Ġcl arence
Ġun canny
Ġori gins
Ġjournal ist
Ġgild ed
Ġs ven
Ġas sh
ro ads
Ġel usive
Ġprotest ing
Ġde ke
Ġph ill
Ġrep aired
Ġbarbec ue
Ġobt ained
is man
ph illip
Ġraven s
Ġright ed
jon ah
m ering
Ġeng rossed
breat h
it udes
Ġbuck ets
pre hens
Ġrel inqu
Ġbra x
Ġver ify
Ġvirt ual
ire z
Ġret ribution
Ġed wards
Ġfrag rant
Ġbooth s
iche ver
Ġin coherent
Ġrep airs
Ġmaj estic
Ġo le
Ġsleep ily
Ġinex per
Ġasce nd
Ġeug en
Ġmadd ening
f ie
p i
Ġbur gundy
Ġcho ir
Ġlum inous
Ġw iry
Ġp au
Ġad a
Ġhar riet
grate ful
Ġsay in
Ġmood s
Ġintellect ual
Ġf aux
ill en
Ġamate ur
Ġa ghast
Ġcapt uring
car ly
odd ly
se i
pl enty
Ġbeh aving
Ġso les
qu een
lay ne
Ġtr inity
Ġun naturally
Ġcar bon
Ġcryst all
Ġl ured
Ġbo asted
Ġrecogn ise
igg in
Ġalle ged
dan i
Ġobst acles
Ġdoor man
ott a
Ġren na
Ġplat inum
Ġproceed ings
Ġshaw l
Ġskit tered
Ġher r
Ġout run
Ġpap ar
Ġeight eenth
luc ian
Ġregret ting
bu bba
Ġtact ical
Ġmusk et
Ġpo verty
Ġange lo
Ġdread ing
Ġch am
Ġsor cer
cra ig
Ġpunct uated
l ate
Ġse wing
Ġgreed ily
Ġb red
Ġunf olding
our se
Ġblood s
Ġrespect s
Ġfest iv
Ġinfuri ated
Ġr iddle
Ġgreet ings
Ġhi ked
Ġcontag ious
l ap
Ġdraw l
Ġfl akes
Ġstraight forward
Ġaim lessly
Ġchoo ses
Ġseet hed
ur ities
man ny
s ick
Ġarm rest
Ġrain e
d ru
le te
Ġsc atter
aw s
Ġhesit ates
Ġuncontroll able
Ġcar ib
Ġsk ate
Ġinc ar
Ġdil ig
Ġmarvel ous
k ade
Ġde uce
Ġorg asms
kiss ing
Ġclo aks
Ġsen ate
Ġnin th
Ġst alled
Ġr ains
Ġse als
Ġstorm ing
cong rat
ep ilogue
Ġhamm ond
b iting
w et
Ġim itation
Ġrep rieve
Ġt ac
Ġbu gged
Ġkit tens
Ġecon om
fig ured
Ġle agues
qu eline
Ġcar men
Ġcrowd ing
mad dy
Ġun ruly
Ġpolit ician
Ġcondem n
Ġwh ack
Ġrec y
ixt ies
le v
Ġbra zil
Ġ201 2
Ġcomprehens ion
w it
Ġre loc
Ġro ke
Ġmem phis
fer gus
Ġdiscuss ions
at ile
Ġcab les
Ġfidd ling
Ġfe athered
Ġhe ven
Ġv ult
Ġwr ight
Ġdev lin
hor se
Ġinquis itor
l illy
5 5
f ed
Ġd c
Ġencoun ters
mik hail
Ġjar ring
w ax
er ius
pl acing
Ġwr ung
oo red
Ġgr ating
Ġbro ch
Ġmer maid
Ġcru z
ele ven
Ġmushroom s
Ġcon cess
short ly
th reat
Ġbound s
vamp ire
Ġenlight en
Ġa ft
Ġsp asm
Ġover look
Ġmor bid
Ġpuff s
Ġexception ally
Ġhopeless ly
Ġw aded
Ġi rene
Ġno b
Ġcr ater
Ġalche m
Ġn ich
ar cher
Ġma urice
irst y
Ġcy cles
Ġsid este
Ġhyster ia
Ġcoup led
g ling
Ġfur t
Ġmad oc
Ġsed uced
Ġmim i
Ġchir ped
Ġaph rod
Ġelement ary
Ġsee p
Ġco il
Ġari el
tr ay
wn ing
Ġread ied
Ġreg in
gr an
Ġstri pper
Ġhate ful
Ġfr ay
ro bbie
Ġinf ir
Ġspect acles
Ġsyn the
Ġpix y
Ġethere al
ph ys
Ġband its
anth us
Ġdecor ating
Ġted ious
Ġais lin
Ġgoo gle
k ai
m ach
sh ifting
Ġdizz ying
Ġbr anded
Ġvis or
gr inning
Ġmercen ary
h aw
m ant
Ġsne aky
Ġtag s
Ġmonaster y
he ment
Ġbed time
ale m
Ġsqu aw
Ġintimid ate
Ġsc ans
Ġpro bed
Ġbar ns
Ġcri ppled
Ġhav ily
Ġthin ning
Ġfix ated
turn s
Ġtechn ician
b read
Ġsa brina
Ġro ars
iff y
Ġrust led
Ġpatrol s
Ġunle ash
Ġdatab ase
Ġc athy
Ġme ager
Ġle ant
iv ating
Ġma eve
Ġash ore
gent le
Ġst acey
Ġk ol
Ġab str
l ane
Ġho bb
Ġblur t
Ġeb ony
Ġru se
Ġinstinct ive
Ġha unches
Ġover turned
Ġtra its
ken ny
Ġvan ion
Ġkilomet ers
abul ary
Ġbl ay
Ġpl ank
Ġwill ie
ol ent
Ġcontin uous
light ning
Ġrav aged
Ġc ory
Ġon ions
Ġindust ries
ie v
dd er
Ġeng raved
set ting
Ġcounter top
Ġcoo ed
Ġappoint ments
it tle
Ġtell tale
Ġsur gical
do yle
Ġbreak up
Ġspecial ty
Ġdisc ount
sha ven
Ġrue ful
d ag
ird re
Ġpleas ures
lou is
Ġconspir ator
saw yer
g rowing
Ġg our
Ġg ait
Ġmin er
pr act
Ġind ig
Ġlear nt
Ġf ont
Ġje remiah
Ġviol in
Ġdiplom atic
Ġmo or
Ġthick ened
Ġvary ing
Ġcomm itting
b asha
Ġbl ared
Ġdig s
pen ny
Ġorche str
p ipe
re f
Ġhon ed
Ġprem ises
Ġnam eless
Ġman ila
Ġbar bed
Ġo la
lo ving
Ġex iting
Ġsmell y
sad ly
Ġcl austrophob
Ġad olin
Ġangel ina
Ġpupp ies
Ġfr ying
Ġc ay
Ġun marked
Ġp im
alex is
Ġfre she
Ġstr anded
Ġrel ied
day s
Ġlist ens
Ġshower ing
Ġcavern ous
Ġles lie
Ġreflex es
Ġapp end
Ġsurf aces
Ġtapest ry
Ġforg iving
Ġblur ring
Ġcer amic
Ġliv id
Ġpar ap
ir ies
Ġgr ime
Ġhow ls
w orn
Ġr ural
Ġse pt
Ġspar ring
Ġv oted
ather ing
Ġve hement
Ġintru ders
Ġghou ls
f aith
he ck
Ġre claim
Ġpl ausible
Ġemotion less
Ġju ven
Ġvig go
Ġding y
n ay
Ġbe ldin
ad on
al c
ff er
Ġant ics
car olyn
cross ed
om bs
Ġun imag
Ġmon keys
Ġchrist ina
Ġwist fully
Ġand ers
Ġnap kins
Ġfond ly
Ġacute ly
Ġmant le
Ġgree ce
Ġnotice ably
Ġun sus
Ġref re
Ġcre ase
Ġbill ions
Ġresc uing
Ġmorp hed
it utes
Ġcoco on
it as
Ġr het
Ġblo oming
Ġconst ricted
Ġinter fering
Ġexception al
Ġexting uished
Ġimpuls ive
Ġv ip
Ġdis regard
Ġca ld
car rie
Ġsid led
Ġyan ks
Ġeug ene
Ġb ard
Ġsm al
Ġmag es
ead ily
Ġnone x
Ġdishwas her
k v
Ġwall paper
in f
Ġn oose
Ġj ig
Ġcl ave
me aning
Ġmich igan
Ġgeoff rey
Ġblan ched
Ġhorizont al
ss en
Ġtop ics
Ġlefto ver
t iffany
Ġz el
Ġtur bul
Ġunlo aded
Ġenv ied
Ġhe ater
Ġan om
hel ena
Ġpost p
Ġwe nd
Ġann i
Ġviol ated
cur ious
Ġgl enn
cl iff
Ġunf ocused
Ġm amm
ipp y
hy dr
Ġinhab ited
Ġp est
ot hea
Ġaff l
Ġaff ecting
Ġfidget ing
c ate
h oping
Ġas ia
Ġplummet ed
or ph
Ġre bo
Ġrep et
Ġowners hip
Ġbraid s
Ġlav ish
Ġinfir mary
Ġop s
Ġsad istic
Ġsweat pants
Ġmold ed
er ik
Ġbut ts
Ġoppos ing
Ġconce ived
Ġemphas ized
Ġalt itude
Ġp ies
Ġtim othy
Ġdes irable
Ġtrain er
s ienna
Ġhol mes
Ġjour nals
dra wing
Ġattent ive
Ġbened ict
3 5
w ent
Ġv atic
Ġex ternal
Ġbas es
ink ler
man ship
Ġcompet ent
Ġt i
Ġla unching
Ġjaw line
Ġfeed s
Ġanticip ate
Ġc ac
Ġfar away
Ġle gg
Ġgro ping
Ġpublic ly
Ġdest ructive
z ak
Ġpart ying
che ted
Ġwindows ill
Ġpsych ologist
breat he
Ġunwra pped
ir is
if irin
Ġed gar
Ġra fael
chris topher
Ġox ford
Ġinterven e
Ġmercen aries
Ġunreason able
Ġun heard
Ġsar ge
Ġignore s
cont in
Ġunderest imate
3 8
Ġp ung
Ġco gn
Ġend ings
Ġcor k
bec k
Ġappe aled
Ġanaly ze
offic er
Ġecc ent
n amed
Ġprop ortion
Ġobser ver
Ġsorce ress
g ence
mad ame
Ġritual s
Ġt ummy
it he
Ġde ity
Ġfine ly
Ġpet erson
Ġ3 6
Ġl ann
Ġle vet
Ġkitchen s
Ġbook shelf
hard y
Ġbor ne
Ġa ry
in os
Ġve iled
Ġwithdra wn
americ an
v at
Ġn ook
id ated
ood oo
ff ee
Ġcut ter
Ġimag inable
re us
Ġge nder
Ġinterview ed
Ġratt les
Ġseam us
Ġannoun ces
Ġtuxed o
where ver
Ġperson a
Ġexpl oration
kend all
m ira
Ġs ot
Ġto ying
Ġel ses
Ġdec ad
Ġadv ant
Ġincl ine
Ġfil ming
Ġa ide
Ġfr aming
Ġinfuri ating
h ayden
en ach
pe ace
Ġwis ps
Ġly ssa
dar ling
Ġmaxim us
Ġira q
Ġh ath
Ġm ounds
Ġca ved
Ġcoax ing
Ġten nes
thought s
Ġalum inum
Ġl apped
Ġman hood
Ġpro vin
Ġball oons
Ġart work
Ġcompl ications
Ġoverwhel m
Ġfu nding
burn ett
Ġsock et
syl vania
Ġmillenn ia
Ġpapar azzi
ou ching
Ġb age
Ġdr ones
Ġz ac
izz ard
soph ronia
Ġchart s
Ġst itch
cela ena
b oo
b ree
Ġwh ores
Ġsty lish
Ġque asy
p ound
Ġsp orted
co d
Ġwood ed
Ġpar ish
Ġfrost ed
Ġem itted
Ġnause ous
sha wn
Ġloung ed
Ġanni hil
Ġpe asant
Ġcaress es
Ġobed ience
Ġafter life
Ġsub mar
Ġinf at
Ġappl au
Ġbloss oms
Ġi con
Ġspr outed
Ġsus ie
call ing
Ġscratch y
Ġdv d
k ur
it ative
Ġscab bard
d ry
re p
ad mit
ch anging
Ġcar pent
Ġfa eries
Ġhut ch
Ġdisting uished
Ġprofuse ly
Ġheart break
Ġsoph om
il ation
Ġal on
Ġind ent
ien ced
Ġrain y
Ġa ve
im ages
Ġclo sure
Ġrow dy
shall an
he alth
Ġfl ora
Ġunder lying
sp l
Ġbar ge
Ġword lessly
Ġrose mary
Ġgri zz
Ġwitness ing
Ġdele g
Ġsauc er
a o
co y
Ġkir k
Ġsuccumb ed
Ġe ph
ear ly
Ġgun shots
sm elling
Ġrecru ited
Ġhe x
Ġpe bbles
Ġsn out
Ġaccur acy
le um
Ġnew er
Ġimp lying
Ġmal icious
on ial
Ġstri goi
Ġshr imp
Ġintegr ity
Ġin ky
Ġmor oi
ott led
Ġunw avering
minded ly
r ating
t ired
Ġaccident al
arch ie
Ġlic ensed
ole on
Ġburrow ed
2 1
Ġbl aire
Ġun fl
Ġnight ly
Ġphr ases
b elle
Ġpass ive
Ġcup boards
Ġshr inking
Ġhelicop ters
Ġded ication
Ġspook y
Ġreinforce ments
Ġt ens
Ġl ach
ad dy
ill ac
os a
Ġvamp ir
gir lfriend
Ġbac ter
Ġsass enach
Ġl ag
Ġtable top
Ġpar ag
Ġfer v
dro ps
ff ect
Ġcur vy
Ġdispat ch
p our
s co
Ġmo ll
Ġbur gl
Ġund et
sus annah
iet ies
it ations
Ġback drop
no elle
den nis
Ġoccur rence
id o
Ġfrag ment
Ġraven ous
Ġmartin i
c akes
t iger
ard en
Ġcent aur
Ġpersp iration
Ġuncom mon
Ġintertw ined
Ġin put
st eel
Ġmain land
Ġexplo des
Ġgrim y
ele ct
Ġsizz led
Ġprotru ded
Ġhumid ity
Ġconst itution
lace y
Ġdepend ent
u er
re gan
Ġsp aced
Ġhead line
Ġrel ayed
Ġwond rous
Ġche n
Ġdis abled
Ġlord ship
Ġenh ance
ma el
Ġma isie
Ġobject ions
Ġrive ted
Ġstr ider
cent ury
Ġtam ara
Ġn ab
Ġcl ips
Ġam p
Ġtou gher
Ġse aling
Ġbet s
Ġref ined
Ġsimilar ly
Ġstal ks
Ġreck oned
Ġsplin ters
Ġacquaint ances
Ġw agged
Ġhar vard
Ġur ine
Ġcab ins
Ġant id
Ġvibr ator
Ġbrace lets
frank ly
Ġblaz er
y up
Ġdep ut
Ġ3 1
at on
Ġr ant
Ġmar quis
Ġder rick
Ġtat iana
court ney
Ġdut ifully
rett a
Ġdevast ation
Ġdelusion al
Ġpre lim
be nding
w inst
os is
repl ied
Ġd ye
Ġbo on
Ġdr illed
Ġskelet al
Ġc elt
Ġd itched
Ġsweet er
s omeday
bo ss
Ġspr inkled
Ġval ues
d ak
Ġspot ting
Ġdoubt fully
Ġut most
Ġrefe rences
l id
Ġret ained
Ġjen n
Ġkn itted
ah ara
m and
Ġun ob
Ġh ive
Ġin doors
Ġsl ouched
Ġtable cloth
Ġsubmer ged
Ġtennes see
Ġpl aint
em an
Ġsk ys
Ġsens it
jack ie
Ġpartners hip
b acked
k ath
Ġbra zen
Ġmisunder stood
veron ica
ad ays
Ġman fred
Ġdark en
Ġrun away
Ġ3 5
Ġbur gers
Ġrout es
Ġacceler ator
Ġv ans
qu it
me al
Ġon look
Ġco smo
Ġfl ows
Ġrock er
Ġexpect ant
Ġsuper iors
Ġmant ra
Ġbask ets
n umber
Ġa ids
Ġst itched
Ġconn ie
Ġener gies
m ck
Ġdec ks
ik i
Ġcre ed
y na
Ġf izz
Ġin herent
ri en
Ġthr illing
Ġpenn sylvania
n eth
Ġo v
Ġhere s
Ġhu b
Ġrec onsider
Ġce zar
Ġunderest imated
Ġth ayer
Ġpl ucking
would nt
Ġfract ured
Ġdo pe
th ood
Ġdeal ings
ic rous
Ġro gers
Ġfl ailed
Ġbar rett
Ġreg rou
Ġere cted
Ġhaw ks
e rer
Ġaud io
Ġi phone
st unned
Ġhun ts
Ġjam a
' ve
Ġremo ves
Ġinh ib
Ġout cast
Ġgr is
Ġun co
vers ion
Ġsand ers
aly na
Ġoccup ation
Ġre ven
Ġbo ar
Ġdec ency
Ġred emption
Ġell i
Ġmast or
Ġtramp led
Ġver se
Ġque er
Ġalt air
Ġcoll ision
Ġcorrupt ion
Ġtrem ors
Ġf ax
Ġchair man
ut ing
par able
Ġgh oul
Ġdin na
Ġgovern ments
Ġing en
Ġdanie lle
Ġp omp
Ġab l
Ġcad illac
nic olas
Ġwastel and
Ġadvant ages
p ressing
Ġwas hes
ur red
ist en
ab a
ell o
Ġcom fy
Ġbus es
Ġfle cks
Ġsav anna
Ġcasual ties
Ġovert ook
Ġcapit ol
h au
Ġrec re
Ġstat ure
ro it
Ġtall est
v ane
Ġdifficult ies
2 4
Ġca lder
Ġsent ry
Ġcapt or
Ġdefense less
Ġkrist en
Ġhighlight ed
f rey
Ġw icker
Ġpro pping
Ġdr ooped
ale a
Ġeccent ric
Ġterri fic
Ġdak ota
Ġola f
Ġsp its
Ġpet ul
Ġcond uc
omb ie
Ġflaw s
Ġparamed ics
t roy
Ġme mo
Ġslugg ish
Ġmar ilyn
Ġdef y
Ġcamp ed
bal ance
Ġmotiv ated
j ones
Ġne b
Ġmen cheres
Ġpet ition
tech n
Ġn ana
Ġsim mering
Ġconce aling
Ġg p
Ġun used
Ġdis grace
Ġposition ing
Ġo ars
Ġc lyde
l ore
Ġl ax
Ġand ro
Ġg ems
Ġbook case
stick s
g ame
all i
Ġte ac
Ġhero ic
Ġalle ys
Ġrefuge es
Ġimmac ulate
Ġf iddle
Ġp ounced
Ġbright est
Ġshr ine
Ġd ummy
Ġmat thias
Ġgra ff
bs on
Ġsaff i
ed er
ad v
al ise
Ġang ling
mar garet
Ġfinal ity
Ġstock y
d ifferent
Ġg ail
Ġju ices
p ure
Ġheart broken
Ġnic est
Ġpreser ved
Ġwield ing
Ġeman ated
Ġl aces
Ġni gel
care ful
Ġcamps ite
Ġcont roll
Ġbat ting
Ġbook shelves
Ġskelet ons
Ġarian na
Ġch it
Ġex or
Ġlen ny
Ġrang ers
Ġprick le
Ġg is
Ġwe aved
Ġbl acked
Ġcan adian
Ġsky line
Ġreve rence
Ġsnow fl
Ġprop ortions
Ġut ility
Ġdismiss al
Ġno ir
flo ps
congrat ulations
Ġo oh
Ġn ipping
Ġwas n
Ġaf ar
phil ip
Ġrecip ient
Ġi ii
Ġn ub
Ġcl ang
Ġtri bal
Ġdisc retion
Ġinvestig ations
Ġk ody
Ġsn ip
mar is
Ġamb led
Ġka ia
Ġhar lin
ien ces
Ġdies el
Ġover board
Ġjew ell
Ġp loy
Ġg iselle
Ġsore n
Ġclums ily
Ġst yl
Ġel ic
Ġdise ases
d emon
Ġch imes
win ter
Ġfel icia
hea ven
tt i
mus ic
am ine
Ġcr ay
Ġzo ey
Ġelli ott
c amp
Ġc ens
Ġre ggie
Ġno sy
br am
val erie
Ġpsych ology
Ġmast ered
Ġfet ched
Ġpudd les
Ġth ug
Ġp agan
Ġpar isa
Ġver t
Ġdeb ts
Ġnorthe ast
Ġthe ran
Ġphilos op
osc ope
g ia
Ġa ch
Ġh anger
ce pted
ter ri
Ġnarrow s
Ġflat tering
Ġm ord
Ġskin s
Ġsumm ons
des ire
dis appo
Ġhelm ets
oft en
Ġlud icrous
Ġsn aking
Ġmor rison
Ġrepl ayed
Ġbax ter
Ġtomato es
c reat
Ġbarre led
Ġprick ly
t asha
Ġw agging
Ġwh acked
Ġpl as
Ġact ively
Ġstuff y
Ġdil ated
Ġunst eadily
Ġexhib it
Ġpung ent
j ak
l ant
is se
Ġv ord
Ġcas cade
Ġtreat y
Ġh omet
th under
to cks
Ġflat ten
Ġspar king
Ġeleg antly
Ġgurg ling
k aitlyn
Ġre cept
ur b
Ġbed chamber
Ġz ur
Ġsens or
Ġrail road
Ġwield ed
Ġcandid ates
c ule
is in
Ġj umble
Ġdet ention
Ġbul bs
Ġfan ning
land ers
Ġble nding
Ġbank er
Ġcarpet ed
doub t
Ġche esy
Ġblack berry
Ġpers ist
ib i
Ġprim arily
balth azar
cr im
Ġwash cloth
Ġj umbled
Ġfun nel
Ġmete or
Ġstool s
Ġnegoti ations
Ġch lor
Ġv oodoo
Ġent ourage
Ġbl aster
no ons
Ġser p
seem ed
Ġnois ily
ll ann
ging er
Ġsniff led
Ġpe pp
det erm
Ġorche stra
d ude
Ġc owering
to ss
Ġhur l
Ġhigh lights
Ġprem ature
irect ly
Ġs acks
ott ie
Ġarch ives
Ġunconscious ness
Ġincom prehens
Ġenterpr ises
p rod
Ġgra pes
Ġpop ulated
Ġsout he
Ġdj inn
fing ers
Ġgener ated
Ġeclip se
Ġsy d
Ġloos ening
Ġf eline
Ġal ma
Ġattend ants
add led
Ġmanip ulation
Ġche es
unt led
Ġquestion able
Ġree ked
re ve
Ġcons iders
Ġline age
Ġant ib
Ġcub s
b rew
e xt
Ġrox ie
Ġcob webs
Ġcoloss al
Ġal oof
Ġsc ooping
Ġun think
Ġadd ie
Ġbrief est
Ġber th
Ġsib ling
c irc
Ġl ahn
or ig
Ġbrief ing
Ġinsane ly
Ġkent ucky
n olan
Ġeyes ight
Ġsl avery
ary l
Ġprov oke
Ġprod ig
Ġmim icked
Ġre neg
Ġper ks
Ġtab s
Ġro asted
Ġref ill
Ġdece it
Ġhudd le
Ġmonit ored
Ġmirac ulously
h s
Ġk etch
Ġsh roud
Ġcool ness
Ġmyst ic
Ġscrap es
Ġo llie
Ġc ooks
Ġg ator
Ġrest ricted
Ġprecaut ions
Ġspart an
is ance
Ġph ilipp
Ġluc inda
Ġham mo
Ġsubst itute
bl owing
Ġref rain
Ġsex iest
ze v
Ġcro pped
Ġbrook lyn
t ory
Ġk ip
Ġreg istr
Ġemp athy
Ġton i
Ġhyper vent
Ġspont aneous
c ling
Ġcheerle ader
Ġtrust worthy
Ġpay ton
your s
Ġbloss omed
s id
Ġaccount ant
Ġstab ility
Ġgrave lly
cr om
Ġjeff rey
Ġbrill iantly
Ġnet her
Ġdissol ve
Ġj r
lo ading
Ġsom ers
Ġwhee zed
Ġunra vel
Ġbrus que
Ġf ow
Ġthan e
Ġho g
Ġscruff y
k ick
r ush
Ġout let
Ġright ful
Ġru d
Ġcoun se
Ġwy oming
sto pp
Ġcarib bean
Ġtim my
Ġke v
Ġmurderer s
Ġstre aking
ram er
dou g
Ġsu icidal
Ġover st
ang us
Ġround ing
Ġm abel
Ġman ning
Ġinfect ious
Ġmassac re
Ġstr ayed
Ġdel aney
Ġnon stop
vik tor
Ġd ain
Ġal istair
Ġimper fect
Ġsentiment al
Ġl ora
Ġp ak
ly dia
Ġsp ons
row an
Ġexh ales
Ġwolf e
s ac
Ġbe x
sc ri
Ġcro ak
stephan ie
Ġs ixties
Ġsl ed
Ġdri zzle
Ġenjo ys
Ġais les
Ġcompanion ship
Ġconven iently
dal inar
Ġlaw son
Ġfreak in
Ġcalc ulations
Ġinexpl icable
c ord
Ġt ully
Ġt arm
Ġcl one
Ġmar gar
Ġsn ide
strange ly
Ġh ick
Ġp ly
Ġgo ons
Ġsa ints
Ġle ase
Ġqu ill
Ġf ung
al ina
if iable
Ġdream er
Ġsick ened
Ġrot ted
Ġidiot ic
Ġber ry
Ġmatthew s
nd es
Ġle w
Ġemp ress
Ġalex andria
Ġsoothing ly
Ġinsec ure
Ġprecar iously
k ad
Ġrun ners
Ġworth while
Ġattach ment
Ġqu ipped
Ġlay ered
Ġprick ling
Ġoverse as
h urt
Ġbut tocks
un ky
Ġhur ling
Ġtid al
it zer
Ġresp ecting
Ġrese mbling
~~ ~~
Ġprincip les
Ġbeet le
Ġar am
Ġear liest
Ġcra fted
Ġtext book
Ġcomr ade
ull s
em barrass
Ġautop sy
w el
Ġp ont
Ġca verns
Ġmed itation
Ġflash lights
Ġexerc ises
j orn
nd own
sh annon
good bye
ev il
Ġbri elle
pri v
Ġindign ant
Ġtw itter
Ġchild s
Ġlist ing
Ġclear ance
Ġfurn ace
Ġ6 0
sto ck
p earl
v igor
Ġsh ines
un ed
Ġsp ind
Ġstr on
lex ie
Ġsear ches
Ġspecial ist
Ġsurf ing
b ian
g ene
Ġs anchez
Ġn oodles
th ir
Ġpay back
Ġso ggy
Ġmust ve
Ġma im
Ġaffection ately
Ġeaves dropping
Ġrel ished
Ġcondition ing
winst on
Ġg areth
le wis
Ġfr ances
Ġunsus pecting
own ess
Ġgu ine
Ġprof its
s ign
Ġf aking
Ġgener osity
Ġimpl ication
Ġantid ote
Ġt as
ri o
Ġch ag
Ġcol oured
al er
Ġun av
Ġper t
br ay
Ġb ers
we et
Ġbell ow
Ġdeter ior
Ġparag raph
Ġpl umb
Ġam iss
Ġpet rified
Ġart istic
Ġgrim acing
Ġafter noons
Ġmac on
Ġt ia
Ġcl attering
Ġpat ricia
Ġpur ring
Ġwilling ness
guard ed
Ġconvert ible
Ġbrun o
Ġjuven ile
is ers
Ġta wny
Ġtemper atures
Ġtoler ated
Ġbrim ming
Ġnonex istent
at os
Ġp ensive
Ġcar p
Ġru ddy
Ġshru bs
Ġwhist les
Ġlia ison
Ġpre f
Ġpres cription
Ġteam mates
Ġwrest le
Ġbrim stone
Ġinconven ience
Ġreceip t
Ġg ushing
Ġsa re
Ġcl ipping
ile en
Ġsle w
Ġflir ted
cuss ions
Ġha mp
Ġj udd
Ġjack al
van essa
Ġhomet own
l aughter
Ġtim er
Ġcan ned
Ġhum our
Ġimpress ions
Ġcasc aded
el ias
Ġmet h
Ġwra pper
bren nan
or ial
ir i
Ġass isted
Ġbeep ing
Ġabstr act
t racy
Ġhard ening
Ġjay den
Ġbryn ne
Ġpenal ty
Ġd and
Ġru gs
Ġsyll able
kv ist
Ġrena issance
Ġjo s
Ġz ar
Ġtest ify
tr ans
Ġl ulu
Ġmar in
Ġdr astic
m ot
Ġwh ar
Ġcha ise
Ġcoward ly
Ġzig z
Ġf uming
ic ably
ent ing
Ġpo sing
Ġcur few
Ġpocket ed
Ġproduct ive
expl ain
Ġdisgr untled
b itch
Ġsh ores
Ġno stal
Ġfin er
Ġchar ade
Ġbald ing
Ġbert ie
Ġv u
ab ol
Ġsund own
Ġcasc ading
n onsense
Ġsa ul
Ġtal isman
ram s
c op
Ġdu h
Ġmanip ulating
Ġmau reen
l oud
Ġne mes
Ġse ichan
Ġcom ical
Ġfl an
Ġlif el
Ġfro gs
Ġaccount ing
Ġlight ened
die go
Ġbri be
Ġnewcom er
Ġvatic an
Ġinter l
Ġref illed
Ġmonth ly
Ġc air
Ġe ibhear
Ġch ime
Ġreve led
Ġbarric ade
f ool
ag us
Ġbat on
Ġtransp ired
Ġafford ed
Ġcult ural
Ġpout ing
Ġabund ance
Ġsh ai
ri gan
Ġnat ives
Ġfed s
Ġsentin els
Ġtarm ac
Ġring ed
Ġheal ers
Ġador ation
surpr ise
f al
Ġconqu ered
Ġsympat hetically
Ġdisple ased
n uts
Ġcall iope
Ġhurt ling
Ġsuper hero
Ġscroll s
Ġdain ty
Ġnight ingale
Ġcr ashes
Ġknee led
Ġpsych opath
Ġupd ated
Ġnev ada
re yes
Ġauthent ic
Ġh uts
Ġn it
Ġk ilt
Ġlo is
bo red
Ġpract ices
Ġvom iting
Ġelo qu
Ġo at
Ġch rome
Ġpro verb
Ġmed al
Ġprop riet
start ing
Ġmor row
Ġcoincident al
Ġt agged
Ġex uber
Ġheart felt
Ġav al
Ġma fia
Ġpink y
Ġtravel er
Ġus er
Ġmar ius
Ġtreacher y
c led
et ts
Ġfire ball
Ġinvestig ators
Ġprost itute
Ġsc uffed
Ġswe ets
Ġtee g
Ġcr us
Ġfamily s
Ġphys ic
Ġfears ome
Ġexcess ive
person ally
Ġsu zy
ange lo
Ġhar py
ex claimed
Ġcommand ers
wy att
is ively
Ġjack y
Ġvol atile
dr ink
re se
Ġon o
qu ed
ru ck
Ġmarsh mall
Ġstraw berries
Ġend ear
Ġdu val
Ġsurre pt
Ġabb ess
f s
Ġup turned
get ic
Ġcr ank
Ġmur ray
Ġrecogn izable
Ġrot ating
beth any
Ġsales man
Ġwe bb
Ġmag ick
bl ind
Ġcounter part
Ġdon key
Ġens ued
Ġreview ed
Ġr iva
Ġhead set
ty pe
Ġry ker
Ġcurt is
Ġprogram ming
Ġunthink able
Ġp ane
Ġid aho
Ġang ular
Ġtruth ful
Ġmyster iously
Ġin fr
om kvist
Ġk ali
Ġan ten
Ġbr ayden
Ġper vert
co ach
Ġcast les
Ġmid way
Ġaddress es
Ġcontrad ict
Ġbr ot
ple asure
Ġcomp aring
sel ena
Ġlill ian
h ara
lo sing
Ġeff iciently
Ġ3 2
Ġbrave ly
Ġgren ades
Ġwhee zing
Ġchau ffe
Ġall uring
Ġte nds
Ġer nest
Ġcover age
wra pping
Ġf use
Ġd ens
Ġbel inda
Ġest imate
rat y
Ġpedest al
Ġfr iggin
Ġro gues
bo ld
f les
et ted
Ġes ther
Ġcat ap
Ġang ar
Ġthick et
Ġpsy che
Ġger ard
Ġven ice
Ġg iles
Ġk owalski
Ġskir ted
accept able
Ġinc ense
Ġflat tery
Ġash lyn
har per
Ġmemor ize
e lyn
y ielding
ag s
Ġgul ps
Ġproced ures
he eled
Ġe un
ell s
Ġover hear
Ġser a
Ġpal med
amb les
Ġres et
Ġfoot falls
Ġchance llor
Ġatlante an
wh is
Ġrese mble
Ġfunction al
Ġhawai i
' -
ar thy
Ġsol ic
Ġassum ptions
Ġquant um
Ġmillenn ium
Ġalchem ists
Ġmesmer izing
Ġst owed
Ġble ached
g is
Ġall i
Ġcontin uously
Ġmal one
Ġpe bble
Ġlys ander
i ya
Ġover came
Ġco aster
sh ift
Ġrel ishing
Ġleg ions
Ġtang ling
Ġcompassion ate
un ci
Ġer os
Ġant iqu
Ġmirac ulous
techn ically
c ora
Ġst anton
ac er
Ġhead aches
do ch
head ing
Ġdirect ors
Ġow es
Ġw age
Ġsp ik
ul ty
Ġmar ley
Ġwar iness
Ġcons ulted
Ġluc id
gregor i
Ġcomed y
m ett
Ġk ry
Ġcom et
Ġunder growth
Ġbu gger
Ġmod ified
Ġmembers hip
har low
Ġcompet ing
Ġsa g
Ġper cy
Ġstart le
met al
gab rielle
Ġrude ly
Ġhagg ard
Ġare nd
Ġsm ed
Ġconf ine
Ġconfl icted
h ans
m ich
Ġre el
Ġall ig
Ġarou sing
Ġa hold
Ġcomple ting
Ġdun es
Ġdele ct
Ġinfin ity
j y
Ġjo lly
Ġmock ery
ru by
Ġke ir
Ġsour ly
Ġdisp ersed
Ġmuff in
quest ion
Ġsc ythe
sh y
Ġmat ilda
Ġcomp at
Ġwithdra wal
Ġunin v
Ġhypervent il
Ġclo gged
bu ilt
Ġomin ously
Ġab road
Ġbill ie
Ġinvestig ated
Ġhast ings
Ġnu zzling
Ġgoth ic
ar ians
Ġse ag
d ate
m ister
Ġstr um
cl ave
Ġsky ward
Ġprov ince
Ġdistribut ed
Ġafghan istan
Ġplas ma
Ġt umb
in burgh
Ġor nament
mar ch
prot ective
Ġun answered
Ġspr inging
Ġsal oon
Ġmagn itude
Ġdec ap
Ġcomp ressed
Ġskept ically
Ġal mond
Ġcomple tion
stu art
Ġgrac iously
Ġg and
Ġsw oop
yl on
Ġgal a
o den
Ġn ibble
Ġr ith
est ine
Ġmart ian
coll in
Ġsl edge
n ash
Ġre ceding
Ġk han
per se
li us
Ġkid do
Ġclen ches
Ġadopt ion
Ġwe ld
Ġcapt ives
Ġexpans ive
Ġviet nam
c aught
Ġne gl
Ġdr as
Ġvel ve
Ġgil bert
Ġsw amped
imp y
Ġmus lim
Ġsal mon
Ġdisp ute
Ġstron gh
f et
ner vous
Ġhy dro
Ġz arek
Ġdorm ant
Ġcau ld
Ġh iv
Ġfr ater
bo ats
Ġsnat ches
Ġcatast rop
Ġv ie
Ġpr u
Ġsy mph
Ġjul iana
dan ie
Ġcoven ant
br itt
Ġreg iment
n ity
ke mpt
ph a
Ġpur ity
Ġeleg ance
n ix
er ce
Ġpri zed
re uben
Ġk els
fall ing
Ġstress ful
Ġhom icide
Ġcudd le
Ġwalt z
u ana
Ġal igned
Ġbar nes
Ġnap oleon
Ġjose f
Ġho sts
Ġprom oted
fro st
Ġstraight ens
Ġbill owed
Ġbrit ain
b ishop
Ġ `
Ġsilver ware
Ġseam s
Ġhaught y
Ġun stopp
wh isp
Ġcons ulting
Ġlat te
Ġjun ction
Ġheft y
Ġto mm
or al
Ġpre ference
Ġmut t
Ġunlo ad
Ġc us
Ġc idra
Ġmusic ian
Ġpuzzle ment
Ġbou le
Ġdyn am
Ġbrack en
Ġo gre
Ġlit eral
anc a
Ġfound ed
Ġprot ein
Ġspur red
Ġonlook ers
b earing
Ġdag mar
Ġreli ving
Ġend earing
isc illa
as en
Ġse w
Ġcall ous
Ġkind red
Ġjoy ous
fall on
tre es
Ġsubur bs
k am
Ġlo athing
Ġcle ft
Ġid ol
Ġopp ressive
Ġp iers
Ġtry in
alex andra
bre aker
Ġdoor ways
Ġless ened
Ġacqu ies
Ġshay a
return ing
Ġclement ine
Ġfe b
Ġrep ul
Ġant agon
Ġcro cod
Ġouts iders
Ġdiver ted
ant ine
Ġgr aces
Ġcur ry
Ġbare st
3 2
Ġtw ined
ud ges
Ġtre v
Ġmis fortun
Ġnick y
Ġreply ing
lay la
Ġpar ach
Ġdig ger
Ġvic ar
Ġscout ing
Ġbl izzard
Ġca el
Ġbre ck
Ġbroad way
Ġreprim and
pt u
Ġinfant ry
bus iness
Ġb ess
Ġcour te
Ġcommun icated
frustr ated
b ott
Ġwalk ie
end ers
Ġsh al
Ġch aste
ind ers
Ġse izing
Ġcreat es
Ġkent on
Ġlef oux
Ġmar io
Ġserge i
tur bed
g d
Ġqu inton
Ġsor gan
Ġdef ied
rick s
Ġcomb ust
Ġarsen al
Ġo mn
Ġsp or
Ġun cover
Ġsn ooping
Ġvom ited
Ġform ality
Ġagon ized
ar in
Ġsm udge
Ġluc ah
Ġflex ible
Ġsavage ly
ee ches
iz ers
Ġclass ical
through out
ez ra
dis g
Ġgnaw ed
Ġprolong ed
Ġenthr alled
Ġunsc athed
Ġex ceeding
fe red
ning s
h ate
Ġand ar
Ġunder foot
Ġpleas urable
Ġimm ersed
Ġjames on
Ġstee led
Ġgall oped
Ġrefre shed
ill ery
Ġse wn
Ġsc olding
Ġtra itors
Ġfl ipp
Ġwat son
Ġlast s
Ġmin a
app le
k owalski
Ġel vi
Ġz ap
Ġmod esty
Ġpil grim
ro sal
less ness
Ġsouth west
Ġban shee
Ġgig uhl
Ġapp li
Ġass orted
Ġrep roach
Ġfree zes
hen ri
Ġkat rina
vet te
g ant
Ġg agging
Ġfor c
Ġdull ed
Ġextend s
Ġsare hl
Ġgauntle t
Ġn igg
Ġcons istent
Ġadm its
Ġe ureka
Ġar ctic
Ġengine ers
Ġprior ities
Ġaster oid
Ġsurm ised
on os
Ġin mates
ot o
Ġwr inkle
bo om
Ġpal mer
mar ried
Ġsar iana
Ġ4 5
Ġhambur ger
at ters
th irsty
Ġkn ack
Ġel ias
Ġreg ions
Ġadv oc
Ġfil tering
Ġpul ses
Ġterrit ories
cons ider
Ġtooth p
aw a
Ġimp rom
Ġed inburgh
Ġfal ter
sal v
Ġaccum ulated
on o
ter ry
Ġspe ared
Ġfell a
Ġsing ed
Ġsty led
Ġstrate gic
Ġprett ier
Ġconvul sed
Ġsc ampered
sim one
Ġliz zy
Ġtuck s
w aves
be v
Ġlot ion
gr acie
Ġportra its
Ġsidel ong
Ġl uton
Ġcar ve
ott i
Ġpresent ing
Ġrode o
Ġexhilar ating
Ġboule vard
c oop
s ucking
Ġo asis
Ġha yes
Ġv iny
Ġart icul
Ġkier a
Ġfundament al
f amiliar
t aken
x es
Ġg org
Ġel ation
app y
Ġcas per
Ġbust le
Ġd ina
Ġv ind
Ġmay hem
Ġattent ions
Ġg ape
Ġj eez
Ġrelax es
Ġg wend
un ct
Ġca ked
Ġjo ff
sil ently
Ġclar ify
wee k
ad dle
Ġup hol
Ġar tery
Ġun protected
Ġvoc abulary
Ġroof tops
don ovan
Ġendeav or
Ġkinder gart
Ġcance led
Ġelong ated
Ġnight time
Ġash tray
Ġvers ions
b ane
b ud
n ancy
Ġd ual
Ġrel ay
Ġry ke
Ġiniti ated
or allen
Ġso iled
Ġhot ly
Ġson ya
Ġreb orn
Ġre ek
aut hor
Ġc act
es se
Ġim ogen
ad der
Ġpe aked
Ġgee k
Ġimprom ptu
Ġun yielding
Ġwit ty
Ġk os
fe rences
Ġstaff an
Ġinfer ior
Ġfestiv ities
9 9
Ġm oust
ter ror
Ġpat ched
Ġconv icted
d are
re ille
Ġde acon
Ġner d
olog ists
Ġmig uel
Ġwar fare
Ġra fters
Ġshack les
ru bbing
Ġcap abilities
Ġsolid ly
Ġdisp ose
dri ver
Ġcruc if
p ai
Ġto ms
Ġde jected
Ġfl ound
Ġmin ion
Ġsqu ashed
Ġanim osity
Ġphys ique
Ġinade quate
Ġlegg ings
t ah
Ġsc hem
Ġpor th
Ġrin se
Ġtr ish
em is
Ġtal aith
Ġworld wide
tem p
Ġsnar ls
Ġmon ique
Ġdoub ting
Ġcom pr
Ġtoler ance
Ġ201 1
Ġdeput ies
Ġmut il
Ġport ug
col or
Ġautom ob
b ryan
t ier
Ġar nie
Ġfoll y
Ġvar ied
Ġshudd ers
cat ching
Ġfashion able
Ġrec ited
Ġcro ck
Ġaub rey
co s
man uel
Ġuncon vin
ou raged
gh us
Ġcou l
Ġdr ooping
ange ls
Ġwraith s
3 3
Ġn ike
Ġs s
Ġw lodek
Ġhum mer
bre ed
Ġfranc o
wonder ful
Ġab ide
Ġper ky
Ġrel ive
Ġstren gthen
Ġperce ive
Ġresident ial
ke pt
ell is
norm an
Ġun kempt
Ġreg ener
gu ided
Ġban ister
Ġul ath
Ġinterven ed
hell iom
Ġinfl ict
Ġharb our
Ġperme ated
Ġl att
ty rion
Ġcul pr
serge ant
ine z
Ġconst ruct
Ġtrans mitted
Ġfist ful
Ġflare s
ic ent
Ġk inky
Ġse min
Ġfact ions
Ġreser ves
Ġnun s
Ġasc ension
Ġweas el
Ġheart breaking
Ġincl ination
Ġmort ar
Ġam ended
Ġgre yson
Ġpra ised
Ġsphere s
Ġhalluc ination
health y
Ġnemes is
Ġg im
Ġit d
ur als
Ġun lucky
Ġad oring
Ġuneas iness
re id
Ġcor oner
Ġtom e
Ġzak ath
f acing
j une
Ġs ce
Ġdecor ative
Ġpersu asion
he ated
Ġw ifes
Ġsp eeches
Ġarch ae
mist ress
Ġlob ster
ce iling
lin n
Ġferv ently
Ġabl aze
g ated
Ġchrist ians
frank ie
Ġh one
Ġme ch
oo s
Ġexc av
com b
Ġcam i
kill er
Ġgaw king
Ġcorr ado
b ent
Ġw aning
pp e
Ġblood shed
Ġconf isc
Ġfoot man
ex ha
Ġrad ius
Ġaud ition
Ġprosecut or
ev alle
Ġpro dding
Ġexp end
che cking
Ġmel inda
Ġprov isions
desper ate
p its
Ġsn ark
Ġslow s
Ġdistract ions
Ġin ert
Ġbe aches
pre servation
Ġtr ink
Ġje b
Ġmil ord
log ist
Ġincap ac
p u
Ġc ents
Ġtrust s
Ġholo gram
Ġantib iot
Ġa ed
ab re
Ġcash ier
Ġfel icity
Ġon ion
Ġmar oon
Ġant is
Ġconsc iously
nik ki
Ġf art
Ġsp ank
Ġad ul
Ġz and
Ġflu ids
Ġmeat y
azz o
o ster
s lipping
Ġw ither
Ġle ve
Ġbre ndan
Ġsophom ore
Ġfl am
off s
Ġinitial s
Ġgrie ve
Ġdre ary
Ġconve yed
Ġspik y
Ġa e
Ġal ix
ert on
Ġskin ned
Ġneighb ours
Ġsyn ch
Ġsmed ry
b ub
Ġn ee
Ġbo de
Ġbefore hand
Ġwr inging
Ġje anne
Ġhistor ic
Ġsadd ened
Ġquer ied
d ire
Ġ5 00
Ġnu isance
a gh
Ġb ly
Ġsuper market
Ġjost led
Ġcrut ches
k ir
t ree
Ġar ise
Ġes press
ili ation
Ġven ue
Ġchr iss
d ings
m ess
ol to
ial s
Ġbath robe
Ġhelpless ness
Ġmanufact ure
Ġk ait
Ġun a
ja ime
ad as
Ġbo bo
Ġman uel
sh ade
Ġmil ton
sc out
Ġpubl isher
say ing
kim ber
Ġdescend ants
Ġviny l
Ġop aque
Ġstar board
luc ia
soon er
Ġax el
Ġtemp est
art emis
Ġqu il
Ġheart ily
iqu ette
Ġketch up
t ouch
Ġsore ly
Ġanat omy
l issa
s le
t it
Ġfor fe
ast a
wal ter
Ġras ping
Ġrod ri
lah oma
m ails
che e
Ġexam s
Ġly cans
Ġfaced own
Ġtir ade
o lly
Ġs amp
Ġdi aper
wes tern
f lynn
sc ared
Ġmechan ics
Ġswip ing
Ġindec ision
Ġphill ips
ut able
Ġas yl
Ġun earth
Ġobser vations
Ġimper ative
oles cent
Ġcait lin
pai ge
Ġunt ie
Ġcapt ivated
Ġmaneu vering
Ġb ale
Ġcher ish
Ġfoolish ness
Ġboun ces
Ġch attered
Ġmis placed
Ġge or
Ġric her
isl ava
Ġj ina
Ġthere after
Ġlore lei
d ax
r icul
Ġlot tery
had ge
Ġsin ew
Ġoptim ism
Ġd une
Ġst aked
Ġsp ackle
ine v
Ġel ated
Ġimp aled
Ġsquad ron
Ġmerc iful
al ison
Ġpro claim
Ġty ran
Ġke ita
Ġcher yl
Ġfu zz
Ġampl ified
Ġunstopp able
Ġlike lihood
Ġco e
sh ame
Ġgall oping
w ip
Ġd ully
ar ching
Ġest im
Ġfac ulty
Ġlum bered
Ġcleans ing
p ict
Ġhand i
Ġbet sy
ster one
Ġdi agon
Ġher mit
Ġste in
Ġro xy
pe yton
Ġsoph ronia
oty pe
Ġdolph in
Ġw ww
Ġwind ed
Ġattor neys
Ġcac oph
ab y
Ġpup il
al bret
Ġear piece
Ġho led
Ġpar agon
Ġmus ky
Ġtouch y
Ġma ester
Ġgut ted
Ġadvis or
Ġdelect able
Ġco hen
Ġkings ley
x i
Ġlo gged
Ġfind ings
Ġran on
Ġvall eys
u ard
Ġsp ices
Ġac rid
ade as
Ġsheriff s
Ġscut tled
Ġnob ility
Ġsur ly
Ġcou rier
Ġass essed
amed es
Ġcompl imented
Ġkar ma
Ġtrad itions
f ang
Ġsu bl
Ġcl aps
Ġgun man
Ġgreen ish
Ġry dstrom
Ġrefle ctions
Ġder anged
Ġsimpl est
Ġalab ama
Ġcarr ots
Ġchur ches
Ġbat tal
Ġrid ley
Ġlino leum
g oose
Ġr ane
ra il
Ġnon com
Ġstan ford
Ġsu lf
Ġret ail
Ġupd ates
bir th
Ġblat antly
Ġl inking
Ġsm udged
Ġcan cell
Ġsund ress
******** ********
ion y
Ġmac he
got ten
Ġlect ures
gret chen
Ġall ev
Ġham ish
grad ually
Ġadmon ished
w ash
Ġf aul
Ġfe igning
Ġalph abet
Ġpuls ating
b ria
Ġget away
Ġru pert
Ġest ates
Ġcompet itive
Ġrect angle
Ġj est
Ġamb ros
dec iding
Ġchand ler
th on
break fast
Ġindign antly
j udge
Ġsub jected
Ġgin ny
Ġb anked
Ġk idd
Ġfl oored
Ġflo y
aim ee
Ġdisp osition
Ġsatur ated
Ġtant rum
Ġa es
Ġg angs
Ġfr u
Ġtr ashed
Ġsk idding
Ġad ap
Ġcr inging
Ġblood stream
Ġhell ish
Ġgar n
Ġ19 5
will ow
sil as
Ġwink y
Ġpower fully
Ġspaces hip
Ġquizz ically
Ġpet ting
Ġconst ance
Ġobed ient
at able
don na
ele er
c rew
ight s
Ġwa fting
Ġwis py
pr in
Ġread ings
Ġpul p
Ġbuzz er
Ġdumb ass
c aut
p ale
Ġa venge
al as
Ġmark ets
Ġmid section
Ġspir aled
Ġasp irin
j et
Ġfan ny
Ġet iquette
Ġclin ical
Ġinconven ient
Ġcrut ch
it one
Ġr incewind
Ġsix teenth
sky la
r ue
Ġd us
Ġfor ks
Ġv a
Ġpu dding
inst ein
Ġconsider ate
dr am
Ġaccording ly
Ġconcess ion
Ġo gg
Ġre ined
Ġre lying
Ġres il
Ġtri pp
Ġclass y
Ġgray ing
hu ge
Ġbon net
goddam n
pi eces
at iable
do zen
app ro
Ġkur ik
Ġs ifted
Ġcl ink
Ġsideste pped
b rief
Ġy ah
Ġche vy
Ġapp raising
Ġfore most
den ise
Ġban ned
Ġlump y
Ġvial s
Ġspew ing
Ġsket ches
Ġcocon ut
ul i
Ġagree able
Ġhal ves
Ġcrucif ix
h aley
mo ved
Ġexpress ing
bas ically
Ġcack led
Ġt iring
Ġt esto
Ġpast ry
Ġeh lana
Ġyield ed
dy ing
Ġbe re
ag na
Ġless en
Ġsleeve less
dev yn
Ġmonst ros
ay na
ist y
Ġpo pp
Ġread just
Ġunh ooked
Ġcrev ice
o om
or able
Ġk ong
Ġve loc
Ġpark a
Ġsmart est
Ġwhim s
Ġhandi work
z ero
Ġsl unk
com es
Ġcoul ter
Ġlow ly
Ġcu z
Ġme i
Ġste aks
Ġconf er
Ġcent ers
con or
sec urity
Ġvac c
Ġrag nar
Ġseiz ure
Ġf i
Ġor bs
Ġun rest
Ġho ard
Ġconf ide
Ġnav al
Ġcough s
Ġinquis itive
d emet
re pe
Ġy ak
Ġch ort
Ġmin istry
Ġer ud
sal i
Ġenv ious
Ġvehement ly
al ation
Ġun ce
Ġun acceptable
Ġpro hib
Ġfl irty
Ġcall a
Ġo reg
Ġde irdre
Ġwrit ings
Ġhusk ily
Ġnar asan
Ġviol ation
Ġathen a
Ġtesto sterone
f ate
Ġo sc
Ġdis mal
Ġrevel ations
Ġconqu est
Ġrejo ined
Ġextravag ant
Ġb au
Ġplan ner
Ġdrum mer
vo ices
b ath
Ġflood s
Ġexperiment al
Ġobli ge
Ġd w
Ġover drive
Ġco cking
ass o
uc es
Ġweak ening
Ġweapon ry
Ġdinosaur s
Ġa ds
Ġstar ters
Ġspect rum
m ig
Ġne crom
Ġgab ri
Ġmyth s
g ments
l ining
Ġst umbles
go vern
Ġbell ige
hh hh
Ġnum bered
Ġens ured
Ġworsh ipped
Ġhum p
Ġpar ched
Ġur s
Ġsid ney
Ġcushion ed
Ġknead ing
be ast
Ġmus sed
Ġbrut ality
spec ial
l isted
ar ina
Ġgu ff
cl are
Ġstreet lights
Ġrequire ments
Ġbarre ling
ma jor
Ġbark er
Ġbisc uit
Ġin land
Ġtelesc ope
Ġak iva
Ġrecip roc
Ġvigil ant
slo ane
le to
Ġflo ats
Ġra iders
Ġawa its
Ġassail ant
at ch
Ġd oth
Ġlight ening
Ġlau rent
Ġra ving
Ġdial ogue
Ġcontempl ation
Ġpursu ers
Ġmarc ia
Ġentr anced
Ġa quar
ian non
Ġsque aking
Ġok lahoma
Ġary a
Ġn orton
ll ess
ak is
Ġmen us
Ġlil ac
Ġka eleer
Ġgraph ic
z an
Ġse wer
Ġslo ping
Ġwis p
Ġadvers ary
Ġd orn
ra v
Ġdisp osed
Ġadministr ator
shel by
Ġmark ers
Ġrad ical
dr ade
cur sing
Ġm acy
Ġal ign
Ġconv ict
Ġenvelo pes
Ġcrown ed
warm th
thousand s
Ġbrides maid
s ound
Ġs as
Ġqu ell
Ġfac eless
Ġvac ated
Ġre iter
ri ety
Ġdark ling
Ġblo ated
wor ry
Ġsel ene
Ġtemper ament
Ġal as
Ġthere by
Ġcl umps
Ġtor in
Ġinterpret ation
Ġs assy
Ġal ibi
ken nedy
Ġnaz i
t ad
Ġr iff
Ġhead lines
Ġcar la
Ġjer us
mon th
p d
Ġm ard
Ġbre ached
Ġspecific s
Ġdur ation
Ġoreg on
Ġgr umble
Ġgra vy
Ġsque aky
Ġw reat
ge mma
Ġdon uts
Ġger ry
ader in
whit ney
Ġunbuck led
Ġg ush
Ġadd y
Ġpack ets
bar ry
hol t
Ġrepres ents
Ġn aming
ar ray
Ġfin ance
co on
Ġang uished
Ġesc orting
Ġcrick ets
c ream
king s
Ġhas h
ition al
Ġregistr ation
Ġmache te
Ġst aining
ome ver
list ening
Ġcub es
Ġdepri ved
n ail
Ġm aw
Ġst utter
ren cy
Ġbit ters
my ra
Ġconversation al
und ers
Ġlawn s
Ġenclo sure
Ġphilosoph ical
v oc
Ġrum ored
Ġoblig ated
spir it
Ġbless ings
Ġaller gic
h ann
en as
Ġla ur
Ġdepart ing
Ġcatac ombs
Ġsouthe ast
Ġd it
Ġins atiable
Ġgraff iti
v imes
ac i
ol ence
Ġdec aying
br ooks
Ġrom ans
Ġpatri arch
Ġsa bin
Ġdrag os
Ġfold ers
Ġpit ching
Ġviv idly
Ġdischar ged
w ave
Ġk rit
umb ers
na pped
Ġdead line
Ġsuper v
Ġpy re
Ġcrest ed
Ġf aults
id ences
Ġlo athed
ik er
Ġcup cake
Ġsuff ice
sur real
Ġth oy
Ġli ko
Ġdown world
Ġflo p
jo b
Ġmead ows
dem ons
Ġrecess es
ndes cript
Ġasyl um
in v
Ġafter thought
Ġhop s
bor ah
Ġune vent
Ġstead fast
Ġ8 0
Ġabd uction
Ġdub iously
Ġr ouse
Ġpat rolling
Ġund is
Ġmim ic
Ġdil ap
Ġw ench
Ġf ot
Ġtr ooper
Ġsn ore
Ġdec omp
up iter
Ġbus ied
Ġexh aling
Ġentr ances
Ġy arn
Ġup bringing
Ġch ords
ny kyrian
Ġbound ing
Ġmorgan a
Ġsmit ten
im us
ach a
Ġimp art
Ġdem ure
Ġfull er
Ġdet ector
Ġast ounded
Ġveter an
Ġaval anche
Ġwh ichever
Ġunder brush
Ġmet ro
Ġprov oked
conf usion
c ou
Ġevent ual
sh ru
Ġca ia
co ffee
Ġins uff
Ġship ment
Ġnic colo
Ġing rid
Ġdiso be
pap a
b ite
j ael
er i
Ġin nate
Ġed gard
Ġres ounding
Ġmethod ically
Ġmeek ly
ly s
Ġorgan izing
iter ranean
Ġgoat ee
se vent
Ġcould n
Ġcall ahan
col ton
Ġnegle ct
Ġresear ching
Ġn ast
Ġtim ed
Ġbl as
Ġpro ps
Ġint ro
Ġhor at
Ġgun ned
2 6
Ġair y
by n
ins ky
Ġque ue
Ġkath leen
v als
Ġpast e
Ġsteam y
Ġcontribut ed
Ġdict ated
Ġno ndescript
ab bey
Ġpad dy
Ġmc allister
Ġseason ed
Ġiniti ate
z ader
Ġsk ul
Ġz ipping
ic as
Ġcan ine
cast le
Ġpercept ive
Ġad olescent
Ġmor als
Ġbar itone
Ġforg ave
Ġthick ness
por ary
Ġber g
Ġru ndown
Ġcy rus
Ġpersu asive
brand t
pol ice
Ġtwent ieth
y ah
om atic
Ġch ow
Ġready ing
rap nel
Ġcontribut e
b age
t ried
Ġh ir
Ġcon cede
Ġwat chers
Ġax es
brian na
Ġpeep hole
Ġdolph ins
ains ley
Ġcre ases
Ġrub i
Ġcoco a
thol ome
l ords
s ounding
y les
Ġis h
Ġjuliet te
Ġhe ss
ke w
Ġtable ts
Ġcross roads
Ġaggress ively
Ġmoust ache
Ġt iber
ent ive
ber ing
Ġbent ley
Ġni ol
Ġhandc uffed
we ak
Ġoff ending
Ġburn er
Ġrelax ation
Ġhol stered
dri ving
Ġwithdra wing
Ġhurt led
Ġcelest ial
oun cing
Ġprov ides
Ġinqu iring
lau rel
Ġlair d
Ġjeopard y
Ġkindergart en
re ese
Ġha iled
Ġbad ger
mar sh
Ġhen ch
Ġsque als
Ġbord ering
m ith
Ġh ord
Ġf iss
Ġhast ened
kno x
Ġprivile ged
m oo
ky o
Ġsou ven
Ġgall oran
Ġadmir able
Ġprelim inary
Ġs ard
Ġre vers
Ġwh oop
the d
Ġfisher man
Ġinexper ienced
Ġteac up
Ġe bon
ke ith
Ġover weight
Ġcl itor
be au
Ġirre spons
Ġseduct ively
Ġjag r
Ġespress o
Ġag encies
Ġver anda
Ġinqu ire
aug ust
Ġeuph oria
Ġerud ite
2 9
Ġn ass
Ġlo ot
Ġdis array
Ġca esar
Ġcut h
under stood
Ġsimpl icity
Ġcauld ron
Ġover coat
Ġsn orting
Ġholl owed
Ġens la
Ġseld on
4 4
j em
Ġst oned
Ġan al
Ġsc aled
s ensing
Ġsl ater
Ġdes mond
Ġmar qu
Ġgre ene
Ġut ens
Ġconcl ude
gra ve
Ġrebell ious
w inkler
Ġre i
ill o
Ġind igo
Ġav asarala
cra w
Ġmyst ics
Ġtet hered
Ġupro ar
Ġp se
we ndy
Ġaffect s
Ġfulf illing
Ġbers er
Ġcatastrop he
b ies
Ġt us
Ġc imil
ir med
Ġun holy
Ġblack s
Ġgrass es
Ġrib cage
Ġc c
on iously
Ġchildren s
sky ler
Ġt ure
Ġl up
Ġper verse
Ġmort ality
could nt
cat cher
Ġwrigg ling
j asper
Ġdown fall
Ġsusp ension
Ġmed iterranean
Ġfond ness
Ġschol ars
rust y
Ġremed y
f itted
Ġinto ler
Ġover load
Ġinter cepted
Ġaggrav ated
n u
are z
Ġsim ulation
Ġshapesh ifters
Ġdo zing
ch r
Ġdis se
Ġwar ring
Ġpers ian
ann abelle
somet ime
col onel
tam my
Ġto ile
ension al
bro ck
i ard
st ead
Ġit chy
ct ure
Ġcapt ivity
Ġflick ers
Ġenvironment al
Ġwar throp
Ġdist ances
Ġcop ing
Ġtrap door
cl int
Ġmort gage
Ġmelo d
Ġswell s
Ġchan ning
Ġtrot ting
h orn
m u
en ia
Ġbe ady
Ġsy bil
Ġdece ived
Ġmeticul ously
britt any
demet ri
Ġs ifting
Ġd ys
as i
tr ace
Ġdor othea
Ġfoolish ly
Ġrepresent atives
Ġdra b
r hea
Ġsp asms
Ġmat s
Ġste amed
Ġvi able
Ġban ish
Ġhost ages
Ġjac queline
Ġintri gue
Ġsquat ting
Ġamend s
Ġd res
Ġstren gthened
Ġoce ans
Ġdilap idated
Ġsol ving
Ġpaul a
Ġcult ures
Ġreapp ear
Ġprofound ly
Ġprosp er
e as
Ġha vin
Ġde hydr
Ġshe dding
Ġend urance
Ġimp ot
Ġesc orts
Ġnumb ly
Ġquarter back
Ġstrongh old
j ed
m age
x ual
Ġover run
Ġtry stan
Ġvel tan
Ġas kew
Ġcl inked
Ġarm and
Ġentire ty
Ġbre h
Ġble ary
Ġsuper ficial
Ġkey ed
Ġbom bing
Ġunint ell
Ġhammo ck
w ish
Ġy all
se ichan
Ġk ow
Ġch ord
Ġinsp ire
clo ser
Ġchast ised
Ġincor por
Ġquizz ical
Ġmell ow
f aster
h ag
j avier
Ġl aila
Ġsl ithering
Ġun acc
Ġvictor ious
Ġwitch craft
Ġolymp us
Ġd erm
Ġcl ive
Ġsl ush
wh ose
Ġenc ry
Ġsepar ately
Ġep it
burn ing
Ġpix ies
am ara
Ġblu ish
Ġconfl icting
im eters
Ġan sel
Ġsw agger
io d
Ġremo val
Ġauthor ized
Ġflin ching
Ġiniti ative
m andy
[...]
