{
  "version": "1.0",
  "truncation": null,
  "padding": null,
  "added_tokens": [
    {
      "id": 0,
      "content": "<|endoftext|>",
      "single_word": false,
      "lstrip": false,
      "rstrip": false,
      "normalized": true,
      "special": true
    },
    {
      "id": 32000,
      "content": "[PAD]",
      "single_word": false,
      "lstrip": false,
      "rstrip": false,
      "normalized": false,
      "special": true
    },
    {
      "id": 32001,
      "content": "[SEP]",
      "single_word": false,
      "lstrip": false,
      "rstrip": false,
      "normalized": false,
      "special": true
    },
    {
      "id": 32002,
      "content": "[CLS]",
      "single_word": false,
      "lstrip": false,
      "rstrip": false,
      "normalized": false,
      "special": true
    },
    {
      "id": 32003,
      "content": "[MSK]",
      "single_word": false,
      "lstrip": false,
      "rstrip": false,
      "normalized": false,
      "special": true
    }
  ],
  "normalizer": null,
  "pre_tokenizer": {
    "type": "ByteLevel",
    "add_prefix_space": false,
    "trim_offsets": true,
    "use_regex": true
  },
  "post_processor": {
    "type": "ByteLevel",
    "add_prefix_space": true,
    "trim_offsets": false,
    "use_regex": true
  },
  "decoder": {
    "type": "ByteLevel",
    "add_prefix_space": true,
    "trim_offsets": true,
    "use_regex": true
  },
  "model": {
    "type": "BPE",
    "dropout": null,
    "unk_token": null,
    "continuing_subword_prefix": "",
    "end_of_word_suffix": "",
    "fuse_unk": false,
    "byte_fallback": false,
    "ignore_merges": false,
    "vocab": {
      "<|endoftext|>": 0,
      "!": 1,
      "\"": 2,
      "#": 3,
      "$": 4,
      "%": 5,
      "&": 6,
      "'": 7,
      "(": 8,
      ")": 9,
      "*": 10,
      "+": 11,
      ",": 12,
      "-": 13,
      ".": 14,
      "/": 15,
      "0": 16,
      "1": 17,
      "2": 18,
      "3": 19,
      "4": 20,
      "5": 21,
      "6": 22,
      "7": 23,
      "8": 24,
      "9": 25,
      ":": 26,
      ";": 27,
      "<": 28,
      "=": 29,
      ">": 30,
      "?": 31,
      "@": 32,
      "A": 33,
      "B": 34,
      "C": 35,
      "D": 36,
      "E": 37,
      "F": 38,
      "G": 39,
      "H": 40,
      "I": 41,
      "J": 42,
      "K": 43,
      "L": 44,
      "M": 45,
      "N": 46,
      "O": 47,
      "P": 48,
      "Q": 49,
      "R": 50,
      "S": 51,
      "T": 52,
      "U": 53,
      "V": 54,
      "W": 55,
      "X": 56,
      "Y": 57,
      "Z": 58,
      "[": 59,
      "\\": 60,
      "]": 61,
      "^": 62,
      "_": 63,
      "`": 64,
      "a": 65,
      "b": 66,
      "c": 67,
      "d": 68,
      "e": 69,
      "f": 70,
      "g": 71,
      "h": 72,
      "i": 73,
      "j": 74,
      "k": 75,
      "l": 76,
      "m": 77,
      "n": 78,
      "o": 79,
      "p": 80,
      "q": 81,
      "r": 82,
      "s": 83,
      "t": 84,
      "u": 85,
      "v": 86,
      "w": 87,
      "x": 88,
      "y": 89,
      "z": 90,
      "{": 91,
      "|": 92,
      "}": 93,
      "~": 94,
      "¡": 95,
      "¢": 96,
      "£": 97,
      "¤": 98,
      "¥": 99,
      "¦": 100,
      "§": 101,
      "¨": 102,
      "©": 103,
      "ª": 104,
      "«": 105,
      "¬": 106,
      "®": 107,
      "¯": 108,
      "°": 109,
      "±": 110,
      "²": 111,
      "³": 112,
      "´": 113,
      "µ": 114,
      "¶": 115,
      "·": 116,
      "¸": 117,
      "¹": 118,
      "º": 119,
      "»": 120,
      "¼": 121,
      "½": 122,
      "¾": 123,
      "¿": 124,
      "À": 125,
      "Á": 126,
      "Â": 127,
      "Ã": 128,
      "Ä": 129,
      "Å": 130,
      "Æ": 131,
      "Ç": 132,
      "È": 133,
      "É": 134,
      "Ê": 135,
      "Ë": 136,
      "Ì": 137,
      "Í": 138,
      "Î": 139,
      "Ï": 140,
      "Ð": 141,
      "Ñ": 142,
      "Ò": 143,
      "Ó": 144,
      "Ô": 145,
      "Õ": 146,
      "Ö": 147,
      "×": 148,
      "Ø": 149,
      "Ù": 150,
      "Ú": 151,
      "Û": 152,
      "Ü": 153,
      "Ý": 154,
      "Þ": 155,
      "ß": 156,
      "à": 157,
      "á": 158,
      "â": 159,
      "ã": 160,
      "ä": 161,
      "å": 162,
      "æ": 163,
      "ç": 164,
      "è": 165,
      "é": 166,
      "ê": 167,
      "ë": 168,
      "ì": 169,
      "í": 170,
      "î": 171,
      "ï": 172,
      "ð": 173,
      "ñ": 174,
      "ò": 175,
      "ó": 176,
      "ô": 177,
      "õ": 178,
      "ö": 179,
      "÷": 180,
      "ø": 181,
      "ù": 182,
      "ú": 183,
      "û": 184,
      "ü": 185,
      "ý": 186,
      "þ": 187,
      "ÿ": 188,
      "Ā": 189,
      "ā": 190,
      "Ă": 191,
      "ă": 192,
      "Ą": 193,
      "ą": 194,
      "Ć": 195,
      "ć": 196,
      "Ĉ": 197,
      "ĉ": 198,
      "Ċ": 199,
      "ċ": 200,
      "Č": 201,
      "č": 202,
      "Ď": 203,
      "ď": 204,
      "Đ": 205,
      "đ": 206,
      "Ē": 207,
      "ē": 208,
      "Ĕ": 209,
      "ĕ": 210,
      "Ė": 211,
      "ė": 212,
      "Ę": 213,
      "ę": 214,
      "Ě": 215,
      "ě": 216,
      "Ĝ": 217,
      "ĝ": 218,
      "Ğ": 219,
      "ğ": 220,
      "Ġ": 221,
      "ġ": 222,
      "Ģ": 223,
      "ģ": 224,
      "Ĥ": 225,
      "ĥ": 226,
      "Ħ": 227,
      "ħ": 228,
      "Ĩ": 229,
      "ĩ": 230,
      "Ī": 231,
      "ī": 232,
      "Ĭ": 233,
      "ĭ": 234,
      "Į": 235,
      "į": 236,
      "İ": 237,
      "ı": 238,
      "Ĳ": 239,
      "ĳ": 240,
      "Ĵ": 241,
      "ĵ": 242,
      "Ķ": 243,
      "ķ": 244,
      "ĸ": 245,
      "Ĺ": 246,
      "ĺ": 247,
      "Ļ": 248,
      "ļ": 249,
      "Ľ": 250,
      "ľ": 251,
      "Ŀ": 252,
      "ŀ": 253,
      "Ł": 254,
      "ł": 255,
      "Ń": 256,
      "Ġt": 257,
      "he": 258,
      "Ġa": 259,
      "Ġ.": 260,
      "in": 261,
      "Ġs": 262,
      "Ġw": 263,
      "Ġ,": 264,
      "Ġthe": 265,
      "re": 266,
      "ou": 267,
      "Ġh": 268,
      "ed": 269,
      "Ġb": 270,
      "Ġo": 271,
      "Ġm": 272,
      "nd": 273,
      "Ġi": 274,
      "ing": 275,
      "Ġc": 276,
      "Ġ'": 277,
      "Ġf": 278,
      "er": 279,
      "Ġto": 280,
      "at": 281,
      "Ġhe": 282,
      "Ġd": 283,
      "Ġl": 284,
      "Ġn": 285,
      "is": 286,
      "en": 287,
      "as": 288,
      "Ġth": 289,
      "ll": 290,
      "Ġand": 291,
      "on": 292,
      "an": 293,
      "Ġp": 294,
      "or": 295,
      "ar": 296,
      "it": 297,
      "Ġg": 298,
      "es": 299,
      "Ġof": 300,
      "Ġin": 301,
      "``": 302,
      "Ġ''": 303,
      "Ġy": 304,
      "om": 305,
      "Ġha": 306,
      "ow": 307,
      "id": 308,
      "Ġbe": 309,
      "Ġyou": 310,
      "Ġe": 311,
      "Ġwas": 312,
      "le": 313,
      "ot": 314,
      "ld": 315,
      "Ġher": 316,
      "ac": 317,
      "gh": 318,
      "ve": 319,
      "st": 320,
      "Ġon": 321,
      "et": 322,
      "Ġst": 323,
      "im": 324,
      "ly": 325,
      "Ġit": 326,
      "ay": 327,
      "Ġhis": 328,
      "Ġthat": 329,
      "ic": 330,
      "Ġu": 331,
      "ut": 332,
      "Ġre": 333,
      "Ġr": 334,
      "ad": 335,
      "al": 336,
      "se": 337,
      "Ġk": 338,
      "ver": 339,
      "Ġme": 340,
      "out": 341,
      "Ġ?": 342,
      "Ġwh": 343,
      "the": 344,
      "oo": 345,
      "Ġwe": 346,
      "Ġas": 347,
      "ght": 348,
      "Ġmy": 349,
      "ould": 350,
      "ith": 351,
      "Ġshe": 352,
      "ir": 353,
      "Ġfor": 354,
      "ent": 355,
      "'t": 356,
      "Ġwith": 357,
      "ke": 358,
      "Ġhad": 359,
      "Ġdo": 360,
      "am": 361,
      "Ġan": 362,
      "Ġli": 363,
      "Ġat": 364,
      "ur": 365,
      "Ġsh": 366,
      "ion": 367,
      "all": 368,
      "Ġj": 369,
      "Ġhim": 370,
      "ee": 371,
      "Ġfr": 372,
      "Ġsa": 373,
      "ight": 374,
      "ked": 375,
      "ch": 376,
      "red": 377,
      "ro": 378,
      "pp": 379,
      "ack": 380,
      "Ġnot": 381,
      "ain": 382,
      "ill": 383,
      "Ġne": 384,
      "Ġbut": 385,
      "th": 386,
      "she": 387,
      "ant": 388,
      "ce": 389,
      "her": 390,
      "ter": 391,
      "il": 392,
      "and": 393,
      "Ġkn": 394,
      "ore": 395,
      "Ġout": 396,
      "Ġso": 397,
      "Ġup": 398,
      "Ġis": 399,
      "ust": 400,
      "rou": 401,
      "ri": 402,
      "ome": 403,
      "Ġhave": 404,
      "Ġsaid": 405,
      "ard": 406,
      "ec": 407,
      "un": 408,
      "one": 409,
      "Ġfrom": 410,
      "king": 411,
      "Ġwhat": 412,
      "Ġab": 413,
      "to": 414,
      "Ġgo": 415,
      "Ġdid": 416,
      "ie": 417,
      "Ġle": 418,
      "ra": 419,
      "Ġch": 420,
      "ind": 421,
      "Ġcould": 422,
      "Ġwhe": 423,
      "Ġno": 424,
      "Ġthis": 425,
      "Ġback": 426,
      "ge": 427,
      "Ġwere": 428,
      "Ġall": 429,
      "Ġloo": 430,
      "Ġal": 431,
      "Ġsu": 432,
      "Ġwould": 433,
      "ted": 434,
      "Ġv": 435,
      "ess": 436,
      "own": 437,
      "el": 438,
      "nt": 439,
      "us": 440,
      "Ġlike": 441,
      "lo": 442,
      "Ġthey": 443,
      "ood": 444,
      "qu": 445,
      "ab": 446,
      "ss": 447,
      "Ġsp": 448,
      "hed": 449,
      "Ġone": 450,
      "Ġinto": 451,
      "ell": 452,
      "ide": 453,
      "Ġcon": 454,
      "if": 455,
      "au": 456,
      "our": 457,
      "ry": 458,
      "ast": 459,
      "Ġag": 460,
      "Ġknow": 461,
      "Ġwor": 462,
      "ers": 463,
      "hing": 464,
      "ace": 465,
      "Ġabout": 466,
      "Ġex": 467,
      "ally": 468,
      "ake": 469,
      "ck": 470,
      "Ġhand": 471,
      "um": 472,
      "Ġro": 473,
      "Ġjust": 474,
      "Ġif": 475,
      "Ġthem": 476,
      "way": 477,
      "Ġsee": 478,
      "ul": 479,
      "Ġwant": 480,
      "Ġover": 481,
      "ong": 482,
      "op": 483,
      "Ġyour": 484,
      "very": 485,
      "ate": 486,
      "Ġany": 487,
      "art": 488,
      "Ġor": 489,
      "Ġbeen": 490,
      "ven": 491,
      "Ġey": 492,
      "Ġare": 493,
      "est": 494,
      "we": 495,
      "ap": 496,
      "Ġde": 497,
      "Ġsm": 498,
      "Ġthere": 499,
      "Ġtim": 500,
      "Ġget": 501,
      "lf": 502,
      "Ġdown": 503,
      "Ġbl": 504,
      "are": 505,
      "Ġwhen": 506,
      "Ġpl": 507,
      "ist": 508,
      "ig": 509,
      "Ġlo": 510,
      "ame": 511,
      "Ġtoo": 512,
      "Ġse": 513,
      "urn": 514,
      "Ġbo": 515,
      "Ġco": 516,
      "Ġagain": 517,
      "Ġmo": 518,
      "ous": 519,
      "round": 520,
      "ice": 521,
      "ation": 522,
      "Ġcom": 523,
      "Ġthen": 524,
      "Ġ!": 525,
      "Ġoff": 526,
      "Ġsome": 527,
      "ag": 528,
      "ink": 529,
      "Ġman": 530,
      "ive": 531,
      "Ġbr": 532,
      "Ġtime": 533,
      "Ġar": 534,
      "Ġeyes": 535,
      "Ġwho": 536,
      "ew": 537,
      "Ġthou": 538,
      "Ġpo": 539,
      "Ġhead": 540,
      "ting": 541,
      "Ġus": 542,
      "Ġby": 543,
      "ine": 544,
      "ull": 545,
      "ick": 546,
      "Ġqu": 547,
      "Ġmore": 548,
      "ak": 549,
      "ther": 550,
      "pped": 551,
      "other": 552,
      "ound": 553,
      "Ġcan": 554,
      "Ġcl": 555,
      "te": 556,
      "Ġac": 557,
      "Ġsc": 558,
      "Ġsl": 559,
      "Ġtr": 560,
      "Ġnow": 561,
      "led": 562,
      "Ġgr": 563,
      "self": 564,
      "ved": 565,
      "fore": 566,
      "Ġway": 567,
      "ile": 568,
      "Ġtw": 569,
      "ure": 570,
      "but": 571,
      "ire": 572,
      "Ġtheir": 573,
      "Ġen": 574,
      "Ġun": 575,
      "Ġthan": 576,
      "Ġhow": 577,
      "dd": 578,
      "Ġaround": 579,
      "wh": 580,
      "you": 581,
      "..": 582,
      "ass": 583,
      "ort": 584,
      "reat": 585,
      "Ġ``": 586,
      "ear": 587,
      "Ġsay": 588,
      "Ġgoing": 589,
      "Ġ...": 590,
      "ving": 591,
      "Ġbefore": 592,
      "fe": 593,
      "Ġother": 594,
      "nder": 595,
      "Ġwill": 596,
      "omet": 597,
      "Ġpre": 598,
      "Ġhere": 599,
      "ade": 600,
      "Ġpro": 601,
      "Ġeven": 602,
      "rough": 603,
      "Ġright": 604,
      "Ġthink": 605,
      "Ġfl": 606,
      "ep": 607,
      "Ġthrough": 608,
      "Ġneed": 609,
      "Ġturn": 610,
      "ip": 611,
      "em": 612,
      "Ġlooked": 613,
      "Ġim": 614,
      "ft": 615,
      "Ġevery": 616,
      "ff": 617,
      "tle": 618,
      "ect": 619,
      "Ġonly": 620,
      "Ġthought": 621,
      "fter": 622,
      "ward": 623,
      "iss": 624,
      "be": 625,
      "Ġshould": 626,
      "Ġthing": 627,
      "Ġaway": 628,
      "thing": 629,
      "Ġbec": 630,
      "Ġsomet": 631,
      "ling": 632,
      "ite": 633,
      "Ġlook": 634,
      "Ġgl": 635,
      "eep": 636,
      "Ġgu": 637,
      "Ġpr": 638,
      "Ġface": 639,
      "Ġdoor": 640,
      "ont": 641,
      "act": 642,
      "Ġmu": 643,
      "ies": 644,
      "ity": 645,
      "ang": 646,
      "ause": 647,
      "Ġstill": 648,
      "ave": 649,
      "iz": 650,
      "Ġexp": 651,
      "dy": 652,
      "ol": 653,
      "ened": 654,
      "Ġlong": 655,
      "Ġlet": 656,
      "ach": 657,
      "ared": 658,
      "Ġclo": 659,
      "ble": 660,
      "Ġfee": 661,
      "Ġsomething": 662,
      "Ġwat": 663,
      "Ġop": 664,
      "able": 665,
      "Ġam": 666,
      "Ġnever": 667,
      "Ġlit": 668,
      "Ġgot": 669,
      "ct": 670,
      "Ġbet": 671,
      "ark": 672,
      "ue": 673,
      "Ġgood": 674,
      "Ġche": 675,
      "ated": 676,
      "ance": 677,
      "they": 678,
      "wn": 679,
      "ered": 680,
      "med": 681,
      "Ġasked": 682,
      "ich": 683,
      "no": 684,
      "ough": 685,
      "ched": 686,
      "whe": 687,
      "Ġmade": 688,
      "ree": 689,
      "ious": 690,
      "Ġmuch": 691,
      "Ġarm": 692,
      "Ġfo": 693,
      "Ġho": 694,
      "ment": 695,
      "aking": 696,
      "age": 697,
      "Ġknew": 698,
      "Ġroom": 699,
      "ath": 700,
      "ty": 701,
      "Ġwa": 702,
      "Ġcar": 703,
      "ru": 704,
      "Ġtwo": 705,
      "Ġwhere": 706,
      "his": 707,
      "Ġdis": 708,
      "ning": 709,
      "ady": 710,
      "Ġfir": 711,
      "side": 712,
      "Ġlittle": 713,
      "Ġrem": 714,
      "so": 715,
      "Ġtell": 716,
      "Ġunder": 717,
      "ond": 718,
      "ather": 719,
      "Ġday": 720,
      "Ġafter": 721,
      "Ġour": 722,
      "sh": 723,
      "Ġmake": 724,
      "Ġmom": 725,
      "gg": 726,
      "elt": 727,
      "sp": 728,
      "Ġpe": 729,
      "de": 730,
      "Ġhapp": 731,
      "ress": 732,
      "ried": 733,
      "ks": 734,
      "ber": 735,
      "Ġtake": 736,
      "Ġwal": 737,
      "Ġte": 738,
      "Ġbecause": 739,
      "Ġcall": 740,
      "air": 741,
      "ah": 742,
      "my": 743,
      "ase": 744,
      "Ġwell": 745,
      "oice": 746,
      "Ġcont": 747,
      "ves": 748,
      "Ġcome": 749,
      "Ġfelt": 750,
      "ose": 751,
      "Ġfirst": 752,
      "ied": 753,
      "Ġhands": 754,
      "ps": 755,
      "Ġwanted": 756,
      "Ġtook": 757,
      "ple": 758,
      "Ġ;": 759,
      "Ġturned": 760,
      "Ġpull": 761,
      "Ġtal": 762,
      "Ġem": 763,
      "Ġsw": 764,
      "Ġca": 765,
      "that": 766,
      "ans": 767,
      "Ġhel": 768,
      "Ġjo": 769,
      "row": 770,
      "what": 771,
      "pt": 772,
      "Ġsure": 773,
      "oth": 774,
      "Ġnight": 775,
      "ily": 776,
      "ild": 777,
      "sed": 778,
      "ia": 779,
      "Ġsk": 780,
      "pl": 781,
      "Ġreally": 782,
      "Ġapp": 783,
      "ence": 784,
      "ne": 785,
      "ook": 786,
      "Ġvoice": 787,
      "Ġagainst": 788,
      "Ġtry": 789,
      "uck": 790,
      "Ġstar": 791,
      "there": 792,
      "Ġsec": 793,
      "Ġwhy": 794,
      "Ġhas": 795,
      "ds": 796,
      "Ġsur": 797,
      "Ġdes": 798,
      "anc": 799,
      "get": 800,
      "Ġel": 801,
      "ople": 802,
      "per": 803,
      "Ġleft": 804,
      "bb": 805,
      "Ġtold": 806,
      "Ġhard": 807,
      "Ġreal": 808,
      "Ġcame": 809,
      "Ġfeel": 810,
      "av": 811,
      "Ġcou": 812,
      "ise": 813,
      "Ġbel": 814,
      "ish": 815,
      "ross": 816,
      "Ġside": 817,
      "Ġpart": 818,
      "Ġbeh": 819,
      "mo": 820,
      "Ġput": 821,
      "Ġbody": 822,
      "Ġvery": 823,
      "Ġper": 824,
      "Ġlife": 825,
      "Ġ-": 826,
      "Ġlast": 827,
      "az": 828,
      "Ġwom": 829,
      "Ġfew": 830,
      "Ġad": 831,
      "Ġwo": 832,
      "ful": 833,
      "ned": 834,
      "Ġpeople": 835,
      "Ġmar": 836,
      "Ġhelp": 837,
      "Ġfind": 838,
      "ren": 839,
      "ears": 840,
      "Ġfe": 841,
      "Ġmoment": 842,
      "hes": 843,
      "for": 844,
      "Ġstr": 845,
      "les": 846,
      "Ġanything": 847,
      "Ġear": 848,
      "Ġbreat": 849,
      "Ġits": 850,
      "Ġown": 851,
      "Ġwhich": 852,
      "xt": 853,
      "Ġwait": 854,
      "Ġnew": 855,
      "ens": 856,
      "ions": 857,
      "Ġanother": 858,
      "Ġfin": 859,
      "Ġwent": 860,
      "Ġtoward": 861,
      "Ġwar": 862,
      "Ġbeing": 863,
      "Ġenough": 864,
      "ouse": 865,
      "Ġph": 866,
      "Ġbehind": 867,
      "Ġwhile": 868,
      "Ġmight": 869,
      "Ġkeep": 870,
      "Ġcr": 871,
      "owed": 872,
      "igh": 873,
      "Ġbed": 874,
      "Ġbu": 875,
      "Ġsaw": 876,
      "Ġlight": 877,
      "Ġlau": 878,
      "Ġwr": 879,
      "Ġbeg": 880,
      "Ġmay": 881,
      "Ġunt": 882,
      "Ġdoes": 883,
      "ways": 884,
      "outh": 885,
      "Ġmat": 886,
      "Ġsn": 887,
      "Ġdark": 888,
      "Ġgir": 889,
      "Ġhair": 890,
      "Ġsound": 891,
      "ail": 892,
      "Ġmind": 893,
      "ching": 894,
      "Ġlove": 895,
      "Ġthings": 896,
      "ince": 897,
      "ys": 898,
      "Ġever": 899,
      "ness": 900,
      "int": 901,
      "Ġuntil": 902,
      "Ġcle": 903,
      "Ġdr": 904,
      "Ġfing": 905,
      "Ġopen": 906,
      "Ġnothing": 907,
      "Ġold": 908,
      "Ġend": 909,
      "Ġstu": 910,
      "ream": 911,
      "when": 912,
      "Ġdec": 913,
      "Ġent": 914,
      "ian": 915,
      "Ġset": 916,
      "ons": 917,
      "ord": 918,
      "amp": 919,
      "uc": 920,
      "Ġcare": 921,
      "ner": 922,
      "co": 923,
      "iend": 924,
      "ool": 925,
      "then": 926,
      "dded": 927,
      "Ġfriend": 928,
      "Ġgirl": 929,
      "Ġplace": 930,
      "Ġthough": 931,
      "Ġthose": 932,
      "ower": 933,
      "Ġatt": 934,
      "Ġalways": 935,
      "Ġmouth": 936,
      "Ġhouse": 937,
      "how": 938,
      "Ġsat": 939,
      "Ġfound": 940,
      "Ġfront": 941,
      "most": 942,
      "Ġnext": 943,
      "not": 944,
      "aw": 945,
      "Ġmin": 946,
      "Ġsmil": 947,
      "Ġ:": 948,
      "Ġhome": 949,
      "this": 950,
      "Ġkill": 951,
      "li": 952,
      "rew": 953,
      "ating": 954,
      "ary": 955,
      "Ġcur": 956,
      "Ġste": 957,
      "Ġrun": 958,
      "Ġlooking": 959,
      "Ġinside": 960,
      "ank": 961,
      "Ġhold": 962,
      "Ġboth": 963,
      "Ġsil": 964,
      "Ġhu": 965,
      "ory": 966,
      "Ġheart": 967,
      "Ġsit": 968,
      "Ġwork": 969,
      "less": 970,
      "ually": 971,
      "Ġmost": 972,
      "Ġhimself": 973,
      "Ġsame": 974,
      "**": 975,
      "Ġrest": 976,
      "Ġact": 977,
      "os": 978,
      "Ġimp": 979,
      "ange": 980,
      "Ġfar": 981,
      "Ġbit": 982,
      "Ġwoman": 983,
      "Ġass": 984,
      "Ġsmall": 985,
      "ung": 986,
      "Ġheard": 987,
      "Ġpulled": 988,
      "Ġsho": 989,
      "Ġarms": 990,
      "ween": 991,
      "Ġstand": 992,
      "Ġrel": 993,
      "Ġtrying": 994,
      "Ġflo": 995,
      "ised": 996,
      "ert": 997,
      "Ġblood": 998,
      "ret": 999,
      "Ġcour": 1000,
      "Ġbetter": 1001,
      "Ġyes": 1002,
      "Ġseemed": 1003,
      "Ġwind": 1004,
      "Ġhop": 1005,
      "Ġret": 1006,
      "Ġgra": 1007,
      "Ġser": 1008,
      "Ġkiss": 1009,
      "pping": 1010,
      "Ġbetween": 1011,
      "Ġsmile": 1012,
      "Ġfather": 1013,
      "Ġcor": 1014,
      "Ġans": 1015,
      "Ġmean": 1016,
      "Ġwithout": 1017,
      "ten": 1018,
      "Ġonce": 1019,
      "ng": 1020,
      "Ġmother": 1021,
      "ready": 1022,
      "Ġgi": 1023,
      "ale": 1024,
      "ably": 1025,
      "Ġdra": 1026,
      "Ġhear": 1027,
      "Ġdeep": 1028,
      "ped": 1029,
      "used": 1030,
      "Ġsto": 1031,
      "ial": 1032,
      "Ġmyself": 1033,
      "aught": 1034,
      "Ġacross": 1035,
      "Ġsecond": 1036,
      "Ġgive": 1037,
      "Ġspe": 1038,
      "Ġblack": 1039,
      "Ġfam": 1040,
      "Ġstarted": 1041,
      "Ġpass": 1042,
      "Ġgave": 1043,
      "cked": 1044,
      "ict": 1045,
      "Ġpu": 1046,
      "Ġsomeone": 1047,
      "Ġbreath": 1048,
      "Ġdri": 1049,
      "Ġhur": 1050,
      "kay": 1051,
      "Ġeach": 1052,
      "ached": 1053,
      "Ġalready": 1054,
      "pr": 1055,
      "Ġstood": 1056,
      "Ġeverything": 1057,
      "ix": 1058,
      "Ġyears": 1059,
      "Ġple": 1060,
      "Ġbre": 1061,
      "shed": 1062,
      "Ġsle": 1063,
      "Ġquick": 1064,
      "Ġmust": 1065,
      "Ġelse": 1066,
      "Ġpain": 1067,
      "Ġbelie": 1068,
      "Ġdone": 1069,
      "ors": 1070,
      "Ġkind": 1071,
      "Ġstop": 1072,
      "ible": 1073,
      "gether": 1074,
      "Ġwall": 1075,
      "Ġair": 1076,
      "Ġalmost": 1077,
      "its": 1078,
      "Ġstay": 1079,
      "Ġdoing": 1080,
      "ater": 1081,
      "Ġmen": 1082,
      "Ġtried": 1083,
      "ph": 1084,
      "Ġinst": 1085,
      "Ġdro": 1086,
      "Ġlips": 1087,
      "ash": 1088,
      "Ġwalked": 1089,
      "do": 1090,
      "Ġworld": 1091,
      "Ġru": 1092,
      "Ġfoll": 1093,
      "bo": 1094,
      "Ġwords": 1095,
      "ever": 1096,
      "ane": 1097,
      "Ġclose": 1098,
      "Ġcomp": 1099,
      "Ġtou": 1100,
      "ized": 1101,
      "Ġhum": 1102,
      "Ġnodded": 1103,
      "Ġsince": 1104,
      "iv": 1105,
      "Ġfeet": 1106,
      "Ġremem": 1107,
      "Ġmor": 1108,
      "umb": 1109,
      "Ġtra": 1110,
      "Ġthree": 1111,
      "Ġsig": 1112,
      "Ġbig": 1113,
      "iet": 1114,
      "Ġswe": 1115,
      "Ġbar": 1116,
      "Ġminut": 1117,
      "ured": 1118,
      "Ġtogether": 1119,
      "Ġheld": 1120,
      "rent": 1121,
      "Ġob": 1122,
      "Ġseen": 1123,
      "Ġdidnt": 1124,
      "pe": 1125,
      "ully": 1126,
      "Ġstart": 1127,
      "Ġmet": 1128,
      "ger": 1129,
      "Ġnear": 1130,
      "Ġquest": 1131,
      "gs": 1132,
      "ained": 1133,
      "Ġlot": 1134,
      "owing": 1135,
      "day": 1136,
      "ason": 1137,
      "Ġdif": 1138,
      "irt": 1139,
      "Ġmon": 1140,
      "Ġunderst": 1141,
      "Ġsupp": 1142,
      "icked": 1143,
      "inking": 1144,
      "cl": 1145,
      "Ġwhis": 1146,
      "ier": 1147,
      "Ġmiss": 1148,
      "where": 1149,
      "Ġpers": 1150,
      "Ġdont": 1151,
      "ced": 1152,
      "Ġmany": 1153,
      "ud": 1154,
      "akes": 1155,
      "ib": 1156,
      "Ġed": 1157,
      "ently": 1158,
      "Ġslow": 1159,
      "Ġplay": 1160,
      "Ġsays": 1161,
      "Ġfeeling": 1162,
      "ser": 1163,
      "Ġwater": 1164,
      "Ġsmiled": 1165,
      "Ġmove": 1166,
      "Ġfloor": 1167,
      "ither": 1168,
      "gged": 1169,
      "Ġtalk": 1170,
      "Ġhell": 1171,
      "Ġbad": 1172,
      "Ġev": 1173,
      "Ġherself": 1174,
      "rie": 1175,
      "ows": 1176,
      "Ġtable": 1177,
      "Ġgone": 1178,
      "Ġfingers": 1179,
      "Ġleave": 1180,
      "Ġgre": 1181,
      "ention": 1182,
      "Ġbegan": 1183,
      "Ġchest": 1184,
      "Ġneeded": 1185,
      "by": 1186,
      "ished": 1187,
      "aced": 1188,
      "Ġra": 1189,
      "Ġpast": 1190,
      "ying": 1191,
      "Ġeas": 1192,
      "ected": 1193,
      "Ġsim": 1194,
      "Ġz": 1195,
      "Ġstep": 1196,
      "ings": 1197,
      "orm": 1198,
      "Ġdist": 1199,
      "Ġshook": 1200,
      "Ġname": 1201,
      "ense": 1202,
      "ax": 1203,
      "eah": 1204,
      "Ġokay": 1205,
      "der": 1206,
      "Ġhour": 1207,
      "ny": 1208,
      "ately": 1209,
      "vers": 1210,
      "Ġacc": 1211,
      "Ġgreat": 1212,
      "Ġsqu": 1213,
      "wer": 1214,
      "Ġthese": 1215,
      "Ġconf": 1216,
      "now": 1217,
      "Ġcourse": 1218,
      "dden": 1219,
      "bably": 1220,
      "ush": 1221,
      "Ġalong": 1222,
      "Ġsor": 1223,
      "Ġmaybe": 1224,
      "Ġcalled": 1225,
      "up": 1226,
      "Ġide": 1227,
      "Ġfore": 1228,
      "Ġgetting": 1229,
      "ical": 1230,
      "Ġsoft": 1231,
      "with": 1232,
      "Ġalso": 1233,
      "Ġcoming": 1234,
      "na": 1235,
      "ined": 1236,
      "Ġfall": 1237,
      "Ġbro": 1238,
      "Ġchild": 1239,
      "Ġleast": 1240,
      "Ġint": 1241,
      "ipped": 1242,
      "Ġhalf": 1243,
      "ms": 1244,
      "Ġhappened": 1245,
      "Ġyet": 1246,
      "Ġmoved": 1247,
      "ek": 1248,
      "Ġred": 1249,
      "Ġdead": 1250,
      "aring": 1251,
      "aned": 1252,
      "Ġinv": 1253,
      "Ġaw": 1254,
      "Ġbest": 1255,
      "Ġfre": 1256,
      "Ġcontin": 1257,
      "Ġreached": 1258,
      "Ġcomm": 1259,
      "Ġreturn": 1260,
      "Ġtre": 1261,
      "Ġsuch": 1262,
      "Ġperson": 1263,
      "Ġposs": 1264,
      "just": 1265,
      "Ġresp": 1266,
      "Ġchar": 1267,
      "Ġhigh": 1268,
      "Ġeye": 1269,
      "Ġres": 1270,
      "bbed": 1271,
      "tered": 1272,
      "Ġstopped": 1273,
      "Ġphone": 1274,
      "Ġsoon": 1275,
      "Ġgaz": 1276,
      "br": 1277,
      "Ġbelieve": 1278,
      "Ġskin": 1279,
      "eth": 1280,
      "ition": 1281,
      "Ġtight": 1282,
      "che": 1283,
      "Ġprobably": 1284,
      "Ġcra": 1285,
      "idd": 1286,
      "Ġter": 1287,
      "ged": 1288,
      "Ġopened": 1289,
      "app": 1290,
      "ening": 1291,
      "ene": 1292,
      "Ġfire": 1293,
      "ired": 1294,
      "Ġpat": 1295,
      "jo": 1296,
      "Ġbus": 1297,
      "Ġask": 1298,
      "Ġused": 1299,
      "Ġmaking": 1300,
      "ual": 1301,
      "Ġmeet": 1302,
      "Ġfamily": 1303,
      "Ġpress": 1304,
      "Ġlater": 1305,
      "ister": 1306,
      "ton": 1307,
      "Ġoh": 1308,
      "Ġsurpr": 1309,
      "Ġboy": 1310,
      "iously": 1311,
      "Ġidea": 1312,
      "head": 1313,
      "arent": 1314,
      "ided": 1315,
      "Ġran": 1316,
      "ept": 1317,
      "Ġunderstand": 1318,
      "ering": 1319,
      "Ġdam": 1320,
      "Ġinter": 1321,
      "Ġsleep": 1322,
      "Ġhor": 1323,
      "Ġpar": 1324,
      "fully": 1325,
      "room": 1326,
      "Ġanyone": 1327,
      "Ġdire": 1328,
      "Ġplan": 1329,
      "Ġshoulder": 1330,
      "Ġwhite": 1331,
      "ction": 1332,
      "Ġforward": 1333,
      "aut": 1334,
      "gn": 1335,
      "Ġground": 1336,
      "Ġbrother": 1337,
      "Ġdiffe": 1338,
      "Ġdem": 1339,
      "cept": 1340,
      "Ġap": 1341,
      "Ġneck": 1342,
      "ins": 1343,
      "Ġhot": 1344,
      "after": 1345,
      "Ġmorning": 1346,
      "Ġfact": 1347,
      "Ġstra": 1348,
      "ts": 1349,
      "Ġkept": 1350,
      "man": 1351,
      "Ġpoint": 1352,
      "anced": 1353,
      "Ġes": 1354,
      "rest": 1355,
      "Ġlist": 1356,
      "Ġsorry": 1357,
      "Ġmatter": 1358,
      "Ġmr": 1359,
      "may": 1360,
      "Ġfight": 1361,
      "Ġsudden": 1362,
      "aid": 1363,
      "well": 1364,
      "Ġpower": 1365,
      "Ġread": 1366,
      "Ġlar": 1367,
      "Ġtop": 1368,
      "Ġcomple": 1369,
      "Ġdays": 1370,
      "Ġcut": 1371,
      "Ġyoung": 1372,
      "Ġremember": 1373,
      "Ġquiet": 1374,
      "ued": 1375,
      "ents": 1376,
      "Ġrepl": 1377,
      "ertain": 1378,
      "Ġcat": 1379,
      "aken": 1380,
      "Ġgod": 1381,
      "Ġquickly": 1382,
      "Ġable": 1383,
      "ize": 1384,
      "Ġvis": 1385,
      "why": 1386,
      "Ġprot": 1387,
      "Ġfinally": 1388,
      "Ġguy": 1389,
      "Ġhit": 1390,
      "Ġtaking": 1391,
      "oke": 1392,
      "Ġonto": 1393,
      "iness": 1394,
      "Ġrep": 1395,
      "Ġroll": 1396,
      "Ġ1": 1397,
      "Ġclear": 1398,
      "Ġwrong": 1399,
      "Ġreg": 1400,
      "Ġuse": 1401,
      "Ġclosed": 1402,
      "Ġexpl": 1403,
      "uth": 1404,
      "Ġalone": 1405,
      "Ġmag": 1406,
      "Ġstared": 1407,
      "Ġhurt": 1408,
      "ead": 1409,
      "ically": 1410,
      "Ġanswer": 1411,
      "Ġfull": 1412,
      "Ġcap": 1413,
      "Ġrec": 1414,
      "Ġready": 1415,
      "Ġwatched": 1416,
      "Ġquestion": 1417,
      "Ġfell": 1418,
      "Ġlaugh": 1419,
      "ife": 1420,
      "Ġthinking": 1421,
      "Ġthro": 1422,
      "Ġtalking": 1423,
      "io": 1424,
      "bl": 1425,
      "Ġmine": 1426,
      "Ġlea": 1427,
      "airs": 1428,
      "Ġsun": 1429,
      "Ġinc": 1430,
      "Ġdel": 1431,
      "Ġdress": 1432,
      "Ġsch": 1433,
      "Ġhar": 1434,
      "vel": 1435,
      "Ġminutes": 1436,
      "Ġwhisp": 1437,
      "any": 1438,
      "ghed": 1439,
      "Ġdad": 1440,
      "ets": 1441,
      "aps": 1442,
      "maybe": 1443,
      "Ġdet": 1444,
      "cc": 1445,
      "Ġpol": 1446,
      "fort": 1447,
      "Ġfig": 1448,
      "Ġinte": 1449,
      "Ġhaving": 1450,
      "Ġcoll": 1451,
      "Ġbeaut": 1452,
      "Ġcol": 1453,
      "Ġref": 1454,
      "Ġbab": 1455,
      "Ġtri": 1456,
      "Ġslowly": 1457,
      "Ġstre": 1458,
      "ount": 1459,
      "Ġhall": 1460,
      "Ġmem": 1461,
      "Ġgaze": 1462,
      "oney": 1463,
      "Ġwonder": 1464,
      "illed": 1465,
      "Ġpur": 1466,
      "Ġyeah": 1467,
      "oh": 1468,
      "ey": 1469,
      "ump": 1470,
      "night": 1471,
      "go": 1472,
      "Ġcons": 1473,
      "Ġpret": 1474,
      "Ġreason": 1475,
      "Ġlost": 1476,
      "Ġbot": 1477,
      "Ġcold": 1478,
      "Ġglass": 1479,
      "Ġword": 1480,
      "Ġoutside": 1481,
      "Ġdou": 1482,
      "fect": 1483,
      "Ġguess": 1484,
      "Ġvamp": 1485,
      "Ġlow": 1486,
      "Ġmus": 1487,
      "ations": 1488,
      "Ġlif": 1489,
      "Ġtimes": 1490,
      "Ġfine": 1491,
      "ken": 1492,
      "Ġdifferent": 1493,
      "Ġwhole": 1494,
      "ips": 1495,
      "cer": 1496,
      "Ġeither": 1497,
      "Ġcal": 1498,
      "Ġeveryone": 1499,
      "Ġcaught": 1500,
      "Ġkid": 1501,
      "ides": 1502,
      "vered": 1503,
      "ased": 1504,
      "inted": 1505,
      "Ġjack": 1506,
      "Ġwalk": 1507,
      "apter": 1508,
      "Ġbur": 1509,
      "Ġland": 1510,
      "Ġfour": 1511,
      "Ġlou": 1512,
      "Ġprom": 1513,
      "Ġactually": 1514,
      "mm": 1515,
      "Ġlaughed": 1516,
      "Ġshort": 1517,
      "ming": 1518,
      "ames": 1519,
      "Ġpretty": 1520,
      "cus": 1521,
      "Ġmur": 1522,
      "let": 1523,
      "Ġele": 1524,
      "ures": 1525,
      "Ġgrin": 1526,
      "Ġexact": 1527,
      "Ġbreak": 1528,
      "Ġago": 1529,
      "Ġbes": 1530,
      "Ġwaiting": 1531,
      "Ġfriends": 1532,
      "cle": 1533,
      "Ġstanding": 1534,
      "Ġtaken": 1535,
      "Ġcomplete": 1536,
      "eared": 1537,
      "Ġbuild": 1538,
      "als": 1539,
      "uring": 1540,
      "ards": 1541,
      "Ġshot": 1542,
      "Ġhope": 1543,
      "rought": 1544,
      "ited": 1545,
      "Ġfree": 1546,
      "like": 1547,
      "Ġlegs": 1548,
      "Ġdeath": 1549,
      "icul": 1550,
      "Ġthroat": 1551,
      "enty": 1552,
      "iver": 1553,
      "rol": 1554,
      "Ġmeant": 1555,
      "Ġpres": 1556,
      "gr": 1557,
      "Ġblue": 1558,
      "Ġvampire": 1559,
      "Ġfur": 1560,
      "ho": 1561,
      "Ġglanced": 1562,
      "Ġblo": 1563,
      "Ġje": 1564,
      "Ġwhispered": 1565,
      "Ġscream": 1566,
      "Ġothers": 1567,
      "even": 1568,
      "Ġschool": 1569,
      "iding": 1570,
      "fin": 1571,
      "Ġsy": 1572,
      "Ġshow": 1573,
      "Ġlay": 1574,
      "Ġwindow": 1575,
      "Ġstrong": 1576,
      "osed": 1577,
      "Ġid": 1578,
      "Ġbrought": 1579,
      "Ġbare": 1580,
      "eks": 1581,
      "Ġlooks": 1582,
      "Ġwarm": 1583,
      "Ġimag": 1584,
      "Ġcertain": 1585,
      "Ġkit": 1586,
      "Ġstraight": 1587,
      "unt": 1588,
      "ters": 1589,
      "acked": 1590,
      "Ġins": 1591,
      "Ġfun": 1592,
      "Ġhuman": 1593,
      "yes": 1594,
      "Ġseat": 1595,
      "anger": 1596,
      "Ġburn": 1597,
      "Ġgun": 1598,
      "ates": 1599,
      "Ġsent": 1600,
      "Ġstepped": 1601,
      "more": 1602,
      "every": 1603,
      "Ġmess": 1604,
      "Ġbring": 1605,
      "Ġless": 1606,
      "Ġperfect": 1607,
      "Ġlarge": 1608,
      "Ġsign": 1609,
      "iful": 1610,
      "ime": 1611,
      "zy": 1612,
      "Ġleaned": 1613,
      "ik": 1614,
      "Ġtouch": 1615,
      "Ġdream": 1616,
      "Ġsex": 1617,
      "Ġsister": 1618,
      "Ġsense": 1619,
      "Ġfoot": 1620,
      "Ġadm": 1621,
      "ield": 1622,
      "Ġrealized": 1623,
      "Ġang": 1624,
      "land": 1625,
      "Ġind": 1626,
      "Ġemp": 1627,
      "Ġshut": 1628,
      "Ġentire": 1629,
      "Ġdisapp": 1630,
      "Ġsuddenly": 1631,
      "Ġty": 1632,
      "Ġexactly": 1633,
      "ove": 1634,
      "anged": 1635,
      "Ġholding": 1636,
      "nding": 1637,
      "orn": 1638,
      "Ġchair": 1639,
      "ression": 1640,
      "Ġquite": 1641,
      "Ġcry": 1642,
      "Ġwatch": 1643,
      "Ġcross": 1644,
      "ird": 1645,
      "Ġlead": 1646,
      "ze": 1647,
      "Ġhappy": 1648,
      "Ġsub": 1649,
      "Ġfollowed": 1650,
      "read": 1651,
      "veral": 1652,
      "ants": 1653,
      "some": 1654,
      "Ġexc": 1655,
      "apped": 1656,
      "Ġgrabbed": 1657,
      "Ġbat": 1658,
      "iced": 1659,
      "Ġwatching": 1660,
      "Ġcontinued": 1661,
      "Ġtom": 1662,
      "ison": 1663,
      "Ġten": 1664,
      "ape": 1665,
      "Ġcloser": 1666,
      "com": 1667,
      "Ġjob": 1668,
      "aster": 1669,
      "Ġhours": 1670,
      "Ġshru": 1671,
      "otion": 1672,
      "Ġcent": 1673,
      "ub": 1674,
      "Ġwood": 1675,
      "gan": 1676,
      "Ġsitting": 1677,
      "Ġattention": 1678,
      "Ġreplied": 1679,
      "Ġrunning": 1680,
      "Ġgen": 1681,
      "Ġer": 1682,
      "oun": 1683,
      "Ġpushed": 1684,
      "though": 1685,
      "me": 1686,
      "Ġcount": 1687,
      "aces": 1688,
      "Ġline": 1689,
      "form": 1690,
      "aged": 1691,
      "Ġlonger": 1692,
      "Ġclot": 1693,
      "sing": 1694,
      "Ġbeautiful": 1695,
      "chen": 1696,
      "Ġdeal": 1697,
      "nded": 1698,
      "ient": 1699,
      "Ġfear": 1700,
      "Ġthr": 1701,
      "Ġshoulders": 1702,
      "Ġchance": 1703,
      "aul": 1704,
      "Ġsaying": 1705,
      "Ġappro": 1706,
      "Ġtrue": 1707,
      "Ġwra": 1708,
      "isted": 1709,
      "gy": 1710,
      "Ġwin": 1711,
      "Ġna": 1712,
      "Ġnice": 1713,
      "Ġspeak": 1714,
      "ina": 1715,
      "Ġbaby": 1716,
      "ma": 1717,
      "haps": 1718,
      "Ġhes": 1719,
      "Ġmonth": 1720,
      "Ġhung": 1721,
      "Ġstom": 1722,
      "ches": 1723,
      "Ġ)": 1724,
      "Ġcir": 1725,
      "Ġtown": 1726,
      "Ġheav": 1727,
      "Ġlear": 1728,
      "Ġfive": 1729,
      "Ġstru": 1730,
      "bed": 1731,
      "Ġbeside": 1732,
      "Ġbag": 1733,
      "ster": 1734,
      "chapter": 1735,
      "Ġslight": 1736,
      "Ġsafe": 1737,
      "Ġeng": 1738,
      "Ġyell": 1739,
      "Ġapart": 1740,
      "Ġproble": 1741,
      "Ġinterest": 1742,
      "Ġchange": 1743,
      "Ġsing": 1744,
      "Ġliving": 1745,
      "Ġplease": 1746,
      "Ġpap": 1747,
      "fr": 1748,
      "Ġmoney": 1749,
      "ls": 1750,
      "ines": 1751,
      "ject": 1752,
      "Ġcontrol": 1753,
      "Ġpri": 1754,
      "Ġkitchen": 1755,
      "cent": 1756,
      "Ġroad": 1757,
      "ann": 1758,
      "Ġtem": 1759,
      "cess": 1760,
      "Ġpa": 1761,
      "Ġfast": 1762,
      "Ġdin": 1763,
      "cy": 1764,
      "light": 1765,
      "Ġsmell": 1766,
      "Ġdropped": 1767,
      "Ġve": 1768,
      "Ġlive": 1769,
      "Ġtrust": 1770,
      "Ġcase": 1771,
      "Ġwasnt": 1772,
      "Ġparent": 1773,
      "ots": 1774,
      "Ġcouple": 1775,
      "Ġseveral": 1776,
      "Ġknown": 1777,
      "Ġpal": 1778,
      "antly": 1779,
      "Ġsweet": 1780,
      "ars": 1781,
      "Ġgiven": 1782,
      "Ġshif": 1783,
      "ially": 1784,
      "Ġoffice": 1785,
      "Ġtonight": 1786,
      "Ġloved": 1787,
      "Ġshad": 1788,
      "Ġshit": 1789,
      "Ġdecided": 1790,
      "Ġmoving": 1791,
      "iff": 1792,
      "rist": 1793,
      "ror": 1794,
      "Ġreco": 1795,
      "ones": 1796,
      "Ġsix": 1797,
      "Ġyear": 1798,
      "sel": 1799,
      "cking": 1800,
      "een": 1801,
      "Ġeff": 1802,
      "ought": 1803,
      "Ġsky": 1804,
      "Ġshirt": 1805,
      "Ġform": 1806,
      "Ġgrand": 1807,
      "Ġson": 1808,
      "Ġbusiness": 1809,
      "Ġill": 1810,
      "imes": 1811,
      "Ġleaving": 1812,
      "Ġir": 1813,
      "Ġtoday": 1814,
      "Ġwhatever": 1815,
      "Ġbene": 1816,
      "Ġcity": 1817,
      "ility": 1818,
      "Ġstreet": 1819,
      "Ġmad": 1820,
      "Ġesc": 1821,
      "ains": 1822,
      "Ġabove": 1823,
      "ashed": 1824,
      "body": 1825,
      "Ġtruth": 1826,
      "Ġcoun": 1827,
      "ising": 1828,
      "ident": 1829,
      "Ġwomen": 1830,
      "ief": 1831,
      "Ġrock": 1832,
      "Ġadd": 1833,
      "Ġsort": 1834,
      "Ġspec": 1835,
      "Ġdoub": 1836,
      "iny": 1837,
      "iew": 1838,
      "Ġfinger": 1839,
      "Ġav": 1840,
      "umped": 1841,
      "Ġce": 1842,
      "Ġcreat": 1843,
      "ply": 1844,
      "Ġspoke": 1845,
      "Ġrose": 1846,
      "Ġgri": 1847,
      "els": 1848,
      "Ġpassed": 1849,
      "Ġma": 1850,
      "aining": 1851,
      "Ġstomach": 1852,
      "Ġmil": 1853,
      "unch": 1854,
      "ley": 1855,
      "ien": 1856,
      "Ġtor": 1857,
      "Ġaf": 1858,
      "Ġlifted": 1859,
      "Ġbook": 1860,
      "raid": 1861,
      "lly": 1862,
      "Ġhon": 1863,
      "Ġparents": 1864,
      "Ġraised": 1865,
      "ging": 1866,
      "ience": 1867,
      "Ġthank": 1868,
      "lex": 1869,
      "ara": 1870,
      "of": 1871,
      "Ġworking": 1872,
      "ky": 1873,
      "Ġarri": 1874,
      "Ġcrow": 1875,
      "Ġdrink": 1876,
      "Ġdev": 1877,
      "Ġcorner": 1878,
      "Ġworry": 1879,
      "Ġcompletely": 1880,
      "wor": 1881,
      "bec": 1882,
      "Ġ(": 1883,
      "Ġgreen": 1884,
      "Ġbegin": 1885,
      "Ġmut": 1886,
      "Ġfilled": 1887,
      "medi": 1888,
      "gth": 1889,
      "ndred": 1890,
      "Ġtrou": 1891,
      "Ġexpression": 1892,
      "Ġgas": 1893,
      "Ġpict": 1894,
      "Ġbright": 1895,
      "Ġsam": 1896,
      "Ġsupposed": 1897,
      "Ġhappen": 1898,
      "Ġsecret": 1899,
      "Ġlate": 1900,
      "tem": 1901,
      "Ġpay": 1902,
      "acing": 1903,
      "Ġcre": 1904,
      "Ġkilled": 1905,
      "Ġedge": 1906,
      "ony": 1907,
      "Ġtears": 1908,
      "ha": 1909,
      "Ġguys": 1910,
      "Ġnor": 1911,
      "Ġner": 1912,
      "Ġfrown": 1913,
      "come": 1914,
      "Ġmakes": 1915,
      "ushing": 1916,
      "Ġstaring": 1917,
      "ection": 1918,
      "Ġpicked": 1919,
      "Ġfood": 1920,
      "ike": 1921,
      "Ġmir": 1922,
      "Ġforg": 1923,
      "right": 1924,
      "Ġteeth": 1925,
      "Ġbuilding": 1926,
      "Ġsighed": 1927,
      "Ġking": 1928,
      "Ġshar": 1929,
      "Ġyourself": 1930,
      "Ġrather": 1931,
      "Ġobv": 1932,
      "Ġdie": 1933,
      "Ġkno": 1934,
      "Ġnat": 1935,
      "ign": 1936,
      "Ġcoff": 1937,
      "Ġext": 1938,
      "bs": 1939,
      "Ġweek": 1940,
      "Ġwalking": 1941,
      "somet": 1942,
      "did": 1943,
      "vent": 1944,
      "Ġtong": 1945,
      "Ġnearly": 1946,
      "Ġwond": 1947,
      "itch": 1948,
      "Ġmist": 1949,
      "Ġhang": 1950,
      "Ġhundred": 1951,
      "Ġwide": 1952,
      "Ġinstead": 1953,
      "Ġpos": 1954,
      "ator": 1955,
      "su": 1956,
      "Ġpleas": 1957,
      "tom": 1958,
      "Ġtowards": 1959,
      "Ġguard": 1960,
      "Ġgrow": 1961,
      "Ġsear": 1962,
      "Ġdamn": 1963,
      "Ġshout": 1964,
      "Ġnoticed": 1965,
      "Ġstuff": 1966,
      "Ġimmedi": 1967,
      "Ġtwenty": 1968,
      "Ġpossible": 1969,
      "Ġgirls": 1970,
      "Ġsilence": 1971,
      "Ġseem": 1972,
      "wered": 1973,
      "Ġbox": 1974,
      "Ġconvers": 1975,
      "Ġreturned": 1976,
      "Ġabs": 1977,
      "Ġcouldnt": 1978,
      "Ġthoughts": 1979,
      "hn": 1980,
      "aim": 1981,
      "Ġclothes": 1982,
      "Ġafraid": 1983,
      "son": 1984,
      "ute": 1985,
      "Ġwaited": 1986,
      "pted": 1987,
      "Ġdanger": 1988,
      "Ġsight": 1989,
      "Ġloud": 1990,
      "Ġgro": 1991,
      "set": 1992,
      "Ġcapt": 1993,
      "yed": 1994,
      "Ġsusp": 1995,
      "Ġgar": 1996,
      "use": 1997,
      "ees": 1998,
      "Ġworked": 1999,
      "Ġrolled": 2000,
      "ilt": 2001,
      "Ġkissed": 2002,
      "Ġgrou": 2003,
      "Ġsens": 2004,
      "Ġenjo": 2005,
      "Ġcant": 2006,
      "ists": 2007,
      "Ġopp": 2008,
      "Ġseeing": 2009,
      "Ġdrive": 2010,
      "irty": 2011,
      "Ġupon": 2012,
      "Ġeat": 2013,
      "Ġstud": 2014,
      "Ġeasy": 2015,
      "umber": 2016,
      "Ġbecome": 2017,
      "Ġanyway": 2018,
      "Ġshrugged": 2019,
      "Ġstory": 2020,
      "iddle": 2021,
      "Ġgiving": 2022,
      "ult": 2023,
      "Ġpointed": 2024,
      "Ġpressed": 2025,
      "Ġdep": 2026,
      "Ġthick": 2027,
      "ili": 2028,
      "Ġhun": 2029,
      "Ġgold": 2030,
      "ler": 2031,
      "ship": 2032,
      "Ġimport": 2033,
      "Ġluc": 2034,
      "Ġstro": 2035,
      "ug": 2036,
      "zz": 2037,
      "aled": 2038,
      "Ġknowing": 2039,
      "Ġspot": 2040,
      "Ġdesk": 2041,
      "Ġwithin": 2042,
      "Ġocc": 2043,
      "Ġ*": 2044,
      "orrow": 2045,
      "ments": 2046,
      "Ġtongue": 2047,
      "Ġpet": 2048,
      "Ġtelling": 2049,
      "Ġbarely": 2050,
      "Ġwondered": 2051,
      "Ġclim": 2052,
      "rief": 2053,
      "Ġdirect": 2054,
      "Ġcheek": 2055,
      "Ġleg": 2056,
      "Ġbeneath": 2057,
      "Ġanswered": 2058,
      "ric": 2059,
      "Ġfigure": 2060,
      "Ġminute": 2061,
      "Ġdest": 2062,
      "Ġslid": 2063,
      "Ġorder": 2064,
      "Ġpock": 2065,
      "Ġremind": 2066,
      "Ġagre": 2067,
      "Ġnorm": 2068,
      "Ġempty": 2069,
      "wo": 2070,
      "Ġchildren": 2071,
      "Ġcoffee": 2072,
      "ex": 2073,
      "Ġnar": 2074,
      "ider": 2075,
      "ities": 2076,
      "Ġknows": 2077,
      "Ġsurprised": 2078,
      "Ġled": 2079,
      "Ġconn": 2080,
      "Ġproblem": 2081,
      "Ġwife": 2082,
      "Ġpick": 2083,
      "Ġsou": 2084,
      "Ġsmo": 2085,
      "Ġball": 2086,
      "unk": 2087,
      "vin": 2088,
      "sc": 2089,
      "Ġcam": 2090,
      "icking": 2091,
      "amed": 2092,
      "Ġjer": 2093,
      "Ġmiddle": 2094,
      "bered": 2095,
      "Ġmark": 2096,
      "Ġsad": 2097,
      "Ġstrange": 2098,
      "here": 2099,
      "umbled": 2100,
      "ances": 2101,
      "Ġclass": 2102,
      "ories": 2103,
      "iting": 2104,
      "Ġappeared": 2105,
      "Ġchanged": 2106,
      "aded": 2107,
      "selves": 2108,
      "Ġspr": 2109,
      "Ġexper": 2110,
      "Ġsal": 2111,
      "sy": 2112,
      "pid": 2113,
      "ices": 2114,
      "Ġcrowd": 2115,
      "att": 2116,
      "Ġda": 2117,
      "mb": 2118,
      "oc": 2119,
      "Ġ2": 2120,
      "Ġheavy": 2121,
      "Ġbath": 2122,
      "action": 2123,
      "Ġsol": 2124,
      "Ġnose": 2125,
      "Ġord": 2126,
      "aint": 2127,
      "iling": 2128,
      "Ġmonths": 2129,
      "Ġdied": 2130,
      "Ġconcer": 2131,
      "Ġconversation": 2132,
      "Ġimmediately": 2133,
      "Ġearth": 2134,
      "Ġanymore": 2135,
      "Ġturning": 2136,
      "ask": 2137,
      "Ġaff": 2138,
      "was": 2139,
      "Ġterri": 2140,
      "Ġben": 2141,
      "Ġstri": 2142,
      "Ġwearing": 2143,
      "aughter": 2144,
      "Ġadmit": 2145,
      "Ġliked": 2146,
      "Ġsteps": 2147,
      "Ġpan": 2148,
      "iece": 2149,
      "hel": 2150,
      "Ġpack": 2151,
      "Ġcover": 2152,
      "Ġke": 2153,
      "Ġstone": 2154,
      "uff": 2155,
      "Ġsimply": 2156,
      "Ġmer": 2157,
      "Ġnumber": 2158,
      "ement": 2159,
      "Ġknees": 2160,
      "Ġsounded": 2161,
      "Ġhers": 2162,
      "Ġbecame": 2163,
      "Ġclean": 2164,
      "Ġslightly": 2165,
      "pec": 2166,
      "Ġstupid": 2167,
      "Ġluck": 2168,
      "Ġfinished": 2169,
      "Ġinform": 2170,
      "Ġcalm": 2171,
      "Ġloc": 2172,
      "Ġcell": 2173,
      "Ġlim": 2174,
      "ision": 2175,
      "Ġpaper": 2176,
      "Ġwish": 2177,
      "Ġdraw": 2178,
      "Ġring": 2179,
      "because": 2180,
      "Ġcovered": 2181,
      "Ġmed": 2182,
      "Ġann": 2183,
      "gu": 2184,
      "ude": 2185,
      "Ġattack": 2186,
      "con": 2187,
      "Ġ--": 2188,
      "Ġfair": 2189,
      "ces": 2190,
      "Ġsoftly": 2191,
      "Ġadv": 2192,
      "Ġalive": 2193,
      "Ġgroup": 2194,
      "Ġdirection": 2195,
      "ital": 2196,
      "Ġble": 2197,
      "Ġround": 2198,
      "Ġthrow": 2199,
      "ively": 2200,
      "who": 2201,
      "Ġspent": 2202,
      "Ġsel": 2203,
      "Ġforce": 2204,
      "Ġimportant": 2205,
      "iled": 2206,
      "Ġgener": 2207,
      "Ġnarrow": 2208,
      "bbing": 2209,
      "olo": 2210,
      "Ġspace": 2211,
      "la": 2212,
      "Ġbedroom": 2213,
      "tern": 2214,
      "Ġrele": 2215,
      "Ġadded": 2216,
      "Ġlady": 2217,
      "Ġduring": 2218,
      "Ġtall": 2219,
      "mar": 2220,
      "Ġyoure": 2221,
      "Ġcheck": 2222,
      "Ġwants": 2223,
      "Ġreach": 2224,
      "Ġweeks": 2225,
      "band": 2226,
      "Ġgray": 2227,
      "Ġcool": 2228,
      "Ġpulling": 2229,
      "Ġsir": 2230,
      "Ġprotect": 2231,
      "once": 2232,
      "Ġur": 2233,
      "Ġtouched": 2234,
      "Ġcop": 2235,
      "Ġsurprise": 2236,
      "pecially": 2237,
      "Ġrecogn": 2238,
      "ctor": 2239,
      "Ġhus": 2240,
      "Ġones": 2241,
      "Ġdoubt": 2242,
      "Ġtone": 2243,
      "Ġtrouble": 2244,
      "ney": 2245,
      "ci": 2246,
      "teen": 2247,
      "Ġperhaps": 2248,
      "Ġsingle": 2249,
      "Ġfly": 2250,
      "can": 2251,
      "Ġquietly": 2252,
      "Ġdinner": 2253,
      "Ġbroke": 2254,
      "ails": 2255,
      "Ġbeat": 2256,
      "Ġhesit": 2257,
      "Ġchrist": 2258,
      "Ġahead": 2259,
      "vous": 2260,
      "Ġthreat": 2261,
      "Ġsold": 2262,
      "Ġalex": 2263,
      "ica": 2264,
      "Ġpolice": 2265,
      "Ġbra": 2266,
      "ael": 2267,
      "Ġcrazy": 2268,
      "Ġbroken": 2269,
      "old": 2270,
      "fl": 2271,
      "Ġheaded": 2272,
      "Ġcast": 2273,
      "aching": 2274,
      "Ġstairs": 2275,
      "oring": 2276,
      "Ġexcept": 2277,
      "itely": 2278,
      "yond": 2279,
      "Ġsand": 2280,
      "Ġarea": 2281,
      "oof": 2282,
      "Ġremembered": 2283,
      "Ġlie": 2284,
      "ular": 2285,
      "rence": 2286,
      "Ġstate": 2287,
      "Ġwrapped": 2288,
      "Ġworried": 2289,
      "ages": 2290,
      "Ġcirc": 2291,
      "Ġgently": 2292,
      "Ġdrew": 2293,
      "Ġcomfort": 2294,
      "Ġprof": 2295,
      "Ġfollow": 2296,
      "ift": 2297,
      "Ġmanaged": 2298,
      "Ġdoors": 2299,
      "Ġbru": 2300,
      "Ġworse": 2301,
      "Ġkids": 2302,
      "Ġsquee": 2303,
      "lie": 2304,
      "Ġtiny": 2305,
      "Ġswall": 2306,
      "Ġglad": 2307,
      "Ġwild": 2308,
      "Ġweap": 2309,
      "Ġpaused": 2310,
      "bar": 2311,
      "Ġsounds": 2312,
      "Ġfro": 2313,
      "ior": 2314,
      "Ġthrew": 2315,
      "Ġart": 2316,
      "Ġforget": 2317,
      "Ġfav": 2318,
      "Ġlu": 2319,
      "Ġdarkness": 2320,
      "Ġbrown": 2321,
      "Ġsitu": 2322,
      "Ġsilent": 2323,
      "Ġseconds": 2324,
      "anded": 2325,
      "Ġmeans": 2326,
      "Ġthanks": 2327,
      "Ġsick": 2328,
      "Ġwalls": 2329,
      "cks": 2330,
      "ibly": 2331,
      "fer": 2332,
      "Ġweak": 2333,
      "gging": 2334,
      "Ġpract": 2335,
      "Ġbill": 2336,
      "Ġprep": 2337,
      "Ġpen": 2338,
      "Ġplaced": 2339,
      "Ġquestions": 2340,
      "Ġinformation": 2341,
      "Ġstare": 2342,
      "Ġsumm": 2343,
      "Ġtomorrow": 2344,
      "Ġlip": 2345,
      "Ġdaughter": 2346,
      "Ġdan": 2347,
      "Ġtrees": 2348,
      "Ġsugg": 2349,
      "Ġlord": 2350,
      "Ġhuge": 2351,
      "pper": 2352,
      "Ġcab": 2353,
      "Ġexpected": 2354,
      "Ġmention": 2355,
      "hered": 2356,
      "Ġview": 2357,
      "Ġstret": 2358,
      "ooks": 2359,
      "Ġvict": 2360,
      "Ġgotten": 2361,
      "Ġdar": 2362,
      "Ġcomes": 2363,
      "Ġgame": 2364,
      "cing": 2365,
      "Ġden": 2366,
      "Ġspl": 2367,
      "Ġwound": 2368,
      "ination": 2369,
      "Ġlaw": 2370,
      "Ġdistance": 2371,
      "your": 2372,
      "Ġla": 2373,
      "ining": 2374,
      "rac": 2375,
      "Ġlean": 2376,
      "Ġserious": 2377,
      "ping": 2378,
      "Ġscr": 2379,
      "ns": 2380,
      "Ġpocket": 2381,
      "Ġsomewhere": 2382,
      "Ġris": 2383,
      "Ġnews": 2384,
      "Ġmagic": 2385,
      "Ġheat": 2386,
      "Ġcas": 2387,
      "Ġtree": 2388,
      "orted": 2389,
      "inst": 2390,
      "Ġoffic": 2391,
      "Ġcatch": 2392,
      "riend": 2393,
      "Ġmeeting": 2394,
      "Ġjohn": 2395,
      "sure": 2396,
      "Ġfif": 2397,
      "Ġbrief": 2398,
      "Ġposition": 2399,
      "Ġspread": 2400,
      "Ġangry": 2401,
      "ific": 2402,
      "Ġfle": 2403,
      "zed": 2404,
      "Ġpath": 2405,
      "Ġmel": 2406,
      "Ġparty": 2407,
      "Ġrid": 2408,
      "Ġvan": 2409,
      "Ġpiece": 2410,
      "Ġseems": 2411,
      "Ġeight": 2412,
      "Ġtrans": 2413,
      "Ġwaist": 2414,
      "Ġsett": 2415,
      "than": 2416,
      "Ġearly": 2417,
      "Ġjul": 2418,
      "Ġcarry": 2419,
      "aped": 2420,
      "Ġpriv": 2421,
      "Ġself": 2422,
      "Ġange": 2423,
      "lier": 2424,
      "Ġign": 2425,
      "Ġjaw": 2426,
      "Ġforced": 2427,
      "Ġship": 2428,
      "reen": 2429,
      "Ġlying": 2430,
      "Ġbeyond": 2431,
      "Ġsigh": 2432,
      "aling": 2433,
      "something": 2434,
      "Ġanger": 2435,
      "cious": 2436,
      "ousand": 2437,
      "ics": 2438,
      "Ġsharp": 2439,
      "Ġeyeb": 2440,
      "Ġmount": 2441,
      "ested": 2442,
      "Ġbottom": 2443,
      "Ġslam": 2444,
      "cted": 2445,
      "Ġhide": 2446,
      "Ġrespond": 2447,
      "Ġwet": 2448,
      "Ġmurm": 2449,
      "Ġpee": 2450,
      "ecting": 2451,
      "str": 2452,
      "Ġbir": 2453,
      "Ġserv": 2454,
      "esh": 2455,
      "Ġtired": 2456,
      "iliar": 2457,
      "Ġgent": 2458,
      "Ġsurround": 2459,
      "Ġbull": 2460,
      "Ġstrugg": 2461,
      "Ġblank": 2462,
      "Ġagreed": 2463,
      "ipping": 2464,
      "Ġfut": 2465,
      "Ġhey": 2466,
      "Ġsnapped": 2467,
      "Ġwed": 2468,
      "Ġtu": 2469,
      "using": 2470,
      "Ġchoice": 2471,
      "Ġchin": 2472,
      "ja": 2473,
      "Ġanim": 2474,
      "Ġexpect": 2475,
      "Ġtoss": 2476,
      "Ġnervous": 2477,
      "Ġpromise": 2478,
      "Ġdrag": 2479,
      "Ġpun": 2480,
      "cho": 2481,
      "Ġforgot": 2482,
      "Ġsuit": 2483,
      "Ġoften": 2484,
      "Ġsurv": 2485,
      "Ġfit": 2486,
      "ery": 2487,
      "Ġcompl": 2488,
      "Ġhusband": 2489,
      "Ġtakes": 2490,
      "Ġstren": 2491,
      "Ġdefin": 2492,
      "Ġshaking": 2493,
      "Ġcond": 2494,
      "Ġhate": 2495,
      "Ġmis": 2496,
      "Ġchuck": 2497,
      "Ġsave": 2498,
      "ding": 2499,
      "Ġrelax": 2500,
      "Ġreve": 2501,
      "Ġtruck": 2502,
      "Ġdef": 2503,
      "Ġthousand": 2504,
      "Ġmain": 2505,
      "Ġattem": 2506,
      "Ġdesper": 2507,
      "Ġbathroom": 2508,
      "ats": 2509,
      "Ġgrinned": 2510,
      "Ġslipped": 2511,
      "Ġmass": 2512,
      "aked": 2513,
      "roll": 2514,
      "Ġund": 2515,
      "Ġtot": 2516,
      "tering": 2517,
      "Ġrain": 2518,
      "Ġmill": 2519,
      "Ġsword": 2520,
      "Ġboys": 2521,
      "ris": 2522,
      "igg": 2523,
      "before": 2524,
      "Ġplaying": 2525,
      "idence": 2526,
      "Ġworth": 2527,
      "Ġsituation": 2528,
      "Ġsmiling": 2529,
      "ron": 2530,
      "yeah": 2531,
      "Ġpleasure": 2532,
      "Ġval": 2533,
      "Ġsometimes": 2534,
      "Ġevening": 2535,
      "Ġarrived": 2536,
      "ooking": 2537,
      "Ġbelow": 2538,
      "Ġexplo": 2539,
      "Ġhed": 2540,
      "Ġrequ": 2541,
      "elle": 2542,
      "Ġlocked": 2543,
      "Ġfurther": 2544,
      "Ġcrossed": 2545,
      "Ġeyebrow": 2546,
      "Ġdemon": 2547,
      "Ġthin": 2548,
      "Ġteam": 2549,
      "Ġjumped": 2550,
      "Ġearlier": 2551,
      "Ġlap": 2552,
      "Ġasking": 2553,
      "Ġtast": 2554,
      "arm": 2555,
      "Ġsomehow": 2556,
      "Ġnormal": 2557,
      "Ġapartment": 2558,
      "erm": 2559,
      "Ġrepe": 2560,
      "Ġfrowned": 2561,
      "Ġbal": 2562,
      "ucked": 2563,
      "Ġenc": 2564,
      "thats": 2565,
      "Ġkeeping": 2566,
      "Ġdry": 2567,
      "iam": 2568,
      "ancing": 2569,
      "ana": 2570,
      "ishing": 2571,
      "Ġinvol": 2572,
      "Ġflat": 2573,
      "Ġcenter": 2574,
      "Ġcheeks": 2575,
      "Ġmuttered": 2576,
      "res": 2577,
      "Ġlisten": 2578,
      "Ġpound": 2579,
      "Ġlights": 2580,
      "Ġrealize": 2581,
      "Ġamaz": 2582,
      "Ġrich": 2583,
      "only": 2584,
      "Ġshowed": 2585,
      "Ġsend": 2586,
      "Ġincl": 2587,
      "Ġlived": 2588,
      "Ġnone": 2589,
      "Ġhoped": 2590,
      "ressed": 2591,
      "Ġsar": 2592,
      "bes": 2593,
      "Ġglance": 2594,
      "Ġexplain": 2595,
      "Ġvi": 2596,
      "Ġconst": 2597,
      "ote": 2598,
      "Ġdog": 2599,
      "ander": 2600,
      "Ġvo": 2601,
      "Ġfold": 2602,
      "Ġbow": 2603,
      "ative": 2604,
      "while": 2605,
      "Ġthemselves": 2606,
      "Ġcamp": 2607,
      "ager": 2608,
      "Ġletting": 2609,
      "from": 2610,
      "Ġwip": 2611,
      "Ġcru": 2612,
      "Ġlose": 2613,
      "Ġgrew": 2614,
      "Ġclearly": 2615,
      "Ġmid": 2616,
      "Ġpicture": 2617,
      "kes": 2618,
      "rit": 2619,
      "Ġodd": 2620,
      "Ġhoping": 2621,
      "Ġweight": 2622,
      "Ġears": 2623,
      "Ġstrength": 2624,
      "Ġice": 2625,
      "Ġsoul": 2626,
      "Ġcup": 2627,
      "two": 2628,
      "aire": 2629,
      "pite": 2630,
      "gar": 2631,
      "Ġassum": 2632,
      "Ġwore": 2633,
      "owers": 2634,
      "Ġrad": 2635,
      "Ġfavor": 2636,
      "Ġbell": 2637,
      "Ġtrack": 2638,
      "mer": 2639,
      "Ġener": 2640,
      "fied": 2641,
      "Ġmusic": 2642,
      "Ġnotice": 2643,
      "Ġlives": 2644,
      "ges": 2645,
      "Ġcarefully": 2646,
      "Ġgentle": 2647,
      "uct": 2648,
      "Ġwhisper": 2649,
      "Ġbrain": 2650,
      "Ġspir": 2651,
      "nothing": 2652,
      "Ġoffered": 2653,
      "Ġusing": 2654,
      "Ġbreathing": 2655,
      "men": 2656,
      "Ġband": 2657,
      "Ġhosp": 2658,
      "Ġfix": 2659,
      "Ġfuture": 2660,
      "sts": 2661,
      "Ġtalked": 2662,
      "Ġbeginning": 2663,
      "zen": 2664,
      "Ġant": 2665,
      "miss": 2666,
      "Ġvisit": 2667,
      "Ġhandle": 2668,
      "Ġsilver": 2669,
      "orge": 2670,
      "Ġbas": 2671,
      "Ġdisco": 2672,
      "ills": 2673,
      "Ġwhether": 2674,
      "Ġfield": 2675,
      "Ġdressed": 2676,
      "Ġsuper": 2677,
      "Ġash": 2678,
      "Ġforehead": 2679,
      "Ġta": 2680,
      "Ġtun": 2681,
      "Ġfail": 2682,
      "Ġclou": 2683,
      "Ġqueen": 2684,
      "Ġwolf": 2685,
      "og": 2686,
      "Ġeasily": 2687,
      "Ġkey": 2688,
      "Ġscared": 2689,
      "Ġevent": 2690,
      "Ġdiff": 2691,
      "Ġavo": 2692,
      "Ġimagine": 2693,
      "Ġcolor": 2694,
      "Ġhelped": 2695,
      "idden": 2696,
      "Ġbattle": 2697,
      "Ġfamiliar": 2698,
      "Ġdeser": 2699,
      "Ġallowed": 2700,
      "Ġlaughing": 2701,
      "Ġentered": 2702,
      "Ġsnow": 2703,
      "Ġstayed": 2704,
      "Ġespecially": 2705,
      "Ġspecial": 2706,
      "Ġremained": 2707,
      "Ġshall": 2708,
      "ural": 2709,
      "Ġpair": 2710,
      "Ġmemory": 2711,
      "Ġmotion": 2712,
      "Ġknife": 2713,
      "Ġfirm": 2714,
      "Ġgest": 2715,
      "ald": 2716,
      "Ġdoctor": 2717,
      "val": 2718,
      "Ġhanded": 2719,
      "oss": 2720,
      "Ġitself": 2721,
      "asing": 2722,
      "Ġappear": 2723,
      "Ġlower": 2724,
      "ault": 2725,
      "Ġver": 2726,
      "avid": 2727,
      "Ġcounter": 2728,
      "Ġshoot": 2729,
      "Ġunc": 2730,
      "Ġrelation": 2731,
      "Ġhonest": 2732,
      "still": 2733,
      "Ġaware": 2734,
      "Ġfem": 2735,
      "Ġage": 2736,
      "Ġpot": 2737,
      "Ġneeds": 2738,
      "good": 2739,
      "Ġbod": 2740,
      "instead": 2741,
      "iel": 2742,
      "Ġthats": 2743,
      "inked": 2744,
      "Ġdim": 2745,
      "Ġmetal": 2746,
      "Ġmusc": 2747,
      "ract": 2748,
      "Ġtest": 2749,
      "Ġcertainly": 2750,
      "will": 2751,
      "Ġeffort": 2752,
      "Ġphot": 2753,
      "shes": 2754,
      "ses": 2755,
      "Ġmrs": 2756,
      "Ġcompany": 2757,
      "Ġsurf": 2758,
      "Ġmissed": 2759,
      "Ġgets": 2760,
      "Ġhorse": 2761,
      "Ġglo": 2762,
      "noon": 2763,
      "ises": 2764,
      "Ġdangerous": 2765,
      "Ġhospital": 2766,
      "rian": 2767,
      "ring": 2768,
      "inct": 2769,
      "tend": 2770,
      "Ġdifficul": 2771,
      "que": 2772,
      "Ġpush": 2773,
      "Ġflesh": 2774,
      "gin": 2775,
      "Ġfighting": 2776,
      "Ġwouldnt": 2777,
      "ott": 2778,
      "idge": 2779,
      "Ġforever": 2780,
      "Ġequ": 2781,
      "Ġpin": 2782,
      "Ġwel": 2783,
      "izing": 2784,
      "Ġcrack": 2785,
      "Ġpale": 2786,
      "please": 2787,
      "Ġsimple": 2788,
      "Ġhowever": 2789,
      "Ġwilling": 2790,
      "Ġscent": 2791,
      "ues": 2792,
      "Ġdefinitely": 2793,
      "Ġlock": 2794,
      "Ġarg": 2795,
      "Ġcontact": 2796,
      "Ġmoon": 2797,
      "Ġlevel": 2798,
      "Ġproper": 2799,
      "Ġfresh": 2800,
      "Ġshouted": 2801,
      "usion": 2802,
      "line": 2803,
      "Ġolder": 2804,
      "Ġphys": 2805,
      "par": 2806,
      "ries": 2807,
      "udd": 2808,
      "uly": 2809,
      "Ġpop": 2810,
      "Ġnote": 2811,
      "ipp": 2812,
      "icular": 2813,
      "Ġenergy": 2814,
      "Ġamong": 2815,
      "Ġjeans": 2816,
      "Ġdestro": 2817,
      "Ġexplained": 2818,
      "Ġnick": 2819,
      "bel": 2820,
      "Ġpersonal": 2821,
      "Ġobviously": 2822,
      "ayed": 2823,
      "Ġjen": 2824,
      "Ġstore": 2825,
      "Ġfalling": 2826,
      "ession": 2827,
      "Ġfocus": 2828,
      "ded": 2829,
      "Ġgrace": 2830,
      "Ġstick": 2831,
      "Ġalthough": 2832,
      "Ġmarried": 2833,
      "alth": 2834,
      "Ġlen": 2835,
      "Ġdrop": 2836,
      "arently": 2837,
      "vern": 2838,
      "Ġcouch": 2839,
      "lt": 2840,
      "yle": 2841,
      "oned": 2842,
      "ucking": 2843,
      "Ġlearned": 2844,
      "Ġcried": 2845,
      "Ġafternoon": 2846,
      "Ġshadow": 2847,
      "Ġaside": 2848,
      "Ġhated": 2849,
      "Ġgon": 2850,
      "Ġfrey": 2851,
      "Ġlad": 2852,
      "had": 2853,
      "Ġappre": 2854,
      "Ġge": 2855,
      "Ġcand": 2856,
      "urity": 2857,
      "olute": 2858,
      "Ġvampires": 2859,
      "Ġpresent": 2860,
      "Ġemotion": 2861,
      "Ġemer": 2862,
      "ustr": 2863,
      "Ġscar": 2864,
      "amb": 2865,
      "ived": 2866,
      "stairs": 2867,
      "Ġlab": 2868,
      "Ġcho": 2869,
      "Ġtreat": 2870,
      "Ġshock": 2871,
      "Ġdesire": 2872,
      "Ġshower": 2873,
      "Ġriver": 2874,
      "Ġdiscus": 2875,
      "ives": 2876,
      "mr": 2877,
      "Ġdrove": 2878,
      "leep": 2879,
      "time": 2880,
      "Ġspo": 2881,
      "Ġgoes": 2882,
      "Ġshake": 2883,
      "00": 2884,
      "Ġsettled": 2885,
      "ichael": 2886,
      "cher": 2887,
      "Ġport": 2888,
      "cri": 2889,
      "Ġtar": 2890,
      "Ġasks": 2891,
      "Ġwanting": 2892,
      "Ġusually": 2893,
      "Ġmot": 2894,
      "Ġfil": 2895,
      "lin": 2896,
      "Ġhat": 2897,
      "hell": 2898,
      "Ġparticular": 2899,
      "Ġnoise": 2900,
      "jack": 2901,
      "Ġwondering": 2902,
      "Ġthigh": 2903,
      "Ġstuck": 2904,
      "Ġpark": 2905,
      "Ġjud": 2906,
      "Ġmaster": 2907,
      "Ġspeed": 2908,
      "Ġsweat": 2909,
      "den": 2910,
      "okay": 2911,
      "Ġbusy": 2912,
      "Ġfollowing": 2913,
      "Ġcarried": 2914,
      "Ġhips": 2915,
      "Ġwindows": 2916,
      "Ġblond": 2917,
      "sion": 2918,
      "Ġdisappeared": 2919,
      "Ġescape": 2920,
      "Ġlikely": 2921,
      "alk": 2922,
      "Ġride": 2923,
      "Ġfill": 2924,
      "Ġprov": 2925,
      "ashing": 2926,
      "Ġjump": 2927,
      "Ġturns": 2928,
      "Ġmoments": 2929,
      "astic": 2930,
      "Ġbottle": 2931,
      "Ġclaim": 2932,
      "iers": 2933,
      "Ġshifted": 2934,
      "Ġunderstood": 2935,
      "lan": 2936,
      "ope": 2937,
      "Ġputting": 2938,
      "ils": 2939,
      "Ġdust": 2940,
      "aff": 2941,
      "rupt": 2942,
      "Ġcalling": 2943,
      "Ġhanging": 2944,
      "Ġsen": 2945,
      "Ġended": 2946,
      "Ġscreamed": 2947,
      "Ġscreen": 2948,
      "pet": 2949,
      "Ġmirror": 2950,
      "Ġcaptain": 2951,
      "gen": 2952,
      "Ġhappening": 2953,
      "Ġdate": 2954,
      "Ġstarting": 2955,
      "Ġfigured": 2956,
      "Ġburst": 2957,
      "Ġthird": 2958,
      "Ġgrip": 2959,
      "Ġshed": 2960,
      "Ġfuck": 2961,
      "onse": 2962,
      "rod": 2963,
      "Ġknee": 2964,
      "Ġbent": 2965,
      "Ġhallway": 2966,
      "Ġfool": 2967,
      "Ġcourt": 2968,
      "Ġtele": 2969,
      "Ġmurmured": 2970,
      "Ġrece": 2971,
      "Ġgrim": 2972,
      "asm": 2973,
      "Ġmissing": 2974,
      "Ġstudy": 2975,
      "Ġpowerful": 2976,
      "Ġfa": 2977,
      "youre": 2978,
      "Ġrelief": 2979,
      "Ġoffer": 2980,
      "Ġbelong": 2981,
      "Ġsea": 2982,
      "Ġell": 2983,
      "Ġspend": 2984,
      "acy": 2985,
      "Ġpants": 2986,
      "Ġcamer": 2987,
      "velo": 2988,
      "Ġfreyja": 2989,
      "Ġviol": 2990,
      "Ġtaste": 2991,
      "Ġdeterm": 2992,
      "ella": 2993,
      "ball": 2994,
      "Ġbodies": 2995,
      "Ġlearn": 2996,
      "Ġwit": 2997,
      "rance": 2998,
      "stem": 2999,
      "Ġpill": 3000,
      "Ġry": 3001,
      "Ġmax": 3002,
      "Ġmaj": 3003,
      "Ġopening": 3004,
      "Ġthirty": 3005,
      "Ġcomput": 3006,
      "Ġdifficult": 3007,
      "acher": 3008,
      "thank": 3009,
      "Ġwid": 3010,
      "Ġexam": 3011,
      "Ġdance": 3012,
      "Ġtwisted": 3013,
      "Ġwear": 3014,
      "Ġshare": 3015,
      "Ġflash": 3016,
      "Ġguards": 3017,
      "Ġthumb": 3018,
      "Ġrelationship": 3019,
      "lyn": 3020,
      "hen": 3021,
      "bing": 3022,
      "Ġsecurity": 3023,
      "Ġclub": 3024,
      "rid": 3025,
      "Ġimposs": 3026,
      "Ġcountry": 3027,
      "oming": 3028,
      "Ġhea": 3029,
      "ius": 3030,
      "Ġclen": 3031,
      "Ġcareful": 3032,
      "inting": 3033,
      "anted": 3034,
      "Ġpi": 3035,
      "Ġpeace": 3036,
      "sidered": 3037,
      "ians": 3038,
      "Ġpul": 3039,
      "Ġharder": 3040,
      "tr": 3041,
      "Ġnod": 3042,
      "Ġapolo": 3043,
      "ading": 3044,
      "Ġresponse": 3045,
      "their": 3046,
      "Ġpor": 3047,
      "ified": 3048,
      "inc": 3049,
      "attered": 3050,
      "Ġpubl": 3051,
      "Ġwake": 3052,
      "ena": 3053,
      "Ġdear": 3054,
      "Ġswallowed": 3055,
      "Ġhist": 3056,
      "anda": 3057,
      "Ġsleeping": 3058,
      "Ġusual": 3059,
      "Ġsystem": 3060,
      "rem": 3061,
      "po": 3062,
      "atic": 3063,
      "Ġdon": 3064,
      "Ġprop": 3065,
      "Ġpink": 3066,
      "Ġstation": 3067,
      "Ġways": 3068,
      "Ġlaid": 3069,
      "ledge": 3070,
      "Ġbother": 3071,
      "Ġremo": 3072,
      "Ġmal": 3073,
      "Ġdru": 3074,
      "rel": 3075,
      "unity": 3076,
      "Ġmessage": 3077,
      "Ġtruly": 3078,
      "athan": 3079,
      "Ġconsidered": 3080,
      "Ġecho": 3081,
      "Ġplaces": 3082,
      "Ġleather": 3083,
      "Ġenem": 3084,
      "Ġhorri": 3085,
      "Ġwave": 3086,
      "des": 3087,
      "rass": 3088,
      "fast": 3089,
      "ca": 3090,
      "Ġyours": 3091,
      "ston": 3092,
      "Ġwrit": 3093,
      "Ġhy": 3094,
      "Ġasleep": 3095,
      "Ġtear": 3096,
      "die": 3097,
      "Ġwaved": 3098,
      "said": 3099,
      "Ġgrab": 3100,
      "Ġhadnt": 3101,
      "Ġsummer": 3102,
      "Ġblinked": 3103,
      "illy": 3104,
      "dam": 3105,
      "looking": 3106,
      "usted": 3107,
      "ob": 3108,
      "Ġobvious": 3109,
      "ously": 3110,
      "Ġwine": 3111,
      "Ġhotel": 3112,
      "Ġeffect": 3113,
      "Ġblind": 3114,
      "under": 3115,
      "Ġpresence": 3116,
      "Ġmov": 3117,
      "ury": 3118,
      "would": 3119,
      "Ġbooks": 3120,
      "Ġpurp": 3121,
      "Ġabsolute": 3122,
      "mit": 3123,
      "perhaps": 3124,
      "Ġdoesnt": 3125,
      "barrass": 3126,
      "Ġfeelings": 3127,
      "bby": 3128,
      "asted": 3129,
      "Ġforest": 3130,
      "Ġburned": 3131,
      "Ġsmooth": 3132,
      "Ġgrowing": 3133,
      "Ġisland": 3134,
      "Ġdig": 3135,
      "Ġcard": 3136,
      "Ġbirth": 3137,
      "Ġdefe": 3138,
      "Ġrough": 3139,
      "Ġimm": 3140,
      "Ġdom": 3141,
      "Ġspeaking": 3142,
      "Ġbast": 3143,
      "which": 3144,
      "Ġhumans": 3145,
      "Ġsmoke": 3146,
      "Ġreading": 3147,
      "anna": 3148,
      "Ġyelled": 3149,
      "iot": 3150,
      "eric": 3151,
      "Ġreminded": 3152,
      "Ġvill": 3153,
      "Ġjames": 3154,
      "Ġappreci": 3155,
      "Ġburning": 3156,
      "Ġweird": 3157,
      "Ġfinal": 3158,
      "Ġaccept": 3159,
      "Ġcraw": 3160,
      "Ġtrip": 3161,
      "Ġinf": 3162,
      "Ġpalm": 3163,
      "Ġanywhere": 3164,
      "icious": 3165,
      "Ġprivate": 3166,
      "Ġnorth": 3167,
      "Ġshop": 3168,
      "Ġhen": 3169,
      "Ġforth": 3170,
      "Ġcabin": 3171,
      "Ġhol": 3172,
      "bert": 3173,
      "Ġcommand": 3174,
      "another": 3175,
      "Ġconfused": 3176,
      "ution": 3177,
      "Ġlunch": 3178,
      "Ġbelieved": 3179,
      "ai": 3180,
      "aur": 3181,
      "Ġut": 3182,
      "urch": 3183,
      "Ġpiss": 3184,
      "Ġfallen": 3185,
      "finally": 3186,
      "omb": 3187,
      "Ġembarrass": 3188,
      "car": 3189,
      "Ġconsider": 3190,
      "Ġprison": 3191,
      "Ġvision": 3192,
      "Ġhidden": 3193,
      "Ġbear": 3194,
      "Ġstee": 3195,
      "Ġseven": 3196,
      "yn": 3197,
      "Ġsatis": 3198,
      "Ġshadows": 3199,
      "Ġmort": 3200,
      "ounced": 3201,
      "Ġsuppose": 3202,
      "Ġshoved": 3203,
      "Ġfeels": 3204,
      "see": 3205,
      "Ġpushing": 3206,
      "Ġsurface": 3207,
      "Ġdoorway": 3208,
      "Ġlistening": 3209,
      "Ġnecess": 3210,
      "Ġfaint": 3211,
      "Ġpoor": 3212,
      "Ġmiles": 3213,
      "Ġlucky": 3214,
      "Ġdirectly": 3215,
      "Ġshoes": 3216,
      "Ġsong": 3217,
      "Ġfinding": 3218,
      "Ġbite": 3219,
      "Ġbase": 3220,
      "imp": 3221,
      "Ġentrance": 3222,
      "ern": 3223,
      "Ġjacket": 3224,
      "Ġjam": 3225,
      "Ġtow": 3226,
      "Ġsides": 3227,
      "asked": 3228,
      "Ġvar": 3229,
      "Ġoppos": 3230,
      "oose": 3231,
      "itive": 3232,
      "ooked": 3233,
      "Ġclimbed": 3234,
      "Ġstorm": 3235,
      "Ġallow": 3236,
      "Ġenjoy": 3237,
      "omed": 3238,
      "Ġuncle": 3239,
      "Ġsuff": 3240,
      "Ġrubbed": 3241,
      "Ġcolle": 3242,
      "Ġconv": 3243,
      "Ġcorre": 3244,
      "Ġelect": 3245,
      "Ġexperience": 3246,
      "Ġmach": 3247,
      "Ġimpossible": 3248,
      "Ġmere": 3249,
      "Ġgrass": 3250,
      "Ġsoc": 3251,
      "ety": 3252,
      "Ġarr": 3253,
      "Ġsucc": 3254,
      "Ġapproached": 3255,
      "Ġelb": 3256,
      "inging": 3257,
      "Ġfought": 3258,
      "dont": 3259,
      "Ġspell": 3260,
      "ades": 3261,
      "comfort": 3262,
      "Ġextra": 3263,
      "fortun": 3264,
      "Ġfaces": 3265,
      "Ġwished": 3266,
      "Ġest": 3267,
      "Ġtrick": 3268,
      "Ġplayed": 3269,
      "Ġrom": 3270,
      "cil": 3271,
      "ners": 3272,
      "Ġgard": 3273,
      "Ġwont": 3274,
      "Ġloose": 3275,
      "rage": 3276,
      "ension": 3277,
      "Ġrepeated": 3278,
      "riage": 3279,
      "icated": 3280,
      "yer": 3281,
      "Ġfinish": 3282,
      "ev": 3283,
      "Ġmale": 3284,
      "Ġdemanded": 3285,
      "Ġdoll": 3286,
      "Ġevil": 3287,
      "Ġ3": 3288,
      "asion": 3289,
      "Ġslammed": 3290,
      "Ġlowered": 3291,
      "Ġfunny": 3292,
      "Ġinde": 3293,
      "Ġjake": 3294,
      "Ġig": 3295,
      "Ġcircle": 3296,
      "Ġwarri": 3297,
      "Ġpost": 3298,
      "Ġcrying": 3299,
      "Ġinvolved": 3300,
      "everything": 3301,
      "Ġcoat": 3302,
      "Ġjoin": 3303,
      "Ġhole": 3304,
      "eding": 3305,
      "yal": 3306,
      "work": 3307,
      "athered": 3308,
      "Ġtossed": 3309,
      "Ġfrustr": 3310,
      "Ġtrail": 3311,
      "Ġvol": 3312,
      "wise": 3313,
      "Ġinvest": 3314,
      "Ġcleared": 3315,
      "board": 3316,
      "off": 3317,
      "Ġwarning": 3318,
      "anging": 3319,
      "Ġjon": 3320,
      "gl": 3321,
      "Ġfist": 3322,
      "Ġlung": 3323,
      "Ġrap": 3324,
      "issa": 3325,
      "Ġwrist": 3326,
      "roud": 3327,
      "rick": 3328,
      "luc": 3329,
      "Ġcomputer": 3330,
      "Ġstiff": 3331,
      "Ġroof": 3332,
      "back": 3333,
      "hood": 3334,
      "Ġbeer": 3335,
      "eces": 3336,
      "Ġmuscles": 3337,
      "friend": 3338,
      "Ġagree": 3339,
      "Ġangel": 3340,
      "Ġclut": 3341,
      "Ġboard": 3342,
      "bers": 3343,
      "izz": 3344,
      "Ġdriving": 3345,
      "Ġfaster": 3346,
      "Ġfort": 3347,
      "Ġlang": 3348,
      "Ġcu": 3349,
      "Ġprod": 3350,
      "Ġchurch": 3351,
      "Ġinterested": 3352,
      "Ġthrust": 3353,
      "Ġment": 3354,
      "Ġinclud": 3355,
      "Ġprocess": 3356,
      "Ġinno": 3357,
      "Ġperfectly": 3358,
      "omas": 3359,
      "Ġtip": 3360,
      "oured": 3361,
      "Ġgho": 3362,
      "Ġmemories": 3363,
      "bor": 3364,
      "Ġdisc": 3365,
      "allen": 3366,
      "Ġcontinue": 3367,
      "Ġsouth": 3368,
      "Ġbreathe": 3369,
      "Ġimage": 3370,
      "Ġadam": 3371,
      "Ġsav": 3372,
      "Ġaccom": 3373,
      "Ġgasped": 3374,
      "Ġkicked": 3375,
      "Ġaut": 3376,
      "Ġweapon": 3377,
      "everyone": 3378,
      "Ġdavid": 3379,
      "Ġneither": 3380,
      "nored": 3381,
      "Ġacce": 3382,
      "Ġlaught": 3383,
      "Ġrespons": 3384,
      "Ġdecision": 3385,
      "Ġwheel": 3386,
      "Ġtotally": 3387,
      "Ġmatt": 3388,
      "ibility": 3389,
      "Ġattempt": 3390,
      "Ġceiling": 3391,
      "Ġheads": 3392,
      "Ġlaughter": 3393,
      "Ġchecked": 3394,
      "Ġfoc": 3395,
      "Ġordered": 3396,
      "Ġrul": 3397,
      "Ġgate": 3398,
      "Ġwest": 3399,
      "Ġswung": 3400,
      "Ġsubject": 3401,
      "Ġbuy": 3402,
      "Ġamazing": 3403,
      "Ġbrothers": 3404,
      "Ġtremb": 3405,
      "Ġlat": 3406,
      "Ġnur": 3407,
      "Ġdu": 3408,
      "Ġhardly": 3409,
      "Ġarmy": 3410,
      "Ġrac": 3411,
      "Ġbrushed": 3412,
      "sam": 3413,
      "Ġleaning": 3414,
      "top": 3415,
      "Ġsqueezed": 3416,
      "Ġcass": 3417,
      "Ġbuck": 3418,
      "shirt": 3419,
      "Ġdiv": 3420,
      "Ġpant": 3421,
      "itched": 3422,
      "Ġaud": 3423,
      "Ġpromised": 3424,
      "Ġrush": 3425,
      "vy": 3426,
      "Ġrespect": 3427,
      "Ġfully": 3428,
      "Ġblow": 3429,
      "Ġcock": 3430,
      "Ġhiding": 3431,
      "Ġforgotten": 3432,
      "Ġfeat": 3433,
      "Ġbutton": 3434,
      "without": 3435,
      "Ġpurpose": 3436,
      "Ġexist": 3437,
      "Ġreport": 3438,
      "Ġrese": 3439,
      "lish": 3440,
      "Ġignored": 3441,
      "Ġfocused": 3442,
      "dom": 3443,
      "Ġdriver": 3444,
      "kn": 3445,
      "Ġrev": 3446,
      "Ġrisk": 3447,
      "irst": 3448,
      "Ġgigg": 3449,
      "Ġheading": 3450,
      "Ġcomfortable": 3451,
      "ait": 3452,
      "ivers": 3453,
      "mon": 3454,
      "iety": 3455,
      "kend": 3456,
      "min": 3457,
      "god": 3458,
      "Ġflew": 3459,
      "Ġmood": 3460,
      "Ġseriously": 3461,
      "ague": 3462,
      "Ġbitch": 3463,
      "Ġgras": 3464,
      "Ġbeast": 3465,
      "ids": 3466,
      "sl": 3467,
      "aming": 3468,
      "essed": 3469,
      "Ġgut": 3470,
      "Ġnumb": 3471,
      "Ġstream": 3472,
      "nel": 3473,
      "lock": 3474,
      "Ġanc": 3475,
      "pro": 3476,
      "Ġethan": 3477,
      "ett": 3478,
      "Ġtil": 3479,
      "Ġterrible": 3480,
      "Ġsuggest": 3481,
      "ored": 3482,
      "ium": 3483,
      "Ġincred": 3484,
      "Ġpaid": 3485,
      "Ġkilling": 3486,
      "tended": 3487,
      "Ġproud": 3488,
      "Ġyellow": 3489,
      "Ġneigh": 3490,
      "Ġjour": 3491,
      "Ġfemale": 3492,
      "Ġpossibly": 3493,
      "Ġconcerned": 3494,
      "Ġupset": 3495,
      "Ġregret": 3496,
      "Ġdisappo": 3497,
      "Ġpublic": 3498,
      "Ġfright": 3499,
      "Ġori": 3500,
      "bit": 3501,
      "ker": 3502,
      "Ġscene": 3503,
      "Ġrushed": 3504,
      "Ġbeach": 3505,
      "iday": 3506,
      "Ġanno": 3507,
      "Ġrob": 3508,
      "Ġsmart": 3509,
      "Ġpool": 3510,
      "Ġnaked": 3511,
      "Ġunless": 3512,
      "uce": 3513,
      "Ġive": 3514,
      "und": 3515,
      "Ġrefle": 3516,
      "aly": 3517,
      "Ġsoldiers": 3518,
      "Ġblur": 3519,
      "Ġspark": 3520,
      "Ġoper": 3521,
      "Ġstruck": 3522,
      "Ġhistory": 3523,
      "Ġlift": 3524,
      "Ġblade": 3525,
      "Ġtightly": 3526,
      "Ġborn": 3527,
      "Ġlines": 3528,
      "Ġstretched": 3529,
      "Ġbound": 3530,
      "Ġflying": 3531,
      "Ġgeneral": 3532,
      "Ġsepar": 3533,
      "Ġwedding": 3534,
      "Ġlength": 3535,
      "Ġsize": 3536,
      "Ġjerked": 3537,
      "Ġbreakfast": 3538,
      "Ġwoods": 3539,
      "Ġpieces": 3540,
      "Ġsof": 3541,
      "Ġaunt": 3542,
      "inn": 3543,
      "house": 3544,
      "rap": 3545,
      "Ġexcited": 3546,
      "Ġkat": 3547,
      "Ġwooden": 3548,
      "Ġparking": 3549,
      "Ġopposite": 3550,
      "het": 3551,
      "never": 3552,
      "Ġplate": 3553,
      "sm": 3554,
      "Ġboat": 3555,
      "step": 3556,
      "Ġcause": 3557,
      "shit": 3558,
      "Ġelev": 3559,
      "Ġworst": 3560,
      "ama": 3561,
      "Ġtech": 3562,
      "ico": 3563,
      "ground": 3564,
      "Ġrh": 3565,
      "asy": 3566,
      "otions": 3567,
      "Ġhearing": 3568,
      "Ġjoined": 3569,
      "Ġsearch": 3570,
      "Ġboots": 3571,
      "look": 3572,
      "Ġfer": 3573,
      "Ġtwice": 3574,
      "father": 3575,
      "ork": 3576,
      "Ġbrow": 3577,
      "fo": 3578,
      "ables": 3579,
      "stand": 3580,
      "annah": 3581,
      "Ġcomb": 3582,
      "Ġcurrent": 3583,
      "were": 3584,
      "Ġpier": 3585,
      "over": 3586,
      "someone": 3587,
      "Ġdespite": 3588,
      "Ġleaves": 3589,
      "Ġflu": 3590,
      "racted": 3591,
      "Ġmary": 3592,
      "Ġinj": 3593,
      "Ġbackward": 3594,
      "Ġfault": 3595,
      "those": 3596,
      "Ġtrain": 3597,
      "centr": 3598,
      "lessly": 3599,
      "ilar": 3600,
      "Ġkick": 3601,
      "case": 3602,
      "Ġbreast": 3603,
      "Ġhunter": 3604,
      "agged": 3605,
      "Ġplans": 3606,
      "icate": 3607,
      "tell": 3608,
      "Ġstudied": 3609,
      "Ġrising": 3610,
      "Ġmike": 3611,
      "Ġx": 3612,
      "Ġcurled": 3613,
      "Ġdreams": 3614,
      "Ġunable": 3615,
      "Ġsteady": 3616,
      "Ġeventually": 3617,
      "have": 3618,
      "Ġtext": 3619,
      "terday": 3620,
      "Ġclaw": 3621,
      "Ġident": 3622,
      "Ġdescri": 3623,
      "Ġscreaming": 3624,
      "eve": 3625,
      "since": 3626,
      "Ġgab": 3627,
      "Ġslept": 3628,
      "alex": 3629,
      "Ġhappens": 3630,
      "besides": 3631,
      "une": 3632,
      "mother": 3633,
      "Ġfat": 3634,
      "Ġbuilt": 3635,
      "Ġcreature": 3636,
      "Ġcoo": 3637,
      "zing": 3638,
      "Ġpsy": 3639,
      "ivered": 3640,
      "Ġreaction": 3641,
      "Ġopt": 3642,
      "Ġnon": 3643,
      "Ġreleased": 3644,
      "icle": 3645,
      "Ġinstantly": 3646,
      "Ġbrand": 3647,
      "ensive": 3648,
      "Ġmovement": 3649,
      "'s": 3650,
      "ias": 3651,
      "Ġnarrowed": 3652,
      "ancy": 3653,
      "Ġpanic": 3654,
      "Ġcaused": 3655,
      "Ġlake": 3656,
      "Ġbroad": 3657,
      "Ġflashed": 3658,
      "mas": 3659,
      "Ġemotions": 3660,
      "Ġdirt": 3661,
      "Ġprepared": 3662,
      "Ġiron": 3663,
      "Ġhoney": 3664,
      "kin": 3665,
      "Ġaccident": 3666,
      "Ġmic": 3667,
      "Ġhill": 3668,
      "Ġgolden": 3669,
      "Ġmistake": 3670,
      "Ġgreet": 3671,
      "Ġeasier": 3672,
      "Ġrang": 3673,
      "Ġlistened": 3674,
      "ective": 3675,
      "Ġbloody": 3676,
      "ational": 3677,
      "Ġpad": 3678,
      "Ġknowledge": 3679,
      "Ġrum": 3680,
      "itting": 3681,
      "Ġshudd": 3682,
      "Ġtouching": 3683,
      "por": 3684,
      "Ġshape": 3685,
      "Ġbreaking": 3686,
      "Ġscan": 3687,
      "Ġfren": 3688,
      "uced": 3689,
      "Ġtent": 3690,
      "Ġsink": 3691,
      "Ġgrowled": 3692,
      "liv": 3693,
      "ords": 3694,
      "Ġmostly": 3695,
      "Ġquar": 3696,
      "icip": 3697,
      "Ġhig": 3698,
      "aret": 3699,
      "Ġsaf": 3700,
      "Ġdeeper": 3701,
      "Ġspirit": 3702,
      "Ġdut": 3703,
      "Ġexha": 3704,
      "Ġdecide": 3705,
      "char": 3706,
      "Ġkissing": 3707,
      "Ġhungry": 3708,
      "Ġwee": 3709,
      "Ġsupport": 3710,
      "Ġconcentr": 3711,
      "ism": 3712,
      "Ġhesitated": 3713,
      "Ġmart": 3714,
      "Ġinterru": 3715,
      "Ġconcern": 3716,
      "Ġthinks": 3717,
      "Ġflight": 3718,
      "Ġopport": 3719,
      "ral": 3720,
      "Ġmurder": 3721,
      "ume": 3722,
      "Ġwoke": 3723,
      "Ġeating": 3724,
      "wers": 3725,
      "Ġmix": 3726,
      "Ġclenched": 3727,
      "Ġari": 3728,
      "Ġunf": 3729,
      "Ġsquare": 3730,
      "Ġfavorite": 3731,
      "Ġchallen": 3732,
      "Ġtightened": 3733,
      "Ġjason": 3734,
      "Ġspun": 3735,
      "agger": 3736,
      "ests": 3737,
      "arily": 3738,
      "Ġwelcome": 3739,
      "Ġengine": 3740,
      "Ġmichael": 3741,
      "Ġtype": 3742,
      "key": 3743,
      "Ġtravel": 3744,
      "Ġremoved": 3745,
      "Ġlanded": 3746,
      "Ġtrave": 3747,
      "Ġanx": 3748,
      "hold": 3749,
      "Ġtick": 3750,
      "Ġfier": 3751,
      "Ġsmiles": 3752,
      "Ġah": 3753,
      "Ġwhose": 3754,
      "Ġstun": 3755,
      "Ġauth": 3756,
      "Ġreaching": 3757,
      "Ġeyebrows": 3758,
      "Ġsne": 3759,
      "gre": 3760,
      "Ġchuckled": 3761,
      "Ġow": 3762,
      "Ġabsolutely": 3763,
      "Ġrefused": 3764,
      "Ġdying": 3765,
      "Ġentirely": 3766,
      "Ġshield": 3767,
      "Ġanimal": 3768,
      "Ġapparently": 3769,
      "Ġsour": 3770,
      "Ġlosing": 3771,
      "uel": 3772,
      "Ġobject": 3773,
      "kward": 3774,
      "Ġchapter": 3775,
      "nat": 3776,
      "itude": 3777,
      "end": 3778,
      "Ġwings": 3779,
      "Ġmac": 3780,
      "Ġfrank": 3781,
      "Ġrecognized": 3782,
      "Ġuncomfort": 3783,
      "Ġreply": 3784,
      "Ġsearching": 3785,
      "Ġinstinct": 3786,
      "Ġavoid": 3787,
      "Ġweapons": 3788,
      "Ġplanned": 3789,
      "gie": 3790,
      "Ġcollege": 3791,
      "Ġgather": 3792,
      "Ġboss": 3793,
      "igned": 3794,
      "Ġgovern": 3795,
      "Ġdirty": 3796,
      "tense": 3797,
      "Ġshared": 3798,
      "Ġbreathed": 3799,
      "Ġknocked": 3800,
      "Ġpit": 3801,
      "Ġpeter": 3802,
      "Ġtea": 3803,
      "anked": 3804,
      "Ġgods": 3805,
      "asc": 3806,
      "Ġstaying": 3807,
      "Ġpaul": 3808,
      "could": 3809,
      "umbling": 3810,
      "Ġcurt": 3811,
      "wood": 3812,
      "ented": 3813,
      "Ġprince": 3814,
      "Ġgathered": 3815,
      "Ġyesterday": 3816,
      "Ġinstant": 3817,
      "Ġobser": 3818,
      "pting": 3819,
      "ham": 3820,
      "Ġshowing": 3821,
      "Ġsuggested": 3822,
      "Ġexcuse": 3823,
      "Ġscrat": 3824,
      "Ġgives": 3825,
      "Ġcrew": 3826,
      "Ġpray": 3827,
      "although": 3828,
      "Ġsoph": 3829,
      "Ġgift": 3830,
      "Ġmountain": 3831,
      "Ġcarrying": 3832,
      "Ġsaved": 3833,
      "Ġcomment": 3834,
      "formed": 3835,
      "Ġbelly": 3836,
      "Ġharm": 3837,
      "Ġhug": 3838,
      "Ġbones": 3839,
      "Ġvictor": 3840,
      "Ġawkward": 3841,
      "Ġdouble": 3842,
      "Ġnearby": 3843,
      "bast": 3844,
      "claim": 3845,
      "Ġsmir": 3846,
      "Ġanswers": 3847,
      "Ġya": 3848,
      "Ġdrunk": 3849,
      "Ġgrown": 3850,
      "hu": 3851,
      "Ġsucked": 3852,
      "Ġgrey": 3853,
      "Ġhors": 3854,
      "Ġbought": 3855,
      "Ġrestaur": 3856,
      "Ġinteresting": 3857,
      "Ġaim": 3858,
      "antic": 3859,
      "Ġadmitted": 3860,
      "Ġgroaned": 3861,
      "Ġcook": 3862,
      "iving": 3863,
      "Ġdeeply": 3864,
      "Ġhurried": 3865,
      "Ġgodd": 3866,
      "fortunately": 3867,
      "arch": 3868,
      "Ġbastard": 3869,
      "Ġwonderful": 3870,
      "Ġbridge": 3871,
      "Ġlibr": 3872,
      "ura": 3873,
      "five": 3874,
      "Ġsending": 3875,
      "Ġcalls": 3876,
      "Ġconvin": 3877,
      "Ġstories": 3878,
      "Ġinstru": 3879,
      "Ġpregn": 3880,
      "Ġgiant": 3881,
      "nday": 3882,
      "Ġsolid": 3883,
      "hey": 3884,
      "Ġbringing": 3885,
      "Ġrecord": 3886,
      "these": 3887,
      "Ġcow": 3888,
      "col": 3889,
      "Ġcost": 3890,
      "Ġjes": 3891,
      "Ġscrew": 3892,
      "da": 3893,
      "Ġuh": 3894,
      "Ġinh": 3895,
      "Ġshel": 3896,
      "Ġdrif": 3897,
      "unted": 3898,
      "Ġchase": 3899,
      "Ġrare": 3900,
      "alled": 3901,
      "Ġshocked": 3902,
      "Ġglow": 3903,
      "Ġdragged": 3904,
      "port": 3905,
      "reme": 3906,
      "Ġjoy": 3907,
      "Ġvir": 3908,
      "Ġinvestig": 3909,
      "Ġarch": 3910,
      "Ġmagn": 3911,
      "ray": 3912,
      "raph": 3913,
      "Ġdisappear": 3914,
      "Ġburied": 3915,
      "Ġdesperate": 3916,
      "Ġstage": 3917,
      "Ġregard": 3918,
      "Ġwarmth": 3919,
      "Ġjess": 3920,
      "Ġbutt": 3921,
      "jul": 3922,
      "Ġknock": 3923,
      "Ġoccasion": 3924,
      "Ġban": 3925,
      "nie": 3926,
      "Ġmajor": 3927,
      "Ġju": 3928,
      "Ġexch": 3929,
      "Ġrachel": 3930,
      "Ġstir": 3931,
      "dr": 3932,
      "Ġhelping": 3933,
      "Ġsexy": 3934,
      "Ġpictures": 3935,
      "Ġstaff": 3936,
      "mp": 3937,
      "***": 3938,
      "itor": 3939,
      "itted": 3940,
      "uss": 3941,
      "Ġcars": 3942,
      "Ġimagined": 3943,
      "Ġpleased": 3944,
      "Ġprefer": 3945,
      "Ġawake": 3946,
      "asons": 3947,
      "Ġpulls": 3948,
      "Ġnecessary": 3949,
      "Ġsan": 3950,
      "Ġfaded": 3951,
      "ios": 3952,
      "Ġauthor": 3953,
      "Ġdare": 3954,
      "ument": 3955,
      "Ġswear": 3956,
      "Ġmyster": 3957,
      "Ġmarry": 3958,
      "both": 3959,
      "dan": 3960,
      "Ġcust": 3961,
      "Ġeverywhere": 3962,
      "Ġsuccess": 3963,
      "Ġspin": 3964,
      "Ġletter": 3965,
      "Ġisnt": 3966,
      "Ġsha": 3967,
      "Ġdragon": 3968,
      "idering": 3969,
      "sudden": 3970,
      "Ġstat": 3971,
      "Ġtour": 3972,
      "Ġsurrounded": 3973,
      "Ġremain": 3974,
      "Ġamb": 3975,
      "Ġslo": 3976,
      "Ġdemand": 3977,
      "Ġfucking": 3978,
      "Ġfifteen": 3979,
      "Ġpure": 3980,
      "Ġfolded": 3981,
      "Ġreality": 3982,
      "Ġwand": 3983,
      "ashes": 3984,
      "yet": 3985,
      "Ġnine": 3986,
      "Ġhorses": 3987,
      "Ġintense": 3988,
      "whate": 3989,
      "Ġbeauty": 3990,
      "Ġheaven": 3991,
      "play": 3992,
      "Ġhi": 3993,
      "Ġwiped": 3994,
      "nes": 3995,
      "Ġlocal": 3996,
      "whatever": 3997,
      "Ġaction": 3998,
      "amber": 3999,
      "isa": 4000,
      "Ġservice": 4001,
      "Ġcig": 4002,
      "Ġgle": 4003,
      "Ġtraining": 4004,
      "Ġling": 4005,
      "Ġsilently": 4006,
      "Ġeager": 4007,
      "Ġglasses": 4008,
      "Ġapolog": 4009,
      "suddenly": 4010,
      "Ġbeth": 4011,
      "Ġlangu": 4012,
      "Ġoccur": 4013,
      "Ġbank": 4014,
      "Ġleading": 4015,
      "Ġdrawn": 4016,
      "Ġmentioned": 4017,
      "Ġindeed": 4018,
      "Ġcharge": 4019,
      "Ġamount": 4020,
      "Ġlack": 4021,
      "Ġprin": 4022,
      "lets": 4023,
      "ceed": 4024,
      "Ġdiscovered": 4025,
      "Ġboyfriend": 4026,
      "Ġrow": 4027,
      "Ġmeaning": 4028,
      "Ġnames": 4029,
      "Ġpause": 4030,
      "Ġ19": 4031,
      "itement": 4032,
      "Ġorigin": 4033,
      "Ġye": 4034,
      "Ġexh": 4035,
      "Ġopportunity": 4036,
      "Ġbree": 4037,
      "Ġintrod": 4038,
      "Ġrelie": 4039,
      "Ġhurry": 4040,
      "Ġaid": 4041,
      "Ġslip": 4042,
      "Ġglared": 4043,
      "Ġjew": 4044,
      "itary": 4045,
      "Ġancient": 4046,
      "Ġnature": 4047,
      "Ġmovie": 4048,
      "Ġyounger": 4049,
      "Ġinch": 4050,
      "Ġrand": 4051,
      "Ġstreets": 4052,
      "Ġleap": 4053,
      "eless": 4054,
      "Ġzane": 4055,
      "Ġcommon": 4056,
      "Ġrooms": 4057,
      "Ġsac": 4058,
      "however": 4059,
      "oted": 4060,
      "ique": 4061,
      "three": 4062,
      "ires": 4063,
      "Ġgrate": 4064,
      "aches": 4065,
      "iment": 4066,
      "Ġnatural": 4067,
      "Ġheels": 4068,
      "Ġsteel": 4069,
      "Ġinsp": 4070,
      "Ġky": 4071,
      "Ġtur": 4072,
      "keep": 4073,
      "Ġfal": 4074,
      "Ġrout": 4075,
      "Ġghost": 4076,
      "Ġproblems": 4077,
      "lor": 4078,
      "Ġdetermined": 4079,
      "Ġassist": 4080,
      "Ġcave": 4081,
      "Ġdetails": 4082,
      "Ġlightly": 4083,
      "Ġtort": 4084,
      "Ġchat": 4085,
      "don": 4086,
      "Ġpointing": 4087,
      "Ġholl": 4088,
      "Ġconc": 4089,
      "Ġdrinking": 4090,
      "Ġexpecting": 4091,
      "Ġemma": 4092,
      "ille": 4093,
      "Ġblame": 4094,
      "Ġwitch": 4095,
      "Ġintim": 4096,
      "Ġphysical": 4097,
      "Ġrelaxed": 4098,
      "bye": 4099,
      "Ġenemy": 4100,
      "Ġrub": 4101,
      "Ġwaves": 4102,
      "Ġaband": 4103,
      "Ġgarden": 4104,
      "Ġren": 4105,
      "Ġyork": 4106,
      "Ġrolling": 4107,
      "again": 4108,
      "Ġjim": 4109,
      "Ġloss": 4110,
      "Ġpassing": 4111,
      "alous": 4112,
      "Ġbul": 4113,
      "Ġmod": 4114,
      "Ġexperien": 4115,
      "mom": 4116,
      "ication": 4117,
      "Ġhost": 4118,
      "Ġkeys": 4119,
      "Ġchick": 4120,
      "Ġscra": 4121,
      "Ġdisg": 4122,
      "Ġmembers": 4123,
      "ese": 4124,
      "hol": 4125,
      "Ġsarah": 4126,
      "ilities": 4127,
      "af": 4128,
      "Ġblanket": 4129,
      "Ġeld": 4130,
      "gress": 4131,
      "Ġrise": 4132,
      "Ġprev": 4133,
      "Ġmatch": 4134,
      "Ġsafety": 4135,
      "Ġhorror": 4136,
      "har": 4137,
      "Ġhous": 4138,
      "Ġbadly": 4139,
      "Ġwritten": 4140,
      "Ġpressure": 4141,
      "Ġrested": 4142,
      "Ġian": 4143,
      "Ġweekend": 4144,
      "Ġability": 4145,
      "lfriend": 4146,
      "Ġincre": 4147,
      "Ġorders": 4148,
      "Ġkisses": 4149,
      "Ġveh": 4150,
      "Ġresist": 4151,
      "Ġbelt": 4152,
      "Ġfeatures": 4153,
      "Ġblock": 4154,
      "Ġdrawing": 4155,
      "Ġthighs": 4156,
      "Ġrage": 4157,
      "abeth": 4158,
      "Ġvoices": 4159,
      "ki": 4160,
      "Ġrear": 4161,
      "Ġtarget": 4162,
      "Ġinterrupted": 4163,
      "Ġameric": 4164,
      "Ġstronger": 4165,
      "Ġexcitement": 4166,
      "Ġelevator": 4167,
      "Ġcorrid": 4168,
      "Ġignore": 4169,
      "gram": 4170,
      "bastian": 4171,
      "Ġmate": 4172,
      "Ġcole": 4173,
      "Ġfab": 4174,
      "Ġfac": 4175,
      "Ġofficer": 4176,
      "Ġfailed": 4177,
      "rop": 4178,
      "ka": 4179,
      "Ġhenry": 4180,
      "Ġplenty": 4181,
      "Ġpissed": 4182,
      "Ġstars": 4183,
      "Ġtv": 4184,
      "Ġdozen": 4185,
      "Ġwitness": 4186,
      "Ġsliding": 4187,
      "Ġchristmas": 4188,
      "iant": 4189,
      "too": 4190,
      "Ġcouncil": 4191,
      "sometimes": 4192,
      "Ġfeed": 4193,
      "Ġswept": 4194,
      "Ġplane": 4195,
      "oph": 4196,
      "four": 4197,
      "Ġgall": 4198,
      "Ġconfir": 4199,
      "Ġtan": 4200,
      "Ġpsych": 4201,
      "damn": 4202,
      "Ġhint": 4203,
      "Ġtied": 4204,
      "Ġfifty": 4205,
      "Ġcurious": 4206,
      "Ġwis": 4207,
      "ora": 4208,
      "Ġpoured": 4209,
      "erial": 4210,
      "Ġthor": 4211,
      "Ġfirmly": 4212,
      "Ġporch": 4213,
      "Ġmanage": 4214,
      "Ġ4": 4215,
      "Ġskirt": 4216,
      "Ġtemper": 4217,
      "Ġtucked": 4218,
      "people": 4219,
      "Ġsmelled": 4220,
      "Ġbecoming": 4221,
      "Ġdeck": 4222,
      "uries": 4223,
      "Ġrestaurant": 4224,
      "Ġpred": 4225,
      "Ġnamed": 4226,
      "Ġevidence": 4227,
      "elve": 4228,
      "vis": 4229,
      "Ġintern": 4230,
      "Ġshift": 4231,
      "Ġtail": 4232,
      "Ġcommun": 4233,
      "Ġtran": 4234,
      "Ġclosing": 4235,
      "aging": 4236,
      "Ġmission": 4237,
      "pes": 4238,
      "olves": 4239,
      "Ġenglish": 4240,
      "neath": 4241,
      "Ġstarts": 4242,
      "aine": 4243,
      "Ġdepart": 4244,
      "Ġorgan": 4245,
      "Ġhonor": 4246,
      "Ġresponded": 4247,
      "Ġstruggled": 4248,
      "Ġenter": 4249,
      "vering": 4250,
      "Ġthrowing": 4251,
      "Ġfol": 4252,
      "Ġfish": 4253,
      "Ġaccount": 4254,
      "Ġvillage": 4255,
      "Ġnowhere": 4256,
      "Ġseth": 4257,
      "Ġcompan": 4258,
      "Ġly": 4259,
      "Ġcared": 4260,
      "Ġsetting": 4261,
      "Ġmillion": 4262,
      "erson": 4263,
      "Ġbigger": 4264,
      "ival": 4265,
      "Ġprove": 4266,
      "Ġhello": 4267,
      "Ġtang": 4268,
      "Ġflick": 4269,
      "Ġcorrect": 4270,
      "Ġrelease": 4271,
      "ov": 4272,
      "__": 4273,
      "Ġsed": 4274,
      "Ġsell": 4275,
      "ira": 4276,
      "Ġworks": 4277,
      "Ġpace": 4278,
      "sey": 4279,
      "ante": 4280,
      "ette": 4281,
      "Ġhigher": 4282,
      "dding": 4283,
      "ples": 4284,
      "sec": 4285,
      "Ġdifference": 4286,
      "war": 4287,
      "Ġplanning": 4288,
      "Ġwidened": 4289,
      "Ġfaced": 4290,
      "Ġscow": 4291,
      "Ġgripped": 4292,
      "Ġdun": 4293,
      "Ġsque": 4294,
      "ibr": 4295,
      "Ġank": 4296,
      "Ġflames": 4297,
      "mare": 4298,
      "Ġrot": 4299,
      "Ġcous": 4300,
      "Ġmassive": 4301,
      "Ġtower": 4302,
      "Ġhealth": 4303,
      "Ġterror": 4304,
      "ature": 4305,
      "Ġgirlfriend": 4306,
      "uit": 4307,
      "Ġripped": 4308,
      "Ġjoe": 4309,
      "Ġeast": 4310,
      "Ġlets": 4311,
      "Ġger": 4312,
      "rog": 4313,
      "Ġmaterial": 4314,
      "Ġnobody": 4315,
      "iction": 4316,
      "Ġdawn": 4317,
      "izabeth": 4318,
      "Ġfant": 4319,
      "ality": 4320,
      "Ġplanet": 4321,
      "Ġsin": 4322,
      "Ġluke": 4323,
      "Ġdeb": 4324,
      "view": 4325,
      "Ġstab": 4326,
      "sor": 4327,
      "aper": 4328,
      "Ġpurse": 4329,
      "Ġupstairs": 4330,
      "Ġirrit": 4331,
      "Ġcy": 4332,
      "Ġsimon": 4333,
      "Ġridicul": 4334,
      "Ġpapers": 4335,
      "Ġprec": 4336,
      "Ġfrench": 4337,
      "Ġsimilar": 4338,
      "Ġreasons": 4339,
      "Ġmc": 4340,
      "Ġpressing": 4341,
      "Ġparked": 4342,
      "Ġtwist": 4343,
      "Ġuncomfortable": 4344,
      "Ġenjoyed": 4345,
      "Ġinsisted": 4346,
      "Ġflood": 4347,
      "Ġcastle": 4348,
      "Ġextreme": 4349,
      "Ġspoken": 4350,
      "Ġlogan": 4351,
      "inary": 4352,
      "Ġconsidering": 4353,
      "book": 4354,
      "icing": 4355,
      "Ġtheres": 4356,
      "Ġwhom": 4357,
      "Ġmachine": 4358,
      "ization": 4359,
      "iley": 4360,
      "Ġsurvive": 4361,
      "Ġpassion": 4362,
      "Ġslide": 4363,
      "Ġclock": 4364,
      "turn": 4365,
      "iana": 4366,
      "Ġflowers": 4367,
      "Ġmarriage": 4368,
      "Ġoce": 4369,
      "Ġbuzz": 4370,
      "Ġswim": 4371,
      "Ġhuh": 4372,
      "Ġheavily": 4373,
      "Ġlovely": 4374,
      "je": 4375,
      "Ġurge": 4376,
      "bre": 4377,
      "Ġpowers": 4378,
      "Ġlibrary": 4379,
      "Ġmonster": 4380,
      "Ġcreep": 4381,
      "Ġnights": 4382,
      "riel": 4383,
      "Ġvac": 4384,
      "Ġabrupt": 4385,
      "Ġliqu": 4386,
      "oe": 4387,
      "Ġpage": 4388,
      "Ġblew": 4389,
      "Ġstair": 4390,
      "Ġfacing": 4391,
      "Ġplastic": 4392,
      "Ġwarned": 4393,
      "Ġsnar": 4394,
      "Ġchoose": 4395,
      "Ġwinter": 4396,
      "dra": 4397,
      "Ġpractically": 4398,
      "Ġdisp": 4399,
      "Ġupper": 4400,
      "Ġadjust": 4401,
      "Ġtunnel": 4402,
      "Ġspar": 4403,
      "got": 4404,
      "Ġproject": 4405,
      "Ġguilt": 4406,
      "Ġbitter": 4407,
      "Ġbacked": 4408,
      "Ġbriefly": 4409,
      "Ġlog": 4410,
      "ocol": 4411,
      "Ġparts": 4412,
      "Ġcamera": 4413,
      "Ġgorge": 4414,
      "Ġfed": 4415,
      "ounce": 4416,
      "rett": 4417,
      "Ġdoc": 4418,
      "Ġconnection": 4419,
      "Ġcream": 4420,
      "Ġate": 4421,
      "ify": 4422,
      "oll": 4423,
      "intment": 4424,
      "Ġvibr": 4425,
      "Ġradio": 4426,
      "Ġsatisf": 4427,
      "Ġdecl": 4428,
      "Ġhandsome": 4429,
      "iber": 4430,
      "angs": 4431,
      "Ġplain": 4432,
      "isto": 4433,
      "asure": 4434,
      "Ġjealous": 4435,
      "down": 4436,
      "Ġbrush": 4437,
      "antage": 4438,
      "aning": 4439,
      "Ġrace": 4440,
      "Ġgrave": 4441,
      "Ġnightmare": 4442,
      "Ġtwelve": 4443,
      "iently": 4444,
      "Ġsank": 4445,
      "Ġinches": 4446,
      "Ġleader": 4447,
      "Ġken": 4448,
      "idding": 4449,
      "hal": 4450,
      "Ġdi": 4451,
      "inated": 4452,
      "Ġmerely": 4453,
      "Ġrules": 4454,
      "acks": 4455,
      "Ġsniff": 4456,
      "rek": 4457,
      "Ġcash": 4458,
      "Ġbay": 4459,
      "first": 4460,
      "Ġknight": 4461,
      "Ġwrite": 4462,
      "Ġforty": 4463,
      "Ġrelieved": 4464,
      "exp": 4465,
      "Ġanticip": 4466,
      "Ġtension": 4467,
      "whel": 4468,
      "loy": 4469,
      "nick": 4470,
      "Ġdemons": 4471,
      "Ġotherwise": 4472,
      "Ġdancing": 4473,
      "Ġinnocent": 4474,
      "Ġrif": 4475,
      "Ġswir": 4476,
      "Ġcloud": 4477,
      "Ġfroze": 4478,
      "Ġtells": 4479,
      "Ġprincess": 4480,
      "dad": 4481,
      "hand": 4482,
      "Ġassumed": 4483,
      "Ġunderneath": 4484,
      "Ġvictim": 4485,
      "vision": 4486,
      "Ġthomas": 4487,
      "Ġembr": 4488,
      "apping": 4489,
      "bet": 4490,
      "Ġincluding": 4491,
      "ino": 4492,
      "Ġsplit": 4493,
      "Ġstumbled": 4494,
      "about": 4495,
      "Ġcrap": 4496,
      "Ġclaire": 4497,
      "tw": 4498,
      "Ġtit": 4499,
      "Ġthrown": 4500,
      "Ġguns": 4501,
      "Ġaddress": 4502,
      "Ġgrad": 4503,
      "Ġsilk": 4504,
      "Ġhorrible": 4505,
      "Ġreass": 4506,
      "Ġdaniel": 4507,
      "Ġpounding": 4508,
      "ndon": 4509,
      "Ġnods": 4510,
      "sue": 4511,
      "umps": 4512,
      "Ġflipped": 4513,
      "Ġcreatures": 4514,
      "Ġcreated": 4515,
      "Ġconfusion": 4516,
      "Ġok": 4517,
      "Ġpil": 4518,
      "Ġteen": 4519,
      "claimed": 4520,
      "Ġcloset": 4521,
      "Ġshes": 4522,
      "Ġframe": 4523,
      "Ġlungs": 4524,
      "Ġfarm": 4525,
      "ference": 4526,
      "Ġdevelo": 4527,
      "Ġrail": 4528,
      "acle": 4529,
      "Ġteacher": 4530,
      "mel": 4531,
      "Ġappreciate": 4532,
      "Ġcryst": 4533,
      "walk": 4534,
      "Ġfixed": 4535,
      "Ġyard": 4536,
      "Ġcharlie": 4537,
      "onscious": 4538,
      "Ġidiot": 4539,
      "Ġunif": 4540,
      "Ġcart": 4541,
      "Ġcollap": 4542,
      "Ġ5": 4543,
      "thanks": 4544,
      "Ġwriting": 4545,
      "han": 4546,
      "Ġintell": 4547,
      "Ġoverwhel": 4548,
      "Ġstands": 4549,
      "Ġfists": 4550,
      "idly": 4551,
      "Ġhugged": 4552,
      "Ġni": 4553,
      "Ġglare": 4554,
      "Ġease": 4555,
      "blood": 4556,
      "Ġconvinced": 4557,
      "ashion": 4558,
      "Ġaccess": 4559,
      "Ġcigaret": 4560,
      "Ġspine": 4561,
      "whats": 4562,
      "Ġpile": 4563,
      "Ġwilliam": 4564,
      "Ġkate": 4565,
      "ben": 4566,
      "rey": 4567,
      "Ġswift": 4568,
      "Ġtex": 4569,
      "enger": 4570,
      "Ġbone": 4571,
      "Ġward": 4572,
      "Ġhood": 4573,
      "Ġeric": 4574,
      "Ġmeal": 4575,
      "Ġpregnant": 4576,
      "Ġsoot": 4577,
      "Ġloudly": 4578,
      "Ġevents": 4579,
      "Ġtowel": 4580,
      "attoo": 4581,
      "Ġmilitary": 4582,
      "cr": 4583,
      "Ġum": 4584,
      "Ġcheer": 4585,
      "elled": 4586,
      "Ġanimals": 4587,
      "Ġdestroy": 4588,
      "Ġocean": 4589,
      "Ġresc": 4590,
      "Ġrecognize": 4591,
      "Ġbeating": 4592,
      "Ġmap": 4593,
      "tending": 4594,
      "Ġlone": 4595,
      "Ġgrateful": 4596,
      "Ġstartled": 4597,
      "Ġstopping": 4598,
      "gest": 4599,
      "Ġtaught": 4600,
      "pan": 4601,
      "Ġtilted": 4602,
      "Ġale": 4603,
      "Ġresting": 4604,
      "Ġtemple": 4605,
      "Ġspring": 4606,
      "phone": 4607,
      "Ġutter": 4608,
      "lebr": 4609,
      "Ġcustom": 4610,
      "Ġfaith": 4611,
      "Ġaccepted": 4612,
      "Ġshiver": 4613,
      "aks": 4614,
      "Ġfired": 4615,
      "omes": 4616,
      "Ġdelight": 4617,
      "lot": 4618,
      "Ġdamp": 4619,
      "Ġactiv": 4620,
      "Ġfierce": 4621,
      "Ġelbow": 4622,
      "ppy": 4623,
      "essor": 4624,
      "Ġdistant": 4625,
      "Ġdug": 4626,
      "pless": 4627,
      "Ġawful": 4628,
      "Ġtender": 4629,
      "Ġstrang": 4630,
      "take": 4631,
      "nds": 4632,
      "Ġven": 4633,
      "Ġheight": 4634,
      "Ġtugged": 4635,
      "Ġunderstanding": 4636,
      "Ġdamage": 4637,
      "Ġfreed": 4638,
      "Ġtorn": 4639,
      "Ġpainting": 4640,
      "Ġhip": 4641,
      "Ġsuck": 4642,
      "fit": 4643,
      "asha": 4644,
      "mor": 4645,
      "Ġbird": 4646,
      "Ġbon": 4647,
      "Ġcorridor": 4648,
      "Ġtattoo": 4649,
      "Ġlanguage": 4650,
      "Ġagent": 4651,
      "Ġkell": 4652,
      "Ġclothing": 4653,
      "Ġpractice": 4654,
      "ential": 4655,
      "john": 4656,
      "Ġdistur": 4657,
      "Ġpretend": 4658,
      "jen": 4659,
      "Ġfurn": 4660,
      "real": 4661,
      "Ġtrembling": 4662,
      "Ġpour": 4663,
      "Ġdread": 4664,
      "Ġbuildings": 4665,
      "eral": 4666,
      "Ġshakes": 4667,
      "Ġcracked": 4668,
      "Ġorange": 4669,
      "Ġjoke": 4670,
      "Ġharsh": 4671,
      "Ġchose": 4672,
      "Ġmeat": 4673,
      "Ġrust": 4674,
      "Ġcelebr": 4675,
      "cell": 4676,
      "Ġsensation": 4677,
      "Ġguil": 4678,
      "Ġune": 4679,
      "Ġchain": 4680,
      "Ġjamie": 4681,
      "Ġpillow": 4682,
      "Ġsuspected": 4683,
      "Ġstranger": 4684,
      "eech": 4685,
      "Ġskull": 4686,
      "Ġclouds": 4687,
      "hun": 4688,
      "essa": 4689,
      "Ġsearched": 4690,
      "Ġgorgeous": 4691,
      "Ġpeered": 4692,
      "Ġspotted": 4693,
      "met": 4694,
      "Ġwarrior": 4695,
      "Ġflut": 4696,
      "Ġlily": 4697,
      "Ġintended": 4698,
      "sa": 4699,
      "Ġpicking": 4700,
      "Ġsurely": 4701,
      "Ġting": 4702,
      "Ġwaste": 4703,
      "Ġchill": 4704,
      "Ġweather": 4705,
      "Ġwash": 4706,
      "Ġchairs": 4707,
      "Ġheal": 4708,
      "Ġescaped": 4709,
      "loe": 4710,
      "coming": 4711,
      "Ġcrim": 4712,
      "Ġtie": 4713,
      "Ġack": 4714,
      "does": 4715,
      "Ġgrandmother": 4716,
      "osen": 4717,
      "Ġreceived": 4718,
      "Ġpip": 4719,
      "iven": 4720,
      "ram": 4721,
      "itions": 4722,
      "Ġcausing": 4723,
      "Ġdamned": 4724,
      "Ġrocks": 4725,
      "Ġjeff": 4726,
      "Ġgovernment": 4727,
      "Ġbirthday": 4728,
      "Ġchris": 4729,
      "Ġwhir": 4730,
      "Ġcred": 4731,
      "Ġcha": 4732,
      "Ġbreeze": 4733,
      "Ġryan": 4734,
      "cass": 4735,
      "Ġacting": 4736,
      "Ġfrozen": 4737,
      "jam": 4738,
      "Ġjac": 4739,
      "Ġkiller": 4740,
      "Ġphil": 4741,
      "fuck": 4742,
      "Ġug": 4743,
      "each": 4744,
      "Ġpopped": 4745,
      "Ġtore": 4746,
      "Ġcharac": 4747,
      "Ġsmaller": 4748,
      "Ġsettle": 4749,
      "Ġbegun": 4750,
      "Ġpolit": 4751,
      "sil": 4752,
      "Ġworn": 4753,
      "Ġregular": 4754,
      "ores": 4755,
      "Ġvarious": 4756,
      "Ġguilty": 4757,
      "ption": 4758,
      "Ġclimb": 4759,
      "Ġjosh": 4760,
      "Ġridiculous": 4761,
      "Ġtransp": 4762,
      "ulation": 4763,
      "ato": 4764,
      "Ġsuspic": 4765,
      "Ġdownstairs": 4766,
      "ales": 4767,
      "Ġfate": 4768,
      "Ġattacked": 4769,
      "kered": 4770,
      "Ġcro": 4771,
      "Ġhamm": 4772,
      "Ġfan": 4773,
      "Ġcrou": 4774,
      "Ġassured": 4775,
      "Ġpalms": 4776,
      "Ġsecrets": 4777,
      "Ġsoldier": 4778,
      "ases": 4779,
      "Ġhissed": 4780,
      "umed": 4781,
      "ences": 4782,
      "ran": 4783,
      "gers": 4784,
      "lit": 4785,
      "Ġdue": 4786,
      "despite": 4787,
      "place": 4788,
      "Ġrubbing": 4789,
      "Ġgesture": 4790,
      "ators": 4791,
      "Ġwhenever": 4792,
      "Ġpuzz": 4793,
      "Ġenjoying": 4794,
      "Ġwalks": 4795,
      "Ġchosen": 4796,
      "Ġdrifted": 4797,
      "Ġray": 4798,
      "Ġinfl": 4799,
      "Ġreluct": 4800,
      "Ġpartner": 4801,
      "ults": 4802,
      "Ġbesides": 4803,
      "Ġsisters": 4804,
      "athy": 4805,
      "Ġfury": 4806,
      "Ġbrit": 4807,
      "Ġgy": 4808,
      "Ġyanked": 4809,
      "Ġfrustration": 4810,
      "Ġpulse": 4811,
      "Ġdesce": 4812,
      "Ġcapable": 4813,
      "Ġbunch": 4814,
      "itation": 4815,
      "Ġchamber": 4816,
      "steps": 4817,
      "amped": 4818,
      "Ġnotes": 4819,
      "Ġhero": 4820,
      "Ġamerican": 4821,
      "Ġsake": 4822,
      "Ġdesperately": 4823,
      "Ġciv": 4824,
      "Ġexplan": 4825,
      "Ġsensed": 4826,
      "Ġrib": 4827,
      "rif": 4828,
      "Ġcaress": 4829,
      "Ġdisplay": 4830,
      "Ġmuscle": 4831,
      "Ġprim": 4832,
      "Ġbags": 4833,
      "Ġegg": 4834,
      "Ġsip": 4835,
      "ddy": 4836,
      "ems": 4837,
      "vor": 4838,
      "Ġrode": 4839,
      "Ġvers": 4840,
      "Ġbalance": 4841,
      "Ġfarther": 4842,
      "ye": 4843,
      "Ġpainful": 4844,
      "gency": 4845,
      "Ġnoah": 4846,
      "Ġprogram": 4847,
      "Ġdick": 4848,
      "Ġbri": 4849,
      "theres": 4850,
      "Ġchew": 4851,
      "Ġduty": 4852,
      "oop": 4853,
      "Ġintent": 4854,
      "Ġmountains": 4855,
      "Ġdepe": 4856,
      "ago": 4857,
      "Ġphotog": 4858,
      "Ġdiscuss": 4859,
      "Ġcircum": 4860,
      "ste": 4861,
      "boy": 4862,
      "ita": 4863,
      "Ġlanding": 4864,
      "aker": 4865,
      "ivid": 4866,
      "lored": 4867,
      "Ġsnat": 4868,
      "Ġwon": 4869,
      "Ġlondon": 4870,
      "Ġjudge": 4871,
      "Ġalarm": 4872,
      "Ġnurse": 4873,
      "ording": 4874,
      "Ġstudents": 4875,
      "Ġgazed": 4876,
      "mark": 4877,
      "Ġsurprising": 4878,
      "riff": 4879,
      "bur": 4880,
      "iest": 4881,
      "umping": 4882,
      "ache": 4883,
      "Ġhouses": 4884,
      "Ġpride": 4885,
      "Ġreact": 4886,
      "Ġdetail": 4887,
      "Ġlarger": 4888,
      "Ġformed": 4889,
      "Ġcale": 4890,
      "Ġconcl": 4891,
      "pre": 4892,
      "Ġbrows": 4893,
      "Ġuniform": 4894,
      "Ġsnorted": 4895,
      "awk": 4896,
      "Ġdropping": 4897,
      "uses": 4898,
      "ado": 4899,
      "asty": 4900,
      "Ġlicked": 4901,
      "ints": 4902,
      "Ġdisgust": 4903,
      "Ġtrapped": 4904,
      "ulf": 4905,
      "Ġcovering": 4906,
      "Ġadvantage": 4907,
      "Ġcurse": 4908,
      "Ġgarage": 4909,
      "Ġsigns": 4910,
      "Ġsuspect": 4911,
      "Ġechoed": 4912,
      "Ġreb": 4913,
      "Ġlied": 4914,
      "Ġstraightened": 4915,
      "mission": 4916,
      "Ġcute": 4917,
      "ception": 4918,
      "sho": 4919,
      "emon": 4920,
      "Ġshr": 4921,
      "Ġarched": 4922,
      "ffic": 4923,
      "Ġnav": 4924,
      "Ġenvelo": 4925,
      "Ġbullet": 4926,
      "Ġacknow": 4927,
      "Ġgeorge": 4928,
      "Ġfingert": 4929,
      "Ġarrow": 4930,
      "len": 4931,
      "Ġannounced": 4932,
      "Ġexhausted": 4933,
      "Ġgrandfather": 4934,
      "Ġpoints": 4935,
      "Ġglowing": 4936,
      "heart": 4937,
      "Ġapproach": 4938,
      "sim": 4939,
      "Ġraced": 4940,
      "Ġconscious": 4941,
      "Ġdeserve": 4942,
      "Ġterrified": 4943,
      "Ġsofa": 4944,
      "azed": 4945,
      "Ġbry": 4946,
      "Ġrule": 4947,
      "Ġjan": 4948,
      "ishment": 4949,
      "Ġsweep": 4950,
      "mat": 4951,
      "Ġstunned": 4952,
      "Ġvanished": 4953,
      "sar": 4954,
      "Ġbrill": 4955,
      "Ġdaddy": 4956,
      "Ġsus": 4957,
      "umble": 4958,
      "Ġforgive": 4959,
      "Ġliz": 4960,
      "Ġladies": 4961,
      "nor": 4962,
      "Ġwashed": 4963,
      "Ġmask": 4964,
      "Ġchief": 4965,
      "Ġbowl": 4966,
      "Ġmental": 4967,
      "Ġimpat": 4968,
      "taking": 4969,
      "Ġraise": 4970,
      "ule": 4971,
      "Ġshooting": 4972,
      "Ġparticularly": 4973,
      "iolet": 4974,
      "Ġneighbor": 4975,
      "Ġram": 4976,
      "sal": 4977,
      "Ġcollar": 4978,
      "Ġencou": 4979,
      "Ġretreat": 4980,
      "Ġbeck": 4981,
      "Ġmoves": 4982,
      "Ġholds": 4983,
      "Ġmatters": 4984,
      "lord": 4985,
      "Ġattend": 4986,
      "Ġemily": 4987,
      "Ġtables": 4988,
      "Ġmumbled": 4989,
      "Ġreturning": 4990,
      "tles": 4991,
      "Ġtask": 4992,
      "Ġbrick": 4993,
      "Ġsheet": 4994,
      "Ġdogs": 4995,
      "Ġhunt": 4996,
      "really": 4997,
      "Ġugly": 4998,
      "Ġalley": 4999,
      "gun": 5000,
      "Ġms": 5001,
      "Ġexit": 5002,
      "Ġnumbers": 5003,
      "Ġconvince": 5004,
      "Ġjourney": 5005,
      "Ġinner": 5006,
      "fire": 5007,
      "Ġrip": 5008,
      "Ġpurple": 5009,
      "uts": 5010,
      "Ġbench": 5011,
      "Ġlikes": 5012,
      "Ġcutting": 5013,
      "Ġchocol": 5014,
      "Ġoccup": 5015,
      "Ġeve": 5016,
      "Ġblast": 5017,
      "Ġtense": 5018,
      "wards": 5019,
      "Ġcontem": 5020,
      "Ġloving": 5021,
      "expected": 5022,
      "istic": 5023,
      "iance": 5024,
      "ads": 5025,
      "Ġopin": 5026,
      "Ġfilling": 5027,
      "otic": 5028,
      "Ġrhy": 5029,
      "Ġunlike": 5030,
      "ency": 5031,
      "Ġappearance": 5032,
      "Ġblonde": 5033,
      "Ġfrag": 5034,
      "sorry": 5035,
      "Ġsomebody": 5036,
      "Ġgestured": 5037,
      "Ġwhit": 5038,
      "Ġdestroyed": 5039,
      "Ġconfident": 5040,
      "vet": 5041,
      "pack": 5042,
      "Ġabruptly": 5043,
      "Ġtapped": 5044,
      "Ġconnected": 5045,
      "Ġremaining": 5046,
      "Ġinit": 5047,
      "erie": 5048,
      "Ġlucas": 5049,
      "Ġembarrassed": 5050,
      "anth": 5051,
      "Ġprice": 5052,
      "year": 5053,
      "Ġcel": 5054,
      "Ġinsane": 5055,
      "aves": 5056,
      "Ġintellig": 5057,
      "Ġplat": 5058,
      "Ġnin": 5059,
      "Ġshell": 5060,
      "Ġrope": 5061,
      "Ġgreg": 5062,
      "Ġwhispers": 5063,
      "Ġrat": 5064,
      "Ġtotal": 5065,
      "Ġvide": 5066,
      "lotte": 5067,
      "Ġshame": 5068,
      "aud": 5069,
      "avin": 5070,
      "aky": 5071,
      "Ġdistr": 5072,
      "Ġslapped": 5073,
      "aze": 5074,
      "Ġjulian": 5075,
      "Ġlies": 5076,
      "Ġchecking": 5077,
      "iring": 5078,
      "Ġstal": 5079,
      "wen": 5080,
      "bbled": 5081,
      "Ġserved": 5082,
      "imm": 5083,
      "Ġchanging": 5084,
      "Ġmanner": 5085,
      "Ġnap": 5086,
      "Ġsway": 5087,
      "Ġgames": 5088,
      "until": 5089,
      "Ġjared": 5090,
      "Ġdomin": 5091,
      "Ġber": 5092,
      "Ġholy": 5093,
      "Ġfile": 5094,
      "Ġwrote": 5095,
      "Ġdrown": 5096,
      "none": 5097,
      "cast": 5098,
      "bble": 5099,
      "Ġbutter": 5100,
      "Ġelectric": 5101,
      "Ġalco": 5102,
      "bal": 5103,
      "Ġfabric": 5104,
      "Ġprotection": 5105,
      "except": 5106,
      "urs": 5107,
      "Ġkar": 5108,
      "Ġsurrounding": 5109,
      "emma": 5110,
      "Ġargue": 5111,
      "Ġchallenge": 5112,
      "Ġguessed": 5113,
      "Ġpaying": 5114,
      "Ġoliv": 5115,
      "Ġcousin": 5116,
      "Ġeased": 5117,
      "Ġgrabbing": 5118,
      "Ġsenses": 5119,
      "andra": 5120,
      "Ġkeeps": 5121,
      "beat": 5122,
      "lu": 5123,
      "unched": 5124,
      "Ġprotest": 5125,
      "Ġprofession": 5126,
      "Ġnic": 5127,
      "Ġdevil": 5128,
      "Ġpoison": 5129,
      "Ġfrightened": 5130,
      "Ġballs": 5131,
      "Ġspeech": 5132,
      "Ġsebastian": 5133,
      "Ġchristian": 5134,
      "Ġcondition": 5135,
      "Ġappl": 5136,
      "Ġvehicle": 5137,
      "Ġloves": 5138,
      "Ġtray": 5139,
      "Ġhelpless": 5140,
      "Ġlots": 5141,
      "Ġsocial": 5142,
      "Ġriding": 5143,
      "Ġai": 5144,
      "Ġpattern": 5145,
      "Ġourselves": 5146,
      "Ġenorm": 5147,
      "log": 5148,
      "Ġdrank": 5149,
      "Ġsharply": 5150,
      "Ġhonestly": 5151,
      "call": 5152,
      "agon": 5153,
      "Ġivy": 5154,
      "Ġdecor": 5155,
      "Ġraw": 5156,
      "Ġorg": 5157,
      "Ġflin": 5158,
      "Ġsource": 5159,
      "Ġsatur": 5160,
      "Ġsooner": 5161,
      "'m": 5162,
      "Ġshade": 5163,
      "Ġexperienced": 5164,
      "Ġetern": 5165,
      "Ġrichard": 5166,
      "Ġlur": 5167,
      "Ġpunch": 5168,
      "Ġjane": 5169,
      "Ġdriveway": 5170,
      "Ġhal": 5171,
      "eter": 5172,
      "Ġwes": 5173,
      "Ġprofessor": 5174,
      "cra": 5175,
      "Ġoccurred": 5176,
      "Ġafford": 5177,
      "asket": 5178,
      "Ġdining": 5179,
      "Ġsched": 5180,
      "ordan": 5181,
      "Ġboo": 5182,
      "Ġstroked": 5183,
      "illing": 5184,
      "Ġsilly": 5185,
      "Ġclosely": 5186,
      "Ġglancing": 5187,
      "Ġyouve": 5188,
      "Ġrecently": 5189,
      "Ġcircumst": 5190,
      "Ġbran": 5191,
      "Ġsymp": 5192,
      "fall": 5193,
      "Ġmember": 5194,
      "Ġwil": 5195,
      "Ġjesus": 5196,
      "Ġstrike": 5197,
      "van": 5198,
      "Ġhavent": 5199,
      "Ġblake": 5200,
      "Ġneat": 5201,
      "Ġvul": 5202,
      "Ġfellow": 5203,
      "ffe": 5204,
      "icles": 5205,
      "Ġclearing": 5206,
      "Ġexplanation": 5207,
      "Ġpatted": 5208,
      "Ġlined": 5209,
      "Ġhitting": 5210,
      "jon": 5211,
      "Ġvel": 5212,
      "Ġfootsteps": 5213,
      "Ġtough": 5214,
      "Ġcatching": 5215,
      "Ġrick": 5216,
      "Ġdismiss": 5217,
      "Ġdrug": 5218,
      "Ġpalace": 5219,
      "dge": 5220,
      "iverse": 5221,
      "Ġreplaced": 5222,
      "Ġnet": 5223,
      "Ġtheyre": 5224,
      "Ġolivia": 5225,
      "Ġbothered": 5226,
      "Ġstatement": 5227,
      "Ġeyed": 5228,
      "Ġthroughout": 5229,
      "Ġarrange": 5230,
      "Ġdumb": 5231,
      "vi": 5232,
      "Ġneare": 5233,
      "Ġted": 5234,
      "soon": 5235,
      "Ġlifting": 5236,
      "Ġperio": 5237,
      "Ġliquid": 5238,
      "Ġletters": 5239,
      "Ġclos": 5240,
      "Ġslowed": 5241,
      "jake": 5242,
      "Ġwrap": 5243,
      "atherine": 5244,
      "ruction": 5245,
      "Ġattract": 5246,
      "Ġassume": 5247,
      "Ġhaul": 5248,
      "Ġmarsh": 5249,
      "Ġshrie": 5250,
      "Ġplant": 5251,
      "Ġcursed": 5252,
      "Ġpossibility": 5253,
      "Ġlouder": 5254,
      "Ġdollars": 5255,
      "Ġthunder": 5256,
      "atically": 5257,
      "long": 5258,
      "Ġlocation": 5259,
      "Ġdesp": 5260,
      "Ġtoes": 5261,
      "Ġlust": 5262,
      "Ġstruggling": 5263,
      "Ġseries": 5264,
      "Ġgasp": 5265,
      "hawk": 5266,
      "ugg": 5267,
      "Ġhunting": 5268,
      "Ġhalfway": 5269,
      "Ġunivers": 5270,
      "otted": 5271,
      "especially": 5272,
      "nal": 5273,
      "Ġseeming": 5274,
      "Ġunexpected": 5275,
      "Ġbehav": 5276,
      "rier": 5277,
      "Ġresearch": 5278,
      "Ġcontr": 5279,
      "Ġvague": 5280,
      "Ġdesign": 5281,
      "Ġclay": 5282,
      "ero": 5283,
      "chan": 5284,
      "Ġblink": 5285,
      "ients": 5286,
      "Ġcopy": 5287,
      "Ġacqu": 5288,
      "Ġchocolate": 5289,
      "Ġresponsible": 5290,
      "Ġexistence": 5291,
      "ended": 5292,
      "rer": 5293,
      "Ġpresident": 5294,
      "Ġsunlight": 5295,
      "ctions": 5296,
      "aping": 5297,
      "Ġtraffic": 5298,
      "Ġreser": 5299,
      "Ġbread": 5300,
      "Ġmoaned": 5301,
      "Ġcops": 5302,
      "Ġ20": 5303,
      "Ġdull": 5304,
      "inger": 5305,
      "inkled": 5306,
      "Ġintens": 5307,
      "Ġanna": 5308,
      "Ġtrained": 5309,
      "Ġsomewhat": 5310,
      "Ġcrime": 5311,
      "yl": 5312,
      "Ġinvis": 5313,
      "Ġtrace": 5314,
      "Ġclue": 5315,
      "Ġfalls": 5316,
      "Ġroyal": 5317,
      "gra": 5318,
      "Ġmult": 5319,
      "probably": 5320,
      "Ġconce": 5321,
      "Ġprevious": 5322,
      "Ġelizabeth": 5323,
      "Ġinqu": 5324,
      "Ġfriendly": 5325,
      "uine": 5326,
      "Ġavail": 5327,
      "ulated": 5328,
      "Ġforcing": 5329,
      "Ġeyel": 5330,
      "Ġimpress": 5331,
      "anges": 5332,
      "Ġpacked": 5333,
      "Ġdang": 5334,
      "Ġpleasant": 5335,
      "Ġcasual": 5336,
      "Ġgrasp": 5337,
      "Ġtechn": 5338,
      "Ġwink": 5339,
      "lies": 5340,
      "kat": 5341,
      "Ġcloth": 5342,
      "Ġcarol": 5343,
      "uction": 5344,
      "Ġpossess": 5345,
      "wolf": 5346,
      "Ġwashing": 5347,
      "Ġnoted": 5348,
      "Ġenth": 5349,
      "Ġtrusted": 5350,
      "Ġunw": 5351,
      "Ġkidding": 5352,
      "Ġagreement": 5353,
      "Ġformer": 5354,
      "Ġpaint": 5355,
      "Ġwhist": 5356,
      "Ġignoring": 5357,
      "Ġautom": 5358,
      "Ġstepping": 5359,
      "Ġunlo": 5360,
      "Ġpisto": 5361,
      "ethan": 5362,
      "Ġske": 5363,
      "apparently": 5364,
      "Ġscramb": 5365,
      "Ġunus": 5366,
      "Ġgal": 5367,
      "Ġcher": 5368,
      "Ġsqueeze": 5369,
      "Ġgrinning": 5370,
      "Ġfence": 5371,
      "Ġstops": 5372,
      "Ġsnap": 5373,
      "Ġtrailed": 5374,
      "Ġracing": 5375,
      "Ġcigarette": 5376,
      "Ġfangs": 5377,
      "Ġnormally": 5378,
      "Ġsounding": 5379,
      "uh": 5380,
      "mag": 5381,
      "Ġwhats": 5382,
      "Ġsection": 5383,
      "Ġwerent": 5384,
      "tor": 5385,
      "Ġimages": 5386,
      "ta": 5387,
      "Ġteach": 5388,
      "Ġcaut": 5389,
      "Ġpockets": 5390,
      "Ġstor": 5391,
      "aren": 5392,
      "Ġali": 5393,
      "Ġlaughs": 5394,
      "Ġbored": 5395,
      "jected": 5396,
      "Ġnate": 5397,
      "Ġdisbel": 5398,
      "Ġcrystal": 5399,
      "Ġdrinks": 5400,
      "Ġthreatened": 5401,
      "Ġtrent": 5402,
      "Ġnails": 5403,
      "Ġtony": 5404,
      "Ġtelevision": 5405,
      "Ġveins": 5406,
      "Ġstrode": 5407,
      "vation": 5408,
      "ona": 5409,
      "rolled": 5410,
      "Ġyards": 5411,
      "remy": 5412,
      "Ġabandoned": 5413,
      "Ġcliff": 5414,
      "wait": 5415,
      "Ġyoull": 5416,
      "Ġbleeding": 5417,
      "Ġmas": 5418,
      "inda": 5419,
      "erc": 5420,
      "Ġisab": 5421,
      "Ġlex": 5422,
      "Ġrecall": 5423,
      "Ġproperty": 5424,
      "Ġfasc": 5425,
      "Ġprevent": 5426,
      "Ġpanties": 5427,
      "pa": 5428,
      "Ġdetective": 5429,
      "Ġattached": 5430,
      "Ġfashion": 5431,
      "eled": 5432,
      "Ġdistracted": 5433,
      "Ġdrum": 5434,
      "Ġcomfor": 5435,
      "Ġshrug": 5436,
      "Ġbrad": 5437,
      "Ġexclaimed": 5438,
      "Ġpainted": 5439,
      "Ġextended": 5440,
      "Ġruns": 5441,
      "Ġcassie": 5442,
      "being": 5443,
      "Ġjace": 5444,
      "Ġteasing": 5445,
      "Ġclas": 5446,
      "Ġbord": 5447,
      "Ġhumor": 5448,
      "Ġ9": 5449,
      "Ġbond": 5450,
      "Ġissue": 5451,
      "part": 5452,
      "Ġcarpet": 5453,
      "amps": 5454,
      "Ġextremely": 5455,
      "Ġfake": 5456,
      "Ġsexual": 5457,
      "Ġsees": 5458,
      "mad": 5459,
      "Ġarrest": 5460,
      "Ġsheets": 5461,
      "rete": 5462,
      "Ġbowed": 5463,
      "Ġsacrif": 5464,
      "Ġgenuine": 5465,
      "Ġcovers": 5466,
      "slow": 5467,
      "Ġamused": 5468,
      "iosity": 5469,
      "lights": 5470,
      "Ġstudying": 5471,
      "Ġcontain": 5472,
      "isy": 5473,
      "mist": 5474,
      "Ġess": 5475,
      "Ġtank": 5476,
      "clock": 5477,
      "****": 5478,
      "Ġfingertips": 5479,
      "Ġcode": 5480,
      "Ġgown": 5481,
      "give": 5482,
      "Ġvall": 5483,
      "ij": 5484,
      "Ġoffering": 5485,
      "Ġrifle": 5486,
      "Ġdiss": 5487,
      "Ġrestr": 5488,
      "Ġparted": 5489,
      "Ġexposed": 5490,
      "should": 5491,
      "gger": 5492,
      "Ġuniverse": 5493,
      "eds": 5494,
      "Ġliter": 5495,
      "zane": 5496,
      "Ġcompet": 5497,
      "Ġ6": 5498,
      "Ġconstant": 5499,
      "Ġwicked": 5500,
      "Ġbelonged": 5501,
      "Ġdesert": 5502,
      "Ġoriginal": 5503,
      "Ġbackground": 5504,
      "Ġsid": 5505,
      "Ġdisappointed": 5506,
      "Ġrever": 5507,
      "ali": 5508,
      "Ġfeared": 5509,
      "sters": 5510,
      "try": 5511,
      "olas": 5512,
      "Ġere": 5513,
      "Ġenormous": 5514,
      "atively": 5515,
      "Ġmedical": 5516,
      "Ġconfidence": 5517,
      "foot": 5518,
      "Ġdeserved": 5519,
      "Ġshuddered": 5520,
      "Ġliam": 5521,
      "hetic": 5522,
      "Ġemploy": 5523,
      "Ġtub": 5524,
      "Ġclar": 5525,
      "Ġships": 5526,
      "known": 5527,
      "Ġswallow": 5528,
      "Ġrobe": 5529,
      "Ġends": 5530,
      "Ġclaws": 5531,
      "Ġnipp": 5532,
      "Ġkylie": 5533,
      "Ġsaturday": 5534,
      "Ġpurch": 5535,
      "Ġsurve": 5536,
      "ya": 5537,
      "Ġcruel": 5538,
      "dar": 5539,
      "Ġexec": 5540,
      "Ġsole": 5541,
      "Ġmaint": 5542,
      "Ġvisible": 5543,
      "Ġperform": 5544,
      "stop": 5545,
      "Ġzomb": 5546,
      "put": 5547,
      "Ġderek": 5548,
      "Ġsem": 5549,
      "Ġshorts": 5550,
      "Ġtend": 5551,
      "Ġlee": 5552,
      "Ġcage": 5553,
      "eline": 5554,
      "Ġcenturies": 5555,
      "ila": 5556,
      "eyed": 5557,
      "Ġswing": 5558,
      "Ġcot": 5559,
      "Ġexpress": 5560,
      "rose": 5561,
      "Ġdiam": 5562,
      "Ġshivered": 5563,
      "mrs": 5564,
      "Ġhast": 5565,
      "atory": 5566,
      "Ġwing": 5567,
      "Ġpassenger": 5568,
      "Ġtap": 5569,
      "reg": 5570,
      "Ġvulner": 5571,
      "field": 5572,
      "Ġphoto": 5573,
      "istan": 5574,
      "Ġcollapsed": 5575,
      "Ġtax": 5576,
      "ounted": 5577,
      "Ġshining": 5578,
      "Ġamuse": 5579,
      "Ġshown": 5580,
      "Ġaccent": 5581,
      "Ġmurd": 5582,
      "Ġsquir": 5583,
      "Ġstated": 5584,
      "oud": 5585,
      "Ġremembering": 5586,
      "uous": 5587,
      "run": 5588,
      "Ġri": 5589,
      "Ġlightning": 5590,
      "Ġanswering": 5591,
      "Ġinvisible": 5592,
      "Ġhoriz": 5593,
      "Ġhook": 5594,
      "bly": 5595,
      "Ġinvited": 5596,
      "ifer": 5597,
      "Ġflame": 5598,
      "stone": 5599,
      "clo": 5600,
      "Ġrhyth": 5601,
      "Ġadvice": 5602,
      "Ġgrief": 5603,
      "ford": 5604,
      "Ġimmort": 5605,
      "Ġpriest": 5606,
      "Ġnik": 5607,
      "Ġrequired": 5608,
      "Ġimpl": 5609,
      "Ġnerves": 5610,
      "Ġhappiness": 5611,
      "Ġwrists": 5612,
      "Ġmidnight": 5613,
      "Ġclaimed": 5614,
      "sequ": 5615,
      "Ġshore": 5616,
      "Ġloyal": 5617,
      "orts": 5618,
      "Ġscru": 5619,
      "Ġshuff": 5620,
      "Ġemerged": 5621,
      "Ġactions": 5622,
      "od": 5623,
      "Ġnud": 5624,
      "orter": 5625,
      "dle": 5626,
      "Ġcivil": 5627,
      "Ġnathan": 5628,
      "Ġep": 5629,
      "anches": 5630,
      "orting": 5631,
      "Ġsunday": 5632,
      "beth": 5633,
      "Ġshy": 5634,
      "Ġdor": 5635,
      "mary": 5636,
      "Ġdelicate": 5637,
      "Ġretrie": 5638,
      "Ġalright": 5639,
      "Ġmans": 5640,
      "Ġallowing": 5641,
      "Ġflicked": 5642,
      "Ġeddie": 5643,
      "Ġrig": 5644,
      "Ġfreedom": 5645,
      "Ġserve": 5646,
      "Ġwarriors": 5647,
      "Ġache": 5648,
      "Ġnervously": 5649,
      "ament": 5650,
      "Ġron": 5651,
      "Ġcrawled": 5652,
      "Ġvideo": 5653,
      "Ġgear": 5654,
      "Ġguests": 5655,
      "gal": 5656,
      "Ġthread": 5657,
      "Ġremark": 5658,
      "Ġopinion": 5659,
      "Ġexploded": 5660,
      "Ġhurting": 5661,
      "Ġcomplex": 5662,
      "Ġassass": 5663,
      "'d": 5664,
      "ata": 5665,
      "gray": 5666,
      "Ġspending": 5667,
      "mate": 5668,
      "Ġscanned": 5669,
      "Ġmarket": 5670,
      "Ġhaw": 5671,
      "Ġseated": 5672,
      "Ġing": 5673,
      "ember": 5674,
      "ari": 5675,
      "pat": 5676,
      "Ġwhoever": 5677,
      "max": 5678,
      "Ġcontract": 5679,
      "standing": 5680,
      "Ġrequest": 5681,
      "inding": 5682,
      "thew": 5683,
      "Ġhundreds": 5684,
      "Ġinterview": 5685,
      "Ġstones": 5686,
      "wal": 5687,
      "Ġscott": 5688,
      "Ġdating": 5689,
      "Ġrevealed": 5690,
      "win": 5691,
      "Ġgroan": 5692,
      "Ġknelt": 5693,
      "Ġbarn": 5694,
      "Ġexpensive": 5695,
      "Ġchoked": 5696,
      "Ġcircumstances": 5697,
      "Ġpassage": 5698,
      "mike": 5699,
      "ooped": 5700,
      "Ġstates": 5701,
      "Ġactual": 5702,
      "Ġchamp": 5703,
      "Ġprecious": 5704,
      "Ġintention": 5705,
      "chie": 5706,
      "Ġmail": 5707,
      "hard": 5708,
      "Ġtrap": 5709,
      "Ġjay": 5710,
      "Ġder": 5711,
      "Ġsean": 5712,
      "Ġapproaching": 5713,
      "six": 5714,
      "Ġdeliber": 5715,
      "Ġvent": 5716,
      "Ġperiod": 5717,
      "Ġcourage": 5718,
      "christ": 5719,
      "Ġconnor": 5720,
      "Ġmortal": 5721,
      "Ġjerk": 5722,
      "Ġmia": 5723,
      "Ġ7": 5724,
      "Ġcuriosity": 5725,
      "Ġet": 5726,
      "Ġbrilliant": 5727,
      "Ġabby": 5728,
      "Ġanybody": 5729,
      "Ġwolves": 5730,
      "gab": 5731,
      "Ġgran": 5732,
      "Ġconcrete": 5733,
      "Ġbars": 5734,
      "Ġmum": 5735,
      "Ġwounds": 5736,
      "Ġspare": 5737,
      "Ġrushing": 5738,
      "Ġdepartment": 5739,
      "Ġtracks": 5740,
      "Ġsociety": 5741,
      "Ġgrant": 5742,
      "Ġsits": 5743,
      "illa": 5744,
      "Ġmotioned": 5745,
      "Ġmuff": 5746,
      "Ġbreaths": 5747,
      "Ġrhythm": 5748,
      "Ġandrew": 5749,
      "gue": 5750,
      "Ġsheriff": 5751,
      "Ġslipping": 5752,
      "Ġstrand": 5753,
      "Ġrobert": 5754,
      "michael": 5755,
      "Ġze": 5756,
      "Ġstubb": 5757,
      "Ġsevent": 5758,
      "ickered": 5759,
      "Ġcris": 5760,
      "Ġsandw": 5761,
      "Ġuncertain": 5762,
      "Ġvirgin": 5763,
      "hh": 5764,
      "Ġdepth": 5765,
      "asper": 5766,
      "ites": 5767,
      "Ġsatisfied": 5768,
      "Ġfreak": 5769,
      "cur": 5770,
      "Ġshopping": 5771,
      "Ġbirds": 5772,
      "Ġmarks": 5773,
      "Ġtroub": 5774,
      "Ġcad": 5775,
      "Ġprogress": 5776,
      "Ġflushed": 5777,
      "Ġjulia": 5778,
      "Ġcharacter": 5779,
      "aph": 5780,
      "many": 5781,
      "Ġfairly": 5782,
      "Ġcards": 5783,
      "Ġscare": 5784,
      "Ġrab": 5785,
      "Ġfriday": 5786,
      "unfortunately": 5787,
      "hind": 5788,
      "iture": 5789,
      "Ġofficial": 5790,
      "Ġbol": 5791,
      "neither": 5792,
      "Ġalcohol": 5793,
      "Ġruss": 5794,
      "Ġcooper": 5795,
      "Ġdial": 5796,
      "Ġcore": 5797,
      "Ġspinning": 5798,
      "Ġstern": 5799,
      "Ġtasted": 5800,
      "Ġtrunk": 5801,
      "Ġmixed": 5802,
      "james": 5803,
      "Ġinformed": 5804,
      "Ġstroll": 5805,
      "Ġdrugs": 5806,
      "Ġthousands": 5807,
      "Ġdrops": 5808,
      "Ġmagaz": 5809,
      "Ġembrace": 5810,
      "imate": 5811,
      "Ġbeam": 5812,
      "Ġdeny": 5813,
      "Ġremains": 5814,
      "Ġgoddam": 5815,
      "Ġresult": 5816,
      "world": 5817,
      "Ġras": 5818,
      "Ġcrash": 5819,
      "through": 5820,
      "Ġcorners": 5821,
      "Ġglances": 5822,
      "Ġmotor": 5823,
      "Ġshouting": 5824,
      "Ġmud": 5825,
      "Ġbike": 5826,
      "Ġteased": 5827,
      "Ġbetray": 5828,
      "reek": 5829,
      "Ġdigging": 5830,
      "Ġquit": 5831,
      "Ġboot": 5832,
      "Ġsymb": 5833,
      "Ġguest": 5834,
      "olen": 5835,
      "Ġbrave": 5836,
      "esome": 5837,
      "Ġstall": 5838,
      "Ġterms": 5839,
      "Ġleans": 5840,
      "Ġlink": 5841,
      "Ġscreams": 5842,
      "Ġspect": 5843,
      "Ġoption": 5844,
      "Ġamy": 5845,
      "Ġmaid": 5846,
      "Ġhunger": 5847,
      "Ġax": 5848,
      "Ġsmith": 5849,
      "Ġreaches": 5850,
      "Ġairport": 5851,
      "Ġknocking": 5852,
      "Ġcredit": 5853,
      "gered": 5854,
      "Ġwise": 5855,
      "usi": 5856,
      "Ġult": 5857,
      "Ġsecure": 5858,
      "Ġcoast": 5859,
      "Ġmilk": 5860,
      "Ġnodding": 5861,
      "Ġribs": 5862,
      "Ġbeard": 5863,
      "Ġoverhead": 5864,
      "Ġpunched": 5865,
      "Ġlover": 5866,
      "Ġfog": 5867,
      "Ġscient": 5868,
      "Ġreveal": 5869,
      "Ġglit": 5870,
      "Ġscen": 5871,
      "jason": 5872,
      "Ġspan": 5873,
      "Ġbehavior": 5874,
      "Ġpatient": 5875,
      "Ġpec": 5876,
      "Ġwinked": 5877,
      "Ġknuck": 5878,
      "icted": 5879,
      "ribut": 5880,
      "Ġideas": 5881,
      "Ġcit": 5882,
      "vert": 5883,
      "Ġchann": 5884,
      "andy": 5885,
      "ga": 5886,
      "Ġpuff": 5887,
      "Ġrevealing": 5888,
      "Ġrapidly": 5889,
      "Ġneighb": 5890,
      "Ġavailable": 5891,
      "Ġdelicious": 5892,
      "bi": 5893,
      "oms": 5894,
      "ability": 5895,
      "Ġtighter": 5896,
      "Ġeverybody": 5897,
      "Ġaccompl": 5898,
      "Ġsinging": 5899,
      "Ġhid": 5900,
      "Ġmall": 5901,
      "azz": 5902,
      "Ġbasket": 5903,
      "Ġlace": 5904,
      "david": 5905,
      "Ġbranches": 5906,
      "Ġraising": 5907,
      "Ġcreate": 5908,
      "Ġais": 5909,
      "Ġannoyed": 5910,
      "Ġfamil": 5911,
      "rich": 5912,
      "Ġpages": 5913,
      "Ġchloe": 5914,
      "Ġseats": 5915,
      "Ġshattered": 5916,
      "Ġbegins": 5917,
      "Ġsurvived": 5918,
      "slowly": 5919,
      "Ġtrad": 5920,
      "Ġcolors": 5921,
      "Ġmoder": 5922,
      "happ": 5923,
      "Ġstead": 5924,
      "Ġamusement": 5925,
      "pri": 5926,
      "say": 5927,
      "law": 5928,
      "inal": 5929,
      "Ġjet": 5930,
      "Ġsaving": 5931,
      "Ġfurniture": 5932,
      "Ġdisbelief": 5933,
      "Ġsymbol": 5934,
      "Ġmile": 5935,
      "Ġstruct": 5936,
      "Ġgul": 5937,
      "Ġchicken": 5938,
      "aron": 5939,
      "Ġopens": 5940,
      "Ġstubborn": 5941,
      "Ġedges": 5942,
      "urally": 5943,
      "Ġjun": 5944,
      "Ġcrept": 5945,
      "Ġbiggest": 5946,
      "Ġvast": 5947,
      "Ġwaving": 5948,
      "somehow": 5949,
      "Ġboxes": 5950,
      "Ġdragging": 5951,
      "rum": 5952,
      "Ġholiday": 5953,
      "Ġratt": 5954,
      "Ġdiamond": 5955,
      "Ġremote": 5956,
      "spect": 5957,
      "Ġswitch": 5958,
      "Ġrandom": 5959,
      "Ġhandful": 5960,
      "Ġparis": 5961,
      "Ġclutched": 5962,
      "Ġpistol": 5963,
      "Ġserge": 5964,
      "tears": 5965,
      "Ġcommander": 5966,
      "Ġjol": 5967,
      "nate": 5968,
      "Ġproceed": 5969,
      "Ġlately": 5970,
      "Ġbrian": 5971,
      "Ġblu": 5972,
      "anyway": 5973,
      "Ġmarked": 5974,
      "Ġskills": 5975,
      "Ġstyle": 5976,
      "Ġsteal": 5977,
      "Ġdagger": 5978,
      "Ġbrushing": 5979,
      "Ġimpro": 5980,
      "Ġcircles": 5981,
      "tail": 5982,
      "Ġmorgan": 5983,
      "rison": 5984,
      "Ġaddition": 5985,
      "bell": 5986,
      "Ġgathering": 5987,
      "Ġgrowl": 5988,
      "va": 5989,
      "Ġriley": 5990,
      "Ġbomb": 5991,
      "Ġchanges": 5992,
      "anne": 5993,
      "Ġargument": 5994,
      "Ġunconscious": 5995,
      "bro": 5996,
      "Ġlaz": 5997,
      "Ġque": 5998,
      "rachel": 5999,
      "Ġjose": 6000,
      "itar": 6001,
      "Ġsidewalk": 6002,
      "Ġnewsp": 6003,
      "Ġlux": 6004,
      "Ġelder": 6005,
      "Ġrefer": 6006,
      "Ġgage": 6007,
      "Ġminds": 6008,
      "Ġsore": 6009,
      "haired": 6010,
      "Ġappo": 6011,
      "Ġdy": 6012,
      "oul": 6013,
      "Ġeaten": 6014,
      "Ġimpression": 6015,
      "Ġcontent": 6016,
      "Ġarou": 6017,
      "Ġphotograph": 6018,
      "Ġgrunted": 6019,
      "Ġfoolish": 6020,
      "Ġversion": 6021,
      "Ġcareer": 6022,
      "Ġrealizing": 6023,
      "nda": 6024,
      "Ġcommit": 6025,
      "Ġexpert": 6026,
      "Ġwinced": 6027,
      "hunter": 6028,
      "Ġinsist": 6029,
      "lings": 6030,
      "Ġappe": 6031,
      "Ġequip": 6032,
      "Ġwhipped": 6033,
      "Ġimpressed": 6034,
      "Ġbart": 6035,
      "ika": 6036,
      "Ġvalley": 6037,
      "Ġja": 6038,
      "Ġjail": 6039,
      "thy": 6040,
      "Ġroar": 6041,
      "Ġtreated": 6042,
      "Ġcocked": 6043,
      "wat": 6044,
      "Ġtrade": 6045,
      "hear": 6046,
      "Ġarrive": 6047,
      "Ġscattered": 6048,
      "Ġcalmly": 6049,
      "Ġstretch": 6050,
      "Ġexchange": 6051,
      "Ġincredible": 6052,
      "Ġstock": 6053,
      "Ġwre": 6054,
      "tery": 6055,
      "Ġremove": 6056,
      "Ġtill": 6057,
      "together": 6058,
      "Ġhabit": 6059,
      "town": 6060,
      "Ġmarcus": 6061,
      "Ġwren": 6062,
      "Ġstudent": 6063,
      "Ġanxious": 6064,
      "ele": 6065,
      "Ġmakeup": 6066,
      "Ġarent": 6067,
      "Ġexcell": 6068,
      "Ġputs": 6069,
      "Ġsleeve": 6070,
      "Ġthrone": 6071,
      "Ġharry": 6072,
      "Ġham": 6073,
      "Ġapologize": 6074,
      "Ġmoan": 6075,
      "sarah": 6076,
      "Ġdealing": 6077,
      "Ġpow": 6078,
      "Ġdanced": 6079,
      "Ġalert": 6080,
      "ok": 6081,
      "Ġupward": 6082,
      "water": 6083,
      "Ġspat": 6084,
      "urance": 6085,
      "Ġprecise": 6086,
      "encer": 6087,
      "oops": 6088,
      "Ġwishing": 6089,
      "Ġmiser": 6090,
      "Ġenthusi": 6091,
      "ulate": 6092,
      "Ġunusual": 6093,
      "Ġrepres": 6094,
      "Ġequipment": 6095,
      "Ġemotional": 6096,
      "Ġcupped": 6097,
      "Ġenemies": 6098,
      "Ġemergency": 6099,
      "Ġsara": 6100,
      "acted": 6101,
      "Ġcord": 6102,
      "Ġviolet": 6103,
      "Ġprovided": 6104,
      "Ġfootball": 6105,
      "Ġeleven": 6106,
      "Ġripp": 6107,
      "Ġtheyd": 6108,
      "Ġlawyer": 6109,
      "Ġstruggle": 6110,
      "Ġquarter": 6111,
      "Ġhay": 6112,
      "behind": 6113,
      "Ġrent": 6114,
      "tar": 6115,
      "Ġfurious": 6116,
      "ville": 6117,
      "Ġducked": 6118,
      "Ġfamilies": 6119,
      "Ġholly": 6120,
      "Ġsteve": 6121,
      "Ġbob": 6122,
      "Ġgreeted": 6123,
      "Ġraven": 6124,
      "belie": 6125,
      "Ġdefend": 6126,
      "Ġwealth": 6127,
      "jess": 6128,
      "cal": 6129,
      "Ġclosest": 6130,
      "Ġsneak": 6131,
      "Ġdirections": 6132,
      "Ġgabriel": 6133,
      "Ġindivid": 6134,
      "luck": 6135,
      "Ġsatisfaction": 6136,
      "impse": 6137,
      "Ġmattress": 6138,
      "izzy": 6139,
      "Ġglimpse": 6140,
      "Ġcrown": 6141,
      "grace": 6142,
      "sie": 6143,
      "Ġresol": 6144,
      "Ġdarling": 6145,
      "Ġlobby": 6146,
      "gas": 6147,
      "Ġupright": 6148,
      "Ġnasty": 6149,
      "Ġrescue": 6150,
      "elling": 6151,
      "Ġstolen": 6152,
      "Ġbust": 6153,
      "oning": 6154,
      "Ġsweetheart": 6155,
      "think": 6156,
      "Ġmovements": 6157,
      "Ġcloak": 6158,
      "Ġobs": 6159,
      "Ġgoddess": 6160,
      "things": 6161,
      "ano": 6162,
      "Ġoil": 6163,
      "iles": 6164,
      "lace": 6165,
      "Ġadvent": 6166,
      "rin": 6167,
      "Ġnearest": 6168,
      "Ġ10": 6169,
      "remember": 6170,
      "Ġillum": 6171,
      "Ġheartbeat": 6172,
      "Ġgiggled": 6173,
      "seth": 6174,
      "elia": 6175,
      "adam": 6176,
      "Ġdrawer": 6177,
      "jes": 6178,
      "Ġruin": 6179,
      "Ġgym": 6180,
      "Ġdefense": 6181,
      "umn": 6182,
      "Ġwounded": 6183,
      "Ġhollow": 6184,
      "Ġlearning": 6185,
      "logy": 6186,
      "Ġcrashed": 6187,
      "Ġseparate": 6188,
      "Ġroared": 6189,
      "lying": 6190,
      "Ġflow": 6191,
      "Ġstrip": 6192,
      "nic": 6193,
      "Ġofficers": 6194,
      "Ġkim": 6195,
      "Ġdarted": 6196,
      "Ġbackpack": 6197,
      "Ġwan": 6198,
      "Ġwiz": 6199,
      "hi": 6200,
      "Ġscri": 6201,
      "Ġlucy": 6202,
      "lar": 6203,
      "Ġfloating": 6204,
      "seeing": 6205,
      "venge": 6206,
      "Ġjax": 6207,
      "ez": 6208,
      "Ġrange": 6209,
      "Ġowner": 6210,
      "Ġdude": 6211,
      "olog": 6212,
      "Ġsentence": 6213,
      "Ġcurve": 6214,
      "Ġissu": 6215,
      "Ġshove": 6216,
      "sw": 6217,
      "xy": 6218,
      "uing": 6219,
      "shot": 6220,
      "wear": 6221,
      "Ġrole": 6222,
      "black": 6223,
      "Ġcharged": 6224,
      "Ġtorture": 6225,
      "Ġflower": 6226,
      "Ġamber": 6227,
      "Ġfreaking": 6228,
      "Ġmothers": 6229,
      "uch": 6230,
      "Ġneg": 6231,
      "Ġpig": 6232,
      "Ġfourth": 6233,
      "Ġfruit": 6234,
      "wind": 6235,
      "Ġswore": 6236,
      "Ġcharles": 6237,
      "Ġbegged": 6238,
      "Ġcough": 6239,
      "Ġthreatening": 6240,
      "Ġsugar": 6241,
      "rell": 6242,
      "Ġwow": 6243,
      "Ġdriven": 6244,
      "Ġmartin": 6245,
      "Ġnest": 6246,
      "Ġproof": 6247,
      "Ġprick": 6248,
      "Ġmattered": 6249,
      "Ġdiscover": 6250,
      "Ġcrad": 6251,
      "Ġkicking": 6252,
      "Ġgoodbye": 6253,
      "Ġrelig": 6254,
      "Ġtab": 6255,
      "Ġtipped": 6256,
      "Ġpra": 6257,
      "Ġwandered": 6258,
      "acon": 6259,
      "Ġterrit": 6260,
      "Ġshots": 6261,
      "Ġfel": 6262,
      "Ġowe": 6263,
      "erica": 6264,
      "ilet": 6265,
      "Ġanticipation": 6266,
      "Ġruined": 6267,
      "Ġeighteen": 6268,
      "Ġtodd": 6269,
      "mal": 6270,
      "oria": 6271,
      "yard": 6272,
      "Ġalien": 6273,
      "Ġvictoria": 6274,
      "Ġdeliver": 6275,
      "vere": 6276,
      "isions": 6277,
      "Ġtam": 6278,
      "Ġunknown": 6279,
      "Ġvin": 6280,
      "Ġsail": 6281,
      "Ġstuffed": 6282,
      "Ġconnect": 6283,
      "Ġbubb": 6284,
      "gment": 6285,
      "Ġwrapping": 6286,
      "Ġcasually": 6287,
      "lee": 6288,
      "Ġdart": 6289,
      "avier": 6290,
      "Ġclicked": 6291,
      "hat": 6292,
      "etch": 6293,
      "Ġsnake": 6294,
      "raw": 6295,
      "Ġshows": 6296,
      "Ġbrut": 6297,
      "Ġsnarled": 6298,
      "Ġdeadly": 6299,
      "Ġasp": 6300,
      "Ġpercent": 6301,
      "Ġlimbs": 6302,
      "Ġsele": 6303,
      "Ġought": 6304,
      "eight": 6305,
      "Ġcrowded": 6306,
      "Ġbooth": 6307,
      "Ġperman": 6308,
      "Ġchic": 6309,
      "Ġgradu": 6310,
      "Ġpotential": 6311,
      "either": 6312,
      "Ġtwin": 6313,
      "paul": 6314,
      "next": 6315,
      "add": 6316,
      "aries": 6317,
      "Ġyelling": 6318,
      "Ġprovide": 6319,
      "Ġprofessional": 6320,
      "Ġrarely": 6321,
      "Ġsuspicious": 6322,
      "Ġinjured": 6323,
      "list": 6324,
      "Ġcult": 6325,
      "Ġleapt": 6326,
      "Ġsire": 6327,
      "Ġobe": 6328,
      "Ġjewel": 6329,
      "esty": 6330,
      "Ġpermission": 6331,
      "Ġstares": 6332,
      "nobody": 6333,
      "ouch": 6334,
      "Ġkingdom": 6335,
      "inating": 6336,
      "Ġpounded": 6337,
      "dor": 6338,
      "surely": 6339,
      "Ġentertain": 6340,
      "Ġuniversity": 6341,
      "zzy": 6342,
      "iron": 6343,
      "Ġ8": 6344,
      "Ġsideways": 6345,
      "Ġhappily": 6346,
      "Ġaston": 6347,
      "Ġexisted": 6348,
      "Ġlun": 6349,
      "Ġfathers": 6350,
      "Ġmechan": 6351,
      "Ġelbows": 6352,
      "cel": 6353,
      "Ġrealm": 6354,
      "Ġhalt": 6355,
      "Ġmarch": 6356,
      "rily": 6357,
      "Ġguide": 6358,
      "aying": 6359,
      "Ġstole": 6360,
      "uded": 6361,
      "Ġaudience": 6362,
      "Ġtristan": 6363,
      "iger": 6364,
      "Ġboun": 6365,
      "Ġclimbing": 6366,
      "Ġdried": 6367,
      "Ġgain": 6368,
      "Ġrecent": 6369,
      "Ġagony": 6370,
      "Ġforces": 6371,
      "tra": 6372,
      "almost": 6373,
      "Ġbasement": 6374,
      "Ġmild": 6375,
      "Ġsuc": 6376,
      "several": 6377,
      "great": 6378,
      "Ġaccording": 6379,
      "mail": 6380,
      "Ġdoubted": 6381,
      "Ġtempor": 6382,
      "Ġpizz": 6383,
      "Ġcollect": 6384,
      "Ġvulnerable": 6385,
      "Ġinflu": 6386,
      "Ġdean": 6387,
      "pain": 6388,
      "Ġcaleb": 6389,
      "Ġcompanion": 6390,
      "greg": 6391,
      "Ġradi": 6392,
      "Ġattempted": 6393,
      "ggy": 6394,
      "sur": 6395,
      "Ġarmor": 6396,
      "Ġstraw": 6397,
      "Ġtrash": 6398,
      "Ġbilly": 6399,
      "bu": 6400,
      "Ġaching": 6401,
      "Ġkend": 6402,
      "Ġlawn": 6403,
      "Ġscrambled": 6404,
      "Ġowned": 6405,
      "Ġmystery": 6406,
      "Ġvic": 6407,
      "Ġflashing": 6408,
      "soci": 6409,
      "Ġacted": 6410,
      "icy": 6411,
      "Ġmovies": 6412,
      "Ġcerem": 6413,
      "Ġcrouched": 6414,
      "Ġtensed": 6415,
      "Ġshifting": 6416,
      "Ġmaggie": 6417,
      "Ġindividual": 6418,
      "Ġsadness": 6419,
      "Ġhorizon": 6420,
      "Ġstress": 6421,
      "Ġswiftly": 6422,
      "Ġjumping": 6423,
      "Ġsout": 6424,
      "fan": 6425,
      "Ġclick": 6426,
      "spe": 6427,
      "Ġaffection": 6428,
      "life": 6429,
      "Ġeur": 6430,
      "Ġgif": 6431,
      "Ġrevol": 6432,
      "ideon": 6433,
      "Ġstag": 6434,
      "Ġfeather": 6435,
      "Ġkinds": 6436,
      "Ġassoci": 6437,
      "Ġmarble": 6438,
      "Ġgreater": 6439,
      "Ġsurge": 6440,
      "org": 6441,
      "Ġstack": 6442,
      "Ġstroke": 6443,
      "Ġimper": 6444,
      "ada": 6445,
      "Ġsurre": 6446,
      "arse": 6447,
      "ipper": 6448,
      "Ġreception": 6449,
      "anything": 6450,
      "Ġthorough": 6451,
      "Ġgates": 6452,
      "Ġjar": 6453,
      "itable": 6454,
      "Ġtape": 6455,
      "uary": 6456,
      "peter": 6457,
      "lau": 6458,
      "Ġorgasm": 6459,
      "Ġhesitation": 6460,
      "Ġcoach": 6461,
      "plus": 6462,
      "etic": 6463,
      "Ġcleaning": 6464,
      "Ġplacing": 6465,
      "nis": 6466,
      "Ġhills": 6467,
      "guing": 6468,
      "Ġarranged": 6469,
      "last": 6470,
      "Ġconfirmed": 6471,
      "Ġtrembled": 6472,
      "Ġmob": 6473,
      "Ġawesome": 6474,
      "aline": 6475,
      "Ġfolks": 6476,
      "Ġsixteen": 6477,
      "Ġbullshit": 6478,
      "Ġcrit": 6479,
      "Ġpretending": 6480,
      "Ġsignal": 6481,
      "fee": 6482,
      "Ġspit": 6483,
      "hens": 6484,
      "Ġsite": 6485,
      "Ġendless": 6486,
      "Ġviolent": 6487,
      "raged": 6488,
      "ctors": 6489,
      "Ġspilled": 6490,
      "Ġbabe": 6491,
      "Ġreflection": 6492,
      "Ġcake": 6493,
      "theyre": 6494,
      "Ġsharing": 6495,
      "Ġassistant": 6496,
      "Ġaver": 6497,
      "Ġeleg": 6498,
      "Ġcomplicated": 6499,
      "Ġarmed": 6500,
      "Ġcommunity": 6501,
      "Ġimpact": 6502,
      "Ġcandle": 6503,
      "Ġdisappointment": 6504,
      "Ġquestioning": 6505,
      "Ġflowing": 6506,
      "Ġcharlotte": 6507,
      "Ġenvelope": 6508,
      "Ġsouls": 6509,
      "Ġhealing": 6510,
      "Ġpatch": 6511,
      "Ġpity": 6512,
      "Ġneighborhood": 6513,
      "ixt": 6514,
      "bow": 6515,
      "Ġrings": 6516,
      "Ġdrake": 6517,
      "sized": 6518,
      "Ġappears": 6519,
      "Ġdarkened": 6520,
      "Ġsupplies": 6521,
      "Ġsensitive": 6522,
      "Ġlonely": 6523,
      "etr": 6524,
      "Ġruth": 6525,
      "Ġcurved": 6526,
      "Ġmedic": 6527,
      "Ġragged": 6528,
      "Ġmelted": 6529,
      "Ġcheese": 6530,
      "Ġliterally": 6531,
      "Ġyouth": 6532,
      "cting": 6533,
      "Ġscary": 6534,
      "Ġwhispering": 6535,
      "Ġsnatched": 6536,
      "Ġpossessed": 6537,
      "Ġrude": 6538,
      "Ġromantic": 6539,
      "Ġcrossing": 6540,
      "Ġstring": 6541,
      "Ġmodern": 6542,
      "Ġoak": 6543,
      "Ġbegging": 6544,
      "armed": 6545,
      "Ġexplosion": 6546,
      "Ġvig": 6547,
      "Ġenv": 6548,
      "Ġcontents": 6549,
      "Ġfrequ": 6550,
      "Ġroute": 6551,
      "Ġfu": 6552,
      "icating": 6553,
      "Ġtraveled": 6554,
      "resh": 6555,
      "mond": 6556,
      "Ġuseless": 6557,
      "Ġattitude": 6558,
      "Ġclasses": 6559,
      "Ġknuckles": 6560,
      "Ġuseful": 6561,
      "cont": 6562,
      "Ġmoist": 6563,
      "Ġinn": 6564,
      "Ġconstantly": 6565,
      "immed": 6566,
      "Ġlic": 6567,
      "Ġkal": 6568,
      "Ġdee": 6569,
      "cut": 6570,
      "Ġblocks": 6571,
      "Ġabsor": 6572,
      "anor": 6573,
      "Ġdece": 6574,
      "Ġgang": 6575,
      "unting": 6576,
      "tal": 6577,
      "Ġached": 6578,
      "Ġjonathan": 6579,
      "Ġdipped": 6580,
      "Ġangle": 6581,
      "inside": 6582,
      "Ġcontempl": 6583,
      "Ġshiny": 6584,
      "Ġcaptured": 6585,
      "Ġintensity": 6586,
      "Ġbreasts": 6587,
      "Ġswinging": 6588,
      "Ġincredibly": 6589,
      "Ġfairy": 6590,
      "attering": 6591,
      "Ġtwisting": 6592,
      "Ġsmirk": 6593,
      "asses": 6594,
      "Ġissues": 6595,
      "Ġfancy": 6596,
      "Ġhighway": 6597,
      "Ġhired": 6598,
      "Ġitems": 6599,
      "Ġincident": 6600,
      "Ġpositive": 6601,
      "Ġestab": 6602,
      "Ġcleaned": 6603,
      "aving": 6604,
      "isc": 6605,
      "actually": 6606,
      "claire": 6607,
      "Ġimagination": 6608,
      "Ġphotos": 6609,
      "Ġfrustrated": 6610,
      "Ġchaos": 6611,
      "Ġevan": 6612,
      "Ġstiffened": 6613,
      "Ġsheer": 6614,
      "Ġplung": 6615,
      "Ġsheep": 6616,
      "Ġsmoot": 6617,
      "ryan": 6618,
      "Ġalec": 6619,
      "osing": 6620,
      "Ġfrost": 6621,
      "Ġtuck": 6622,
      "Ġaloud": 6623,
      "Ġcurls": 6624,
      "Ġdecent": 6625,
      "Ġweakness": 6626,
      "Ġerr": 6627,
      "Ġellie": 6628,
      "Ġhuff": 6629,
      "Ġscowled": 6630,
      "hope": 6631,
      "Ġchances": 6632,
      "Ġscrewed": 6633,
      "Ġrate": 6634,
      "Ġmagical": 6635,
      "Ġslumped": 6636,
      "Ġwerewolf": 6637,
      "Ġalph": 6638,
      "Ġbacks": 6639,
      "gent": 6640,
      "Ġgrimaced": 6641,
      "Ġpolite": 6642,
      "Ġjacob": 6643,
      "Ġpinned": 6644,
      "Ġspite": 6645,
      "Ġfamous": 6646,
      "phe": 6647,
      "Ġattractive": 6648,
      "Ġfred": 6649,
      "Ġtheory": 6650,
      "Ġthir": 6651,
      "Ġrome": 6652,
      "Ġnu": 6653,
      "Ġstirred": 6654,
      "Ġflex": 6655,
      "hon": 6656,
      "Ġlaptop": 6657,
      "Ġfalse": 6658,
      "Ġpouring": 6659,
      "Ġsuffer": 6660,
      "Ġshortly": 6661,
      "Ġentry": 6662,
      "Ġflag": 6663,
      "aylor": 6664,
      "Ġnipple": 6665,
      "Ġclung": 6666,
      "oy": 6667,
      "ounds": 6668,
      "Ġunb": 6669,
      "hum": 6670,
      "Ġwaking": 6671,
      "Ġstool": 6672,
      "Ġfond": 6673,
      "Ġhealthy": 6674,
      "Ġbetr": 6675,
      "thomas": 6676,
      "white": 6677,
      "Ġfriendship": 6678,
      "Ġinnoc": 6679,
      "Ġdripping": 6680,
      "Ġcentury": 6681,
      "Ġbiting": 6682,
      "Ġyawn": 6683,
      "Ġdeclared": 6684,
      "Ġproved": 6685,
      "Ġmercy": 6686,
      "Ġheated": 6687,
      "Ġconsequ": 6688,
      "Ġdylan": 6689,
      "cons": 6690,
      "Ġmonday": 6691,
      "Ġprotected": 6692,
      "Ġdevice": 6693,
      "Ġflung": 6694,
      "Ġloaded": 6695,
      "Ġcarved": 6696,
      "Ġordinary": 6697,
      "Ġscout": 6698,
      "sus": 6699,
      "Ġcentral": 6700,
      "made": 6701,
      "Ġsty": 6702,
      "Ġwarn": 6703,
      "Ġsalt": 6704,
      "Ġlamp": 6705,
      "Ġhurts": 6706,
      "Ġclan": 6707,
      "Ġshaft": 6708,
      "Ġtries": 6709,
      "Ġproperly": 6710,
      "Ġviolence": 6711,
      "ollen": 6712,
      "Ġfled": 6713,
      "Ġseason": 6714,
      "Ġwipe": 6715,
      "Ġsafely": 6716,
      "Ġexcellent": 6717,
      "Ġcharm": 6718,
      "Ġsignific": 6719,
      "Ġmane": 6720,
      "Ġearn": 6721,
      "Ġtrigger": 6722,
      "cor": 6723,
      "Ġtips": 6724,
      "Ġswords": 6725,
      "Ġbranch": 6726,
      "Ġswollen": 6727,
      "Ġshimm": 6728,
      "Ġpizza": 6729,
      "nifer": 6730,
      "Ġtwins": 6731,
      "Ġprepare": 6732,
      "Ġchuckle": 6733,
      "turning": 6734,
      "Ġamerica": 6735,
      "Ġclutching": 6736,
      "hip": 6737,
      "roy": 6738,
      "Ġkevin": 6739,
      "Ġrocked": 6740,
      "Ġreck": 6741,
      "Ġunsure": 6742,
      "idy": 6743,
      "eness": 6744,
      "Ġexhaust": 6745,
      "Ġdanny": 6746,
      "Ġpatience": 6747,
      "Ġsons": 6748,
      "Ġestate": 6749,
      "Ġresponsibility": 6750,
      "Ġsweater": 6751,
      "Ġboring": 6752,
      "Ġseparated": 6753,
      "power": 6754,
      "dev": 6755,
      "Ġfears": 6756,
      "cony": 6757,
      "Ġseek": 6758,
      "norm": 6759,
      "ua": 6760,
      "Ġhannah": 6761,
      "kins": 6762,
      "Ġlesson": 6763,
      "Ġjustin": 6764,
      "Ġdram": 6765,
      "event": 6766,
      "Ġmoonlight": 6767,
      "natural": 6768,
      "Ġstroking": 6769,
      "Ġsteam": 6770,
      "Ġstark": 6771,
      "Ġchildhood": 6772,
      "Ġbrings": 6773,
      "Ġbolt": 6774,
      "Ġsergeant": 6775,
      "iona": 6776,
      "Ġcontained": 6777,
      "Ġsticking": 6778,
      "Ġbuddy": 6779,
      "apt": 6780,
      "uted": 6781,
      "azing": 6782,
      "Ġsucking": 6783,
      "Ġdelivered": 6784,
      "Ġarrival": 6785,
      "ole": 6786,
      "Ġexchanged": 6787,
      "Ġcourty": 6788,
      "Ġzach": 6789,
      "Ġsigned": 6790,
      "Ġbalcony": 6791,
      "vict": 6792,
      "eered": 6793,
      "Ġarrog": 6794,
      "cole": 6795,
      "Ġloos": 6796,
      "Ġbackwards": 6797,
      "Ġplanted": 6798,
      "Ġankle": 6799,
      "Ġlifet": 6800,
      "Ġpreferred": 6801,
      "away": 6802,
      "enses": 6803,
      "pse": 6804,
      "Ġwaitress": 6805,
      "Ġmurdered": 6806,
      "hor": 6807,
      "ini": 6808,
      "make": 6809,
      "Ġmug": 6810,
      "Ġfuneral": 6811,
      "Ġprior": 6812,
      "Ġhighly": 6813,
      "Ġbits": 6814,
      "Ġringing": 6815,
      "Ġsophie": 6816,
      "Ġdrained": 6817,
      "ulous": 6818,
      "Ġcontinues": 6819,
      "Ġelement": 6820,
      "Ġtyp": 6821,
      "Ġblocked": 6822,
      "Ġjackson": 6823,
      "Ġped": 6824,
      "Ġduke": 6825,
      "bbie": 6826,
      "Ġsuite": 6827,
      "Ġlump": 6828,
      "Ġaye": 6829,
      "Ġphysically": 6830,
      "eventually": 6831,
      "Ġservants": 6832,
      "Ġapr": 6833,
      "Ġblowing": 6834,
      "Ġsmirked": 6835,
      "Ġspreading": 6836,
      "Ġatl": 6837,
      "Ġfields": 6838,
      "Ġcrushed": 6839,
      "Ġrefuse": 6840,
      "Ġrounded": 6841,
      "Ġbald": 6842,
      "Ġdwar": 6843,
      "rolling": 6844,
      "Ġsucceed": 6845,
      "Ġspecific": 6846,
      "ours": 6847,
      "vie": 6848,
      "Ġshone": 6849,
      "Ġamanda": 6850,
      "Ġcrawl": 6851,
      "Ġgarion": 6852,
      "lig": 6853,
      "Ġaltern": 6854,
      "ships": 6855,
      "Ġsubst": 6856,
      "rous": 6857,
      "Ġtraced": 6858,
      "Ġclient": 6859,
      "Ġicy": 6860,
      "Ġpy": 6861,
      "Ġcolin": 6862,
      "omi": 6863,
      "Ġlin": 6864,
      "Ġdistinct": 6865,
      "Ġwildly": 6866,
      "Ġnovel": 6867,
      "veled": 6868,
      "drew": 6869,
      "Ġtraveling": 6870,
      "Ġending": 6871,
      "Ġutterly": 6872,
      "Ġspirits": 6873,
      "Ġsought": 6874,
      "los": 6875,
      "Ġsarc": 6876,
      "Ġexhaled": 6877,
      "Ġfork": 6878,
      "Ġskill": 6879,
      "Ġyoud": 6880,
      "Ġstaircase": 6881,
      "Ġforeign": 6882,
      "Ġoverwhelming": 6883,
      "____": 6884,
      "zie": 6885,
      "Ġsuffering": 6886,
      "Ġwire": 6887,
      "Ġintroduced": 6888,
      "Ġsco": 6889,
      "Ġbased": 6890,
      "Ġnerve": 6891,
      "Ġpear": 6892,
      "Ġfigures": 6893,
      "Ġga": 6894,
      "inged": 6895,
      "Ġunit": 6896,
      "Ġkyle": 6897,
      "Ġwaters": 6898,
      "jim": 6899,
      "Ġgavin": 6900,
      "Ġcotton": 6901,
      "Ġdiscussion": 6902,
      "Ġneeding": 6903,
      "Ġgloves": 6904,
      "Ġassign": 6905,
      "apes": 6906,
      "Ġjournal": 6907,
      "Ġscience": 6908,
      "Ġdrift": 6909,
      "Ġrit": 6910,
      "Ġlick": 6911,
      "Ġcarriage": 6912,
      "Ġsuffe": 6913,
      "Ġshelter": 6914,
      "mble": 6915,
      "Ġalice": 6916,
      "Ġeggs": 6917,
      "Ġviv": 6918,
      "dney": 6919,
      "Ġleads": 6920,
      "Ġchicago": 6921,
      "Ġaz": 6922,
      "Ġpony": 6923,
      "Ġcourtyard": 6924,
      "acc": 6925,
      "Ġswip": 6926,
      "gree": 6927,
      "Ġterm": 6928,
      "Ġencoun": 6929,
      "Ġpounds": 6930,
      "love": 6931,
      "Ġjeremy": 6932,
      "kate": 6933,
      "Ġgwen": 6934,
      "Ġflowed": 6935,
      "Ġmama": 6936,
      "Ġswitched": 6937,
      "Ġtyler": 6938,
      "Ġknot": 6939,
      "Ġgentleman": 6940,
      "Ġlas": 6941,
      "Ġfinn": 6942,
      "Ġbun": 6943,
      "Ġslave": 6944,
      "Ġprotecting": 6945,
      "Ġcries": 6946,
      "Ġsets": 6947,
      "Ġkidna": 6948,
      "Ġcheap": 6949,
      "Ġnecklace": 6950,
      "icop": 6951,
      "Ġsang": 6952,
      "Ġcircled": 6953,
      "Ġappropri": 6954,
      "logan": 6955,
      "Ġpir": 6956,
      "Ġmatthew": 6957,
      "Ġbride": 6958,
      "Ġdreamed": 6959,
      "Ġapple": 6960,
      "cat": 6961,
      "Ġstrained": 6962,
      "Ġlimp": 6963,
      "Ġobserved": 6964,
      "mn": 6965,
      "Ġrag": 6966,
      "Ġtearing": 6967,
      "Ġcolt": 6968,
      "shine": 6969,
      "Ġroland": 6970,
      "Ġgrabs": 6971,
      "Ġhyp": 6972,
      "Ġacknowled": 6973,
      "Ġsuffered": 6974,
      "Ġjohnny": 6975,
      "Ġhooked": 6976,
      "having": 6977,
      "Ġmysterious": 6978,
      "Ġflickered": 6979,
      "Ġmanip": 6980,
      "onel": 6981,
      "Ġpreparing": 6982,
      "josh": 6983,
      "Ġlane": 6984,
      "Ġdivor": 6985,
      "Ġsouther": 6986,
      "Ġschedule": 6987,
      "idently": 6988,
      "alie": 6989,
      "Ġsusan": 6990,
      "Ġbark": 6991,
      "Ġmason": 6992,
      "mic": 6993,
      "Ġhopes": 6994,
      "Ġjustice": 6995,
      "Ġbend": 6996,
      "swe": 6997,
      "Ġpond": 6998,
      "Ġtaller": 6999,
      "ava": 7000,
      "iforn": 7001,
      "Ġheel": 7002,
      "Ġnostr": 7003,
      "Ġnail": 7004,
      "Ġcitiz": 7005,
      "Ġstake": 7006,
      "Ġrepeat": 7007,
      "Ġmack": 7008,
      "Ġbounced": 7009,
      "Ġprivacy": 7010,
      "hin": 7011,
      "Ġwy": 7012,
      "allas": 7013,
      "Ġhomes": 7014,
      "jac": 7015,
      "Ġscars": 7016,
      "Ġava": 7017,
      "Ġholes": 7018,
      "tan": 7019,
      "Ġcompared": 7020,
      "Ġspraw": 7021,
      "Ġcrashing": 7022,
      "Ġsoothing": 7023,
      "antha": 7024,
      "Ġselfish": 7025,
      "Ġlatest": 7026,
      "Ġdirector": 7027,
      "Ġplates": 7028,
      "Ġinterior": 7029,
      "Ġanton": 7030,
      "Ġcurtain": 7031,
      "inte": 7032,
      "Ġpilot": 7033,
      "Ġprotective": 7034,
      "Ġdise": 7035,
      "Ġol": 7036,
      "soph": 7037,
      "fying": 7038,
      "Ġtransfer": 7039,
      "izes": 7040,
      "Ġmessages": 7041,
      "Ġdorm": 7042,
      "gir": 7043,
      "Ġimmediate": 7044,
      "Ġroutine": 7045,
      "Ġinstructions": 7046,
      "Ġtradition": 7047,
      "Ġfunction": 7048,
      "Ġprey": 7049,
      "Ġjordan": 7050,
      "Ġbottles": 7051,
      "Ġdragons": 7052,
      "unless": 7053,
      "Ġfinds": 7054,
      "Ġdirected": 7055,
      "Ġavoiding": 7056,
      "Ġincluded": 7057,
      "mind": 7058,
      "Ġlor": 7059,
      "Ġdevelop": 7060,
      "Ġtooth": 7061,
      "Ġscre": 7062,
      "Ġtangled": 7063,
      "Ġreput": 7064,
      "Ġhelicop": 7065,
      "becca": 7066,
      "omeday": 7067,
      "Ġgn": 7068,
      "Ġeternity": 7069,
      "Ġcooking": 7070,
      "Ġbuttons": 7071,
      "oon": 7072,
      "Ġdave": 7073,
      "daniel": 7074,
      "ulating": 7075,
      "Ġcalc": 7076,
      "Ġmiserable": 7077,
      "Ġrevenge": 7078,
      "Ġador": 7079,
      "Ġeduc": 7080,
      "Ġcharming": 7081,
      "Ġdock": 7082,
      "Ġcommanded": 7083,
      "Ġlocated": 7084,
      "lad": 7085,
      "Ġflashlight": 7086,
      "Ġmicro": 7087,
      "Ġflared": 7088,
      "hole": 7089,
      "going": 7090,
      "half": 7091,
      "Ġbrace": 7092,
      "Ġny": 7093,
      "uming": 7094,
      "frank": 7095,
      "arms": 7096,
      "Ġcaliforn": 7097,
      "berry": 7098,
      "also": 7099,
      "Ġtrial": 7100,
      "Ġclever": 7101,
      "Ġkay": 7102,
      "Ġfranc": 7103,
      "Ġhunters": 7104,
      "Ġjenny": 7105,
      "Ġgrasped": 7106,
      "simon": 7107,
      "Ġaccompan": 7108,
      "cha": 7109,
      "Ġbold": 7110,
      "Ġgoss": 7111,
      "Ġfloated": 7112,
      "Ġlege": 7113,
      "Ġstew": 7114,
      "Ġspider": 7115,
      "isk": 7116,
      "Ġgreatest": 7117,
      "Ġinvitation": 7118,
      "Ġstructure": 7119,
      "wow": 7120,
      "burn": 7121,
      "Ġprinc": 7122,
      "Ġquestioned": 7123,
      "Ġhearts": 7124,
      "Ġvisited": 7125,
      "Ġdaemon": 7126,
      "Ġgripping": 7127,
      "ulations": 7128,
      "ula": 7129,
      "Ġdoctors": 7130,
      "bon": 7131,
      "ody": 7132,
      "prom": 7133,
      "Ġmont": 7134,
      "Ġaimed": 7135,
      "Ġtroll": 7136,
      "Ġtechno": 7137,
      "Ġinterrupt": 7138,
      "Ġslamming": 7139,
      "Ġware": 7140,
      "Ġslim": 7141,
      "Ġanxiety": 7142,
      "Ġpuzzled": 7143,
      "Ġbio": 7144,
      "guard": 7145,
      "Ġpunishment": 7146,
      "Ġscratched": 7147,
      "Ġcases": 7148,
      "Ġeurope": 7149,
      "Ġcorn": 7150,
      "Ġbabies": 7151,
      "Ġkings": 7152,
      "lay": 7153,
      "Ġterritory": 7154,
      "Ġrack": 7155,
      "Ġmex": 7156,
      "box": 7157,
      "Ġ18": 7158,
      "Ġlegal": 7159,
      "Ġtalent": 7160,
      "Ġwigg": 7161,
      "Ġwhim": 7162,
      "Ġstretching": 7163,
      "Ġbee": 7164,
      "blue": 7165,
      "Ġflip": 7166,
      "Ġrolls": 7167,
      "Ġsant": 7168,
      "Ġmuffled": 7169,
      "Ġhits": 7170,
      "Ġoblig": 7171,
      "fred": 7172,
      "Ġquinn": 7173,
      "Ġintelligence": 7174,
      "Ġmonsters": 7175,
      "Ġconcentrate": 7176,
      "giving": 7177,
      "Ġequally": 7178,
      "Ġinvestigation": 7179,
      "Ġtoilet": 7180,
      "Ġcoinc": 7181,
      "nn": 7182,
      "Ġhaz": 7183,
      "Ġobsc": 7184,
      "Ġdared": 7185,
      "Ġdescended": 7186,
      "Ġpursu": 7187,
      "Ġslap": 7188,
      "Ġintently": 7189,
      "Ġquarters": 7190,
      "iple": 7191,
      "Ġunderground": 7192,
      "Ġdaily": 7193,
      "Ġcrush": 7194,
      "far": 7195,
      "Ġchains": 7196,
      "Ġwherever": 7197,
      "Ġladder": 7198,
      "Ġreluctantly": 7199,
      "happy": 7200,
      "Ġmodel": 7201,
      "Ġunderwear": 7202,
      "covered": 7203,
      "bone": 7204,
      "iveness": 7205,
      "Ġsmells": 7206,
      "atter": 7207,
      "Ġmentally": 7208,
      "Ġsquad": 7209,
      "Ġachie": 7210,
      "Ġswimming": 7211,
      "Ġdante": 7212,
      "mates": 7213,
      "Ġmeasure": 7214,
      "umpled": 7215,
      "Ġforb": 7216,
      "Ġwiping": 7217,
      "iper": 7218,
      "cam": 7219,
      "Ġfund": 7220,
      "Ġsorts": 7221,
      "dis": 7222,
      "bot": 7223,
      "Ġrequire": 7224,
      "Ġglowed": 7225,
      "gage": 7226,
      "del": 7227,
      "grand": 7228,
      "Ġvelvet": 7229,
      "Ġcalifornia": 7230,
      "Ġtrevor": 7231,
      "Ġmiracle": 7232,
      "Ġgoal": 7233,
      "essing": 7234,
      "ros": 7235,
      "Ġscot": 7236,
      "Ġsparhawk": 7237,
      "Ġarc": 7238,
      "kind": 7239,
      "Ġduck": 7240,
      "Ġnewspaper": 7241,
      "Ġbore": 7242,
      "ibilities": 7243,
      "renaline": 7244,
      "Ġcounted": 7245,
      "enth": 7246,
      "chris": 7247,
      "Ġmanager": 7248,
      "Ġankles": 7249,
      "pass": 7250,
      "Ġplatform": 7251,
      "Ġstrate": 7252,
      "Ġdefeat": 7253,
      "Ġshouldnt": 7254,
      "Ġthirteen": 7255,
      "rant": 7256,
      "Ġpretended": 7257,
      "Ġhatred": 7258,
      "fine": 7259,
      "Ġhelmet": 7260,
      "rad": 7261,
      "Ġfurrow": 7262,
      "Ġoptions": 7263,
      "Ġsqueezing": 7264,
      "inge": 7265,
      "Ġfleet": 7266,
      "chief": 7267,
      "Ġindicated": 7268,
      "Ġfever": 7269,
      "Ġadmir": 7270,
      "Ġreflected": 7271,
      "emily": 7272,
      "Ġslender": 7273,
      "nec": 7274,
      "Ġtwitched": 7275,
      "knowing": 7276,
      "Ġpanting": 7277,
      "Ġgrumbled": 7278,
      "fact": 7279,
      "ji": 7280,
      "Ġexample": 7281,
      "Ġprisoner": 7282,
      "Ġslick": 7283,
      "Ġintimate": 7284,
      "Ġsouthern": 7285,
      "Ġbullets": 7286,
      "today": 7287,
      "Ġnostrils": 7288,
      "Ġjoseph": 7289,
      "antically": 7290,
      "inate": 7291,
      "Ġworlds": 7292,
      "Ġmeas": 7293,
      "Ġangels": 7294,
      "iar": 7295,
      "Ġborrow": 7296,
      "Ġbik": 7297,
      "joe": 7298,
      "Ġdecisions": 7299,
      "Ġlifetime": 7300,
      "uten": 7301,
      "Ġunited": 7302,
      "Ġengland": 7303,
      "Ġshaky": 7304,
      "lers": 7305,
      "Ġmuse": 7306,
      "Ġmarie": 7307,
      "Ġresults": 7308,
      "Ġjulie": 7309,
      "Ġfrowning": 7310,
      "Ġspear": 7311,
      "Ġabilities": 7312,
      "moving": 7313,
      "uments": 7314,
      "abor": 7315,
      "ission": 7316,
      "Ġtoe": 7317,
      "Ġexerc": 7318,
      "Ġauthority": 7319,
      "Ġgarb": 7320,
      "Ġkelly": 7321,
      "Ġraz": 7322,
      "avi": 7323,
      "Ġentering": 7324,
      "asant": 7325,
      "Ġdescribed": 7326,
      "Ġlid": 7327,
      "acles": 7328,
      "uri": 7329,
      "Ġcraft": 7330,
      "Ġemph": 7331,
      "new": 7332,
      "Ġfuel": 7333,
      "Ġrod": 7334,
      "Ġconsciousness": 7335,
      "dec": 7336,
      "Ġsniffed": 7337,
      "Ġaisle": 7338,
      "Ġhopefully": 7339,
      "Ġcaring": 7340,
      "Ġmetho": 7341,
      "aa": 7342,
      "Ġtack": 7343,
      "Ġefforts": 7344,
      "Ġdarker": 7345,
      "Ġnak": 7346,
      "vo": 7347,
      "icole": 7348,
      "Ġpersonally": 7349,
      "Ġsuccessful": 7350,
      "Ġbarrel": 7351,
      "Ġmagazine": 7352,
      "anie": 7353,
      "jamie": 7354,
      "always": 7355,
      "Ġplus": 7356,
      "Ġcomforting": 7357,
      "low": 7358,
      "Ġservant": 7359,
      "Ġexception": 7360,
      "amm": 7361,
      "luke": 7362,
      "Ġhanding": 7363,
      "Ġsquinted": 7364,
      "Ġagents": 7365,
      "Ġseeking": 7366,
      "Ġwrinkled": 7367,
      "Ġpersu": 7368,
      "Ġdip": 7369,
      "Ġrecords": 7370,
      "itching": 7371,
      "stick": 7372,
      "hem": 7373,
      "Ġlands": 7374,
      "Ġworrying": 7375,
      "umph": 7376,
      "Ġmistress": 7377,
      "ige": 7378,
      "Ġcorpor": 7379,
      "youve": 7380,
      "Ġrecalled": 7381,
      "Ġpopular": 7382,
      "Ġpitch": 7383,
      "Ġcurrently": 7384,
      "Ġpenetr": 7385,
      "Ġsteep": 7386,
      "Ġgrounds": 7387,
      "Ġinhaled": 7388,
      "Ġedward": 7389,
      "Ġsenior": 7390,
      "Ġflee": 7391,
      "Ġlect": 7392,
      "Ġreplace": 7393,
      "Ġouter": 7394,
      "Ġfourteen": 7395,
      "Ġsubtle": 7396,
      "Ġhank": 7397,
      "Ġalexander": 7398,
      "Ġsacrifice": 7399,
      "retched": 7400,
      "Ġlocker": 7401,
      "Ġcandy": 7402,
      "Ġdistract": 7403,
      "Ġinev": 7404,
      "ops": 7405,
      "Ġbetrayed": 7406,
      "words": 7407,
      "Ġspecies": 7408,
      "Ġglaring": 7409,
      "ront": 7410,
      "Ġprayed": 7411,
      "matt": 7412,
      "Ġsinking": 7413,
      "kar": 7414,
      "Ġcott": 7415,
      "Ġdesigned": 7416,
      "Ġcurtains": 7417,
      "Ġflooded": 7418,
      "Ġtale": 7419,
      "Ġoutfit": 7420,
      "Ġsoaked": 7421,
      "Ġcush": 7422,
      "Ġjung": 7423,
      "Ġjobs": 7424,
      "Ġreputation": 7425,
      "Ġtin": 7426,
      "Ġgroups": 7427,
      "Ġkane": 7428,
      "Ġceremony": 7429,
      "Ġfeeding": 7430,
      "Ġmyth": 7431,
      "Ġatop": 7432,
      "Ġjoking": 7433,
      "Ġbron": 7434,
      "Ġcautiously": 7435,
      "Ġcontrolled": 7436,
      "Ġimpressive": 7437,
      "rain": 7438,
      "Ġshane": 7439,
      "Ġconfirm": 7440,
      "Ġactivity": 7441,
      "Ġprotested": 7442,
      "cassie": 7443,
      "ums": 7444,
      "Ġintri": 7445,
      "Ġreported": 7446,
      "sky": 7447,
      "seven": 7448,
      "Ġshallow": 7449,
      "Ġshelf": 7450,
      "phy": 7451,
      "Ġtossing": 7452,
      "inder": 7453,
      "Ġguitar": 7454,
      "Ġpatrick": 7455,
      "ification": 7456,
      "anting": 7457,
      "Ġunlocked": 7458,
      "Ġlandsc": 7459,
      "kylie": 7460,
      "Ġmatching": 7461,
      "mill": 7462,
      "Ġfloors": 7463,
      "wom": 7464,
      "vity": 7465,
      "Ġengage": 7466,
      "Ġcuff": 7467,
      "Ġdraped": 7468,
      "Ġbrightly": 7469,
      "Ġexamined": 7470,
      "Ġdata": 7471,
      "Ġroger": 7472,
      "Ġcollection": 7473,
      "Ġclasped": 7474,
      "Ġsandwich": 7475,
      "Ġmelissa": 7476,
      "Ġbarked": 7477,
      "Ġhelen": 7478,
      "icholas": 7479,
      "Ġcameras": 7480,
      "Ġdegree": 7481,
      "Ġconven": 7482,
      "Ġwhirled": 7483,
      "Ġobliv": 7484,
      "ii": 7485,
      "Ġsyn": 7486,
      "Ġincreased": 7487,
      "Ġjill": 7488,
      "quar": 7489,
      "Ġavoided": 7490,
      "mend": 7491,
      "Ġcreating": 7492,
      "within": 7493,
      "Ġoccupied": 7494,
      "ications": 7495,
      "Ġgrandma": 7496,
      "Ġengaged": 7497,
      "Ġsophia": 7498,
      "Ġmini": 7499,
      "Ġdevon": 7500,
      "Ġdescribe": 7501,
      "py": 7502,
      "Ġmayor": 7503,
      "Ġveget": 7504,
      "Ġlucien": 7505,
      "Ġast": 7506,
      "Ġflush": 7507,
      "Ġassault": 7508,
      "agne": 7509,
      "Ġrailing": 7510,
      "Ġadjusted": 7511,
      "tre": 7512,
      "Ġroughly": 7513,
      "Ġranch": 7514,
      "olded": 7515,
      "Ġlabor": 7516,
      "ector": 7517,
      "Ġgritted": 7518,
      "Ġchasing": 7519,
      "Ġadop": 7520,
      "Ġempt": 7521,
      "Ġvalue": 7522,
      "dark": 7523,
      "Ġsob": 7524,
      "Ġperf": 7525,
      "sphere": 7526,
      "apers": 7527,
      "Ġdemanding": 7528,
      "Ġguar": 7529,
      "tim": 7530,
      "Ġclary": 7531,
      "Ġweve": 7532,
      "ounded": 7533,
      "Ġparties": 7534,
      "Ġwagon": 7535,
      "Ġstripped": 7536,
      "Ġtug": 7537,
      "Ġawa": 7538,
      "Ġchim": 7539,
      "Ġhoarse": 7540,
      "Ġstrangely": 7541,
      "vas": 7542,
      "ban": 7543,
      "Ġhudd": 7544,
      "Ġdishes": 7545,
      "Ġrav": 7546,
      "Ġscratch": 7547,
      "Ġmajesty": 7548,
      "ican": 7549,
      "Ġformal": 7550,
      "Ġdressing": 7551,
      "Ġreports": 7552,
      "Ġblades": 7553,
      "Ġdeliberately": 7554,
      "Ġnope": 7555,
      "Ġduncan": 7556,
      "Ġlighting": 7557,
      "Ġconference": 7558,
      "Ġspray": 7559,
      "Ġcavern": 7560,
      "Ġblush": 7561,
      "Ġborder": 7562,
      "Ġalongside": 7563,
      "itated": 7564,
      "Ġasse": 7565,
      "Ġsmug": 7566,
      "icide": 7567,
      "Ġcurl": 7568,
      "path": 7569,
      "Ġreward": 7570,
      "Ġheather": 7571,
      "Ġmemor": 7572,
      "Ġimmortal": 7573,
      "Ġvictims": 7574,
      "idents": 7575,
      "Ġfading": 7576,
      "Ġdusty": 7577,
      "Ġregister": 7578,
      "mbled": 7579,
      "Ġerection": 7580,
      "Ġcabinet": 7581,
      "Ġnan": 7582,
      "alian": 7583,
      "Ġjuice": 7584,
      "arian": 7585,
      "Ġchannel": 7586,
      "Ġhumili": 7587,
      "Ġlingering": 7588,
      "face": 7589,
      "gus": 7590,
      "Ġcups": 7591,
      "istr": 7592,
      "Ġtorment": 7593,
      "Ġlaying": 7594,
      "Ġfiles": 7595,
      "Ġgarrett": 7596,
      "ench": 7597,
      "Ġproduct": 7598,
      "~~": 7599,
      "Ġacade": 7600,
      "obv": 7601,
      "Ġtriumph": 7602,
      "Ġsupply": 7603,
      "entine": 7604,
      "Ġerup": 7605,
      "Ġsteering": 7606,
      "Ġcuts": 7607,
      "istered": 7608,
      "Ġfireplace": 7609,
      "Ġdreaming": 7610,
      "Ġguardian": 7611,
      "Ġpaw": 7612,
      "Ġaccur": 7613,
      "Ġoccasionally": 7614,
      "Ġforming": 7615,
      "Ġhmm": 7616,
      "Ġjeep": 7617,
      "henry": 7618,
      "such": 7619,
      "Ġintimid": 7620,
      "Ġplayer": 7621,
      "Ġtact": 7622,
      "Ġgig": 7623,
      "mine": 7624,
      "000": 7625,
      "Ġpropped": 7626,
      "Ġgoddamn": 7627,
      "Ġfade": 7628,
      "Ġjudgment": 7629,
      "Ġanaly": 7630,
      "Ġload": 7631,
      "Ġsurprisingly": 7632,
      "wild": 7633,
      "Ġsmoking": 7634,
      "rs": 7635,
      "Ġsom": 7636,
      "Ġshoving": 7637,
      "Ġisa": 7638,
      "Ġvirt": 7639,
      "Ġlil": 7640,
      "Ġtermin": 7641,
      "Ġsettling": 7642,
      "holy": 7643,
      "Ġgiggle": 7644,
      "Ġflor": 7645,
      "Ġgossip": 7646,
      "Ġdal": 7647,
      "Ġscarlet": 7648,
      "Ġridge": 7649,
      "Ġincreasing": 7650,
      "Ġannoying": 7651,
      "non": 7652,
      "Ġmered": 7653,
      "faced": 7654,
      "Ġprayer": 7655,
      "Ġleaped": 7656,
      "Ġtoast": 7657,
      "Ġleaders": 7658,
      "Ġashamed": 7659,
      "Ġpoked": 7660,
      "Ġmeredith": 7661,
      "Ġvictory": 7662,
      "wr": 7663,
      "iah": 7664,
      "Ġdaylight": 7665,
      "Ġmiranda": 7666,
      "Ġflinched": 7667,
      "Ġneedle": 7668,
      "Ġcub": 7669,
      "Ġadult": 7670,
      "hello": 7671,
      "unks": 7672,
      "Ġlouis": 7673,
      "Ġiv": 7674,
      "Ġves": 7675,
      "Ġtransl": 7676,
      "Ġcaf": 7677,
      "Ġpave": 7678,
      "Ġbothering": 7679,
      "Ġnational": 7680,
      "Ġsuv": 7681,
      "Ġsorrow": 7682,
      "Ġintend": 7683,
      "Ġeh": 7684,
      "Ġsung": 7685,
      "urry": 7686,
      "Ġkatie": 7687,
      "Ġstaggered": 7688,
      "Ġeyelids": 7689,
      "dro": 7690,
      "Ġpackage": 7691,
      "Ġembarrassment": 7692,
      "Ġcompass": 7693,
      "Ġamazed": 7694,
      "Ġvaguely": 7695,
      "Ġmelo": 7696,
      "Ġink": 7697,
      "Ġsurroundings": 7698,
      "Ġhaunted": 7699,
      "Ġblankets": 7700,
      "Ġminor": 7701,
      "mir": 7702,
      "Ġadding": 7703,
      "Ġseemingly": 7704,
      "Ġseventeen": 7705,
      "Ġmatched": 7706,
      "Ġslightest": 7707,
      "Ġannoy": 7708,
      "Ġoli": 7709,
      "Ġdish": 7710,
      "ardon": 7711,
      "Ġhammer": 7712,
      "Ġsuspicion": 7713,
      "Ġlashes": 7714,
      "uther": 7715,
      "agers": 7716,
      "Ġcorpse": 7717,
      "Ġhorn": 7718,
      "Ġstalked": 7719,
      "Ġspots": 7720,
      "Ġstatue": 7721,
      "liz": 7722,
      "thor": 7723,
      "Ġplants": 7724,
      "Ġchoices": 7725,
      "Ġfortune": 7726,
      "Ġfantasy": 7727,
      "tled": 7728,
      "Ġcontinuing": 7729,
      "obviously": 7730,
      "Ġsipped": 7731,
      "pull": 7732,
      "abby": 7733,
      "Ġcombat": 7734,
      "Ġcampus": 7735,
      "Ġmasc": 7736,
      "Ġatmo": 7737,
      "icient": 7738,
      "Ġbrid": 7739,
      "hest": 7740,
      "bie": 7741,
      "Ġdove": 7742,
      "Ġsuits": 7743,
      "colored": 7744,
      "Ġlighter": 7745,
      "Ġmarched": 7746,
      "Ġblushed": 7747,
      "Ġirritated": 7748,
      "Ġindust": 7749,
      "Ġconfront": 7750,
      "Ġassure": 7751,
      "usive": 7752,
      "udge": 7753,
      "Ġsixty": 7754,
      "iqu": 7755,
      "loved": 7756,
      "Ġadrian": 7757,
      "aware": 7758,
      "Ġrocking": 7759,
      "Ġbuff": 7760,
      "Ġangrily": 7761,
      "utenant": 7762,
      "heard": 7763,
      "Ġnoble": 7764,
      "Ġjab": 7765,
      "Ġexciting": 7766,
      "Ġdetermination": 7767,
      "Ġoperation": 7768,
      "Ġarguing": 7769,
      "silence": 7770,
      "Ġginger": 7771,
      "Ġyep": 7772,
      "Ġswirling": 7773,
      "sk": 7774,
      "Ġmath": 7775,
      "Ġinstructed": 7776,
      "oting": 7777,
      "asmine": 7778,
      "Ġwizard": 7779,
      "Ġweep": 7780,
      "Ġfridge": 7781,
      "Ġhopped": 7782,
      "Ġbelief": 7783,
      "Ġbushes": 7784,
      "Ġpanicked": 7785,
      "Ġweb": 7786,
      "thur": 7787,
      "Ġstained": 7788,
      "Ġelegant": 7789,
      "Ġexasper": 7790,
      "Ġlunged": 7791,
      "Ġstriking": 7792,
      "Ġsmashed": 7793,
      "Ġtag": 7794,
      "Ġanne": 7795,
      "Ġbuying": 7796,
      "atives": 7797,
      "Ġfilm": 7798,
      "ingly": 7799,
      "Ġappropriate": 7800,
      "Ġthrobbing": 7801,
      "Ġroman": 7802,
      "Ġtoler": 7803,
      "Ġblown": 7804,
      "Ġpeaceful": 7805,
      "Ġgrocer": 7806,
      "iders": 7807,
      "ester": 7808,
      "Ġkil": 7809,
      "Ġsanct": 7810,
      "zens": 7811,
      "iser": 7812,
      "Ġrealised": 7813,
      "Ġcompound": 7814,
      "Ġstif": 7815,
      "Ġwitches": 7816,
      "Ġemail": 7817,
      "Ġtugging": 7818,
      "Ġbund": 7819,
      "Ġpainfully": 7820,
      "Ġglim": 7821,
      "Ġclit": 7822,
      "Ġdumped": 7823,
      "Ġsunshine": 7824,
      "Ġaug": 7825,
      "Ġara": 7826,
      "Ġdepths": 7827,
      "ware": 7828,
      "Ġhesitate": 7829,
      "mart": 7830,
      "Ġ12": 7831,
      "Ġsoap": 7832,
      "Ġneatly": 7833,
      "Ġoccasional": 7834,
      "Ġmim": 7835,
      "Ġrocky": 7836,
      "making": 7837,
      "Ġnaturally": 7838,
      "Ġpanel": 7839,
      "Ġmansion": 7840,
      "Ġvacation": 7841,
      "Ġchoo": 7842,
      "Ġquality": 7843,
      "during": 7844,
      "Ġaffect": 7845,
      "Ġded": 7846,
      "Ġours": 7847,
      "Ġrealization": 7848,
      "Ġelena": 7849,
      "Ġbreathless": 7850,
      "Ġdod": 7851,
      "Ġbreaks": 7852,
      "second": 7853,
      "umes": 7854,
      "hy": 7855,
      "Ġsadly": 7856,
      "Ġstrangers": 7857,
      "Ġblinking": 7858,
      "tes": 7859,
      "Ġsevere": 7860,
      "Ġawe": 7861,
      "Ġmerc": 7862,
      "Ġconsumed": 7863,
      "Ġgrat": 7864,
      "ola": 7865,
      "headed": 7866,
      "Ġbenefit": 7867,
      "Ġsofia": 7868,
      "Ġnuts": 7869,
      "Ġintru": 7870,
      "Ġapproval": 7871,
      "Ġsoftened": 7872,
      "Ġcler": 7873,
      "pret": 7874,
      "Ġpaced": 7875,
      "Ġshoe": 7876,
      "Ġblocking": 7877,
      "Ġdwarf": 7878,
      "Ġtitle": 7879,
      "Ġbritish": 7880,
      "hot": 7881,
      "Ġattempting": 7882,
      "ida": 7883,
      "Ġadrenaline": 7884,
      "Ġdav": 7885,
      "better": 7886,
      "omy": 7887,
      "Ġjean": 7888,
      "Ġwry": 7889,
      "Ġdestruction": 7890,
      "Ġbraced": 7891,
      "Ġattracted": 7892,
      "Ġrelated": 7893,
      "Ġdump": 7894,
      "Ġhem": 7895,
      "mod": 7896,
      "Ġwasted": 7897,
      "Ġhelicopter": 7898,
      "Ġsib": 7899,
      "Ġsomeday": 7900,
      "Ġfrantic": 7901,
      "quis": 7902,
      "Ġblurted": 7903,
      "Ġinitial": 7904,
      "Ġfrantically": 7905,
      "Ġdistraction": 7906,
      "Ġwishes": 7907,
      "abelle": 7908,
      "Ġcommitted": 7909,
      "Ġinternet": 7910,
      "bag": 7911,
      "Ġsnapping": 7912,
      "Ġowen": 7913,
      "Ġspy": 7914,
      "Ġpushes": 7915,
      "Ġcombination": 7916,
      "julian": 7917,
      "Ġdash": 7918,
      "Ġmit": 7919,
      "Ġbud": 7920,
      "Ġcandles": 7921,
      "later": 7922,
      "Ġalpha": 7923,
      "Ġstatus": 7924,
      "Ġmomentarily": 7925,
      "fic": 7926,
      "Ġheadache": 7927,
      "Ġnoticing": 7928,
      "bra": 7929,
      "Ġpolitely": 7930,
      "william": 7931,
      "Ġstabbed": 7932,
      "Ġsealed": 7933,
      "Ġareas": 7934,
      "Ġgau": 7935,
      "jan": 7936,
      "Ġtemperature": 7937,
      "ww": 7938,
      "Ġcure": 7939,
      "Ġhealed": 7940,
      "Ġargued": 7941,
      "Ġexperiment": 7942,
      "Ġshouts": 7943,
      "bones": 7944,
      "ressing": 7945,
      "hou": 7946,
      "nan": 7947,
      "Ġodds": 7948,
      "Ġglor": 7949,
      "huh": 7950,
      "Ġcoughed": 7951,
      "Ġchurn": 7952,
      "nels": 7953,
      "Ġgazing": 7954,
      "Ġwallet": 7955,
      "Ġjungle": 7956,
      "Ġton": 7957,
      "door": 7958,
      "aria": 7959,
      "Ġconfl": 7960,
      "Ġlaura": 7961,
      "Ġhauled": 7962,
      "enced": 7963,
      "Ġcounting": 7964,
      "Ġjesse": 7965,
      "Ġsecretary": 7966,
      "Ġrecovered": 7967,
      "Ġgap": 7968,
      "Ġdespair": 7969,
      "Ġimpul": 7970,
      "ishly": 7971,
      "Ġjoining": 7972,
      "Ġequal": 7973,
      "Ġstan": 7974,
      "Ġgifts": 7975,
      "Ġpatrol": 7976,
      "Ġbaseball": 7977,
      "Ġappointment": 7978,
      "Ġfluttered": 7979,
      "youll": 7980,
      "Ġescort": 7981,
      "Ġrows": 7982,
      "Ġjones": 7983,
      "Ġtoy": 7984,
      "Ġtat": 7985,
      "Ġstefan": 7986,
      "Ġamongst": 7987,
      "Ġtransport": 7988,
      "Ġpup": 7989,
      "Ġseized": 7990,
      "Ġ11": 7991,
      "Ġnum": 7992,
      "Ġgrins": 7993,
      "Ġclapped": 7994,
      "Ġghosts": 7995,
      "Ġbliss": 7996,
      "Ġoverwhelmed": 7997,
      "Ġexplore": 7998,
      "Ġpolished": 7999,
      "Ġ#": 8000,
      "Ġdevast": 8001,
      "craft": 8002,
      "Ġgideon": 8003,
      "Ġwrest": 8004,
      "Ġmouths": 8005,
      "Ġmeg": 8006,
      "Ġtessa": 8007,
      "Ġmonitor": 8008,
      "Ġbush": 8009,
      "Ġscoff": 8010,
      "Ġsmack": 8011,
      "Ġthus": 8012,
      "lasses": 8013,
      "clear": 8014,
      "Ġqual": 8015,
      "Ġcomplain": 8016,
      "Ġrepresent": 8017,
      "jared": 8018,
      "Ġpine": 8019,
      "epend": 8020,
      "Ġmaneu": 8021,
      "Ġscor": 8022,
      "nice": 8023,
      "Ġensure": 8024,
      "Ġabsence": 8025,
      "Ġcottage": 8026,
      "Ġramp": 8027,
      "Ġglist": 8028,
      "Ġdisappearing": 8029,
      "Ġremar": 8030,
      "Ġgrade": 8031,
      "Ġstrands": 8032,
      "Ġmolly": 8033,
      "Ġsting": 8034,
      "Ġwreck": 8035,
      "Ġritual": 8036,
      "Ġcollected": 8037,
      "Ġjessica": 8038,
      "Ġcolored": 8039,
      "adin": 8040,
      "rena": 8041,
      "Ġuneasy": 8042,
      "Ġtreasure": 8043,
      "Ġhorrified": 8044,
      "Ġtherap": 8045,
      "Ġpeering": 8046,
      "Ġsighs": 8047,
      "stay": 8048,
      "Ġtelephone": 8049,
      "Ġencounter": 8050,
      "amy": 8051,
      "Ġunique": 8052,
      "Ġgreed": 8053,
      "Ġsaddle": 8054,
      "Ġyan": 8055,
      "Ġbrandon": 8056,
      "Ġconsequences": 8057,
      "Ġhovering": 8058,
      "Ġfae": 8059,
      "Ġidentity": 8060,
      "Ġtorso": 8061,
      "Ġens": 8062,
      "Ġtaylor": 8063,
      "Ġvisiting": 8064,
      "Ġfinanc": 8065,
      "Ġroads": 8066,
      "Ġwhip": 8067,
      "Ġfires": 8068,
      "Ġadventure": 8069,
      "Ġquiver": 8070,
      "Ġrights": 8071,
      "Ġgreeting": 8072,
      "hmm": 8073,
      "Ġmedia": 8074,
      "Ġsympathy": 8075,
      "Ġsprang": 8076,
      "Ġsolution": 8077,
      "Ġzero": 8078,
      "Ġaffair": 8079,
      "Ġlimited": 8080,
      "Ġkeen": 8081,
      "Ġshudder": 8082,
      "Ġgentlemen": 8083,
      "zer": 8084,
      "Ġslee": 8085,
      "Ġbeaten": 8086,
      "Ġaven": 8087,
      "Ġbasic": 8088,
      "Ġinfluence": 8089,
      "Ġhyster": 8090,
      "Ġreassuring": 8091,
      "Ġseam": 8092,
      "Ġtiger": 8093,
      "Ġjimmy": 8094,
      "urt": 8095,
      "Ġshred": 8096,
      "Ġpathetic": 8097,
      "Ġatmosphere": 8098,
      "thirty": 8099,
      "Ġlaws": 8100,
      "Ġexplos": 8101,
      "Ġrussian": 8102,
      "Ġfishing": 8103,
      "uish": 8104,
      "Ġlore": 8105,
      "Ġnoises": 8106,
      "Ġelabor": 8107,
      "Ġphr": 8108,
      "Ġforms": 8109,
      "Ġthrilled": 8110,
      "Ġannounce": 8111,
      "Ġ201": 8112,
      "deep": 8113,
      "Ġpeeked": 8114,
      "ba": 8115,
      "Ġproduced": 8116,
      "Ġlingered": 8117,
      "Ġbecomes": 8118,
      "Ġmour": 8119,
      "Ġreminding": 8120,
      "Ġwashington": 8121,
      "rat": 8122,
      "Ġrein": 8123,
      "itors": 8124,
      "Ġpsychic": 8125,
      "Ġprecisely": 8126,
      "sers": 8127,
      "rak": 8128,
      "Ġtouches": 8129,
      "Ġmes": 8130,
      "Ġpacing": 8131,
      "Ġstable": 8132,
      "Ġneighbors": 8133,
      "mont": 8134,
      "Ġholden": 8135,
      "zo": 8136,
      "Ġpolitical": 8137,
      "Ġez": 8138,
      "Ġtroops": 8139,
      "outed": 8140,
      "ainted": 8141,
      "Ġanth": 8142,
      "Ġgoodness": 8143,
      "Ġviolently": 8144,
      "Ġgasping": 8145,
      "Ġsped": 8146,
      "Ġreceive": 8147,
      "Ġsweeping": 8148,
      "Ġteaching": 8149,
      "urd": 8150,
      "onsense": 8151,
      "Ġthirst": 8152,
      "Ġille": 8153,
      "Ġapology": 8154,
      "helle": 8155,
      "Ġapparent": 8156,
      "oliv": 8157,
      "Ġcrimson": 8158,
      "Ġhaven": 8159,
      "Ġnudged": 8160,
      "point": 8161,
      "Ġdag": 8162,
      "Ġelectricity": 8163,
      "Ġbang": 8164,
      "Ġashe": 8165,
      "force": 8166,
      "green": 8167,
      "Ġcarter": 8168,
      "itri": 8169,
      "Ġerupted": 8170,
      "Ġdisgu": 8171,
      "Ġnightmares": 8172,
      "Ġwestern": 8173,
      "Ġrevel": 8174,
      "Ġowed": 8175,
      "Ġdaisy": 8176,
      "Ġspeaks": 8177,
      "Ġtexas": 8178,
      "bin": 8179,
      "Ġtate": 8180,
      "Ġbarrier": 8181,
      "Ġurged": 8182,
      "Ġmik": 8183,
      "Ġcolonel": 8184,
      "Ġcompre": 8185,
      "Ġtempted": 8186,
      "Ġsincere": 8187,
      "Ġtube": 8188,
      "Ġgabe": 8189,
      "Ġacknowledge": 8190,
      "Ġfiring": 8191,
      "Ġmuscular": 8192,
      "Ġtrailer": 8193,
      "Ġseal": 8194,
      "twenty": 8195,
      "ivan": 8196,
      "occ": 8197,
      "Ġanytime": 8198,
      "ifying": 8199,
      "Ġinstincts": 8200,
      "Ġtumbled": 8201,
      "Ġhovered": 8202,
      "child": 8203,
      "Ġdrifting": 8204,
      "mber": 8205,
      "Ġforearm": 8206,
      "Ġwider": 8207,
      "Ġsyl": 8208,
      "Ġq": 8209,
      "Ġguided": 8210,
      "spir": 8211,
      "tonight": 8212,
      "Ġdresser": 8213,
      "Ġral": 8214,
      "Ġsurrender": 8215,
      "noah": 8216,
      "Ġshrugs": 8217,
      "Ġchampagne": 8218,
      "Ġsports": 8219,
      "Ġsliced": 8220,
      "Ġslit": 8221,
      "Ġwandering": 8222,
      "Ġshotgun": 8223,
      "ooled": 8224,
      "xed": 8225,
      "Ġpierce": 8226,
      "Ġbucket": 8227,
      "Ġplo": 8228,
      "Ġcrawling": 8229,
      "fight": 8230,
      "vable": 8231,
      "Ġchap": 8232,
      "Ġcuriously": 8233,
      "Ġfbi": 8234,
      "Ġautomatically": 8235,
      "Ġtechnology": 8236,
      "ko": 8237,
      "break": 8238,
      "Ġdisease": 8239,
      "Ġwhore": 8240,
      "Ġrecon": 8241,
      "Ġcoward": 8242,
      "Ġfingern": 8243,
      "Ġcurb": 8244,
      "Ġsuitcase": 8245,
      "Ġearned": 8246,
      "Ġthumbs": 8247,
      "inde": 8248,
      "Ġresour": 8249,
      "Ġcompleted": 8250,
      "osition": 8251,
      "emet": 8252,
      "Ġdestination": 8253,
      "Ġshay": 8254,
      "Ġthanked": 8255,
      "Ġjessie": 8256,
      "Ġdanc": 8257,
      "Ġnotebook": 8258,
      "dri": 8259,
      "ixture": 8260,
      "Ġsurvival": 8261,
      "olivia": 8262,
      "Ġwary": 8263,
      "Ġfacts": 8264,
      "Ġribb": 8265,
      "Ġfragile": 8266,
      "zes": 8267,
      "Ġnause": 8268,
      "Ġpie": 8269,
      "Ġnina": 8270,
      "agging": 8271,
      "Ġbeings": 8272,
      "Ġreview": 8273,
      "Ġmock": 8274,
      "sis": 8275,
      "Ġarcher": 8276,
      "Ġsongs": 8277,
      "wolves": 8278,
      "Ġbasically": 8279,
      "Ġterribly": 8280,
      "Ġdesperation": 8281,
      "Ġpete": 8282,
      "Ġticket": 8283,
      "Ġworries": 8284,
      "fear": 8285,
      "jesus": 8286,
      "ifully": 8287,
      "Ġstandard": 8288,
      "Ġtiss": 8289,
      "Ġaaron": 8290,
      "Ġinvolve": 8291,
      "Ġaidan": 8292,
      "listen": 8293,
      "Ġadvanced": 8294,
      "born": 8295,
      "sat": 8296,
      "Ġages": 8297,
      "Ġpillows": 8298,
      "Ġwithdrew": 8299,
      "Ġmounted": 8300,
      "rom": 8301,
      "uttered": 8302,
      "Ġclin": 8303,
      "Ġming": 8304,
      "Ġdowntown": 8305,
      "Ġempire": 8306,
      "Ġoliver": 8307,
      "liam": 8308,
      "Ġgravel": 8309,
      "Ġskinny": 8310,
      "Ġlaunched": 8311,
      "Ġlam": 8312,
      "feeling": 8313,
      "ssa": 8314,
      "trust": 8315,
      "Ġvom": 8316,
      "Ġgleaming": 8317,
      "Ġec": 8318,
      "Ġgerman": 8319,
      "ending": 8320,
      "Ġmaria": 8321,
      "Ġoddly": 8322,
      "richard": 8323,
      "Ġguessing": 8324,
      "Ġwheels": 8325,
      "Ġdamien": 8326,
      "Ġslice": 8327,
      "big": 8328,
      "inity": 8329,
      "Ġpent": 8330,
      "goti": 8331,
      "Ġlifts": 8332,
      "Ġpiercing": 8333,
      "Ġvest": 8334,
      "Ġsally": 8335,
      "Ġinvite": 8336,
      "Ġmessed": 8337,
      "Ġspoon": 8338,
      "Ġrecover": 8339,
      "sir": 8340,
      "Ġisaac": 8341,
      "Ġtorch": 8342,
      "Ġtreatment": 8343,
      "Ġstealing": 8344,
      "Ġunple": 8345,
      "Ġafterward": 8346,
      "Ġconcentrated": 8347,
      "Ġhumanity": 8348,
      "arded": 8349,
      "kill": 8350,
      "Ġmelt": 8351,
      "aughters": 8352,
      "Ġdex": 8353,
      "Ġlieutenant": 8354,
      "ender": 8355,
      "Ġshelves": 8356,
      "Ġtherefore": 8357,
      "Ġknights": 8358,
      "Ġtel": 8359,
      "Ġmaintain": 8360,
      "connor": 8361,
      "Ġpavement": 8362,
      "aste": 8363,
      "Ġcurling": 8364,
      "Ġliber": 8365,
      "Ġsale": 8366,
      "Ġnoon": 8367,
      "imately": 8368,
      "Ġtempt": 8369,
      "Ġandre": 8370,
      "Ġconversations": 8371,
      "weve": 8372,
      "Ġmck": 8373,
      "ryn": 8374,
      "Ġsometime": 8375,
      "Ġlicense": 8376,
      "Ġreminder": 8377,
      "bill": 8378,
      "Ġflaw": 8379,
      "Ġzombie": 8380,
      "Ġpermanent": 8381,
      "Ġwarehouse": 8382,
      "ijah": 8383,
      "Ġpurchase": 8384,
      "Ġpinched": 8385,
      "Ġinclined": 8386,
      "Ġsmoothed": 8387,
      "Ġdeserted": 8388,
      "Ġfrightening": 8389,
      "Ġsolemn": 8390,
      "Ġdamon": 8391,
      "Ġexplode": 8392,
      "Ġabo": 8393,
      "free": 8394,
      "Ġassassin": 8395,
      "Ġrigid": 8396,
      "oen": 8397,
      "raction": 8398,
      "Ġreasonable": 8399,
      "Ġripping": 8400,
      "Ġthoughtful": 8401,
      "Ġlocks": 8402,
      "julia": 8403,
      "acious": 8404,
      "ties": 8405,
      "Ġcorrected": 8406,
      "Ġtapping": 8407,
      "Ġhut": 8408,
      "Ġtara": 8409,
      "Ġkir": 8410,
      "Ġfount": 8411,
      "Ġnavy": 8412,
      "Ġexcl": 8413,
      "Ġnewly": 8414,
      "aden": 8415,
      "Ġcrisp": 8416,
      "Ġtopic": 8417,
      "Ġschol": 8418,
      "Ġzoe": 8419,
      "Ġadmin": 8420,
      "gic": 8421,
      "Ġhardened": 8422,
      "Ġshifter": 8423,
      "aye": 8424,
      "Ġannie": 8425,
      "lady": 8426,
      "ulted": 8427,
      "Ġknives": 8428,
      "uable": 8429,
      "ador": 8430,
      "Ġdisag": 8431,
      "Ġrumors": 8432,
      "Ġbould": 8433,
      "Ġvegas": 8434,
      "Ġaffected": 8435,
      "adia": 8436,
      "Ġcells": 8437,
      "Ġsnugg": 8438,
      "Ġboston": 8439,
      "Ġcounty": 8440,
      "Ġswirled": 8441,
      "Ġserving": 8442,
      "Ġdeveloped": 8443,
      "Ġcriminal": 8444,
      "Ġ15": 8445,
      "tling": 8446,
      "Ġfacility": 8447,
      "Ġlandscape": 8448,
      "nine": 8449,
      "Ġsaint": 8450,
      "rors": 8451,
      "iano": 8452,
      "Ġsmoothly": 8453,
      "rences": 8454,
      "fted": 8455,
      "Ġspencer": 8456,
      "Ġportal": 8457,
      "Ġcarl": 8458,
      "Ġpic": 8459,
      "Ġdallas": 8460,
      "Ġryder": 8461,
      "Ġinsides": 8462,
      "osure": 8463,
      "inese": 8464,
      "jeff": 8465,
      "Ġsuperior": 8466,
      "Ġpotato": 8467,
      "Ġsoup": 8468,
      "Ġchewed": 8469,
      "much": 8470,
      "Ġbills": 8471,
      "vey": 8472,
      "Ġburns": 8473,
      "Ġmister": 8474,
      "Ġsleeves": 8475,
      "Ġclamped": 8476,
      "talk": 8477,
      "Ġlicking": 8478,
      "Ġrubber": 8479,
      "fun": 8480,
      "Ġsuggestion": 8481,
      "Ġbouncing": 8482,
      "Ġfoul": 8483,
      "Ġmedicine": 8484,
      "Ġfulf": 8485,
      "Ġponytail": 8486,
      "Ġsavage": 8487,
      "Ġlion": 8488,
      "Ġvolume": 8489,
      "hea": 8490,
      "Ġemper": 8491,
      "estly": 8492,
      "Ġclients": 8493,
      "Ġservices": 8494,
      "Ġsev": 8495,
      "Ġfreezing": 8496,
      "Ġminim": 8497,
      "Ġpleading": 8498,
      "Ġambul": 8499,
      "Ġplunged": 8500,
      "cale": 8501,
      "Ġhatch": 8502,
      "isha": 8503,
      "kim": 8504,
      "Ġwitnessed": 8505,
      "Ġlisa": 8506,
      "amiliar": 8507,
      "Ġbelieving": 8508,
      "Ġsmacked": 8509,
      "Ġcrooked": 8510,
      "Ġmagnific": 8511,
      "shaped": 8512,
      "Ġregarded": 8513,
      "Ġglory": 8514,
      "Ġterrifying": 8515,
      "Ġlazy": 8516,
      "worth": 8517,
      "tin": 8518,
      "shall": 8519,
      "ighing": 8520,
      "Ġpossession": 8521,
      "Ġrim": 8522,
      "Ġexplaining": 8523,
      "itute": 8524,
      "Ġtypical": 8525,
      "jay": 8526,
      "Ġdozens": 8527,
      "Ġitalian": 8528,
      "Ġbarg": 8529,
      "Ġtwir": 8530,
      "Ġleon": 8531,
      "Ġmisery": 8532,
      "Ġsack": 8533,
      "Ġvicious": 8534,
      "Ġgained": 8535,
      "Ġka": 8536,
      "Ġinjuries": 8537,
      "Ġwithdra": 8538,
      "Ġfox": 8539,
      "iner": 8540,
      "Ġlayer": 8541,
      "Ġplot": 8542,
      "ivar": 8543,
      "Ġattor": 8544,
      "tedly": 8545,
      "Ġdizzy": 8546,
      "Ġtee": 8547,
      "Ġlonging": 8548,
      "Ġisol": 8549,
      "thought": 8550,
      "Ġmuseum": 8551,
      "Ġsmash": 8552,
      "Ġblouse": 8553,
      "Ġpron": 8554,
      "Ġjude": 8555,
      "iments": 8556,
      "Ġjennifer": 8557,
      "Ġree": 8558,
      "Ġexited": 8559,
      "Ġlegend": 8560,
      "Ġdeaf": 8561,
      "jose": 8562,
      "Ġwarmed": 8563,
      "Ġeffects": 8564,
      "seen": 8565,
      "Ġbrutal": 8566,
      "sto": 8567,
      "Ġmighty": 8568,
      "Ġspilling": 8569,
      "Ġprospect": 8570,
      "Ġles": 8571,
      "Ġreplies": 8572,
      "Ġclust": 8573,
      "Ġdwell": 8574,
      "Ġgriff": 8575,
      "seat": 8576,
      "Ġbury": 8577,
      "Ġfifth": 8578,
      "Ġaccompanied": 8579,
      "eron": 8580,
      "Ġvincent": 8581,
      "Ġmouse": 8582,
      "Ġmadness": 8583,
      "Ġflicker": 8584,
      "Ġconsc": 8585,
      "Ġdecades": 8586,
      "sean": 8587,
      "Ġarrested": 8588,
      "oub": 8589,
      "storm": 8590,
      "Ġimagining": 8591,
      "Ġwinning": 8592,
      "Ġbacking": 8593,
      "enelle": 8594,
      "Ġaiden": 8595,
      "conscious": 8596,
      "Ġroy": 8597,
      "Ġclam": 8598,
      "Ġfinishing": 8599,
      "Ġbug": 8600,
      "Ġdiscussed": 8601,
      "iva": 8602,
      "Ġkin": 8603,
      "Ġ>": 8604,
      "Ġsunglasses": 8605,
      "kno": 8606,
      "Ġpowder": 8607,
      "Ġdealt": 8608,
      "sen": 8609,
      "Ġpipe": 8610,
      "Ġpleaded": 8611,
      "has": 8612,
      "word": 8613,
      "star": 8614,
      "Ġrattled": 8615,
      "Ġdetect": 8616,
      "Ġlaund": 8617,
      "Ġsocks": 8618,
      "Ġscowl": 8619,
      "derer": 8620,
      "Ġpry": 8621,
      "Ġtortured": 8622,
      "Ġmagnus": 8623,
      "Ġcer": 8624,
      "Ġroses": 8625,
      "Ġimpatient": 8626,
      "Ġnut": 8627,
      "ipher": 8628,
      "Ġvehicles": 8629,
      "tony": 8630,
      "Ġaura": 8631,
      "Ġhelps": 8632,
      "Ġpersp": 8633,
      "Ġfoyer": 8634,
      "Ġdrama": 8635,
      "Ġ$": 8636,
      "Ġleaf": 8637,
      "bbling": 8638,
      "Ġsydney": 8639,
      "Ġmistakes": 8640,
      "Ġhom": 8641,
      "Ġtemporary": 8642,
      "Ġpersonality": 8643,
      "Ġcustomers": 8644,
      "Ġhugging": 8645,
      "oid": 8646,
      "Ġmyst": 8647,
      "Ġbobby": 8648,
      "pit": 8649,
      "chase": 8650,
      "lucas": 8651,
      "Ġstunning": 8652,
      "Ġfailure": 8653,
      "itches": 8654,
      "Ġchased": 8655,
      "Ġelectron": 8656,
      "Ġsober": 8657,
      "Ġdaughters": 8658,
      "Ġunre": 8659,
      "Ġaverage": 8660,
      "Ġdil": 8661,
      "Ġneut": 8662,
      "Ġstorage": 8663,
      "Ġthoroughly": 8664,
      "ader": 8665,
      "Ġtrailing": 8666,
      "Ġzone": 8667,
      "Ġba": 8668,
      "Ġzombies": 8669,
      "ndy": 8670,
      "Ġperched": 8671,
      "Ġintroduce": 8672,
      "Ġfrancis": 8673,
      "Ġleo": 8674,
      "Ġoppon": 8675,
      "Ġlimit": 8676,
      "Ġtesting": 8677,
      "Ġweary": 8678,
      "Ġcapture": 8679,
      "Ġdemonstr": 8680,
      "between": 8681,
      "Ġcities": 8682,
      "charlie": 8683,
      "Ġkaren": 8684,
      "acting": 8685,
      "Ġkel": 8686,
      "Ġbump": 8687,
      "Ġarticle": 8688,
      "Ġheaved": 8689,
      "ooping": 8690,
      "Ġchinese": 8691,
      "Ġinterrog": 8692,
      "Ġath": 8693,
      "Ġcreepy": 8694,
      "ethe": 8695,
      "Ġconver": 8696,
      "Ġafr": 8697,
      "Ġassignment": 8698,
      "Ġjap": 8699,
      "ruct": 8700,
      "Ġak": 8701,
      "unken": 8702,
      "Ġandy": 8703,
      "Ġpiled": 8704,
      "Ġinstinctively": 8705,
      "garath": 8706,
      "Ġtroubled": 8707,
      "Ġlevels": 8708,
      "Ġinse": 8709,
      "Ġclinging": 8710,
      "Ġchip": 8711,
      "Ġunfortunately": 8712,
      "Ġcameron": 8713,
      "arre": 8714,
      "Ġblunt": 8715,
      "unts": 8716,
      "Ġsull": 8717,
      "Ġdisaster": 8718,
      "Ġwaiter": 8719,
      "Ġpuzzle": 8720,
      "Ġnegoti": 8721,
      "Ġtemples": 8722,
      "Ġhaze": 8723,
      "Ġrefusing": 8724,
      "erous": 8725,
      "Ġeyeing": 8726,
      "Ġirre": 8727,
      "Ġshades": 8728,
      "Ġdeaths": 8729,
      "ourne": 8730,
      "tt": 8731,
      "Ġsworn": 8732,
      "keeper": 8733,
      "Ġechoing": 8734,
      "ria": 8735,
      "Ġdies": 8736,
      "Ġencourage": 8737,
      "aude": 8738,
      "Ġpecul": 8739,
      "Ġtire": 8740,
      "riger": 8741,
      "Ġpump": 8742,
      "conn": 8743,
      "Ġbunk": 8744,
      "Ġblows": 8745,
      "Ġdrain": 8746,
      "lest": 8747,
      "Ġcain": 8748,
      "Ġdisturbing": 8749,
      "Ġstudio": 8750,
      "outs": 8751,
      "Ġkendra": 8752,
      "Ġcreek": 8753,
      "Ġindepend": 8754,
      "Ġgregor": 8755,
      "Ġdeli": 8756,
      "Ġwhiskey": 8757,
      "Ġtools": 8758,
      "Ġgenerally": 8759,
      "Ġjealousy": 8760,
      "Ġshuffled": 8761,
      "Ġtease": 8762,
      "Ġscanning": 8763,
      "Ġninet": 8764,
      "Ġabandon": 8765,
      "issy": 8766,
      "ani": 8767,
      "Ġbeloved": 8768,
      "Ġintentions": 8769,
      "Ġslides": 8770,
      "ulsion": 8771,
      "Ġrefriger": 8772,
      "Ġworthy": 8773,
      "Ġenviron": 8774,
      "ucing": 8775,
      "Ġdestiny": 8776,
      "abs": 8777,
      "Ġseed": 8778,
      "Ġtaxi": 8779,
      "Ġcallum": 8780,
      "Ġsamantha": 8781,
      "Ġunpleasant": 8782,
      "enn": 8783,
      "Ġdifferently": 8784,
      "Ġbubble": 8785,
      "Ġframed": 8786,
      "vant": 8787,
      "getting": 8788,
      "Ġmurderer": 8789,
      "Ġbeasts": 8790,
      "athed": 8791,
      "Ġalle": 8792,
      "Ġblazing": 8793,
      "Ġdeer": 8794,
      "Ġthoughtfully": 8795,
      "Ġartist": 8796,
      "Ġbryn": 8797,
      "scar": 8798,
      "Ġappreciated": 8799,
      "Ġremarked": 8800,
      "lle": 8801,
      "racting": 8802,
      "rus": 8803,
      "zzle": 8804,
      "Ġpraying": 8805,
      "inkling": 8806,
      "Ġcompliment": 8807,
      "Ġsteadily": 8808,
      "lim": 8809,
      "Ġemphas": 8810,
      "za": 8811,
      "Ġbartender": 8812,
      "aneously": 8813,
      "jer": 8814,
      "Ġtunnels": 8815,
      "Ġmold": 8816,
      "Ġclip": 8817,
      "Ġgarbage": 8818,
      "Ġjenks": 8819,
      "Ġreporter": 8820,
      "Ġlasted": 8821,
      "Ġhopeless": 8822,
      "Ġcharges": 8823,
      "Ġcrumpled": 8824,
      "Ġnorther": 8825,
      "Ġawkwardly": 8826,
      "iter": 8827,
      "Ġdangling": 8828,
      "outhed": 8829,
      "Ġhart": 8830,
      "Ġrecom": 8831,
      "Ġcurves": 8832,
      "Ġimpatiently": 8833,
      "Ġprime": 8834,
      "wa": 8835,
      "Ġinher": 8836,
      "Ġpreser": 8837,
      "Ġpauses": 8838,
      "Ġcares": 8839,
      "smo": 8840,
      "Ġgenerous": 8841,
      "Ġenthusiasm": 8842,
      "Ġconso": 8843,
      "olved": 8844,
      "outside": 8845,
      "Ġamelia": 8846,
      "Ġconclusion": 8847,
      "Ġcoin": 8848,
      "Ġawak": 8849,
      "Ġfortun": 8850,
      "riley": 8851,
      "Ġstephan": 8852,
      "Ġaccused": 8853,
      "Ġprisoners": 8854,
      "chair": 8855,
      "Ġtess": 8856,
      "Ġconcentration": 8857,
      "Ġannoyance": 8858,
      "Ġinsult": 8859,
      "oma": 8860,
      "Ġaust": 8861,
      "Ġdescription": 8862,
      "Ġstrolled": 8863,
      "certain": 8864,
      "30": 8865,
      "Ġburden": 8866,
      "Ġtests": 8867,
      "Ġaccus": 8868,
      "nge": 8869,
      "Ġlessons": 8870,
      "Ġgene": 8871,
      "care": 8872,
      "Ġpeculiar": 8873,
      "blake": 8874,
      "Ġbruises": 8875,
      "Ġoffended": 8876,
      "Ġcaution": 8877,
      "Ġmotorcy": 8878,
      "Ġrecru": 8879,
      "Ġfemin": 8880,
      "Ġcentre": 8881,
      "Ġstrict": 8882,
      "Ġaugust": 8883,
      "Ġintelligent": 8884,
      "ras": 8885,
      "finitely": 8886,
      "Ġflare": 8887,
      "Ġregarding": 8888,
      "ooling": 8889,
      "Ġdecorated": 8890,
      "annie": 8891,
      "ology": 8892,
      "Ġhastily": 8893,
      "wing": 8894,
      "Ġoc": 8895,
      "Ġpills": 8896,
      "Ġscal": 8897,
      "Ġsuicide": 8898,
      "Ġsparkling": 8899,
      "Ġpromises": 8900,
      "Ġchoking": 8901,
      "Ġspill": 8902,
      "Ġawhile": 8903,
      "sebastian": 8904,
      "Ġpatiently": 8905,
      "Ġspike": 8906,
      "Ġgloss": 8907,
      "jud": 8908,
      "Ġpicks": 8909,
      "Ġinjury": 8910,
      "Ġsquat": 8911,
      "Ġassuming": 8912,
      "Ġster": 8913,
      "wis": 8914,
      "Ġjenna": 8915,
      "Ġpartners": 8916,
      "Ġsensual": 8917,
      "Ġliar": 8918,
      "Ġstove": 8919,
      "Ġbrains": 8920,
      "Ġjapan": 8921,
      "Ġsafer": 8922,
      "Ġpasses": 8923,
      "Ġwalker": 8924,
      "Ġfest": 8925,
      "Ġonline": 8926,
      "Ġdivorce": 8927,
      "Ġaint": 8928,
      "mac": 8929,
      "grat": 8930,
      "entially": 8931,
      "Ġsweaty": 8932,
      "Ġprincip": 8933,
      "Ġcapital": 8934,
      "Ġretreated": 8935,
      "Ġacceler": 8936,
      "Ġemperor": 8937,
      "Ġinevitable": 8938,
      "Ġambulance": 8939,
      "Ġwisdom": 8940,
      "little": 8941,
      "Ġearl": 8942,
      "Ġmenu": 8943,
      "lined": 8944,
      "Ġloyalty": 8945,
      "ooke": 8946,
      "Ġdiscussing": 8947,
      "gabriel": 8948,
      "angle": 8949,
      "Ġswell": 8950,
      "Ġsoil": 8951,
      "Ġcats": 8952,
      "Ġjewelry": 8953,
      "otes": 8954,
      "Ġbearing": 8955,
      "ollo": 8956,
      "reed": 8957,
      "Ġdashed": 8958,
      "Ġralph": 8959,
      "Ġguarded": 8960,
      "uk": 8961,
      "Ġlyn": 8962,
      "oenix": 8963,
      "Ġassigned": 8964,
      "Ġstung": 8965,
      "rene": 8966,
      "Ġpresented": 8967,
      "west": 8968,
      "Ġpole": 8969,
      "Ġbeds": 8970,
      "Ġskipped": 8971,
      "might": 8972,
      "Ġselling": 8973,
      "ighed": 8974,
      "Ġfiery": 8975,
      "Ġbin": 8976,
      "Ġshivering": 8977,
      "Ġhumming": 8978,
      "mur": 8979,
      "Ġshorter": 8980,
      "Ġarrogant": 8981,
      "phil": 8982,
      "Ġvisitors": 8983,
      "master": 8984,
      "glass": 8985,
      "Ġastr": 8986,
      "Ġcaroline": 8987,
      "Ġbor": 8988,
      "Ġfiercely": 8989,
      "Ġslope": 8990,
      "Ġgrandpa": 8991,
      "Ġshrieked": 8992,
      "Ġmessy": 8993,
      "engers": 8994,
      "Ġstreaming": 8995,
      "Ġcookies": 8996,
      "ppers": 8997,
      "Ġattempts": 8998,
      "Ġresistance": 8999,
      "Ġconqu": 9000,
      "Ġflir": 9001,
      "Ġyel": 9002,
      "Ġsurged": 9003,
      "anton": 9004,
      "ienna": 9005,
      "Ġdisappro": 9006,
      "rr": 9007,
      "Ġpopulation": 9008,
      "mes": 9009,
      "Ġtoby": 9010,
      "Ġdryly": 9011,
      "bits": 9012,
      "Ġrusty": 9013,
      "Ġbites": 9014,
      "Ġaria": 9015,
      "Ġpaperwork": 9016,
      "Ġecst": 9017,
      "sitting": 9018,
      "leave": 9019,
      "mie": 9020,
      "Ġconcept": 9021,
      "Ġfaintly": 9022,
      "Ġguarant": 9023,
      "Ġfurrowed": 9024,
      "elizabeth": 9025,
      "unlike": 9026,
      "Ġroots": 9027,
      "Ġregardless": 9028,
      "Ġcommented": 9029,
      "mia": 9030,
      "uge": 9031,
      "Ġminister": 9032,
      "colm": 9033,
      "Ġbella": 9034,
      "Ġkatherine": 9035,
      "Ġappet": 9036,
      "Ġwerewolves": 9037,
      "Ġexercise": 9038,
      "Ġcomplained": 9039,
      "ifting": 9040,
      "Ġhuddled": 9041,
      "uffed": 9042,
      "Ġawareness": 9043,
      "Ġsucks": 9044,
      "Ġdisturbed": 9045,
      "Ġpierced": 9046,
      "Ġfen": 9047,
      "Ġthankful": 9048,
      "Ġdamaged": 9049,
      "Ġcorps": 9050,
      "gery": 9051,
      "sara": 9052,
      "Ġfinancial": 9053,
      "garion": 9054,
      "christian": 9055,
      "Ġenvironment": 9056,
      "Ġnorthern": 9057,
      "Ġcompassion": 9058,
      "Ġsession": 9059,
      "Ġbeep": 9060,
      "luckily": 9061,
      "interest": 9062,
      "jace": 9063,
      "Ġillusion": 9064,
      "Ġcargo": 9065,
      "Ġdelic": 9066,
      "Ġhunched": 9067,
      "Ġembarrassing": 9068,
      "Ġdispl": 9069,
      "Ġlant": 9070,
      "Ġwool": 9071,
      "Ġaltogether": 9072,
      "Ġwatches": 9073,
      "Ġkinda": 9074,
      "Ġrabbit": 9075,
      "Ġfid": 9076,
      "Ġmixture": 9077,
      "Ġprompt": 9078,
      "Ġexhaustion": 9079,
      "fif": 9080,
      "Ġhistor": 9081,
      "Ġmurmur": 9082,
      "Ġinternal": 9083,
      "Ġchips": 9084,
      "Ġavery": 9085,
      "Ġbolted": 9086,
      "Ġawoke": 9087,
      "whether": 9088,
      "Ġdella": 9089,
      "ishop": 9090,
      "lily": 9091,
      "brand": 9092,
      "Ġlauren": 9093,
      "Ġsticks": 9094,
      "Ġmage": 9095,
      "Ġbackseat": 9096,
      "Ġphilos": 9097,
      "Ġvaluable": 9098,
      "Ġeagerly": 9099,
      "Ġnicholas": 9100,
      "Ġfantastic": 9101,
      "Ġmant": 9102,
      "Ġerin": 9103,
      "etan": 9104,
      "Ġnotion": 9105,
      "Ġhawk": 9106,
      "ailed": 9107,
      "holding": 9108,
      "alice": 9109,
      "Ġdelighted": 9110,
      "handed": 9111,
      "trent": 9112,
      "Ġstrap": 9113,
      "Ġuns": 9114,
      "Ġurgent": 9115,
      "Ġovercome": 9116,
      "Ġshaped": 9117,
      "Ġker": 9118,
      "Ġcara": 9119,
      "need": 9120,
      "Ġinward": 9121,
      "Ġtrousers": 9122,
      "Ġofficially": 9123,
      "Ġflickering": 9124,
      "Ġrapid": 9125,
      "quick": 9126,
      "ician": 9127,
      "Ġrazor": 9128,
      "Ġinviting": 9129,
      "Ġtheater": 9130,
      "piece": 9131,
      "Ġrend": 9132,
      "Ġanch": 9133,
      "garet": 9134,
      "istent": 9135,
      "Ġcatches": 9136,
      "Ġdismissed": 9137,
      "Ġwander": 9138,
      "Ġbrisk": 9139,
      "Ġrogue": 9140,
      "Ġdistrict": 9141,
      "Ġattraction": 9142,
      "Ġsplin": 9143,
      "geon": 9144,
      "Ġslack": 9145,
      "Ġcancer": 9146,
      "Ġmitch": 9147,
      "Ġresolve": 9148,
      "Ġrestless": 9149,
      "Ġbackyard": 9150,
      "Ġexagger": 9151,
      "Ġtwitch": 9152,
      "Ġbruised": 9153,
      "Ġgruff": 9154,
      "Ġspeaker": 9155,
      "Ġthud": 9156,
      "ceded": 9157,
      "sha": 9158,
      "urg": 9159,
      "Ġvalentine": 9160,
      "joy": 9161,
      "Ġtops": 9162,
      "Ġrafe": 9163,
      "Ġdelay": 9164,
      "Ġperformance": 9165,
      "Ġwarren": 9166,
      "icia": 9167,
      "osal": 9168,
      "nar": 9169,
      "tha": 9170,
      "quarters": 9171,
      "forming": 9172,
      "Ġoxy": 9173,
      "isher": 9174,
      "Ġshirts": 9175,
      "Ġlounge": 9176,
      "Ġsandy": 9177,
      "Ġmast": 9178,
      "gon": 9179,
      "Ġpartially": 9180,
      "Ġtravell": 9181,
      "Ġscul": 9182,
      "Ġjunior": 9183,
      "Ġmand": 9184,
      "Ġthrill": 9185,
      "Ġsobbing": 9186,
      "Ġspanish": 9187,
      "Ġgranted": 9188,
      "Ġtightening": 9189,
      "Ġbewild": 9190,
      "Ġsparks": 9191,
      "Ġmead": 9192,
      "Ġworkers": 9193,
      "Ġtravis": 9194,
      "Ġfet": 9195,
      "Ġsweating": 9196,
      "Ġadvance": 9197,
      "ito": 9198,
      "Ġconstruction": 9199,
      "Ġpictured": 9200,
      "Ġjagged": 9201,
      "Ġbrew": 9202,
      "ursday": 9203,
      "Ġsupper": 9204,
      "Ġschedul": 9205,
[...]
