#version: 0.2
o u
Ġ t
r e
Ġ a
Ġ s
e s
Ġ d
Ġ p
i s
o n
e n
Ġ l
Ġ m
Ã ©
Ġ c
e r
o m
i n
Ġ n
a i
h e
a n
a s
Ġ f
l l
Ġ b
ou s
Ġ y
Ġ w
Ġ v
T om
Ġy ou
a t
J e
es t
Ġ ?
q u
v e
i t
Ġ h
a r
u n
Ġd e
o r
en t
Ġp as
Ġt o
Ġ g
e d
l e
Ġ qu
a is
Ġ Ã
in g
Ġn e
u s
h at
Ġ un
o t
e u
' t
Ġm e
e t
t e
o i
r i
Ġ is
Ġt he
Ġ re
Ġl e
' s
Ġs u
ai t
ou r
o w
I l
i d
Ġqu e
Ġ est
Ġt r
Ġ j
Y ou
c e
an t
s e
Ġ o
Ġ en
m e
a y
Ġd o
a u
a ve
Ã ¨
Ã© t
ĠÃ ł
Ġt h
i l
ll e
Ġ r
Ġb e
Ġl a
Ġ Tom
Ġ e
ou t
on s
k e
Ġc h
Ġ he
c h
a d
Ġ it
' re
on t
' m
T he
Ġ in
W e
m ent
t u
a l
Ġl i
Ġv ous
Ġ !
H e
Ġsu is
i c
Ġs e
o o
ª t
Ġp r
eu x
e l
Ġw as
a in
Ġt hat
p p
s t
N ous
v ous
on n
v er
Ġt e
on e
i m
I t
i e
Ġp l
T u
Q u
Ġun e
i r
Ġ k
Ġa n
Ġp ar
i en
V ous
Ġn ot
g h
Ġo f
Ġ I
Ġh ave
Ġyou r
Ġc om
Ġa ll
re n
l d
Ġ Ã©t
a g
a v
i ll
Ġs t
Ġc an
Ġf or
d e
b le
a c
u r
Ġw e
Ġg o
a m
Ġc e
Ġa s
Ġm y
Ġth is
ai re
Ã© e
o p
gh t
ĠÃ ªt
a ll
u t
en d
u re
Ġk n
T h
Ġd id
W h
W hat
Ġd Ã©
D o
e z
Ġs o
Ġa re
an g
o s
§ a
Ġl es
The y
Ġw ant
an d
Ġs om
Ġli ke
ĠÃ §a
i on
T hat
Ġ on
i g
us t
oo k
u p
' ll
Ġf ait
Ġkn ow
ve z
Ġd on
Ã¨ re
Ġp our
Ġa t
Ġv er
Ġ ri
a pp
es s
Ġm on
Ġa v
Ġf aire
ar d
o re
or t
ou ld
o l
Th is
o in
c i
Ġs h
er s
qu e
Ġa u
f f
r ai
Ã¨ s
oi r
Ġj e
D on
c t
onn e
re s
l y
Ġt u
N e
m es
C e
an s
Ã ªt
Ġs ont
Ġd es
A re
i re
Ġver y
m p
Ġn ous
Ġt out
a ke
S he
ĠÃªt es
Ġl o
Ã ª
Ġne ed
ic i
E lle
t er
Ġa r
Ġhe re
o is
Ġp eu
Ġa l
C om
in k
Ġtr Ã¨s
Ġ es
Ġf r
Ġe x
j e
Ġw or
' ve
Ġa m
o b
H ow
p e
en s
on g
ll es
c he
o y
Ġ Ã©
oo d
Ã ł
h ing
u i
el a
Ġ up
au t
ai r
u e
ou v
i ve
Ã© s
id e
u l
Ġsu r
o se
L e
r y
Ġ us
Il s
Ġv eux
Ġd u
a re
E st
Ġse e
m oi
Ġc on
ĩ a
Ã ĩa
t en
P our
at e
Ġ out
Ġm oi
eu r
I s
Ġf e
a ble
ver y
Ġpar t
Ġl ook
Ġan y
it h
Ġp eux
a p
it e
Ġg r
Ġpl us
qu oi
im p
Ġsom mes
l p
Ġ ici
ou p
i me
o d
s i
a k
Ġa b
M ar
u x
Ġde v
in d
Ġd ans
Ġc he
ot re
et te
he re
Ġr Ã©
ĠÃ©t Ã©
Ġc r
Ġw ith
Ġ one
Ġv rai
as e
Ġh im
Ġs a
u is
Ġd is
in e
all y
Ġg et
Ġb es
Ġhe lp
Ġqu i
C an
Ġbes oin
h er
n d
i lle
Ġb ien
i f
Ġa pp
Ġs i
Ġto o
L et
ag e
om e
Ġn o
Ġcom p
Pour quoi
Ã ¹
j our
Wh y
r o
Ġth ink
Ġg ood
Ġd i
an ce
Ġt ou
Ġwor k
Ġs ais
Ġg ot
ĠÃ©t ait
i er
ve c
D id
Ã ®
L a
Ã §
Ġ Mar
c k
t es
c c
m b
Ã ´
Ġh as
ers onne
Ġh app
le ase
Ġa vec
Ġc l
Ġv otre
Ġa g
en se
Ġc ela
ren d
n e
Ġt on
av ai
ac k
Ġto i
e p
Ġs er
ai me
Ġdid n
Ġm an
Ġm ar
Ġtr avai
Ġh is
al k
Ġc o
Ãª te
a b
Ã »
us e
Ġwe re
Qu e
Ġc ont
ĠÃªt re
Ġp er
as s
T out
E lles
Ã© c
Com ment
Ġn ow
Ġw hat
Ġb l
ad e
Wh o
L es
Ġm ain
Ġd it
ais on
Ġj ust
Ġre ally
â Ģ
se z
W here
Ġd r
O n
Ġm al
Ġvrai ment
or te
Ġhe ure
i ght
od y
d er
Ã©t ait
Ġlo ve
a me
Ġque l
Ġav ons
t Ã©
âĢ Ļ
Ġa vez
Ġgo ing
O Ã¹
ar t
M y
Ġb us
Ġm a
d ay
ou l
Ġw ill
Qu i
mp s
Ġh ad
is t
ien s
Ġre ad
Ġpr o
Ġthe re
ang e
Ġj am
Ġbe au
Ġb r
Ġ ent
Ġl Ãł
Ġf aut
i ent
ren t
l Ã©
Ġtr ain
i ce
Ġmon de
Ġab out
ĠMar y
Ġt ous
Ġall er
Ġc ar
Ġtr op
ou ve
Ã© es
Ġw on
a Ã®
Ġa i
Ġat t
r ais
ig n
Ġt ime
ow n
Ġri ght
Ġb on
or d
Ġs tu
Ġp ense
ang er
Ġis n
Ġh ome
is s
Ġs ou
Ġjam ais
i ons
Ġde m
Ġv a
un e
ic k
u m
Ġ ont
Ġ imp
g e
c oup
u it
ch er
r it
t hing
Ġfe el
as t
Ġs eu
E very
P ersonne
A s
Ġte mps
Ġof f
or m
' d
u d
ten ant
Qu el
P lease
o it
r Ã©
Ġbeau coup
w ay
Ġh er
Ġcom e
i v
u y
Ġb ack
Ġa d
Ġre s
Ġsom e
Ġl ui
r is
Ġpeu t
Ġsh ould
res s
i Ã¨re
l i
Ġf ais
aÃ® t
Ġt alk
Ġs on
Ġv ais
Ġf ri
p t
Ġli v
Ġw h
o st
Ġen c
ie z
N o
Ġdo is
f e
Ġm ust
Ġre n
l es
Ġf at
Ġmain tenant
Ã©t ais
Ġar ri
Ġt a
Ġf er
l er
E s
m er
d u
n er
Ġdo es
S t
a ce
n ous
Ġc ould
Ġ F
Ġe at
Ġc our
Ġe very
Ã ¢
Ġm aison
e lle
Ġl ong
Ġcom m
Ġenc ore
ot her
re t
Ã´ t
Ġp ri
Ġre st
cc up
Ġc ette
l f
ou ght
Ġj us
end s
Ġne ver
il s
Ġre g
i que
Ġhapp y
ais s
or s
Ġfr an
Ġdi ff
at ion
Ġri en
Ġv oit
Ãªt re
ave z
Ġp i
Ġm u
Ġs ay
ri ed
Ġs m
Ġw at
b re
Ã Ĭ
Ġst ill
ÃĬ tes
i eux
ren ch
Ġpas s
Ġch ose
b ody
Ġm ade
Ã§ ais
Ġpr Ã©
le ment
Ġfran Ã§ais
Ġb ook
H ave
Ġf in
ire d
v en
Ġc ou
Ġvoit ure
jour s
Ġtou jours
Ġw r
Ġs pe
m ble
ou vez
re e
Ġc all
ai d
ĠF rench
Ġn ouve
Ġh ur
A vez
R e
Ġthe m
Ġre t
Ġmu ch
Ġc onn
M on
Ġs av
Ġv u
Ġ ke
Ġj our
h ui
t re
Ġs p
Ġd Ã©t
Ġqu oi
Ġo ccup
Ġt om
Ġp le
Ġl ot
jour d
is e
The re
Ġv en
Ġv oir
le z
it Ã©
Ġ id
Ġt ake
Ġcon f
f ul
Ġdo g
Ġag ain
Ġd ire
i le
Ġ ou
Ġs ens
Ġp orte
is h
oo l
Ġd own
ar de
l Ã¨
Ġp rend
Ġg l
Ġr o
E n
Ġthe y
Ġpl aÃ®t
ant s
Ġs ent
Ġp ay
Ġbus y
P uis
t y
Ġt er
Ġen f
op e
o le
Ġcom me
est e
Ġsee m
Ġl it
ar g
l ie
an te
an de
Ġto day
Ġal one
r a
Ġm es
us si
f t
ou nd
Ġb et
Ġne w
ess ay
Ġm ake
an k
Ġbe en
t oi
Ġpr ob
one y
Ġpar ler
Ãªt es
G et
Ġjus te
ot h
Ġpr is
Ġp ouv
Ġf un
Ġtravai l
C ela
Ġce ci
ĠrÃ© p
Ġse c
Ġd ay
Ġp ens
Ġle ave
Ġo b
L ais
Ġau jourd
Ġpart ir
Ġquel que
Ġv Ã©
Ġex p
Ġche z
ĠÃ© c
Ġread y
Ġl et
re d
Ġv oul
Ġde ux
Ġre nd
Ġm oney
i es
v Ã©
Ġh and
Ġwe ll
Ġo ver
l o
Ġw ait
Å ĵ
Ġa id
on d
en ce
Ġtout es
Ġs c
B e
Ġm o
Ġpl ay
es p
Ġtr y
se lf
Ġc are
Ġsu re
Ġj ob
r ait
end u
re r
in u
Ġte ll
ĠdÃ© s
v es
D e
Ġs w
Ġw ay
ve d
Ġp h
t ing
eu t
Ġj ou
Ġch ien
end re
Ġsur p
Ġw ent
Ġst ay
Ġo p
es e
Ġm Ã©
Ġo ld
Ġan d
Ġa ussi
Ġp os
a ch
r Ãªte
Ġs le
Ġas k
Ġt Ã©
re at
Ġh ard
ous e
n ed
A r
Ã Ģ
Ġb y
Ġle ft
Ġsa w
Ġdr ink
at ed
et hing
i z
er ai
Ġh ope
Ãª me
Ġf o
Ġs Ã»
Ġspe ak
Ġa ut
onn Ã©
Ġpl an
ĠdÃ© c
Ġb ad
Ġseu l
r ow
ou gh
Ġv ie
m in
Ġfor t
Ġlo st
r Ãªt
au v
g et
Ġwr ong
as se
ac t
ĠdÃ© j
Ġ eu
he d
ĠdÃ©j Ãł
Ġre p
Ġliv re
Ġstu d
ou d
en c
Ġs aid
Ġp e
is te
Ġ or
g ry
Ġ et
Ġs imp
Ġm ent
Ġf ai
Ġhapp en
ĠtÃ© lÃ©
Ġg u
Ġp re
Ġb ig
Ġt ired
Ġf l
Ġin t
Ġsurp ris
e ll
Ġdo ing
St op
Ġro om
Ġb onne
Ġli k
Que lle
Ġbet ter
Ġch oi
Ġse mble
Every one
ac c
Ġa f
er t
Ġp a
Ġm ore
Ar rÃªte
Ġc oup
an c
Ġex c
T ake
Ġ B
Ġ our
at t
Ġch ance
A ll
Ġd ou
u ck
Ġd one
Ġbe lie
u g
Ġl aiss
Ġfat ig
C ette
Ġdoes n
ri r
Ġtr ouv
Ġas sez
Ġpeu r
M ay
Ġm ieux
Ġdo or
Ġhe ar
Ġpr Ãªt
Ġp ouvez
Ġc at
Ġn om
Ġre c
Ġw ould
Ġfatig u
Ġm iss
Ġst art
Ġany thing
Ġp ersonne
Ġc a
Ġch a
o g
ai ent
Ġh ouse
Ġhur t
Ġan s
Ġg ive
Ġlook s
i ous
Ġa way
Ġav ait
Ġgr and
Ġ essay
Ġp lease
ri ve
Ġas s
o c
Ġheure ux
Ġf au
G ive
o ke
Ġe mp
Ġav oir
Ã ī
Ġf i
Ġme t
Ġsom ething
arg ent
Ġv ol
t ed
Ġs ort
ent e
Ġen ough
Ġs ouv
lle ment
Ġin v
Ġwas n
Ġfr om
Ġreg ard
Ġtr ou
Ġsle ep
n Ã©
Ġf am
il d
Ġper du
way s
Ġaid er
om me
Ġin s
Ġ ide
Ġp et
b e
Ġm ont
or row
Ġop en
Ġt ur
Ġa im
Ġm om
Ġth ought
Ġp at
Ġal ways
Ġquel qu
Ġa che
Ġm anger
ost on
Ġl un
Ġv is
Ġdis p
rend s
Ġdem and
C h
qu Ã©
Ġprob lÃ¨
Ġun der
n y
Ġa c
Ġf ind
Ġtravai ll
Ġl ate
Ġm auv
Ġk id
n ing
re z
Ġm at
Ġmauv ais
b ien
Ġqu est
Ġre m
Ġr aison
Wh en
esp Ã¨re
ĠB oston
Ġa ime
te ment
ain e
Ġt en
oy ez
m Ã©
Ġt es
et s
Ġso it
Y our
t le
re ad
ch Ã©
Ġte a
Ġre f
Ġsu pp
Ġin c
Ġv os
ad ore
ri ez
Ġp u
Com e
Ġfri ends
Ġf ut
Ġy et
Ġch ang
are d
ag er
n Ã©e
ou lez
Ġb o
Ġg ar
Ġc hat
Ġin te
Ġli ve
ob ody
a z
Ġpr om
Ġst op
Ġnouve au
Ġprend re
M a
l ed
Ġs at
Ġs ing
er ve
Ġh ate
Ġen v
Ġsh o
mb er
Ġg ag
onn er
Ġconf i
Ġc or
c le
Ġn ame
Ġh ow
e au
Ġc le
p h
Qu and
ĠdÃ© p
ĠdÃ©t este
Ġa p
Ġto ld
Ġfri end
Ġbelie ve
Ġp ol
Ġn ice
Ġd er
Ġm ort
Ġg ave
us es
av ons
ff e
G o
e lles
er ci
F ais
Ġf u
qu i
Ġtr ust
ĠÃ©t ud
Ġch er
Ġc ame
Ġth ing
Ġ im
Ġw alk
Ġb uy
te z
Ġconn ais
e ep
ai mer
Ġpri e
ĠproblÃ¨ me
S h
ble m
Ġkn e
Ġide a
Ã© g
oi re
e x
Ġm us
Ġc ons
ot e
Ġen d
Ġon ly
Ġgr os
Ġpro blem
K eep
Ġa cc
lle z
Ġe ar
r ass
au ght
Ġr un
Ġs k
Ġstu p
Ġwat er
in s
Ġpl ace
pe ct
Ġper d
Ġm is
Ã© ri
Ġlit tle
Ġm ay
us s
Com bien
Ġany one
ĠsÃ» r
Ġmom ent
ai der
Ġgl ad
c ont
Ġe as
Ġe mb
ch ool
Ġren cont
Ġid Ã©e
N obody
Ġm ine
oi d
oin t
Ġdev rais
i Ã©
Ġs ait
el t
Ġwat ch
Ġc ol
Ġconfi ance
Ġl ast
Ġn ight
Ġch am
aimer ais
l a
Ġf elt
Ġte llement
Ġtom b
acc ord
er re
Do es
Ġent endu
f Ã©
Ġb ro
Ġv eut
Ġcon c
Ġch ange
Ġst r
Ġau c
Ġar rÃªt
Ġrest er
A t
d i
Ġh or
Ġbl ess
Ġc al
Ġb ou
Ġw ar
Ġen se
Ġch ant
Ġoccup Ã©
Lais se
si ble
Ġsimp lement
Ġkne w
Ġqu it
Ġal read
Ġalread y
Ġ if
Ġf ac
te au
ver t
or ry
Ġg uy
Ġbe g
ille z
Ġt ard
ct i
Ġp res
Ġch ild
Ġsh ow
ĠMar ie
o k
Ġth an
Ġquest ion
ai e
Re g
Ġw in
av ais
Th ank
Ġunder st
in t
Ġsou nd
Ġtom orrow
is ion
Ġtr ue
Ġdem ain
re am
ai l
Ġo Ã¹
Ġpr op
Ġpar le
Ġevery thing
Ġseem s
Ġenf ants
Ġpouv ons
Ġt able
Ġp ain
Ġc u
om p
ren ez
de z
if e
Ġa ff
Ġb ed
le ur
Ġwant ed
Ġfe m
Ġans w
i ble
Ġd anger
Ġd orm
rai d
Ġnot re
Ġnot hing
Ġaf raid
Reg arde
Ġg ir
Ġg reat
ill es
Åĵ ur
Ġlik es
M erci
Ġs au
Ġl is
Ġh un
os es
Ġpass Ã©
Ġg ent
Ġs chool
y ez
Ġl au
Ġf ound
ent ion
Ġso is
Ġ T
Ġa ct
Ġp Ã¨re
Ġn uit
ar s
Ġpour rait
Ġs it
Ġm Ãªme
Ġpens ais
Ġp ers
Ġm ess
ent s
Ġhe ard
Ġam us
Ġexp l
Ġcham bre
Ġ O
Ġch au
ien d
Ġau x
Ġus e
Ġsec ret
Ġf ois
Ġr ou
Ġk ind
Ġknow s
ĠÃ© p
Ġt w
Ġp ort
ver s
ici le
Ġcr ois
Ġcont inu
Ġunderst and
Ġe y
Ġdis c
Ġcont r
A pp
Ġm ot
Ã© p
Ġre me
Ġr is
Ġbe ing
pp ed
Ġpar f
Ã§ on
rent s
m ost
Ġp oint
Ġtoo k
Ġeas y
y ing
Ġa ren
Ġth ese
Ġt ried
Ġl uck
ai de
Ġv iens
Ġme et
Ġpl ais
Es s
Ġcomm enc
Ġache tÃ©
T ell
Ġimp ort
e k
Ġa w
Ġp ret
Ġm ou
ri ble
je un
Ġco ld
Ġdiff icile
j oy
ait es
Ġsw im
Ġtrouv Ã©
Ġb oy
Ġso on
Ġapp el
Ġtou te
l Ãł
Ġm ind
Ġal most
L ook
Ġb it
Ġde c
Lais sez
Ġf il
Ġb u
Ġm Ã¨re
Ġde vez
aut re
J ust
Ġb est
Ġv ite
Quel qu
v ent
Ġv iv
Ġre v
Ġven ir
Ġpet it
Ġn on
x t
re st
Ġb oth
tu re
Ġsa fe
Ã©c ole
Ġwh o
Ġreme mber
i ed
r Ã©c
Ġh at
Ġheure s
Every body
Ġfat her
Ġret ard
Ġpa rents
Ġs oir
at h
au x
Ġe ff
Ġdev ons
Ġter min
Ġph ot
C ould
D is
Ġs he
Ġm ang
Ġm ist
Ġr ain
ak es
P ar
Ġf on
b l
i ch
Ġw ind
ve ill
Ġh omme
ir st
Ġcom ing
os s
Ġfem me
Ġh ot
eu illez
ce pt
Ġk ill
Ġan gry
ac he
Ġid i
Ġfai m
Ġpres que
V euillez
Ġw here
Ġh ab
Ġtr ois
H is
Ġs n
ak ing
ic y
Ġwe ek
ĠtÃ©lÃ© ph
Ġcol Ã¨re
Ġansw er
P eux
S oyez
he ure
or y
Ġtr ouve
Ġe l
Ġseu le
Ġke ep
Ġvoul ais
Ġhappen ed
Ġfatigu Ã©
Ġimport ant
Ġs es
est er
Ġpr ud
Ġam is
U n
Ġf ille
at er
Ġg Ã©
Ġfait es
rÃ©c ie
ar rive
Ġse en
Ġlook ed
Ġpro f
Ġke y
Ġjour nÃ©e
Ġpos sible
Ġpret ty
V oi
Ġs ick
Ġd ro
Ġaut re
Ġsouv ent
Ġtravaill er
p er
r Ã¨s
Ġs ans
Ġs orry
Ġd Ã»
Ġb re
it ion
Ġcom ment
Ġwant s
Ġarri vÃ©
Ġt our
Ġm ag
Ġc am
ri f
il y
Ġyour s
av ing
Ġwh y
t r
Ġ ut
qu er
Ġme an
im es
Ġtravai lle
Ġchoi x
en ez
Ġc uis
it ed
id ent
Ġcont ent
ient Ã´t
erre ur
A u
S ome
b li
Ġ il
Ġt Ãªte
Ġme ill
Ġr ap
fe ct
Ġpi Ã¨
Ġtrou ver
g n
Ġt ri
Ġc ook
Ġen joy
Ġdo ct
Ġof ten
Ġdi ed
ĠrÃ©p on
P ouvez
Ġs il
Ġb ought
Ġb icy
Ġb ientÃ´t
Ġli ght
Ġyour self
Ġfor g
Ġmy self
Ġfun ny
Ġhun gry
Ġbicy cle
Ġc ri
us ed
Ġbe aut
He re
ir d
eur s
Ġdev en
Ġmo v
Ġtea cher
Ġear ly
Ġs l
Ġv ois
Ġv oy
Ġg one
Ġdo it
ul t
Ġlook ing
ĠO K
Ġy eux
Ġam i
St ay
Ġfin i
Ġven u
Ġstart ed
Ġr app
ĠdÃ© jeun
Ġheure use
Ġel se
F aites
g g
Ġc ert
Ġe ver
Ġfon cti
Ġs ign
Ġf ast
it es
Ġso l
ol Ã©
ĠÃ© g
Ġpart i
ĠvÃ© lo
Ġgir l
T ry
re ux
Ġs al
is f
Ġm ange
Ġenf ant
Ġask ed
Ġt Ã´t
Ġb ag
Ġb oul
ar m
Ġsu ff
Ġso yez
Ġser a
Ġmar ried
C es
c in
er a
el y
av ant
Ġmal ade
ĠvÃ© rit
Ġfi x
Ġder n
W ill
Ġ erreur
is hed
ll ow
ĠÃ ¢
ri ons
Ã¨ rent
Ġli fe
Ġtalk ing
Ġint o
Ġey es
ester day
A m
D onne
P rends
Ã ¯
Ġh ier
op le
rÃ© ci
Ġca fÃ©
ffe e
Ġd ur
Ġwork ing
ck ed
Ġsat isf
Ġbro ke
ĠT V
Ġrap ide
z z
Ġde ad
Ġne xt
Ġcon du
Ġsav ais
Ġque lle
ĠdÃ© b
Ġman y
ress ed
Ġcall ed
Ġfac ile
Ġc es
ar y
ais e
Ġtr a
Ġser ai
Ġtur n
l ig
Ġd ir
Ġm other
Ġv oulez
Ġany body
Ġco ffee
Ġret our
Ġinte ll
Ġidi ot
Ġboul ot
a lement
n t
Ġn our
Ġb or
at her
qu es
ar k
Ġre al
Ġk iss
Ġall Ã©
Ġfor get
Ġgr ande
Ġstup id
Ġlau gh
Ġintell ig
Ġs y
Ġc ry
ar re
ri re
Ġle ar
Ġth ree
Ġch oses
Ġus ed
W as
n g
u v
Ġ J
Ġ ord
ch es
Ġse m
ur itÃ©
Ġessay Ã©
d ic
Ġp ut
Ġf ood
Ġv oi
aire s
ol og
Ġwor d
Ġke pt
a le
i gh
Ġ ir
un k
Ġar g
je ct
Ġcare ful
R est
Ġ own
Ġp uis
at ing
Ġfr oid
Ġcr az
Ġchoi ce
ArrÃªte z
Ġchant er
Ġcraz y
m ore
o ld
Ã© r
Ġn ager
Ġb ri
onn ez
ien ne
Ġany more
Ġper fect
j et
Ġd ie
Ġp ap
Ġy esterday
Ġh air
Ġde h
Ġli re
av oir
ĠdÃ© r
Ġlun ch
r ay
is Ã©
Ġm in
Ġyou ng
Ġpas se
Ġqu ite
Ġcould n
Ġbook s
inu te
Ġdemand Ã©
Ġlis ten
P renez
Ġs ac
Ġm inute
app rÃ©cie
if ul
Ġbre ak
W ould
r ing
Ġd onnÃ©
Ġc ass
Ġn orm
Ġw ish
ad i
We re
Ġver re
ois s
Ġcon v
ĠrÃ© veill
Ġs Ã©c
Ġp o
Ġf all
Ġb ut
Ġbe c
Ġse mb
Ġget ting
Ġdeh ors
u es
v ice
om mes
Ġb iz
Ã¨ te
Ġth Ã©
ag it
Ġsav oir
Ġcor re
Ġtw o
Ġb iÃ¨re
it y
Ġsc ared
Ġph one
At t
T r
Ġa ide
Ġhe ad
Ġpr oud
Ġpl ut
ĠtÃ©lÃ©ph one
Ġbeaut iful
V eux
l u
r ap
t s
u me
Ġc aught
in c
Ġf ou
Ġv ient
Ġpour quoi
che d
Ġjou er
t h
u f
Ġ A
Ġt ort
Ġst o
are r
Ġfo llow
ĠsÃ©c uritÃ©
b Ã©
ĠÃ©t aient
ure s
Ã´ le
Ġwon der
Ġrend re
Ġtermin Ã©
in ner
Ġf irst
Ġv i
Ġh um
Ġbe h
Ġan other
ĠdÃ© m
Ġche ve
Ġmess age
Ġmang Ã©
Ġplut Ã´t
n is
Ġd ess
Ġb i
Ġh it
Ġin f
Ġlo ves
Ġco Ã»
Ġdem ande
Ġliv res
Ġsem aine
A llez
b all
Ġn u
Ġbe er
Ġgar Ã§on
Thank s
Ġwind ow
C ont
c es
r ou
is ter
Ġm ad
le t
Ġr Ãª
Ġan n
Ġphot o
ĠdÃ©jeun er
Ġt all
Ġa ur
Ġc ap
ent re
Ġqu ick
Ġli e
Ġlo se
Ġqui et
Ġou bli
Ġfil m
s ide
Ġt y
Ġv as
Ġr u
Ġon ce
Ġhand s
Ġluck y
Ġbiz arre
il is
ut er
Ġag ree
Ġser ious
Ġnew s
Ġcheve ux
Ġn er
Ġg ard
ais se
Ġla w
Ġreg ret
Ġsw e
Ġlaiss Ã©
Ġkid s
Ġpers on
Ġdoct or
R este
V oulez
d re
Ġv ieux
at s
Ġe ven
ment s
Ġcha uss
Ġtur ned
Ġgag ner
S ois
V a
e mp
g l
Ġd ri
Ġc op
Ġw ife
Ġin tÃ©
Ġar ound
Ġsur v
Ġcl os
Ġatt endre
Ġdiff Ã©
get her
Ġstud y
Ġbless Ã©
Rest ez
Ġs Ã©ri
Ġv ue
ar rass
Ġr an
Ġout side
Ġmar i
ign ore
Ġdiff e
Ġchang ed
Ġap rÃ¨s
ĠpiÃ¨ ce
ĠrÃ©pon se
l ess
Ġd ream
Ġm en
Ġm oin
onn es
Ġfr Ã¨re
Ġinte rest
s et
Ġd rive
Ġm or
Ġf ar
Ġne ar
ut h
Wh ich
Ġpart ie
Ġab and
Every thing
Ġnouve lle
Ġsent i
ĠdÃ©c id
Ġlik ed
ok ing
Ġmou rir
Ġs us
Ġs ad
Ġf en
Ġf as
Ġto gether
Ġg en
Ġsu iv
Ġpr Ãªte
ĠÃ©t ions
pe au
rend re
Ġres p
Ġpri x
Ġoccup Ã©e
Ġsort ir
P ut
Ġc et
Ġn erve
Ġf it
te mps
ir Ã©
Ġst y
Ġes c
Ġsurpris ed
Ġquelqu es
Ġten nis
ĠÃ©tud i
ĠvÃ©rit Ã©
l ent
l ic
Ġs Åĵur
Ġf ree
Ġb Ã©
Ġj oin
av en
Ġab s
Ġcl ose
Ġton ight
Ġarri ved
Ġauc un
Ġoubli Ã©
ĠintÃ© ress
g er
Ġt ick
Ġta x
ĠprÃ© p
Ġple ure
Ãī c
Ġcher cher
Ġcert ain
P eut
Ġm il
it u
Ã¨ g
ĠÃ©t ais
ust r
Ġwor ry
Ġauc une
Ġchau d
V otre
Ġ other
Ġm ight
me ll
Ġpar lÃ©
Ġneed s
Ġche min
Ġhur ry
iz e
Ġaf ter
Ġense mble
Ġguy s
e ar
l t
p it
Ġa te
on de
Ġl ater
Ġc Ã´
ai te
Ġf eu
Ġh on
Ġto w
Ġg ens
ir ai
Ġst and
Ġje une
Ġup set
Ġwork s
rit ure
Ġthing s
Voi ci
Ġforg ot
Ġcondu ire
l ing
Ġl eur
Ġb at
Ġpr Ã©s
ig ne
Ġmar cher
Ġatt ention
Ġnorm al
Ġf ils
Ġv in
ar ge
Ġe lle
Ġin ter
ĠÃ©t iez
Ġneed ed
Ġren tre
Ġpe ople
Ġmist ake
N ot
S on
a w
d ing
m Ãªme
Ġ Åĵ
Ġs ong
Ġs mell
ow e
Ġst ory
Ġtou ch
Ġpi ed
Ġessay er
Ġmus ic
Ġcorre ct
i p
at ions
Ġtr uth
Ġbe lle
Ġfor c
ci al
Ġpris on
Ġfau te
Ġperd re
Ġtomb er
r n
r on
Ġf ine
at eur
Ġcon d
Ã§ u
Ġdr unk
Ġatt end
Ġevery one
Ġcou nt
Ġcha peau
Ġenv ie
Ġnour riture
D onnez
E x
Ġd inner
Ġp an
Ġb le
Ġv ille
our s
al ent
Ġpr od
Ġar m
Mar y
Ġter rible
Ġgu ess
Ġfam ille
Ġaim Ã©
ri Ã¨re
Ġsu c
Ġtr iste
ag es
che z
Ġfe ll
Ġfin ished
Ġass is
Ess ay
Ġappel Ã©
f ore
Ġd Ã®
Ġf ire
Ġg Ã¢
Ġbe fore
Ġpl ait
ig e
Ġsh ot
Ġcomp te
Ġsm art
Ġbeh ind
Ġner vous
V iens
h ab
r ant
in si
Ġvoul ons
ĠmÃ© de
Ġsurpris e
Ġexpl ain
Ġs our
Ġf ool
Ġb ab
Ġv it
et tes
ag ue
Ġri re
toi re
Ġpat ient
Ġdern iÃ¨re
oiss on
ĠcÃ´ tÃ©
Ġb an
ien ce
Th ese
Ġes p
Ġad m
Ġjou e
Ġregard er
Ġpol ice
Ġgent il
Ġcommenc Ã©
Ġintellig ent
Ġmil k
c u
Ġ 1
Ã© d
Ġw ine
Ġre d
el ui
Ġcon se
Ġcr u
ro it
ab les
Ġreg arde
Ġtry ing
Ġpre m
Ġmiss ed
Ġfam ily
Ġcle an
Ġmus ique
Ġsound s
Ġsy mp
Ġty pe
A ren
M ont
e m
l oi
r ite
Ġ S
Ġt im
Ġd onner
Ġl u
om m
Ġf av
Ġf um
Ġex pect
air s
Ġsa me
Ġres te
Ġjus qu
Ġwr ite
Ġdisp ose
Ġac cept
Ġmauvais e
Ġsupp ose
Ġcu ri
Ġdorm ir
ĠÃ¢ ge
Ġfav or
F er
Ġa insi
Ġs ister
Ġm akes
Ġf ish
Ġb ill
Ġv iend
ar rÃªt
Ġr Ã©s
Ġam b
Ġcomp rends
Ġdr Ã´le
Ġconn aÃ®t
Ġrapide ment
Ġquick ly
i a
Ġ C
Ġ ouv
Ġr ob
Ġri ch
ĠÃ© ch
Le ave
Ġent rer
Ġcour t
ven u
Ġjour s
Ġfo ot
Ãī t
ĠarrÃªt Ã©
Ġchild ren
ĠJ ap
Ġdiffe rent
Ġde b
Ġsu ch
Ġr Ã¨g
Ġch iens
Ġch anger
Ġte ach
Ġall ons
orte z
tÃ© ri
Ġou vert
Ġcal me
Ġense ign
Fer me
A i
on que
Ġf ier
Ġb ure
Ġb oire
Ġw rit
ic t
Ġfer ais
ĠsÃ» re
Ġfau lt
Ġchang Ã©
Ġder riÃ¨re
Ġsn ow
Ġmov ie
Ġbab y
Ġbure au
v ing
ou te
Ġl ait
le x
Ġle g
ant es
Ġr are
ic al
Ġse at
Ġdiff ic
Ġpi zz
Ġconn aiss
All ons
Ġstr ong
Ġarg ent
tÃ©ri eur
3 0
i b
o ck
Ġd onn
an o
Ġv ac
Ġg re
Ġsu per
ort h
Ġdev riez
ass es
Ġbr other
ĠÃ©c rit
De m
Ġsimp le
Ġut ilis
avant age
M es
b as
Ġ Â
Ġp aid
Ġde p
Ġj oke
Ġen n
Ġr adi
Ġin qui
Ãª cher
Ġpeu vent
Ġex act
Ġfeel ing
Ġfer ai
Ġsm all
Ġsto pped
Ġfen Ãªtre
Ġtax i
D ites
G arde
e red
f er
r ons
Ġd avantage
at ch
or k
Ġtr ave
ag Ã©
ul es
Ġread ing
Ġpay er
Ġbo x
B ring
W ait
n i
v iens
Ġs ous
ai lle
Ġg ame
Ġwe ar
Ġpour rais
Ġar t
Ġche v
Ġhis toire
Ġwait ing
n es
Ġs te
Ġp ic
Ġb ar
us h
Ġo pt
Ġri che
Ġsi x
Ġcour s
Ġprend s
Ġment i
Ġpet ite
Ġmont re
Ġdemand er
Regarde z
T on
Ġf ace
Ġf ired
Ġh aven
Ġtr u
au rais
am ment
Ġwor ried
Ġcomp lÃ¨
Ġmain s
Ġeat ing
May be
Sh ow
Ġmeill eur
Ġchauss ures
ĠmÃ©de cin
N ow
T ous
Ġs ave
ais sez
Tu rn
Ġam ou
Ã§ ons
ĠdÃ©s olÃ©
Ġsho es
Ġim m
Ġemb arrass
Ġprud ent
Ġbec ame
Ġpizz a
Ġradi o
L is
V enez
r Ã©e
Ġs oi
in er
Ġb ois
Ġch ans
ĠÃ©t r
Ġwe ird
oy Ã©
Ġapp rÃ©ci
Ġcl Ã©
Ġman que
Ġco st
Ġsome one
Ġevery body
Ġnouve lles
Ġple in
Ġhand le
Ġmo ve
Ġrec onn
Ġgag nÃ©
Ġsk i
Ġfoncti onne
ĠcomplÃ¨ tement
t te
ll y
Ġto t
Ġthe ir
Ġin st
Ġpr Ã¨s
ir t
Wh ose
ort Ã©
Ġsh ort
Ġfr app
Ġam ie
Ġad ore
Ġplay ing
iz ed
S ais
i ers
v ision
y er
Ġp en
om as
an qu
Ġf Ãªte
Ġw om
Ġth ose
Th omas
Ġsh ut
Ġdev rait
Ġdev rions
anc es
Ġdisp os
b y
e use
Ġ ill
Ġ owe
Ġl um
Ġc oin
Ġf air
eu re
Ġpl u
Ġliv es
Ġarri ver
Ġpi ano
Ġsav ons
Ġdog s
Ġhor rible
Ġsl ow
Ġrentre r
w here
Ġc Åĵur
Ġf ont
Ġf ight
Ġv ont
Ġde al
Ġle aving
Ġch oc
ain s
am p
res se
res si
Ġfe w
Ġmar chÃ©
Ġimp at
Ġlong er
Mon day
Ġpouv ais
ĠrÃ©p ond
Ġrep os
Ġlaiss er
Ġvol Ã©
Ġtrou ble
Ġwatch ing
Ġsuff is
Ġcry ing
r as
Ġ 2
Ġl ying
Ġv oud
Ã¨ me
Ce ci
ette z
Ġatt rap
Ġseu lement
Ġpe ine
Ġbor n
Ġpleure r
Ġlum iÃ¨re
U ne
g u
Ġd ark
Ġc Ã©
Ġc ool
ar i
Ġg ri
le ct
Ġsu jet
Ġtr omp
Ġhe art
ic onque
ill Ã©
ur g
able ment
Ġdis app
Ã» t
Ġsou h
Ġpass er
Ġregard Ã©
ĠbÃ© bÃ©
O ur
Ã© v
Ġc as
Ġc ous
Ġf a
He lp
Ġte am
Is n
Ġob lig
att end
Ġap olog
Ġwalk ed
Ġaff aires
Some one
ĠdÃ® ner
l ait
r oy
Ġt as
Ġso ld
ate ment
Ġpart y
Ġdans er
orm ais
Ġren t
Ġarri ve
Ġsm il
Ġsp ort
Ġfatigu Ã©e
mÃ© di
ex p
Ġrun ning
Ġstup ide
Ġcal m
Ġdorm i
Ġris k
Ġparf ait
Ġkill ed
Ġkey s
Ġcass Ã©
Ġinf orm
S a
T a
f Ã¨re
Ġ Monday
Ġp oisson
in ess
Ġf us
Ġw ake
at ure
Ġg un
ce p
pp ing
Ġan im
Ġav oc
ard s
ol Ã©e
Ġal ive
Ġlove d
Ġbr as
Ġfer m
Ġcomm ence
Ġnom bre
ĠarrÃªt er
Ġrou te
Ess aie
ĠsÃ©ri eux
ustr al
Ġutilis er
C all
M e
d d
d ed
Ġ Ch
Ġl oin
he ad
Ġv ide
ce ll
Ġen g
Ã¨ ve
Ġch ois
app elle
Ġche m
Ġbl ague
um Ã©
Ġlong temps
ĠprÃ© fÃ¨re
ĠrÃ©p arer
Ġkid ding
Ġcle ar
Ġim mÃ©di
Ġemb rass
Ġprop os
Ġprof ess
Ġdeven u
c tu
f lÃ©
k en
m an
Ġt re
Ġs un
Ġb ur
le ep
id ence
Ġli bre
st airs
ens ive
imp orte
Ġcr oire
Ġco at
ĠdÃ©s ormais
Ġbeg an
ĠÃ©g alement
pit al
ĠrÃ¨g les
o ve
r Ã©s
Ġt alent
Ġs oup
is sez
as on
ar Ã©
ri end
ant Ã©
Ġr ules
Ġte mp
ie use
ĠdÃ© f
Pour rais
ak en
Ġman teau
Ġres s
Ġcour ant
Ġsm oke
Ġbo Ã®
Ġprom is
Ġamus ant
Ġcommenc er
S uis
c s
Ġa llez
Ġd ance
Ġb oss
us Ã©
Ġsu gg
id ed
Ġnot e
ire r
ith er
Ġmar che
Ġdit es
Ġarri v
Ġsec ond
Ġinv ited
Ġins ide
Ġlun di
Ġchat s
qui pe
Ġend roit
la x
Ġeff ray
A ny
S om
e mb
Ġt aking
Ġs avez
is si
at ive
al ous
Ġas leep
Ġri de
Ġtu Ã©
Ġwork ed
Ġcont re
Ġcar te
Ġres se
Ġinv it
Ġrem ar
Ġrencont rer
ĠprÃ©s ent
ĠgÃ¢ teau
Ġdiffic ult
Ġexact ly
Ġimpat ient
ĠimmÃ©di atement
f u
Ġp un
Ġn a
ous s
Ġh igh
Ġde l
Ġbe l
ut s
Ġapp ris
Ġsou ci
Ġcomm and
Ġpay Ã©
ug g
Ġbro ken
Ġclos ed
Ġchans on
R ien
g ne
s y
Ġ z
Ġp ick
on ed
Ġl Ã©g
Ġl aisse
Ġv e
te ly
oo se
Ġpar k
Ġche ck
Ġob ject
Ġemp ty
Ġsouv iens
Ġrou ge
Ġlear n
Ġtow n
Ġchev al
S ont
W atch
u mp
Ġ En
Ġt ent
Ġm ens
Ġm ign
Ġc ake
Ġc ade
Ġb reat
Ġqu and
Ġre lax
Ġsu cc
Ã¨ ne
ren te
Ġwe ather
Ġser v
Ġman iÃ¨re
Ġco lle
Ġbr uit
Ġsou ff
Ġad vice
Ġsp oke
Ġac tu
Ġinterest ed
anqu ille
A imes
I n
R et
S e
Ġd ress
Ġf ant
Ġb out
Ġv eu
Ġh aving
Ġfor m
Ġres pect
ĠprÃ© fÃ©
Ġvoul ait
Ġcuis ine
ĠdÃ©m issi
Ġsty lo
flÃ© ch
i ment
re ed
Ġd ont
in ue
as ed
Ġf our
Ġv al
Ġsu it
ol u
oy er
ten dez
Ġwith out
Ġhelp ed
Ġimp ressi
Ġlet tre
Ġsle pt
ĠdÃ©c ision
Ġstud ent
Ġment ir
Ġfu ll
ĠÃ©tud ier
Au c
Ġvoy age
Ġlaugh ing
Ġwonder ful
S avez
in Ã©
Ġn ois
an y
ain t
Ġav ant
Ġapp ro
Ġpro ch
Ã¢ che
Ġwait ed
Ġop in
ĠtÃ©lÃ© vision
Ġpre p
Ġpre fer
Ġmet tre
Ġtick et
Ġfum er
arrÃªt er
Ġdeb out
c er
z e
Ã §a
Ġs et
Ġd en
Ġm er
Ġf illes
Ġw orth
ot s
Ġre Ã§u
Ã©t Ã©
Ġgo lf
am our
ut ion
Com me
Ġcl Ã©s
Ġent endre
Ã¢ mes
Ġjour n
oth ers
Ġpens Ã©
Ġlet ter
Ġacc ident
Ġrencont rÃ©
Ġconc er
Ġbeg in
ĠrÃª ve
Ġlaw yer
Ġmoin s
Not hing
ĠEn gl
f ort
i ques
l ais
Ġt ree
re use
Ġa head
Ġd ate
Ġd aught
Ġc ess
Ġb as
Ġb all
Ġg if
us er
ow er
tu r
de red
Ġex ac
ime z
Ġdev oir
Ġad or
Ġsec onde
ĠmÃ© rit
Ġmat in
Ġmat ter
Ġstr ange
Ġhor se
Ġplais ir
ĠboÃ® te
D Ã©s
H as
M ake
N otre
d ess
p s
Ġs ang
Ġp ou
en ci
Ġm erve
an che
Ġg as
el er
ir a
Ġav ais
Ġcomp ris
Ġper m
Ġcou rir
Ġdrink ing
Ġaut res
Ġdec ided
D es
a ff
a pe
e lez
g hed
h i
i onn
u mb
Ġ D
Ġm ien
Ġc re
Ġc up
Ġn oir
Ġse ll
Ġst ar
ak ed
Ġapp le
Ġbr ave
Ġoff er
Ġexp ensive
Ġord in
Ġdess us
ĠcoÃ» te
Ġmor ning
Ġprem ier
Ġopin ion
ĠEngl ish
S i
a f
j ou
Ġc elui
Ġb onnes
Ġy ear
ent ends
ent endre
ing s
Ġr ais
Ġin j
ag ed
ure d
Ġje alous
Ġsa le
Ġcl ass
Ġbl ack
Ġwh en
Ġple uv
Ġass ist
Ġcu te
Ġcontinu Ã©
Ġbi ke
Ġswe et
Ġnerve ux
ĠJap an
Ġvoud rais
A imez
b lie
w ork
Ġp ress
Ġf is
Ġb al
Ġh y
Ġh onn
Ġh aut
Ġg iv
Ġne ige
Ġth en
Ġe ach
ĠdÃ© g
Ġver s
Ġfr uit
Ġhim self
Ġcomp l
Ġtoi let
Ġman quÃ©
ab ly
ign or
Ġstay ed
ĠprÃªt s
Ġsing ing
Ġconc ent
Ġmin ut
Ġcade au
Ġveu lent
Ġjourn al
P as
b res
u le
Ġ ignore
Ġs ense
Ġl ist
Ġc ut
in qui
ai tement
Ġv ot
Ġsu ite
Ġj eu
Ġj ol
Ġin d
al s
Ġpr Ãªtes
Ġso le
ort er
Ġar me
ist ic
Ġple ur
Ġseem ed
Ġsc ream
Ġaim es
Ġinc roy
Ġhat es
Ġsurv iv
Ġchem ise
Som ething
Ġexac tement
C l
ou bl
Ġt ant
re ci
in tÃ©rieur
Ġy ell
Ġli ed
Ġso in
ore d
Ġsh irt
Ġex cell
Ġprob ablement
ĠdÃ©s olÃ©e
De v
Ġvie ille
Ġexc it
Ġexc uses
Ġprop re
Ġsol ution
Ġtra vers
Ġann oy
H er
i el
r ist
Ġd ure
Ġde ath
Ġdo ll
Ġpar d
ill er
Ġri dic
ouv ons
Ġdis t
Ġrend u
Sh ould
Ġmag as
ĠrÃ©veill Ã©
Ġhon est
Ġpic ture
Ġwom an
Ġdisapp oin
Ġavoc at
Ġsole il
M ets
b ed
i vers
ou x
Ġp ai
Ġl on
Ġm od
Ġm aking
Ġn Ã©c
Ġv ent
Ġh ors
Ġre ason
Ġtr ans
Ġj et
Ġj al
Ã©t ud
Ġth ank
Ġr at
al th
Ġpr ot
ain ed
Ġpar viens
ap on
Ġapp reci
As k
Ġwh ile
Ġter rif
ound ed
Ġache ter
Ġwar ned
leur s
Ġprod uit
Ġrare ment
Ġchoc ol
fu lly
Ġprep ared
ĠnÃ©c ess
M ain
O u
T e
c ie
c ome
o ccup
Ġ Can
Ġs and
Ġd ange
Ġd anc
Ġp omme
Ġl iste
Ġm ed
Ġn ai
Ġn os
Ġh id
Ġtr anquille
app rÃ©ci
Ġex t
ten u
Ġag e
Ġbus iness
Ġrest Ã©
ĠprÃ© v
Ġdire ct
Ġou ver
Ġstud ying
ote ct
Ġend orm
Ġdec ision
Ġviv re
Ġrev oir
Ġsatisf ait
ĠdÃ©r ange
Att ends
Ġcru el
E t
P e
c Ã©
d y
n if
r un
Ã «
ou Ã©
Ġa up
Ġb ath
Ġde ep
ow ed
Ġr um
Ġch ante
Ġin n
Ġdes erve
Pour riez
Ġtou gh
Ġtalk ed
Ġprob ably
Ġpouv oir
ĠvÃ© rif
Ġdou b
At tendez
Au jourd
Ġvi ol
ĠdÃ©cid Ã©
Ġfoot ball
Ġwrit ing
Dem ande
Ġprofess eur
Ġlon ely
Main tenant
P ouvons
m ment
u ve
Ġa ir
Ġs Ã©
es ome
Ġp ommes
Ġl ang
Ġe m
Ġch air
Ġli ar
all er
Ġam ies
ong e
Ġhapp ens
Ġfer mer
oth es
Ġcat ch
Ġsleep ing
Ġref use
Fais ons
Ġgros se
Ġtomb Ã©
Ġdanger ous
ĠgÃ© ni
Ġdaught er
Ġappreci ate
ĠnÃ©cess aire
H old
O uv
r aÃ®
z y
Ã© n
ai m
Ġr ac
ic he
am ed
Ġsom me
Ġal ong
ĠÃ© te
Ġdi x
Ġser ait
Ġbl ame
Ġdr ank
Ġoff ice
Quel que
Ġcour se
Ġsay s
ven ir
Ġspeak s
anc eux
Ġwar m
Ġlau ghed
Voi lÃł
Ġconv ain
Essay ez
ĠÂ »
Ġtrave l
Ġminut es
0 0
i eu
w ard
Ġ M
Ġ eux
en ed
Ġn uts
Ġb ate
Ġb other
et tre
Ġre qu
Ġre mer
Ġr om
Ġe gg
Ġch arg
ad m
ire z
Ġgr ave
Ġcomp uter
Ġmar iÃ©
Ġshould n
li quÃ©
Ġfais ons
Ġcour age
Ġwould n
Ġlun ettes
Ġvis it
ail s
Ġmeet ing
Ġplais ant
Ġdro it
Ġmag nif
Ġenn uy
Ġbel ong
dess us
Ġnai ve
F or
S orry
b r
b er
p l
u ge
Ġt irÃ©
in st
Ġv ote
ic s
Ġpr otect
Ġex am
Ġgr ow
Ġcomp le
Ġcont ente
Ġent re
Ġcomm en
Ã´t re
Ġsp Ã©
Ġoccup Ã©s
Ġgu il
ĠA ustral
ĠÅĵ il
Ġpied s
Ġamb it
ĠrÃ©pond re
Ġinn oc
Ġbate au
S es
Ġ urg
Ġd ut
en dez
Ġl os
Ġl arge
Ġm ord
Ġc oo
Ġb orrow
ar ri
Ġg uit
Ġne uf
ri g
ow ers
id Ã©
ce ed
il i
Ġse l
el ess
Qu it
Qu iconque
Th ose
Ġtu er
Ġus u
are il
ĠrÃ© ussi
Ġdi v
Ġcl othes
Ġser vice
Ġbr ought
No Ã«
Ġsm oking
ĠÃ©c rire
Ġpat ron
Ġmat ch
App elle
ĠapprÃ©ci Ã©
Ġsugg est
NoÃ« l
a que
r ont
Ġt asse
Ġp ant
er v
Ġf iÃ¨re
Ġf Ã¢
Ġg am
Ġj oking
Ġdo s
Ġr ather
Ġpar lez
mp l
ĠÃ© quipe
ĠrÃ© g
Ġser ais
Ġmar rant
Ġbl ind
Ġbr Ã»
Ġent end
Ġad d
li quer
ven ue
Re m
ĠÃ©c l
Ġsemble z
Ġexc use
Ġexc ited
att endre
Ġdou leur
Ġcat s
Ġquest ions
Ġaw esome
Ġmeill eure
Ġvi ande
itu de
Ex c
Mont re
ĠÃ©tr ange
Ġfa Ã§on
Ġna Ã¯
Ġdisappoin ted
Ġsomme il
e ver
f ast
n ot
n ie
Ġs oul
Ġd ressed
en n
Ġm ur
ar ter
Ġla zy
Ġch o
Ġgo Ã»t
Ġdes c
Ġup stairs
ĠrÃ© flÃ©ch
ĠrÃ© jou
Ġcomp ter
Ġag reed
Ġatt endu
Ġstu ff
Ġday s
ĠÃ©c out
Ġaid Ã©
asse oir
og n
Ġhurt s
Ġfollow ed
ĠdiffÃ© rent
Ġfas cin
Se e
Ġpleuv oir
Ġhonn Ãªte
Ġouver te
A v
C et
M ettez
Ġ G
Ġ 30
Ġd ing
Ġm it
an e
Ġf ore
Ġb ot
Ġv end
at ique
Ġh old
Ġe lles
Ġch aise
al f
onn a
ren ce
os sible
ĠÃ© v
Ġstud ents
Ġshow er
Ġris que
Ġhab it
Ġresp ons
Ġsuffis amment
Ġserv i
Ġordin ateur
Ġdange reux
S ors
S ortez
T od
b at
c ess
l ves
o Ã¹
s o
ou pe
Ġt aille
re ll
Ġp op
Ġl oud
Ġm our
at ely
qu ez
Ġme at
id i
Ã¨ de
Ġe ither
oo f
ill Ã©e
ust ed
ong Ã©
ne m
Ġco ll
Ġfais ait
Ġfer mÃ©
lf riend
Ġcou teau
Re ad
ĠdÃ©t est
Ġconf used
Ġro ad
essay er
Ġor der
Ġfau x
Ġemp loi
Ġemp run
Ġsort i
Ġsleep y
Ġgir lfriend
Ġcam era
Ġtri p
Ġrapp elle
Ġdern ier
Ġbor ing
Ġfas ter
Ġabs olu
Ġcount ry
Ġesp oir
Ġtot ally
Ġnois e
Ġmagas in
Ġmagnif ique
Tod ay
A l
c te
h omme
is es
in es
Ġf lo
Ġf leurs
Ġb ase
Ġw el
Ġw all
Ġh our
ent y
our v
Ġj ump
Ġr av
Ġch ou
Ġpr Ã©c
Ġpl ans
Ġpar ap
Ġpar ole
ren ons
av ait
Ġcan d
ur ance
Ġdes k
Ġex h
ens es
Ġfe ar
ĠrÃ© uss
Ġapp ortÃ©
Ġag o
Ġatt ent
Ġsou rire
Ġpri ce
Ġfin ally
Ġspe cial
Ġven ue
Ġpens es
Ġgu erre
Ġdou che
Ġsho cked
ĠdÃ©p ourv
Sh ut
oid s
Ġnu mber
ĠÃ©tudi ant
Ġvac ances
Ġsouh aite
Auc un
Ġguil ty
C onn
D r
I f
P asse
S o
m as
p en
u ct
Ġ ignor
Ġt rente
Ġd ict
Ġp ur
en f
Ġl oup
Ġf act
ll ed
Ġb ored
Ġv aut
qu Ã©e
ar avant
us hed
et t
Ġen em
Ġcom es
end ant
Ġal so
ive ment
Tout es
Ġbl ue
Ġimp ossible
iv es
Ġgl asses
Ġter re
Ġspeak ing
Ġbo at
Ġprom ise
Ġparf aitement
Ġgirl s
Ġbreak fast
uf s
Ġsus p
Ġbat tre
Ġrob e
Ġamou reux
rist mas
G ood
P r
c ed
e f
e ars
l ui
p ort
y s
Ġ umb
Ġt est
Ġt ight
Ġl ente
Ġm ir
Ġc eux
it ch
un es
Ġg arde
le v
Ġne t
id er
se lves
Ã©t er
Ġth irst
Ġpr in
op h
Ġri v
ĠrÃ© un
Ġapp rendre
âĢ ī
art ient
Ġpro g
Ġbet ray
Ġob tenu
Ġseul s
Ġmont rer
Ġsupp os
Ġpol ite
Ġact ing
Ġprof ond
Ġsil ent
Ġdir ty
Ġpap ier
Ġlisten ing
Cont inu
Ġsave d
ded ans
Cl ose
Ġaup aravant
Ġdut y
Ġumb rell
d Ã©
Ġt ire
Ġp enc
Ġp sy
Ġc ard
Ġb ank
Ġh alf
Ġne z
et imes
ri ce
Ġle ver
Ġli m
Ġpar s
am b
Ġas se
Ġcr ay
Ġcomp rendre
Ġcl asse
Ġwr ote
Ġhard ly
Ġrec ogn
Ġcle ver
Ġdisc uter
Ġvoy ager
Ġpap er
Ġgard er
Ġmoin dre
Ġsuc ceed
Ġsymp a
Ġfant ast
Ġinnoc ent
J ou
L ife
W rite
b and
e y
g es
l in
l ons
p ir
t il
v is
w ich
re et
Ġd ent
Ġp ower
Ġm ienne
er ais
Ġf re
Ġb ons
Ġw oke
Ġh os
il es
Ġpl enty
Ġnot es
Ġall Ã©e
Ġall um
ur ry
Ġkn ife
Ã¨re s
ci er
ici ous
Com m
Ġam az
ĠÃ© lÃ©
Ġsa oul
Ġdis g
ro che
Ġcont act
Ġsay ing
Ġpay s
Ġob s
Ġpos s
Ġrec omm
Ġcha que
Ġac cep
Ġenv oyÃ©
Ġtrust ed
Ġshow ed
Ġmot iv
Ġrain ing
Ġprud ente
Ġut ile
Some body
Ġsign if
Ġkiss ed
Ġtim ide
Ġouv rir
Ġgif t
Ġsand wich
Ġcomple tely
Ġdiv or
Ġthirst y
Ġhos pital
A vec
B oth
F in
O pen
P ense
m ing
o che
u b
u ite
Ġ others
Ġs antÃ©
Ġd oi
Ġm out
Ġm oy
Ã© ch
Ġc ried
Ġc iel
ai g
Ġf ly
Ġb aiss
Ġb ird
at es
qu el
Ġne igh
Ġme ant
Ã©t r
He y
Ġst ol
Ġst ole
Ġcan cer
ac le
oy ons
ĠÃ© ner
Ġbr ing
Ġfer a
Ġcoup able
Ġour s
Ġvol ont
Ġbou g
Ġey e
ĠgÃ© nÃ©
Ġsil enci
Ġvoi x
Ġconv inc
Ġwear ing
Ġsoi f
Ġtas tes
Ġresse mble
DÃ©s olÃ©
Ġexh a
ĠrÃ©un ion
Ġneigh b
Ġstol en
Ġsilenci eux
P l
S ay
n ent
Ġa ble
Ġl oi
Ġc ach
Ġn Ã©
Ġn umÃ©
as h
Ġb a
Ġh ommes
te l
Ġwas te
Ġpl ain
ĠdÃ© l
app ed
ess aie
Ġav aient
ose z
Mar ie
Ġdev ant
Ġche ap
ĠrÃ© c
Ġapp ar
Ġdr aw
Ġimp ressed
fe cti
Ġeat en
Ġsm arter
Ġoccup Ã©es
Ġro ck
Ġcare fully
Ġfam ous
Ġvis ite
Ġaff aire
iend rai
Ġport es
Par lez
Ġcook ing
lu ie
Cont inue
Ġdri ving
Mont rez
Ġcuri ous
Ġattrap Ã©
emb rass
Ġcommand Ã©
ĠJapan ese
ĠgÃ©ni al
Ġparap luie
Ġlente ment
ĠnumÃ© ro
g an
h Ã´
Ġd ort
Ã© li
ll i
Ġb att
Ġg au
oi e
Ġr ing
Ġch ar
ch Ã©e
al itÃ©
Ġli eu
ic ations
Ġst un
Ġfor me
Ġri ver
Ġvrai e
Ġheure uses
du le
Ġwat ched
Ġsav ait
Ġgl ass
Ġfl u
Ġfl owers
Ġpa use
Ġvol un
Ġopen ed
Ġenjoy ed
Ġfall ait
Ġaur ais
ĠprÃ©p arÃ©
Ġbreat h
Ġactu elle
Ġcompl ain
Ġincroy able
Ġegg s
Ġplaisant er
ĠspÃ© cial
Ġumbrell a
Ġconvinc ed
B ien
C he
D Ã©
O h
P er
R Ã©
T iens
g ar
ou blie
Ġs igne
Ġp ot
Ġp ouss
Ġl aissez
Ġc ow
Ġn ose
ai mes
Ġb ain
Ġw et
Ġun ique
Ġo ise
Ã¨ v
Ã¨ ge
Ġr am
Ġbe ach
Ġla c
Ġch arge
Ġhe alth
Ġpl age
ci ent
Ġsh y
Ġpart out
Did n
Ãªte ments
Ã¢ t
Ġpouv ait
Ġfo lle
Ġor ange
Ġor dered
Ġca use
Ġinv itÃ©
Ġtravaill Ã©
Ġref used
Ġprom en
ĠdÃ©p ri
Ġcons c
Ġsit u
Ġappel er
Ġhot el
Ġsil ence
Ġsatisf ied
Ġsemb les
Ġsemb lait
Ġfavor ite
Ferme z
Ġdonn a
Ġproch aine
Ġexcell ent
Pe ople
Ġusu ally
ĠrÃ©jou is
Ġemprun ter
g ment
r act
Ġ iv
Ġp renez
Ġf ile
Ġv Ãªtements
Ġh arm
Ġde t
or me
ri b
ri c
Ġre l
ave ur
Ġth ir
Ġe v
Ġwas h
Ġcom bien
Ġst ore
end ed
Ġex tre
ob ile
Ġche f
Ġcr av
ack ed
Ġman quer
Ġsou ri
Ġsou pe
ick ed
iÃ¨re ment
Ġdou te
Ġide as
Ġdisp ar
Ġmat h
Ġfu ri
Ġaw ake
ĠtÃ©lÃ©ph on
Ġbicycle tte
Ġinterest ing
ĠintÃ©ress ant
Ġassist ance
ĠrÃ©flÃ©ch ir
Ġchou ette
Ġriv iÃ¨re
Continu ez
Ġpsy ch
Ġamaz ing
Ġextre me
P ard
T es
V as
c o
l au
r Ã©es
s te
u ie
Ġt end
Ġs end
Ġl ine
Ġm orte
Ġn Ã©g
Ġf ond
qu ent
Ġo pp
Ġen s
Ġall Ã©s
Ġst ri
Ġcan not
Ġver t
ul ous
Ġche er
if s
ro om
Ã® mes
ĠprÃ© ci
Ġcou cher
Ġbelie ved
Ġmiss ing
Ġgar Ã§ons
Ġsho pping
ex c
ĠÃ©p uis
Ġdec ide
Ġcam p
Ġsuff it
Ġru in
Ġsus pect
Ġesc ape
Ġsuc re
Ġconse ils
Ġslow ly
Ġcous in
Ġapolog ize
Ġsmil ed
Ġchois i
Ġsucc ess
Ġimpressi onn
Ġadd ress
cess ary
Ġflo or
Ġbetray ed
Ġpenc il
Ġsitu ation
n ez
r at
t on
u ff
Ġ ice
Ġ NoÃ«l
ou tez
Ġt ie
Ġb ord
ve l
it ive
Ġh ide
Ġre ce
Ġsu b
id ez
Ġbe at
Ġhe av
Ġse ld
Ġpr it
Ġan nÃ©e
Ġav is
res h
Ne ver
Ġwor se
Ġcon fecti
ap Ã©
Ġapp areil
Ġcomp ag
Ġpro ve
Ġent iÃ¨rement
Ġhome work
Ġsou cie
Ġsent ez
Ġob ey
Ġrend s
ell erai
Ġinv ol
Ġgros si
Ġsk in
Ġcol or
Ġwar n
Ġgent ille
Ġexpl os
Ġaw ful
Ġcri me
Ġlear ned
Ġnear ly
Ġesc ap
Ġsmell s
Ġban an
Ġrepos er
Ġress ent
Ġdevoir s
Ġjol ie
Ġjal oux
Ġext ra
Ġcommen Ã§a
arri ver
Ġbase ball
Ġcray on
Ġexha usted
Ġvolun te
Ġseld om
G r
c idence
u er
v ious
Ġs inc
Ġp endant
Ġl ent
he t
Ġf an
Ġv Ã´tre
Ġh Ã´
ri vez
We ll
ic ed
Ġpar c
ag in
Ġst ation
Ġce lle
Ġav ions
Ġsh ar
Ġsh ip
Ġlo g
ĠÃ© m
Ġfe et
Ġhelp ing
ro g
Ã©c out
Ġsm ile
Ġsav ent
Ġconf ident
Åĵ il
Ġfl at
Ġsupp ort
Ġplais ante
Ġcert aine
Ces sez
ĠÃ¢ g
Ġsuiv i
Ġadm it
Ġconse il
Ġinqui et
Ġsmil ing
Ġremar quÃ©
inqui Ã¨te
ĠCan adi
Ġpant al
Ġpop ul
Ġwel come
Ġcrav ate
C r
P enses
l ace
n a
es se
Ġd est
Ġd onne
Ġp oi
Ġp ie
Ġp ire
Ġp ost
Ã© rer
Ġn ature
Ġf ig
Ġb our
ve ille
Ġh ol
Ġh ired
Ġle vÃ©
Ġtr ait
Ġe ffe
Ġch arm
ch ant
Ġall owed
Ġfor te
Ġas h
Ġri d
ct ob
ten ir
Ġcr Ã©
Ġcomp rend
Ġcl im
Ġmal ad
Ġfeel s
Ġseu les
Ġliv ing
Ġwh ite
Ġfo c
Ġfai led
ĠproblÃ¨ mes
Ġfu me
Ġfu rent
Ġpres ent
Ġchau ff
Ġcontr ari
Ġhab itu
ĠrÃ©pon du
Ġmov ing
ĠdÃ©b ut
Ġfall u
Ġru de
ĠÅĵ ufs
ĠÂ «
Garde z
Lis ten
Ġve get
ĠdÃ©missi onner
Ġinj ured
ĠvÃ©rif ier
ĠAustral ia
Pense z
Ġpantal on
A ide
C elui
E at
M oi
O ne
f s
g ing
p lex
Ġs ide
Ġp age
Ġm Ã©t
Ġn ons
Ġn age
Ġf aveur
Ġy es
it er
Ġh us
Ġh uge
or n
ed i
Ġun c
Ġre j
Ġtr uck
Ġj ud
Ġj apon
Ġla ver
Ġch oose
Ġch anceux
Ġpar les
ill eux
Ġst ood
Ġwe ak
Ġgo es
ang es
Ġri g
app eler
Ġsh op
rai te
Ġex tr
Ġsa lle
Ġapp lau
Ġper plex
Ġher o
Ġad v
Ġren dez
Ġpass Ã©e
ĠprÃ© occup
Ġcou leur
Ġcall ing
Ġagain st
Ġou i
esp rit
Ġpos te
Ġdou ble
Ch ois
Ġgar s
Ġsho ot
ph one
Ġacc ord
Ġsk y
Ġconc ert
Ġquit tÃ©
Ġcontinu er
Ġcontr ol
Ġcuis iner
Ces se
Ġmari Ã©e
Ġaband onnÃ©
Ġgen re
Ġexpect ing
Ġviend ra
Ġreconn aiss
Ġfrapp Ã©
Ġplu ie
Ġmens onge
Ġgas p
Ġdanc ing
For get
Ġding ue
Ġinvol ved
Ġshar p
B on
a res
b el
c ul
g ed
o que
o rent
u al
y ons
Ġ R
Ġ er
Ġ ug
ou ver
re w
Ġa vert
Ġd ad
Ġd im
Ġp oids
is c
en ir
Ġm ois
Ġc er
Ġc in
Ġc ity
Ġb ir
Ġy ears
Ġh ated
Ġh Ã©r
ot ion
our d
id ay
il itÃ©
Ġr as
Ġch ick
tu res
Ġcan apÃ©
ac es
Ġwe ren
am an
Th ink
Th ings
Do is
ang lais
Ġsom etimes
Ġav ance
Ġwor ld
ĠÃ© n
Ġdis tr
Ġtou che
Ġcl air
Ġfer iez
Ġfin ish
Ġlot s
Ġob vious
ĠmÃ© rite
att ends
Ġconnais sez
Ġtomb Ã©e
Ġcontinu ed
Ġswim ming
Dis p
Ġmist akes
ache ter
Ġdro pped
Ġbri ll
Ġcass Ã©e
Ġpo or
Ġregret te
Ġban que
Ġenseign ant
Ġopt im
Ret our
Ġmed ic
Ġdoub t
Ġrom ant
Al ors
Ġposs Ã¨de
Ġextreme ly
Ġhol iday
Ġhus band
Ġug ly
Ġbir th
A n
M any
S er
S it
S ur
b es
d ition
i lement
n ient
Ġ Je
Ġ eut
Ġa ve
Ġs orte
on vÃ©
Ġb ark
Ġv ir
Ġun f
Ġme ans
Ġre lie
id Ã©e
Ġr ue
ad ed
ir m
ac Ã©
Ġwe ight
am is
Ġce lles
Ġso cc
Ġver rou
app y
Ġal ors
Ġgr at
Ġget s
Ġthink ing
ab and
Ġob Ã©
ĠÃ©c ole
Ġplay ed
ĠmÃ© dic
Ġaut ant
Ġemp l
Ġsort ie
Ġinc red
Ġmort s
iend ra
Ġdisc uss
Ġmot s
Par le
Ġcuis in
Ġlight s
Ġtall er
Ġcap able
Ġsurv ive
Ġcond uis
Ġsymp ath
ĠC D
Ãīt iez
Ġgre w
ĠcÃ© lÃ¨
Ġmerve illeux
Ġhy p
Ġpai x
inst ant
ĠÃ©lÃ© g
Ġmout h
Ġba lle
Ġthir ty
Ġave ug
onvÃ© nient
Ġsocc er
D Ã©p
E h
H urry
S pe
T enez
c ut
h ist
i Ã¨me
k et
o on
r up
Ġ P
Ġt ien
re ur
Ġa st
Ġs auv
Ġd ying
is er
Ġl ou
Ġm ap
ai gn
Ġw ise
at ur
it able
Ġun l
Ġun til
Ġj ard
Ġen nem
Ġli ft
Ġpr ouver
onn able
Ġfor ce
ol es
Ġar bre
Ġar rest
Ġfr ont
Le quel
Ġcl oche
Ġmal ch
Ġmal heure
Ġatt ract
Ġple ine
Ġpens er
Ġold er
Ġment eur
Ġpre uve
Ġlaiss erai
Ġvis age
Ġref usÃ©
Ġap art
Ġcher che
ex tÃ©rieur
Ġacc omp
Ġrencont rÃ©s
Ġfac ilement
Ġfem mes
Ġexpl ications
Ġword s
Ġir a
Ġhon te
Ġforc ed
Ġble ed
ĠÃ©ch app
Ãīt ait
ĠJap on
Ġgre en
Ġimm edi
Ġnombre ux
Ġpromis ed
Ġz oo
Ġrelax ed
Des c
Ġannoy ing
Ġdoll ars
Ġlos ing
Ġattent ivement
Ġdoi g
Ã©ch app
embrass er
Ġiv re
Ġextr Ãªme
ĠcÃ©lÃ¨ bre
H and
R un
V oud
m m
o ver
r am
Ġ H
Ġ ess
Ġt aught
Ġt aken
Ġs out
Ġs che
Ġd ents
is tes
en v
en ly
Ġc ig
Ġc aut
er ous
Ġn obody
Ġf asse
Ġb are
Ġb oit
Ġb read
Ġh op
un day
ed s
ri er
Ġle v
Ã¨ le
Ġli ved
Ġse lf
Ġte le
ien nent
Ġnot ice
ag eux
ang ez
Ġlo ck
ter n
Com p
Ġag rÃ©
Ġser ons
Ġmar ry
Ġdr op
iss ait
Ġlong ue
Ġsp l
Ġprend rai
Ġgl ace
En tre
Ġsent is
Ġmes ure
Ġstay ing
Ġold est
Ġplan e
Ġrep ort
Ġment ion
Ġfai lli
Ġgag ne
Ġcor de
Ġfriend ly
Ġcons tr
Ġproblem s
Ġparf ois
Ġrev iens
Ġforg ive
Ġcri er
Ġerreur s
Ġretour ner
Ġarg u
Ġsemb l
Ġclos er
ĠÃ©tudi ants
Ġabs ent
Ġleg s
Ġembarrass ed
Ġcas h
Ġanim aux
Ġmign on
Ġsucc Ã¨s
Ġcolle ge
Ġrat Ã©
Ġremer cier
Exc use
Che ck
ĠhÃ©r os
Ġjard in
B onne
I gn
n ess
u Ã©
Ġd ry
Ġp Ã¢
Ġp auv
Ġl Ã¨ve
om b
in ce
in ter
an se
Ġv us
Ġh Ã¢
Ġme c
Ġsu gar
Ġth reat
Ġr acc
ch ons
ic le
Ġse ated
Ġse rez
Ġles s
ust ing
Ġfait s
Ġav iez
Ġsh are
Ġau gment
Ġdes er
Ġlo cked
Ġdu mb
Ġgr ass
Ġcr oss
Ġhelp ful
Ġapp les
Ġapp rÃ©cie
Ġcomp liquÃ©
Ġthink s
Ġtou chÃ©
Ġcl aire
Ġcl ock
Ġpro c
Ġai ment
ress eux
Ġcou n
Ġple ut
Ġple ased
oth Ã¨
Ġpris onn
lo ck
Ġplay s
Ġrep as
Ġfai ble
Ġpa resseux
uck y
Ġmet s
Ġaime z
Ġten ir
Ġsing er
Ġenv ir
ĠdÃ©p Ãªcher
Ġpain ting
Ġamus Ã©
Ġbu ild
Ġviv ent
Ġmist aken
Ġdeven ir
Ġsal t
Ġdir ai
ĠintÃ©ress Ã©
Ġtick ets
Ãīc oute
ĠS unday
Ġenn uis
Ġtru c
Ġsport s
ĠCh ristmas
ugg ed
Ġmerve ille
Ġfis hing
ĠdÃ©g o
Ġridic ule
Ġenem y
Ġstun ned
Ġdispar u
Ġens uite
Ġash amed
Ġchick en
ĠmÃ©dic a
Ġunl ucky
1 3
A cc
A idez
D Ã©g
P rÃ©
R Ã©p
T ime
V oyez
h ol
m on
u de
Ġ ing
ou vert
Ġs ors
Ġp ois
Ġl arg
Ã© ment
Ġc ongÃ©
Ġf resh
it ut
Ġh am
ar iÃ©
Ġg Ãª
Ġg are
us se
Ġle ad
Ġsu m
id es
il t
Ġr h
Ġr ope
Ġbe ll
ch a
Ġli gne
Ġpr atique
onn aie
Ġan gl
av ion
Ġst reet
Ġfor ward
ac cep
Ġce ll
ĠdÃ© lic
ĠdÃ© Ã§u
Ġpour s
Ġat te
ol er
ff re
rai gn
ici eux
Ġal arm
ouv rir
Ġout r
imp ort
ind re
Ġcr it
Ġsi Ã¨ge
Ġtou ched
ck s
ack et
oul Ã©
Ġjam be
Ġatt ir
Ġstu ck
Ġpense z
Ġres ign
Ġsome where
St and
ven ez
Ġjou Ã©
Ġdrink s
Ġhappen ing
Ġint ention
Ġpat ience
Ġinc onvÃ©nient
Ġpu ll
Ġeas ily
Ġbless Ã©e
Ġsau ver
Ġchau de
Ġport able
App orte
Ġboy s
Ġphot og
Ġfoncti onner
ĠvÃ©rit able
Ġdir ais
Ġintellig ente
Ġbri ght
Ġgard en
Ġcop s
ĠdÃ©cid er
Ġpan i
hab ite
Ġste p
Ġamou reuse
Ġski ing
Ġinst ant
Ġeffray Ã©
Ġresse mb
Ġden ied
Ġcess Ã©
Ġfruit s
Ġchocol at
Ġwall et
Ġnet t
dÃ© jeun
Ġsignif ie
Gr ab
ĠCanadi an
Ġbirth day
hist oire
ĠagrÃ© able
E ur
f eu
g y
h or
i ff
l ine
u ire
v able
Ġt imes
Ġs Ã©p
Ġd ig
Ġp ush
Ġm ais
Ġm erci
Ġm aig
Ġc ir
Ġc ab
er c
in ture
Ġb and
qu et
it s
it ions
Ġh ug
Ġdo ors
ain es
ien nes
Ġall umÃ©
Ġgo al
Ġsom bre
Ġpour rions
ff ic
Ġar r
Ġfr ais
Ġex emp
Ġfe ver
Ġcomp t
Ġmar re
ass it
ord in
uit s
As se
Ġad dic
li bat
Ġfri ght
Ġfer me
Ġret raite
Ġsp ot
Ġsent ie
ra w
essay e
Ġvoul u
Be au
ĠdÃ©c ouvert
Ġfatigu Ã©s
Ġgrand s
Ġmont rÃ©
Ġrem ained
Ġinc or
Ġchat te
Ġprop res
Ġport ait
Ġidi ote
Ġcam ion
Ġdoct eur
Ġrapp ort
Ġfoncti onnÃ©
Ġtra h
Ġlear ning
ĠrÃ©veill Ã©e
Ġnu lle
Ġaur ait
Ġdri ves
ĠsÃ©ri euse
Ġaband onner
Ġsuiv re
Ġnerve use
Ġforc Ã©
Ġcond uit
Ġadm ire
ĠcÃ© libat
Ġrent rÃ©
Ġembrass Ã©
Ġtalent ed
Ġdel icious
fort able
ionn aire
Ġpleur Ã©
oubl ier
Ġprot Ã©g
Ġchocol ate
Ou bl
Ġendorm i
Ġennuy eux
Ġbelong s
Ġaccep tÃ©
Ġactuelle ment
Ã¨v re
Ġnons ense
Ġdim anche
Ġimmedi ately
Ign ore
Ġangl ais
Eur ope
d ge
i rent
p ris
r ut
s c
t a
Ġt ir
Ġt reat
Ġd ors
Ġp ack
Ġp ants
on te
Ġl ar
Ġl eurs
Ġm obile
Ġc ur
in f
ai ll
Ġf oi
Ġf out
Ġf li
Ġf lex
Ġv ole
Ġh uit
un d
Ġqu iconque
Ġne cessary
us te
et h
Ġsu dd
au rai
au rant
ke y
Ġin se
st er
Ġpar aÃ®t
Ġyour selves
ill y
Ġau riez
Ġje unes
Ãª che
ĠÃ© che
ĠÃ© veill
Ġgr oupe
Ġser iez
Ã©c u
Ġwhat ever
Ġma ch
Ġimp ro
Ġad resse
ress ive
Ġcomm is
Ġcomm un
Ġfin alement
ven us
Ġfl ight
az z
Ġear s
int ention
Ġaff ord
ĠÃ©p ous
Ġcontr ariÃ©
App elez
bl ing
Ġrapp eler
Ġbec ome
ĠprÃ©p ar
Ġcuri eux
Ġopt ion
Ġdispos ons
amp le
Ġgri mp
Ġoblig Ã©
Ġden y
Ġador able
Ġrais onnable
Ã©tud ie
ĠsÃ© jour
Ġlang ue
Ġconvain c
ĠfÃ¢ chÃ©
Ġrespons able
Ġasse oir
Ġgau che
Ġstri ct
Ġconfecti onnÃ©
Ġcompag nie
Ġescap ed
Ġsinc Ã¨re
het ic
Ġdest in
Ġcin q
Ġdistr act
Spe ak
Ġattract ive
Ġsche dule
Beau coup
D u
D ans
S chool
S ommes
V ois
b ook
d it
r or
s h
u mes
Ġ 8
re rais
Ġa ch
Ġd out
Ġd anse
is se
Ġm ood
Ã© m
Ã© rÃ©
Ġc ul
as si
Ġf ive
Ġf ab
Ġv irÃ©
Ġh ours
ar rÃªte
Ġne g
Ġun cle
Ġr oses
Ġhe ld
Ġli c
pp er
Qu oi
Ġas tu
end ons
ĠdÃ© Ã§
os en
rai ght
ob lig
Ġpart is
ap er
Ġche ated
Ġdis ag
Ġcomp lic
Ġdr own
Ġlove ly
Ġpro jet
Ġaller g
Ġoff re
Ġad op
Ġsome body
mer ic
Ġevery where
Ġrest aurant
Ġret ired
ĠdÃ©t endre
Ġid Ã©es
Ġenf in
Ġaut or
Ġor gan
Ġfl ics
Ġass ise
Ġmauvais es
mÃ© n
Ġcor ps
Ġim agin
Ġwalk ing
ĠsÃ»r s
Ġbou ger
Ġquit ter
ok es
Ġsau f
Ġsau vÃ©
Ġtour ner
Ġmov ies
ĠdÃ©b rou
Ġann ivers
Ġmen u
Ġjoin dre
Ġble u
Ġdep ressed
Ġtromp Ã©
Ġpropos ition
Ġactu ally
Ġproch ain
Ġconcer n
Ġtoilet tes
oubl iez
Ġridic ulous
Ġconvain cu
Ġabsolu tely
ĠrÃ©uss ir
ĠdÃ©pourv u
Ġloup Ã©
Ġconsc ience
Ġbleed ing
Ġsum mer
Ġrh ume
Ġsudd enly
A im
C ert
H Ã©
P ri
V os
e ch
y m
Ġ 5
Ġt or
Ġt ill
Ġs im
Ġp Ãªcher
Ġm idi
Ġn aked
Ġf ous
Ġb Ã¢t
Ġv ict
ar me
ent ly
Ġne ig
Ġun h
ri que
Ġre venir
Ã©t age
Ġe ight
Ġe lect
Ġch osen
ont er
Ġli qu
Ġnot iced
ag ne
ill ed
Ġgo s
ang Ã©
que lle
Ġfr ustr
Ġcr ow
Ġhelp s
Ġcomp any
Ġdi et
Ġser as
aime z
Ã» mes
Que lles
Ġjam bes
Ġbr isÃ©
Ġent er
Ġcour ageux
Ġpri v
Ġrest erai
Ġfin ir
Ġspe ech
Ġconf ess
ra pe
Ġbad ly
Ġfi ch
Ġvol er
Ġpu bl
Ġbou te
Ġtable au
Ġsau ter
Ġsit ting
Ġport er
Ġaw are
Ġviv ant
Ġhab ite
Ġdro ite
per ate
ĠpiÃ¨ ge
ĠrÃª ver
Ġgen erous
Ã©d Ã©
ĠÃ©ch ouÃ©
Ãīt ais
Ġvac ation
Ġcours es
Ġsuffis ant
Ġanim als
ĠprÃ©fÃ© rerais
Ġconcer ned
ĠD ieu
Ġyell ing
Dev rais
Ouv re
Ġcoo p
Ġguit ar
Ġfore ver
Ġruin ed
Ġrej oin
bel ie
rup t
ĠextrÃªme ment
Ġcig are
ĠhÃ¢ te
Ġlar mes
Ġannivers aire
0 13
D Ã©c
F o
H ier
L ock
M ange
N one
V er
b ing
c on
f riend
g o
i ant
i res
l s
m a
o z
o Ã¯
s es
w e
y c
Ġ ought
Ġt iens
is Ã©e
Ġm ise
an nÃ©e
Ġf ed
Ġb ody
Ġw ood
Ġv este
Ġv endre
qu is
Ġh om
Ġh ang
ar r
Ġg or
us ez
Ġre ly
Ġre cher
Ġsu ic
Ġj ume
Ġr Ã©e
Ġla dy
al es
Ġpr oof
Ġst raight
os tu
Ġar rog
ob Ã©
ĠÃ© lect
ouv re
ul ance
Ġfe ed
Ġdev ient
Ġcl ub
Ġcont inue
Ġmal in
Ġbr uy
Ġcar tes
Quel s
Ġwh ole
Ġarri Ã¨re
Ġcomm on
Ġspe ct
Ġporte feu
Ġdown stairs
Ġsent ait
Ġexp ert
Ġplay er
Ġvol ume
Ġregard a
Ġaim ons
Ch oose
Ġsing le
Ã©ri ence
Ġchange ment
Ġsecret s
Ġboy friend
Ġbu ilt
Ġtermin Ã©e
Ġprud ents
ĠdÃ©b arrass
Ġdir ait
Ġbri ef
oiss ons
Ġfollow ing
Ġaband oned
ĠprÃ©p arer
Essay ons
hab itude
Ġprem iÃ¨re
Ġtim id
Ġbill et
Ġteach ing
Ġtru cs
Ġ2 013
Ġsouh ait
Any body
Ġbout on
tur ned
Ouv rez
ĠÃ©te int
Ġambit ious
ĠÃ©cl at
Ġrav i
Dr ink
Ġdisg usting
Ġappar tement
Ġskin ny
ĠÃ¢g Ã©
Ġperplex e
Ġrelie ved
Ġapart ment
ĠmÃ©dica ments
dÃ©jeun er
Ġexemp le
Ġportefeu ille
A ustral
C le
C ut
P renons
R ends
b les
c lock
f le
i ke
m en
Ġ "
Ġs li
Ġd ot
Ġl ow
Ġm oit
er n
in tÃ©
ous se
Ġv an
ar bre
Ġme m
Ġre venu
Ġo dd
ay ez
ch ose
ad dition
ic ul
Ġse pt
Ġwas ting
Ġte ars
Ġte eth
Ġk itch
av es
Ġwe ars
am es
ion ary
Ġex erc
Ġex ample
Ġany where
ap s
Ã©c rire
Ġatt a
iss ons
iss ion
Ġpass ed
Ġple as
lÃ¨ ve
En joy
Ġexp er
Ġmo ved
Ġask ing
Ġaut our
Ġfai l
Ġsurpris es
Ġfatigu Ã©es
Ġgrand i
Ġmont h
Ġref us
Ġgar age
Ġhor reur
Ġwin ning
Ġansw ered
Ġcontinu a
App ortez
Ġeff ort
Ġmang ent
Ġcook ies
ĠdÃ©jeun Ã©
ĠÃ©g oÃ¯
Ġtra hi
Ġperfect ly
Ġbut ton
Ġhead ache
Ġhum ili
Ġcop ine
Ġsty l
Ġprod uct
Ġ1 9
Ġviend rai
Ġamb ulance
Dem ain
Ġtrave ling
Ġwom en
Ġfight ing
Ġmer c
Ġperm ettre
Ġstar ing
Ġscream ing
Ã©tud ier
Ġbother ing
Ġguit are
ĠnaÃ¯ f
Ġbot tle
Ġmoy en
ĠÃ©ner vÃ©
ĠprÃ©ci pit
Ġheav y
Ġaveug le
Ġpauv re
ĠcÃ©libat aire
ĠprotÃ©g er
Ġcomplic ated
Ġliqu ide
Ġpubl ic
Ġkitch en
C ons
O f
h ost
i ver
l us
l ier
o ll
p r
s ue
y o
Ġs qu
Ġs aut
Ġs cept
Ġs oph
Ġp aie
Ġm eur
Ġm ass
Ġc ostu
er k
Ġf ing
Ġw ore
Ġv ain
Ġh ar
Ġpas t
te red
oi gn
ri es
ri gu
Ġre jet
Ġj oy
au c
Ġth ie
il ar
Ġr Ã©t
Ġr ang
Ġla p
Ġla ke
Ġhe at
onn Ã©e
Ġk il
Ġan x
Ġwe apon
Ġgo ld
Ġon cle
app artient
ess ence
Ãªt res
Ġsee ing
si b
Ġdev int
ĠrÃ© al
uis s
Ġhas n
Ġmar ch
Ġtravai lles
Ġbl ood
Ġdr ug
ight ed
Ġfais ais
Ġcall s
Re c
Re viens
esp oir
ĠdÃ©s esp
Ġpos sib
ĠsÃ» res
Ġint rigu
Ġpa le
ild ren
Ġins urance
Ġaim er
Ġten u
Ġpu zz
Ġbou che
ok yo
Ġpain ted
Ġpers onnes
Ġcontr Ã´
Ġcontr Ã´le
Ġviv ons
Ġcri min
Ġfix ed
Ġtra ffic
Ġhum ble
ĠdÃ©m ar
Ġann ul
ĠfrÃ¨re s
Ġfen Ãªtres
Ġtow el
Ġstand ing
Ġexpect ed
Ġrare ly
Ġopt ions
Ġprudent es
exp liquer
Ġinvit Ã©s
Ġdel ighted
Ġtent Ã©
Ġmign onne
Ġpou let
Pas sez
istic ated
Ġtrans p
Ġurg ent
Conn ais
enf ants
Ġrecogn ize
Ã©tr anger
Ġhealth y
Ġchauff eur
Ġarrest ed
Ġmalheure ux
Ġbare ly
Ġpours ui
Ġmach ine
Pri ces
ĠrÃ©e llement
Ġspect acle
Ġcostu me
B r
O K
R ep
S end
T er
h um
o ard
o cked
r ouv
Ġ It
ou e
Ġt ienne
Ġa ille
Ġs ne
Ġs illy
Ġp ren
Ġp ig
Ġl aid
Ġl Ã¢che
Ġm Ãª
Ã© ner
Ã© quipe
in te
as y
Ġf ake
Ġf iche
ll o
Ġb ite
Ġb oisson
Ġb aked
at or
qu it
qu ette
Ġto oth
Ġg host
le vÃ©
ri ger
Ġis sue
our age
Ġj ug
Ġj acket
Ġo k
Ã©t ique
Ġth r
Ġr ose
Ġr ush
tu d
Ġpr ise
ag ine
Ġst ress
Ġcan ad
ang ed
Ġver rai
Ġam Ã©li
ens Ã©
ive d
moi re
Ġpart ons
Ġcr oy
Ġcr oit
Ġdis h
Ġdis tur
Ġapp artient
Ġno on
Ġcomp li
ro ad
Ã» te
Ġbl anc
Ġbr others
Ġres pe
Ġlong s
ation al
Ġsent ais
Ġsent ir
ĠmÃ© moire
Ġpos er
Ġhard er
enc y
Ġpe int
Ãī tud
Ġfi Ã¨vre
Ġmont Ã©
Ġmont er
Ġref aire
Ġsupp orter
Ġpol it
Ġfu ture
ĠÃ©tud ie
Ġrun s
Ġbless Ã©s
Ã©p ous
Ġris ques
Ġkeep s
Ġmag az
ites se
zz y
Ġvoi ce
Ġir on
Tr ust
Ġhum eur
Ġswe ater
Ġdri ver
Ġdream ing
Ġresp ond
Ġart ist
Ġreconn u
attend rai
Ġnombre uses
Ġclear ly
Ġbur ned
ĠlÃ©g er
ĠlÃ©g umes
Ġimpressi onnÃ©
Ġinj uste
Ġgiv en
Ġignore d
ĠprÃ©v u
ĠrÃ©g ime
ĠÃ©cout Ã©
Conn aissez
Ġdict ionnaire
Ġdict ionary
Ġneighb or
Ġcach Ã©
Ġfuri eux
Ġpopul ar
Ġjapon ais
Ġincred ible
Ġdoig ts
Ġmerveille use
ĠdÃ©go Ã»t
Ġboute ille
belie vable
Ġmoit iÃ©
. "
D Ã©t
F ill
L ove
L Ã¢che
M angez
N ice
P art
W on
l ate
l ation
o es
p es
p ar
p are
t ime
Ġ 9
Ġ Europe
Ġt el
Ġt ient
re ct
Ġa illes
Ġs ke
Ġs aint
Ġp it
Ġp oin
Ġp oup
Ġp ier
Ġl end
Ã© ra
Ġc Ã¢
Ġn av
Ġn Ã©e
ai es
Ġv idÃ©
at re
at if
Ġde af
or ient
ent raÃ®
Ġg arer
Ġg ym
Ġme cs
ri ge
our di
Ġtr om
Ġtr ad
Ġj azz
Ġla vÃ©
Ġch ur
Ġin ut
Ġpar ie
Ġpar lent
Ġpar lons
ac er
ur n
am en
ĠdÃ© mÃ©n
Ġlike ly
oy a
ul te
si eds
Ġab road
if y
Ġdi zzy
Ġtou cher
La quelle
ass Ã©
Ġbl onde
iss ant
li que
mer g
Ġcour amment
Ġcou ch
Ġvoiture s
En f
Ġexp liquer
Ġjou ez
Ġpos itive
Ġpe ace
Ġor anges
All ume
Ġtrouv Ã©e
Ch ange
Ch ildren
Ġinc ons
Ġsho e
ĠÃ©tud iÃ©
Ġcons cient
Ġsk ier
Ġperd ue
Ġbou ge
ĠT okyo
Ġpers onn
ĠrÃ©veill er
Ġpo em
Att ention
Ġwindow s
emp orter
Ãīc ris
Ġpan ne
Essay e
Ġaccept able
Ġrob bed
Ġart icle
by e
attend ais
Ġtas te
Ġferm Ã©e
Ġarriv Ã©e
Ġsouff le
ĠprÃ©fÃ© rÃ©
Ġjet er
Ġrum or
Demande z
adm ire
ĠG od
Ġservi ette
Ġfact s
Ġrecogn ized
Ġfantast ic
Ġfantast ique
hÃ´ tel
Per m
Ġreconnaiss ant
Ġcaut ious
import ance
Oubl iez
Ġflex ible
Ġlic enci
Ġunh appy
Austral ie
Ġsoph isticated
Ġpoursui v
Ġok ay
ĠamÃ©li or
Ġske pt
Ġchur ch
B ois
E mm
H ang
P ro
R endez
S te
S al
a h
c tement
d o
e ared
e uses
f a
r omp
r oss
Ġ 7
Ġt ense
Ġs ince
Ġp on
Ġl ourd
Ġm aman
Ã© lic
Ġn i
Ġb Ãªte
Ġw ounded
Ġv itesse
un ate
Ġde f
us ual
Ġun usual
Ġme al
Ġre mp
Ġre turned
Ġle ast
Ġj okes
Ġo re
Ġen vers
ave d
il ise
Ġpr on
Ġwas hed
Ġte x
Ġte xt
Ġpar v
Ġall Ã©es
ill Ã©s
ut Ã©
Ġdon c
ore s
Ce lle
ici ent
Ġam en
Ġus eless
Ġcr Ã©d
Ã® t
ense ign
Ġcont ag
ass er
Ġbl ag
On t
Ġent raÃ®
Ġcar s
Ġdem i
ick y
ast ic
Ġad orent
li ke
Ġren v
Ġcour u
ĠprÃ© venu
Ġhur ler
Re mpl
Ġvu es
Ġtom be
lo ge
ĠmÃ© chant
Ġstud ied
Ġint ro
ĠprÃªt Ã©
Ġca res
Ġca cher
Ġgrand es
Ġfi anc
Ġsouv enir
Ġfam ili
Ġins ane
Ġtravaill ons
Ġrem ind
Ġinc omp
Ġprom esse
Ġpol i
Ġpol ici
Ġcons t
Ġchant Ã©
Ġtw ice
Ġparf aite
Ġrev iendrai
Ġphot os
cept ion
Ġtri ck
Ġdeven ue
Ġsal es
Ã¯ n
Ã©r ons
Ġbi bli
ĠrÃª ves
Ġperson al
Ġsenti ment
Ãīc outez
Ġbat tu
Ġsour it
Ġfool ish
ĠconnaÃ®t re
Ġconnaiss ance
ib i
Ġsuit c
Auc une
aff aire
Ġjal ouse
Ġambit ieux
Ġurg ence
Ġmord u
Ġsoul agÃ©
Ġcho quÃ©
Ġoise aux
ĠdÃ©pri m
Pard on
ĠÃ©puis Ã©
Ġpie ce
Ġfoc used
Chois is
ĠsÃ©p ar
ĠÃ©goÃ¯ ste
B uy
N on
b on
e ff
i al
l ise
m ed
r u
r age
u ves
ou nt
Ġs ir
Ġl and
Ġm iens
Ġm att
Ã© f
Ġc ust
Ġc red
Ġn ap
Ġn ine
as hed
Ġf ate
Ġf uss
Ġb oi
Ġv int
at tu
at iques
un der
or c
Ġg el
Ġqu atre
Ġle ak
ow s
Ġj ail
Ġo cc
Ġth ird
Ġr aise
Ġse ven
Ġpr act
im itÃ©
Ġpl ant
Ġall ow
av ance
ill age
Do g
Ġso ci
Ġri z
Ġri ce
app ellerai
ci ous
ci le
ct ive
onne ct
res p
mp e
Ġam our
Ġgr ad
Ġche ese
Ġag ir
ack s
Ġman age
Ġman ager
Ġco Ã¯n
Ġnow here
Ġfer ons
Ġcour te
Ġpri ze
ven ues
Ġconn u
ĠdÃ©t endu
Ġgl o
Ġrend ue
ond s
Be at
Ġmo que
Ġrep ly
enc es
Ġgu est
Ġchoi ces
Ġcoup Ã©
Ġlaiss Ã©e
Ġemp ortÃ©
Ãī te
Ġinv est
Ġpat tes
Ġpat hetic
Sh all
Ġperd s
Ġmis under
Ġhor rif
Ġgent le
Ġport Ã©
Ġcontinu ait
Ġdisc ours
ject ed
isÃ© ment
ĠA meric
Ġdess ert
ĠcoÃ» ter
rou ille
Ġhands ome
ĠdiffÃ© rence
Ġdiffe rence
Ġsty le
Ġesc al
Ġabs ur
Ġforc Ã©e
Ġaccept ed
Ġenseign er
Ġconnaiss ons
Ġdonn erai
Ġbar be
Ġtot alement
Ġcous ins
exp Ã©rience
Ġinform ation
Ġtre mb
Ġpun ished
Ġobject if
Ġfant Ã´
Ġcess er
Ġexcit ing
Ġreason able
Ġdirect ion
Ġrum eur
enn uy
enn uie
Dr op
Ġprin temps
Ġneighb ors
Ġplain dre
hÃ´ pital
Ġoise au
Ġpromen ade
Ġdet ails
Ġev idence
co hol
ĠhÃ´ tel
Ġfig ure
Ġcontrari Ã©e
Ġveget ables
otion al
Ġbark ing
Ġcuisin ier
Ġmalch anceux
Ã©chapp er
Ġspl it
Ġcoun ting
Ġbuild ing
Asse yez
Ġdistract ed
Fo llow
Ġmem ory
Ġmisunder st
C al
D ieu
G od
L ui
N os
P ars
S ans
d is
i as
i us
j am
n eu
o ff
r ob
Â «
Ġ 6
Ġt ap
Ġt endu
Ġt irer
Ġm as
Ġm id
Ġm ic
Ġm onnaie
Ã© ant
Ġc ent
er ing
Ġf ain
Ġb isc
Ġv ase
Tom orrow
un ch
Ġde li
Ġqu art
Ġun s
Ġun de
oi de
ri v
id able
Ġj ui
Ġj erk
Ã¨ che
Ġth row
Ġr on
Ġr aff
Ġch all
Ġch ess
Ġin fect
Ġli br
ic ace
Ġse a
im agine
Ġan t
Ġpar lait
Ġst one
Ġcan ce
ac ter
Ġas ide
all ons
ure z
ĠdÃ© v
ĠdÃ© ch
Ġso fa
Ġfait h
Ġpour riez
Ġdes p
mp ed
Ġlo y
Ġfr oide
ui vez
ul s
her be
if ied
Ġdi pl
Ġgot ten
ne y
Ġser t
ab ord
Ġbl ank
Ġent h
Ġatt ack
ign it
Ġsou d
Ġimp ol
Ġimp uiss
Ġta qu
Ã¢ chez
Ã´t res
Ġpass port
ĠdÃ©t end
Ġsens ible
Ġprob able
Ġdou Ã©
Ġtrouv ait
Ġfi ers
Ġdemand a
Ġchang es
Ġprom ets
Ġmort es
erci ce
Ġcham p
Ġwar ning
Ġbeg un
ok er
ĠÃ©p ouse
Ġrain ed
ĠgÃ© nie
rif ic
Ġvoi lÃł
ject ion
Ġpuis s
Ġpasse port
Ġconv ient
ĠcoÃ» t
ĠcoÃ» tÃ©
Ġaur as
Ġgard Ã©
ĠdiffÃ© rente
Ġgen ius
ĠintÃ©ress Ã©e
Ãīc rivez
Ġarm ed
ib les
Ġsuper be
Ġart iste
Ġpic tures
Lis ez
Ġattrap er
Ġoblig Ã©e
Ġapolog y
Ġrisk s
Ġeng ine
Ġembrass er
Ġperm is
Ġdist rait
ĠCan ad
adm ets
Ġexam en
ĠnaÃ¯ ve
ĠprÃ©c isÃ©ment
Ġcand le
Ġprog ram
Ġlim ite
Jou ons
Comm ence
Ġobs erv
Ġmoy ens
ĠdÃ©l icieux
Ġgrossi er
ĠÃ©n orme
Ġunf air
Ġsympath ique
Ġself ish
Ġfright ened
ĠÃ©che cs
Ġdrown ed
Ġarrog ant
Cle an
Ġpoup Ã©e
Ġtrom pe
Ġskept ical
Ġbibli othÃ¨
Ġmatt ers
ĠcoÃ¯n cidence
Ġchall en
B u
B ou
C oupe
R ed
R ela
S ign
T alk
U se
V Ã©ri
b b
b um
c ool
c ture
o de
t ons
ou ill
Ġt ig
re uses
Ġs ain
Ġd or
Ġd am
Ġd ating
Ġp in
Ġp Ã©n
en Ã§ons
Ġm ost
Ã© ro
Ġc it
Ġc ase
Ġc reat
Ġc ards
Ġn ar
Ġn ier
he ur
Ġv endu
Ġv Ã©cu
qu a
it ated
Ġh ais
Ġh ers
un ivers
Ġde fe
us Ã©e
eu l
Ġre mb
Ġre li
Ġre lig
our ces
id Ã©es
Ġtr apped
ce ment
au te
Ã¨ se
Ġr ace
Ġch in
Ġit s
Ġli bres
Ġpr ay
Ġpr ude
Ġwas hing
ver rai
ie uses
Ġpl at
Ġpar lais
Ġcom fortable
ag ner
ag issait
av is
Ġst ink
ac y
ur Ã©
ut ilise
Th ree
Ġso re
Ġri ches
app rends
Ġav oid
Ġsh all
ff Ã©
rai ent
Ġlo aded
Ġal cohol
Ġwor st
aut res
ul tÃ©
Ġsur venu
Ġab as
Ġdev ais
ĠrÃ© f
Ġcr ue
Ġcr aint
Ġsi ght
Ġsi ff
Ġcomp et
Ġdi ary
mb ers
Ġman qu
Ġco ffre
ab b
Ġcont rib
Ã©c ris
Ġbl Ã¢
Ġbeau x
Ġatt acked
Ġbon jour
As sieds
aÃ®t re
Ġwh ist
St art
Ġcou ver
Ġcou gh
Mon te
ĠdÃ©t ails
Ġven us
Ġven ez
Ġconf us
En v
Ġter m
toi e
Ġrend it
Ġrend rai
Ġhand led
ond uis
Ġsc are
ĠmÃ© pris
oud re
Ġgu ide
anc er
att rap
Ġtrouv es
Ġrec rut
Ġins ist
Ġpat h
Ġsho ck
Ġconfi ant
Ġbuy ing
ex amen
Ġend ed
Ġear lier
Ġstr ugg
Ġbless Ã©es
Ġprop ri
Ġpain t
ĠÃ©p au
Ġeff ront
ĠgÃ© rer
Ġtour ne
Ġvois ins
Ġsal ade
Ġbag ages
Ġord ers
Ġord res
olog ist
Ġfall ing
Att rape
Ġfilm s
Ġeven ing
emp Ãªcher
Ġmari Ã©s
Ġmari age
ĠÃ©tudi ante
ĠsÅĵur s
Ġforgot ten
Ex p
Ġsour d
Ġsour is
Ġteach ers
Ġsnow ing
Ġcoin cidence
ĠCh in
Ġtre mp
Ġarriv Ã©s
Ġinvit Ã©e
Ġpick ed
Ġfour n
Ġbas ket
ĠmÃ©rit Ã©
ionn el
Ġcre ep
Ġbal d
Ġgiv ing
Ġvot Ã©
Ġprot est
Ou blie
Ġhid ing
Ġviol ent
aim ait
Ġrequ est
Ġgrow ing
Ġlos er
Ġsel on
ĠfÃ¢ chÃ©e
ĠbrÃ» lÃ©
Exc usez
Ġloud ly
Ġpouss er
exc user
Ġressent i
Ã©cout er
ctob re
ctob er
Ġhop eless
Entre z
Ġconstr uit
Ġcross ed
Ġclaire ment
Ġenvir on
ĠdÃ©lic ieuse
oublier ai
Ġvole ur
Ġdisag ree
ĠbÃ¢t iment
ĠcontrÃ´ ler
Ġthr ough
Ġore illes
Ġcred it
Dog s
Ġjui ce
ĠbibliothÃ¨ que
Rela x
VÃ©ri f
A h
B aisse
C ats
F ind
J us
P eu
P ass
S p
T our
b s
b ri
d rai
h y
i onne
i pt
m oin
n om
n ight
o h
o ved
r ance
s er
t tes
u pp
w ards
Ġt ar
Ġa ig
Ġa raign
Ġd om
Ġd omm
Ġp orc
Ġp neu
is ez
Ġl ave
Ġl oss
an n
Ġb arg
at oes
Je tte
qu Ã©s
qu Ã©es
Ġh ire
Ġh ob
ent end
Ġqu as
oi ent
our aged
id ers
Ġtr ap
Ġj a
Ġo ctobre
Ġr it
Ġr ough
Ġr ats
Ġe merg
Ġin hab
st Ã¨me
onn erai
ir ing
Ġan c
ac un
ac Ã©e
am Ã©li
Ġso yons
Ġav ail
ort un
Ġsh out
Ne w
Ġlo yer
Ġal bum
Ġpart it
Ġpart ies
Ġab e
ĠrÃ© alitÃ©
Ġcr ack
Ġcr ains
Ġdis ent
Ġapp a
Ġsi ze
Ġcomp renez
Ġdi rige
Ġcl ient
Ġhis t
Ġma j
Ġwill ing
Ġent rÃ©
Ġcar ry
ord re
ast ique
rÃ© h
Ġren vers
Ġren tr
Ġfer ait
Es p
Ġcour ut
Ġrest Ã©e
Ġnouve l
Ġoccup er
ĠvÃ© h
Ġtell ing
Ġjou eur
Ġvie w
Ġpe inture
Ġexc itÃ©
Ġchance use
Ch aque
Ġac ross
Ġpu lled
Ġense igne
Ġchant eur
Ġquit te
vert i
ok en
Ġunderst ood
Ġgent ils
Ġact ed
ĠO ctober
Ġrou ges
Ġunderstand s
Ã©p oque
Ġweek end
Ġreal ized
Ġsy stÃ¨me
Was h
Ġord re
Ġvoi e
Ġir re
Ġyoung er
Ġlisten ed
Ġchauss ettes
emp loi
Ġmor al
Ġnear by
Ġbat ter
Ġpan ic
ĠdÃ® nÃ©
Ġconnaiss ais
Ġdep uis
Ġste al
Ġtru ly
Ġembarrass ing
ari an
Ġfa usse
Ġapolog ized
Ġbur st
ove red
Ġress ens
Ġval ise
Ġval ises
inqui Ã©ter
Ġind ign
Ġexcell ente
Ġterrif ied
ĠAustral ie
Ġentend ue
Ġfascin ating
Ġjump ed
Ġmir acle
Comm enÃ§ons
Ġmotiv ated
Ġdivor ced
Ġbaiss Ã©
ĠÃ©ner v
Ġvolont aire
RÃ© flÃ©ch
ĠdÃ©pri mÃ©
ĠtÃ©lÃ©phon Ã©
ĠnÃ©g lig
Ġopp os
Ġhabitu Ã©
Ġromant ic
Ġlead er
Ġpratique ment
Ġphotog rap
Ġimagin ation
Ġtor tu
quis ition
Ġgor ge
Ġexerc ise
Ġfing ers
Ġthie f
ĠdÃ©mar rer
Ġmagaz ine
ĠcÃ¢ lin
ĠvidÃ© o
Ġinut ile
Sal ut
Ġsince re
ĠcrÃ©d it
Ġfamili ar
Ġcust om
Jus qu
Ġaraign Ã©es
Ġbarg ain
Ġemerg ency
Ġavail able
B l
C onduis
F iche
M ove
S m
S uivez
T ie
V oyons
b u
c an
i Ã©e
j ud
o x
r op
t ain
u te
w are
Ġ Y
Ġ Par
ou le
Ġt at
Ġt ong
Ġt akes
Ġt ires
Ġs ons
Ġd oul
Ġp Ã©ri
Ġn Ã´tre
as ing
as sez
Ġf le
Ġf al
Ġb ow
Ġw it
Ġv ul
Ġv ache
Ġv irer
it Ã©s
Ġh i
Ġh ugged
ar c
Ġde ce
ent ez
Ġg ig
eu le
ri me
ri be
Ġre tu
Ġre pe
Ġre jected
Ġo d
Ġdo z
Ã¨ ce
Ã¨ ter
Ġr omp
Ġbe ar
ch on
The ir
Ġin Ã©v
al ed
al cool
Ġli es
ver ted
Ġk icked
ag ir
ag ez
Ġst ared
ac quisition
Ġwe ap
all ais
ĠdÃ© ce
Ġso cks
Ġknow n
Ġar mes
Ġal ike
Ġal ibi
Ġfr Ã©
ul er
Ġany way
Ġgr own
si ons
Ġgood bye
Ġhas ard
Ġag g
Ġser p
Ġser ont
Ġman quez
Ġco ach
Ġcont ents
Ġper te
Ã©c oute
Ġdr ag
Ġpro j
iss ent
um mer
ress ion
Ġeat s
ĠprÃ© venir
ĠprÃ© venue
Ġsp y
ĠÃ©c oute
ĠÃ©c ras
Ġcare less
Ġjob s
ĠdÃ©s orient
Ġfo lles
Ġrep roche
Ġment euse
Ġgu eule
Ġpre uves
Ġbig ger
Ġint im
Ġcoup er
Ġhear ing
Ġca used
Ġfi able
Ġfam il
Ġvis a
Ġdisp on
Ġdisp uter
Ch ristmas
Ġtravaill ent
Ġkid n
Ġrem ain
Ġrem onter
Ġcor riger
Ġcher ch
Ã©g lise
Ġstup Ã©f
Ġsau ra
Ġeff icace
Ġtrois iÃ¨me
Ġdro gu
Ġtour nÃ©
Ġsil enc
Ġsal ad
Ġbag s
Ġsatisf aite
Ġcondu irai
Ġretour ne
Ġretour nÃ©
Ġvoi ci
Ġpap a
Ġmin ce
Ġsto pping
Ġcop y
itu el
Ġworry ing
Ġmarcher a
Ġprison ers
Ġcond itions
Ġble w
Ġterrible ment
Ġclean ed
Ġfum Ã©e
Ġbill ets
ĠrÃ©s olu
ĠrÃ¨g le
Ġconnaiss ent
Ġdep end
Ġbox es
Ġbar b
ĠÃ©tr ang
Ġarriver a
ĠlumiÃ¨re s
Ġanim al
Ġeng agÃ©
Ġeng aged
Ġtemp Ãªte
Ġress ources
Ġnote book
Ġobject ive
Ġform idable
Ġpress Ã©
Ġconcent rer
Ġpard onner
Ġviol ence
Ġlang u
Ġcharg Ã©e
erv ation
Ġenem ies
pir ation
DÃ© b
Ġcow ard
Ġcheer ful
Ġexplos ion
Cr ois
Ġeffe ctu
Ġadv ance
Ġcer cle
Disp osez
Ġmedic ation
Ġromant ique
ĠÃ©chapp Ã©
Voud riez
ĠpÃ¢ le
Ġpois on
accep ter
Ġnett oyer
Ġincor rect
oblig e
Ġrecher che
Ġscept ique
Ġmass age
Ġcompli ment
Ã©pous er
Ġlicenci Ã©
Ġgentle man
Ġescal iers
Ġmisunderst ood
Ġlibr ary
Bu vez
Ġcreat ive
Ġnar row
Ġchin ois
Ġquas iment
Ġinhab ituel
Ġdoul ou
Ġretu rn
Ġweap ons
A dd
C her
F rench
L uck
S ou
a llez
c ure
f ois
g Ã©t
g al
g ie
g ue
g nÃ©
i vez
k s
k ing
l come
n s
r onne
r ate
r ase
s w
Ġ ille
Ġ Thomas
Ġt aire
Ġs aign
Ġp us
Ġp ag
on ce
Ġl Ã¢
Ġm ons
Ã© lÃ©
Ã© ni
Ġc ing
Ġc oul
Ġc ream
in et
Ġn one
Ġn ie
Ġn ur
Ġn atur
ai gne
Ġb eur
Ġb ug
ous ias
Ġw re
Ġv ends
Ġv ague
Ġv iennent
Ġto p
us ion
Ġun d
Ġun p
ot t
oi l
our ce
Ġtr ac
Ġj uge
il ing
Ġr ug
Ġe vent
Ġch asse
We lcome
Ġse x
Ġse par
oo s
Ġpar tez
av ions
ill eurs
ut ilis
Ġkn ocked
Th row
app ro
ci eux
Ġsh ake
Ãª tu
ul aire
Ġpart ici
Ġpart age
ap es
Ġgr oup
Ġhelp less
Ġno vel
Ġcomp lex
Ġcomp rÃ©h
Ġdi rig
Ġtou chez
ense igne
Ġser ved
Ġmar ier
Ġbl uff
Ġent ered
Ġai es
ud d
Ġad ult
Ġres ource
ress ing
Ġtalk s
Ġfer ions
Ġrest ed
Ġpi Ã©g
Ġid ent
Ġpay ing
Ġenf re
ĠrÃ©p Ã©ter
ĠvÃ© gÃ©t
ĠÃ©c riv
Ġpos ition
Ġfo ld
ĠdÃ©c l
Ġvie il
Ġgu ard
Ġfl in
Ġlaiss a
ĠprÃªt er
Ġstart ing
Ġcha leur
Ġtrou b
Ġchang ing
Ġnouveau x
Ġenv y
Ġtrust s
ex ercice
Ġperd us
ĠarrÃªt Ã©e
Ġamus ed
Ġamus Ã©e
Ġbit ter
Ġpetit s
Ġtermin er
Ġcomment aire
Ġmeill eurs
Ġcri Ã©
Ġsign Ã©
Ġsign ed
Ġmange a
Ġdead line
Ġidiot s
ĠJ acks
Ġown s
ĠdÃ©r angÃ©
Ġpo Ã¨me
Ġcorre ctement
Ġdream s
ĠprÃ©p are
ĠprÃ©s ente
Ġble ue
Ġteach es
Ġstrong er
ib ly
Ġchev aux
Ġste ak
Ġcost s
Ġinst itut
gu ard
Ġinform Ã©
Ġvide o
Ã¨ve ment
ctu al
Any one
ĠprÃ©sent er
Ġhigh ly
Ġsouff re
Ġbegin ning
Ġpou le
Ġstar ving
Ġhaut eur
Ġgiv es
Ġvot ed
Ġjol i
Ġscream ed
Ġexcit ant
Ġpai erai
ĠvÃ©rif iÃ©
Ġdoub ts
Ġem otional
00 0
Ġremer cie
Ġcharg er
Rem ain
Av ons
Ġabsolu ment
Ġcand les
Ġpur p
Ġpur se
ett ons
lev ant
Ġsuppos Ã©
Ġsuppos ed
Ġprofond Ã©ment
Ġpower ful
ĠgÃ©nÃ© reux
Ġrel ated
Ġopp ortun
Ġlog ique
ĠÃ©m ot
Retour nez
An sw
Ġgrat uit
Ġhyp oc
Voud rais
Ġtele phone
tern ative
Ġsembl ant
Ġthreat ened
Ġdeser ves
Ġdeser ved
Ġing Ã©n
Ġatte int
Ġfonctionner a
Ġmaig ri
Ġneig er
Ġcigare ttes
Ġstyl ish
Ġproduct ive
Ġpuzz led
Ter rific
Ġnav ire
Ġrenv oyÃ©
Ġtong ue
Ġproj ets
Ġille gal
Ġbeur re
Ġresource ful
Answ er
E ven
F r
L eur
L Ã¢chez
M Ãªme
N ett
P le
T oi
k ward
m ar
m et
n ant
n eur
n ique
r ain
r od
r ouve
x imitÃ©
Ġ 3
Ġ W
Ġ ils
Ġa it
Ġa urez
Ġa illeurs
Ġs onne
Ġs age
Ġs ist
Ġs Ã¨che
Ġs arc
Ġd y
Ġp ous
Ġp ure
Ġp renons
is m
on du
en nem
Ġl ay
Ġm eu
Ġm ail
Ã© l
Ã© tez
Ġc age
Ġc onnect
om bre
Ġn ag
as ion
Ġf ought
Ġb Åĵ
ous t
Ġw he
Ġv oyez
qu al
it aire
it ez
Ġh o
Ġh Ã©s
ar ch
Ġto es
ed ding
Ġun lo
ot i
ot er
Ġtr ous
Ġtr aite
Ġtr aitement
Ġj eux
Ġth in
Ġr oi
Ġr ad
Ġr oul
Ġbe ard
Ġhe ur
ch antÃ©
Ġin e
ic ule
pp e
Ġte lle
Ġpar i
Ġpar l
Ġcom bat
Ġall ongÃ©
Ġst orm
Ġst amp
Ġwe igh
Ġce le
Ġas si
Ġmy ster
all owe
app elles
ess ai
Ġsh ave
Ġsh ape
ct ion
Ġar bres
ouv rez
Ġgr ab
Ġgr ound
Ġab attu
Ġche cked
ĠrÃ© vÃ©
Ġsa f
Ġdi am
mb re
Ġcl a
Ġser rÃ©
Ġman ques
use ment
Ġbl ow
Ġpro ches
Ġpro ximitÃ©
Ġbr an
Ġbr ag
iss ue
Ġimp orte
Ġimp li
Ġad ulte
Ġres tez
Ġres cu
Ġrest a
Ġrest ait
Ġspe ed
Re cu
Re venez
Mon tez
Ġro ll
red i
Ġsc ar
Be ware
ĠmÃ© ch
ĠtÃ© moin
ĠdÃ©c Ã©dÃ©
Ġrep air
Ġstud ies
ĠtÃ©lÃ© vis
Ġcoup s
Ġexc ess
Ġour selves
Ġbelie ves
Ġrec overed
Ġmiss ion
Ġass urance
Ġemp Ãªcher
Ġinv ent
Ġfrom age
Ġins ens
Ġpat ronne
Ch ante
Your s
Ġinc l
Ġbo ld
ph ants
ĠdÃ©p l
Ġpol ie
Ġfu lly
Ġacc ro
Ġmis er
aider ai
Ġemb au
Ġrencont rÃ©e
Ġrencont rÃ©es
Ġconc lus
Ġsound ed
Ġcu ill
Ġaff am
Ġgent illes
Ġmess ed
Ġchau ve
Ġuse ful
Ġtw in
Ġplais antes
Ġaw kward
Ġappel Ã©e
Ġbu v
Am Ã¨ne
Ġsy ste
Ġarg ue
Tr ois
Ġhead ing
bÃ© cile
Ġdess in
Ġaur a
Ġnews p
Ġregret ter
ĠdiffÃ© ren
ignore r
Ġmen ace
Ġmor ce
ĠbÃ© nÃ©
Ġclose ly
aw n
Ġpan icked
Ġprod uire
ĠrÃ©s ult
ĠÃ©ch ou
Ġinqui ets
Ġfeeling s
Ġmenti onnÃ©
Ġembarrass Ã©
Ġfrapp a
Ġdispos ent
Ġill Ã©g
Ġcoin c
Ġinform ed
Ġtre es
Ġarriv a
Ġinvit ation
ĠprÃ©fÃ© rÃ©e
ĠdÃ©missi onnÃ©
Ġnois y
ĠmÃ©rit es
ĠmÃ©rit ez
hi ver
Ġassist ant
Ġvot er
Ġpleur ait
Ġyell ow
Ġannoy ed
Ġmod el
Ġsatisfait s
Ġbath room
Ġem ail
idÃ© rÃ©
Ġsuggest ion
Ġmur der
Ġdesc endu
Av ance
Ġding ues
Ġsusp icious
ĠrÃ©c up
Ġflu ent
Ġpsych ic
Ġrece ipt
Ġbanan es
Ġbanan as
Ġplaisante z
Ġcertaine ment
Ġfoc us
Chois issez
Ġbrill ant
Ġoptim iste
Retour ne
ĠÃ©lÃ©g ant
Desc ends
ĠH allowe
Ġtele vision
Ġargu ing
Ġargu ment
Ġoutr aged
Ġaddic t
Ġaddic ted
ĠÃ©veill Ã©
ĠÃ©pous Ã©
Ġgrimp er
Ġsim ilar
Ġfich ier
oz en
Ġsaut Ã©
Ġrejet Ã©
ĠdÃ©sesp Ã©rÃ©
Ġrespe cte
Ste p
Ġpolici er
Ġsuitc ase
Ġbisc uits
Ġloy al
Ġenth ousias
Ġabas ourdi
Ġhob by
amÃ©li ore
ĠPar is
Ġdoulou reux
ĠvÃ©gÃ©t ar
Ġsist ers
ĠtÃ©lÃ©vis eur
Ġsyste m
ĠHallowe en
C eux
D raw
G ri
H ab
L ance
P ick
P ortez
S ave
S tu
T ou
U t
a Ã¯
c onque
c ieuse
g les
g led
i eur
m ate
p ock
r ounded
t Ã©e
u ll
u el
Ġ K
Ġ eur
Ġp y
Ġp ont
Ġp ue
Ġp ige
Ġp oissons
Ġl une
Ġm oust
Ã© lu
Ġc ong
Ġc asse
Ġc ache
Ġc inÃ©
er ons
om ed
in v
Ġn ic
as c
Ġf ence
Ġb en
Ġb ass
Ġb anc
Ġw edding
Ġv ig
at a
at eurs
at ives
Je tez
ve lo
Ġh all
ar ante
Ġto y
ot es
Ġme l
te en
Ġre mpl
id ents
me mber
Ã¨ tes
lle y
Ġr af
Ġr abb
Ġch i
Ġch ances
ch Ã©s
al y
He llo
ir ons
Ġpar te
Ġpar la
Ġall ait
ill Ã©es
Ġst raw
ac tÃ©
op in
ez ing
Ġav ion
Ġsh if
ct s
ici an
Ġal ent
Ġfr ozen
Ġsur rounded
Ġdu mped
Ġgr ounded
Ġdev iens
Ġcr ain
Ġcr oir
Ġdis s
Ġbien venue
Ġcomp at
Ġcl oud
Ġser rer
Ġman che
Ġmar ket
Ġtravai llez
Ã©c art
Ġbl ond
Ġbl anche
Ġjust ice
Ġquel conque
art h
Ġent ire
Ġcar p
Ġstu bb
Ġsou c
Ġva leur
ast ed
Ġres ist
Ġcomm it
Ġpri or
Ġpri de
ĠprÃ© nom
Re member
Ġsp ring
ĠdÃ©t r
Ġprend ra
Ġsent ence
Ġsec r
Ġpartir ai
Ġhand ed
Ġover re
Ġover work
Ġsc ary
ach Ã¨te
Ġment ez
Ġdou x
Ġessay a
Ãī loi
Ch acun
Ġrem oved
mÃ© rique
Ġbo ots
Ġcle fs
Ġcher ches
Ġwalk s
Ġacc used
Ġmay or
Ġconc lu
Ġcal mes
Ġwin ter
Ġhun g
Ġrou g
rest im
Par lons
Ġhab illÃ©
Ġprof onde
Ġdro ve
Ġcri e
Ġnour ri
ĠJ oh
Ġsem aines
olog ue
Att ache
Tr avai
Ġfou le
Ġdemande z
Ġru b
Ġswe at
ĠdÃ©cid a
Ġsus hi
Ġsong s
Ġattend ait
Ġsuc rÃ©
ĠmÃ©de c
Ġ1 0
Ġregarde z
Ġcuri os
Ġenseign Ã©
Ġwrit er
Ġinqui Ã¨te
Ġchans ons
ĠÃ©tr anger
Ġfrapp er
lect ed
Ġsold ats
Ġsold iers
Ġrisk y
Ġinform ations
Ġferm a
Ġferm Ã©s
ĠdÃ©f i
Ġsugg Ã¨re
Ġinvit Ã©es
ĠprÃ©sent Ã©
Ġpun ctual
Ġpick pock
Ġsuit s
Ġador Ã©
Ġmatin Ã©e
Ġyell ed
Dev rions
Ġpard on
Ġhors es
Ġjet Ã©
Ġthank s
alth y
Ġdanc ed
Ġendorm ie
aim ais
ĠÃ©te indre
Ġcourage use
inst itut
Ġcoo perate
ĠbrÃ» le
Ġdesc ribe
ĠÃ©cout er
ĠÃ©v ident
Ġrav ie
Pr om
Ġprog ress
Ġmotiv Ã©
Ġbaiss er
Ġboug ies
Ġcomplain ing
Ġplaisanter ie
Ġconsc ien
Ġsub ject
Ġgrossi Ã¨re
Ġunc ons
Ġmedic ine
Ġverrou illÃ©
Ġempl oy
DÃ©p Ãª
Ġennem i
Ġprisonn ier
DÃ©g age
PrÃ© pare
ĠgÃª nÃ©
accep te
Ġmerci ful
ordin aire
Ġspot ted
Ġinse cure
Ġconvainc ue
Ġneg oti
ĠdÃ©Ã§ ue
Ġadop ted
Cert ains
Ġconfess ed
Ġrejoin dre
ĠdÃ©barrass er
intÃ© resse
Ġexper ience
Ġhumili ated
auc une
ĠrÃ©t ab
Perm ettez
Ġpon ctu
Ġblag ues
Ġgrad u
Ãīte ins
ĠcoÃ»t ent
Ġremb ours
Ġsiff ler
Ġstrugg led
Ġcreep y
Ġhist ory
Ġfal se
Ġwit ness
Ġdispon ible
Ġnatur al
Ġwre ck
Ġsex y
Ġpurp ose
ĠbÅĵ uf
Ġcele br
Ut ilis
ĠcinÃ© ma
Ġvig il
Ġstubb orn
ĠJoh n
Ġpickpock ets
? "
D i
F e
F l
I ci
L Ã¨ve
P ose
P osez
R entre
R oll
V is
W ar
Y esterday
c ent
d ra
f ic
h od
h aps
j ug
k ed
n ers
n oon
r om
r asse
r uct
t ion
t own
Ġ U
Ġ New
Ġt al
Ġa yez
Ġs que
Ġd are
Ġp red
Ġp ushed
Ġp Ã¨se
on dez
on cÃ©
en ing
Ġm aid
Ġc uit
Ġc ult
er ne
om ach
in y
Ġn od
an ou
Ġf ie
Ġf ol
Ġf illed
Ġb av
Ġb ol
Ġb uck
Ġb aff
Ġv ienne
Ġv iennes
Ġh ill
Ġh ole
un t
or p
or der
ent ure
Ġpas si
Ġg al
Ġg ain
Ġg ate
Ġg ants
ed y
Ġne ck
Ġun believable
ot tes
ri m
ri day
Ġle cture
Ġtr ag
Ġdo cu
Ã©t ent
Ġth ick
il ient
Ġr out
Ġbe ef
ons es
Ġch ic
Ġch and
ch oir
ch Ã©es
ad resse
Ġin k
al ys
el s
ver rou
Ġte int
ie w
Ġpl up
Ġpl air
Ġpl antÃ©
Ġpl aces
Ġpl omb
Ġk ing
Ġan Ã©ant
ĠÃ©t oi
ag Ã©e
Ġst at
Ġst omach
am ais
am ies
am user
Ġmy st
op s
all ing
ĠdÃ© gu
Ġso cial
os er
Ġri can
ort able
Ġje ans
Ġdes perate
je une
ob sc
oy Ã©e
ĠÃ© loi
ouv ant
ide red
Ġpart icul
ap ez
ap able
Ġgr as
Ġsi este
Ġcomp orte
ĠMar s
Ġag itÃ©
ne ment
Ġman quent
Ġmar teau
Ġbl o
ist s
Ġpro v
Ġpro che
Ġbr own
Ġent ra
Ġva ches
Ġimp liquÃ©
Ġimp rob
Ġad vent
Ġres ilient
ĠF riday
Ġcomm ande
Ġpri vÃ©
Ġpi quÃ©
Ġfin al
Ġfin ie
Ġhur ting
Ġsp iders
Ġsp oken
Ġven iez
Ġconf ir
Ġou bl
Ġdown town
Ġsent it
Ġpay e
Ġpay Ã©e
essay ez
ĠrÃ©p onses
Ġsec ours
ĠdÃ©s ire
ĠdÃ©s accord
Ġph rase
Ġjou es
ĠmÃ© l
Ġplan ned
Ġvie illes
Ġfort une
Ġrep ris
enc re
Ġpa resse
Ġrec ently
Ãī v
Ġfi rent
Ġsort is
Ġins c
Ġins ul
Ġvis ion
Ġmat ure
Ġrem is
Ġref user
Ġsupp orte
Ġinc apable
ĠdÃ©p end
Ġfu ite
Ġim it
Ġperd it
At tr
Ġbless er
Ġbeg ins
Ġansw ers
Ġsau rais
Ġact ive
Ġdisc reet
Ġdisc utÃ©
Ġmot eur
Ġris quÃ©
Ġmou choir
Ġbu ll
Ġbu vez
Ġcontent es
Ġtri c
Ġtri cked
Ġcri a
Ġvois in
Ġsol ved
Ġeyes ight
Ġsatisf aites
Ġcondu ct
Ġintellig ents
Ġpap ers
Ġpap iers
ĠdÃ©r anger
Ġmin uit
ĠthÃ© or
Tr ouve
Tr anquille
Ġhead ed
Ġcap tu
Ġfar mer
Ġafter noon
hab iller
Ġfool ed
ia que
Ġouv rage
Ġwrit ten
Ġleg al
Ġgre et
Ġimm ature
ĠrÃ©pond it
Ġtromp es
Ġavoc ate
Ġsoup er
ĠdÃ©f aut
Ġeffray ant
Ġeffray Ã©e
Ġimpatient e
Ġpun i
Ġve in
Ġmign ons
Ret ire
Ġval ait
DÃ©s olÃ©e
Ġmien nes
Ġsell s
Ġrais ed
Ġblack m
Ġwhen ever
Ġpress er
Ġdist ance
raÃ® ch
ĠÂ» .
Ġgam bling
Rem ettez
ĠÃ©cl air
Ġcho quÃ©e
Ġhabit ue
Ġprofond eur
Ġrecomm end
Ġaccep ter
Pl ay
Ġdraw er
Per haps
Ġpot atoes
Ġpromen er
Ġimpressionn ant
Ġvolunte er
Ġcharm ing
Ġclim b
Ġjud ge
Ġjapon aise
Ġobvious ly
Ġbrill ante
aband onne
Ġast on
Ġlou er
Ġsout ien
Ġlev a
Ġaugment ation
Ġenvir ons
Ġham mer
Ġcell phone
Ġattir ante
Ġtrah ie
Ġtir oir
Ġcrow d
Ġcoop Ã©rer
Ġdot Ã©
Ġrefus a
Ġanx ious
Ġannul Ã©
Ġpier re
ĠamÃ©lior Ã©
Ġamen Ã©
Ġocc ur
Ġglo ves
ĠcoÃ»ter a
ennuy er
Ġcance led
uls ive
Ġchallen ge
Ġdor ment
univers itÃ©
Ġdefe ated
Ġreli able
ĠÃ©pau les
Ġdomm age
Ġrenvers Ã©
Ġgorge ous
ĠY ork
Ġgig gled
ĠinÃ©v itable
ĠdÃ©ce v
oos en
Ġenfre int
ĠÃ©criv ain
essai erai
Ġrescu ed
Ġmiser able
Ġmorce au
Ġuncons cious
Ġchand ail
Ġplup art
Ġimprob able
Attr apez
A f
A che
B oy
C on
C atch
D inner
E mp
G u
H appy
J amais
L ight
M ille
P ull
S ing
S oyons
T w
V oy
W ake
b age
b oard
i an
i onnÃ©
i pped
i eurs
l Ã©e
m ind
o ci
r an
r ure
r ante
t om
v ol
Ġ orte
Ġt arg
Ġt Ã¢che
re g
Ġa Ã®
Ġs ien
es c
Ġp il
Ġp ist
Ġm i
Ġm eurs
Ã© te
Ġc ast
er ie
er iez
in ez
Ġn ue
Ġn ames
he art
Ġf id
Ġf asses
Ġf Ã»mes
Ġb ud
Ġb oissons
Ġw ol
Ġw ide
Ġv om
Ġv acc
at ic
qu ant
ve ur
ve illez
it ure
Ġh es
or ce
or ough
Ġg out
Ġqu ot
Ġun re
Ġun be
Ġun ivers
oi led
ri e
Ġthe ory
Ġre Ã§
Ġre act
id ienne
Ġtr ack
Ġtr anqu
Ġj oie
me z
au be
Ġth rew
Ġth orough
Ġr age
Ġr oof
Ġr ational
Ġbe lt
Ġla und
Ġla mpe
Ġe ager
ch amp
ad es
ic ation
Ġse w
ver se
Ġte asing
ir ation
Ġcom b
Ġall iez
ren dered
ĠÃ©t ern
ag on
ill a
Ġst airs
Ġst iff
ac ting
ur y
Ġgo Ã»
am pe
am use
Ġce inture
end ie
ig in
Ġat ro
Ġri fle
app el
app elez
app roche
ess es
ci p
Ġsh ame
Ġsh aken
Ãªt er
Ġlo c
Ġar rÃªte
Ġam ong
Ġam ical
ĠÃ© levÃ©
Ġsur rendered
si p
Ġdev ast
Ġdev inÃ©
Ġcr ise
Ġcr oyez
Ġcr Ã¨me
Ġbien venu
Ġapp ly
Ġapp rend
age ment
Ġcomp let
Ġcomp rom
ro ite
Ġdi ab
Ã® tre
Ġcl ue
Ġco c
ab or
ab ilitÃ©
Ġcont acter
ass iez
Ã©c l
Ġhad n
ist re
Ġread s
Ġpro ject
Ġent ier
lÃ© ment
Ġtrain s
Ġatt itude
Ġbon heur
iss ante
um s
Ġimp ressive
Ġoff ert
Ġoff ended
iv en
Ġres er
Ġshould er
Ġwh is
Ġcour rier
Ġpi pe
Ġpass era
Ġcou vert
Ġhur ried
Ġret ira
Ġconf irm
Ġenf ui
ra lement
ĠÃ©c oulÃ©
Ġover we
Ġsc ares
Ġsc rew
Ġmo on
Ġsw ord
Ġjou ent
Ġjou et
Ġsurp rend
Ġsurp oids
Ġpos it
ĠdÃ©c our
ĠdÃ©c rire
Ġfort unate
Ġpe au
Ġsimp ly
Ġpre gn
Ġfl ing
Ġint end
Ġint oler
Ġroom s
anc Ã©
Ġexc usÃ©
Ġrec ord
Ġca usÃ©
Ġmet t
Ġsort it
Ġregard es
Ġins piration
Ġtur ning
Ġaim ait
Ġaim Ã©e
aine ment
Ġten ait
Ġten ez
Ġten ue
Ġbo ard
Ġgar bage
Ġenv oyer
Ġkne e
Ġcons ider
Ġear ring
oint ment
Ġchange a
Ġstr anger
Ġbou ill
Ġaff air
Ġsau ve
Ġact or
Ġpers u
Ġamus Ã©s
ĠÃ©p ouvant
Ġunderstand ing
Ġdisc ouraged
Ġcontr at
Ġsoir Ã©e
Ġwind y
Ġsn ack
Ġweek s
ĠpiÃ¨ ces
Ġcook ed
Ġenjoy ing
Ġforg iven
Ġbeaut Ã©
Ġsl ight
Ġsol ve
Ġforget ful
Ġstupid es
Ġir ons
Rest ons
Ã©r Ã©e
Ġbri Ã¨vement
ĠdÃ©r oulÃ©
Ġfall ut
Ġdess iner
Ġbi olog
Ġinf lu
rou ver
Ġty p
Ġregret s
ĠdiffÃ© rents
Ġgen oux
lic ation
Ġtax es
Ġcertain s
Ġinter rupt
Ġprison er
Ġvit re
Ġpolice man
ĠS atur
Ġcuri euse
ĠrÃ©s oudre
Ġouv re
Ġchanger a
Ġouvert s
Ġenseign ante
Ġsmall er
Ġmontre rai
Ġski pped
Ġinst in
Ġinst ruct
Ġcoin cÃ©
Ġfair ly
Me et
Ġchois ir
Ġtre ize
Ġsoup Ã§
Ġtemp or
Ġtemp ted
ĠlÃ©g al
ĠmaniÃ¨re s
Ġappro che
Ġconcer ne
ĠD ay
Ġcre vÃ©
Ġstar ved
Ġpleur a
Ġsurviv ors
Ġpard onnerai
apprÃ©ci ent
ĠprÃ©v ois
Pe el
Ġrom an
Ġcoo per
Ġusu al
Ġgam es
mpl oy
Ġfascin ant
Ġvend redi
Ġcoll ine
ĠdÃ©test ais
Ġfear less
Ġprog rÃ¨s
Ġbird s
ĠspÃ©cial itÃ©
Ã¨v res
Pard onne
Ġsuccess ful
Ġobey ed
ĠhÃ´ pital
Ġlog ical
Cr oyez
ĠcrÃ© dule
Ġveget arian
Ġunc om
Bon jour
cul ation
irm iÃ¨re
Ġdiscuss ion
ĠCD s
Ġsauv Ã©s
Ġlou der
Ġmalch ance
Desc endez
inter romp
othÃ¨ se
Ġprisonn iers
RÃ©p ondez
Ġlarg uÃ©
Ġcrit ique
Ġpani quer
Ġmaig re
ĠprÃ©par Ã©e
Ġautor isÃ©
Ġvict or
Ġelect ed
Ġfrustr ated
Ġpriv ate
we en
Ġbruy ant
Ġbrief ly
Ġpleas ant
Ġmerc is
Ġmeur t
Ġmeur tre
hum eur
Ã©ner gie
Ġcanad ien
Ġpersonn el
Ġpract ice
Ġguest s
ĠfantÃ´ mes
jam as
Ġmid night
Ġmic ro
Ġdesp ise
Commence z
Bou ge
Ġprude mment
attrap er
ĠChin ese
Ġfourn ir
Ġja une
RÃ©flÃ©ch is
rop ri
Ġagg ressive
ĠstupÃ©f ait
Ġnur se
Ġrug by
ĠcomprÃ©h ens
ĠJacks on
Ġunlo cked
Ġtrous ers
Ġheur tÃ©
Ġmyster y
Ġsaf ely
Ġnewsp aper
ĠrÃ©sult ats
ĠrÃ©cup Ã©rer
Ġnic er
asc ens
Ġentire ly
Ġoverre acting
Ġoverwork ed
obsc uritÃ©
Ġoubl ier
ĠthÃ©or ie
mind ed
Ġtarg et
Ġpist ole
Ġquot idienne
Ġtranqu illes
Ġoverwe ight
Ġpregn ant
ĠÃ©pouvant able
Ġquotidienne ment
. .
B ut
D eux
F O
F i
H i
H ors
L ie
L oosen
N et
R es
R ac
R appelle
S ens
S ummer
U til
V rai
W ater
a x
a use
h onn
i Ã©s
l and
l ight
m idi
m onnaie
o oth
r ots
t iens
v Ã©e
w ord
y cle
Ġ $
Ġ 4
ou ille
Ġt ais
Ġt iny
Ġa ffe
Ġs onnÃ©
Ġs onner
Ġs ages
Ġd onnez
Ġd awn
Ġd ata
Ġp ess
Ġp ool
Ġp isc
Ġp Ãªche
is me
on es
en er
Ġl ors
Ġc raign
er vÃ©
om be
in ent
in ci
Ġn Ã´tres
ai led
an ed
an ation
Ġf assiez
Ġb ais
Ġb id
Ġb Ã¢
Ġb owed
Ġw ild
Ġw aved
Ġv ic
qu in
it aine
Ġh u
Ġh oney
un s
or de
ent rÃ©e
Ġto it
Ġg az
Ġg ear
le ver
le vez
us c
Ġun b
Ġun ne
Ġun like
ot ed
Ġme mbre
Ġre ven
Ġre lu
Ġre tenu
id s
id y
Ġj up
Ġdo pe
Ã©t it
Ġr alent
Ġbe ans
Ġe le
Ġe au
Ġe arth
Ġin de
Ġin di
al Ã©
al arme
ic ien
Ġse ats
Ġpr os
Ġte en
Ġune asy
ir ais
Ġpar ten
Ġpar venu
Ġpar oles
ĠÃ©t at
ag ing
av i
Ġst ressed
Ġwe althy
am i
ure r
ĠdÃ© verrou
ĠdÃ© jeune
ez e
Ġon gles
app areil
ard ons
ore ille
ort es
Ġsh ook
Ġau d
Ġtu Ã©s
Ne ither
Ce lles
ois eau
Ġal ternative
Ġex Ã©c
ong er
oy able
ul ar
Ġsur men
Ġus age
Pour s
Ġgr in
Ġgr og
ak y
Ġab ove
Ġab oard
Ġcr a
Ġcr aw
Ġcr ashed
Ġsa fer
uis ez
ro chez
Ġhapp iness
Ġser ves
Ġser rure
Ġco de
Ġdr am
On ly
ign er
Ġdem eure
um er
ud ed
Ġres ult
li quez
Ġfri c
Ġarri vent
Ġta pe
Ġrest es
Ġmu tu
Ġfin ed
Ġcou pe
Ġcall ous
Ġret rait
Ġsav iez
Ġsp end
Ġsp read
Ġou Ã¯
Ġbet ween
essay erai
Ġpouv ions
Ġob tenir
Ġvoul oir
Ġrend ent
Ġsc and
ĠdÃ©s ir
Ġsw am
Ġph arm
ĠmÃ© d
Ġfo x
Ġvie ill
enc er
Ġor igin
Ġment ally
acc ident
All ow
Ġrec ondu
oc key
Ġfau chÃ©
Ġinv inci
Ġregard ent
Ġregard ait
Ġsupp lie
Ġsupp lÃ©ment
Ġchang ent
Ġgar Ã©
Ġcle f
Ġim bÃ©cile
Ġcons ul
Ġcons idered
Ġgros ses
Ġmis jud
Ġemb Ãªt
Ġbeg inner
Ġmess ages
Ġexpl anation
Ġtw ins
Ġcontr aire
Ġeff et
Ġfon du
Ġbeaut y
Ġdeven us
Ġrapp elez
old ed
Ã©r ation
Ġnorm ale
Ġpo et
Ġbut ter
Ġbec ause
bÃ© rÃ©
Ġhum ide
Ġquiet ly
Ġru le
Ġserious ly
Ġcop ie
Ġsuiv ie
ĠÃ©tudi antes
ĠintÃ©ress Ã©s
Ġafter wards
Ġarm s
Ġvit am
Ġesp ion
Ġsnow ed
Ġconnaiss ait
Ġdonn Ã©es
Ġtrave led
Ġtot al
Ġdispos Ã©
Ġgri ll
urg ers
Ġdisapp eared
Ã©v Ã¨re
Ġfus il
ĠCh opin
Ġpropos al
Ġtemp er
Any thing
Som etimes
ugg ing
Ġobject ion
Ġbreat he
Ġbreat hing
Ġserv ir
Ġform ulaire
Ġset t
dess ous
Ġdure r
Should n
Ġmagas ins
Ġext ro
Ġaup rÃ¨s
Ġchante use
aim ons
Ġrac ont
Ġgrave ment
Ġcourage ous
ĠspÃ© ci
Ġmord re
Ġpant ing
ĠfiÃ¨re s
Ġgam in
ĠrÃ©g lÃ©
ĠrÃ©g ler
Ġmur dered
Ġdesc end
Ġmour ut
ĠdÃ©pourv ue
amb ition
Ġsucceed ed
Ġfre ezing
Fin ish
Ġdoi vent
Ġboug ie
Pl us
Ġdraw ing
Ġring ing
Ġmath s
ĠtÃ©lÃ©phon er
Ġvert ig
rat ul
Ġrece ived
Ġvolunte ered
Ġpopul aire
Ġclim bing
Ġmalad ie
Ġhabitu Ã©e
ĠdÃ©but ant
Ġapplau d
Sur veille
Ġverrou illÃ©e
Ġempl oyÃ©
Ġincred ibly
Ġhyp othÃ¨se
ĠÃ©lÃ©g ante
DÃ©p Ãªche
Ġennem is
Ġspl end
Ġsembl ables
Ġressemb les
Ġdig ging
Ġcir culation
ordin ateur
sh irt
Ġdout es
isse ment
Ġfab ulous
Cert aines
Ver rouille
Ġhom es
ĠÃ©clat a
Ġlap ins
Ġkil os
Ġpossib il
Ġpossib ilitÃ©
Ġcroy ais
Ġdish es
Ġpit iÃ©
Rempl issez
Ġfianc Ã©e
ĠsÃ©par Ã©s
Ġfuss y
Ġabsur de
Ġtap is
Ġron fle
Ġdipl Ã´
Ġsoud ainement
Ġdam age
ĠpÃ©n Ã©t
Ġstink s
Ġpath Ã©tique
Ġpropri Ã©t
Esp Ã©rons
Ġbow ling
Ġod eur
Ġromp u
Ġserp ents
ĠdÃ©sorient Ã©
Ġfamil ier
Ġsilenc ieuse
Ġtroub led
Ġpous si
ennem i
Ġconnect ed
Ġaffam Ã©
ĠdiffÃ©ren tes
Stu dy
Ġraf raÃ®ch
ĠmÃ©dec ins
ĠU FO
Ġtal ents
Ġbaff led
Ġplair a
Ġaston ished
Gu ess
Ġorte ils
Ġdevast ated
Ġreser ved
Ġpistole t
Net toie
Ġpess im
Ġpisc ine
Ġvic toire
Ġunne cessary
Ġunlike ly
Ġmisjud ged
A j
A ctu
A mÃ©rique
B I
E mb
F aire
G l
L ave
M en
M an
M ais
O ui
P ay
S n
T ais
W ow
W alk
b id
b ag
c ard
j i
l ant
m y
n ons
o ch
o cc
o ffre
r al
s le
t res
t able
u ri
u eux
u ine
v oir
v itable
w he
w ell
y st
Ġ :
Ġ N
Ġ ed
Ġ ow
ou n
ou ff
Ġt ante
Ġt att
Ġt Ãªtu
re es
Ġa unt
Ġs id
Ġs ink
Ġs ite
Ġs ail
Ġs ienne
Ġs amed
Ġs aigne
Ġd up
Ġd ign
Ġp ill
en g
en verrai
Ġl ed
Ġl Ã¨vres
Ġm ill
Ġm ille
Ġm Ã©c
Ġm ouve
Ġm Ã¨ne
Ġm iel
Ã© qu
Ã© rez
Ġc ible
Ġc aisse
er as
er gy
om en
Ġn at
Ġn ord
Ġn orth
Ġn ational
ai tez
as te
Ġf oir
Ġy en
Ġv ing
at rice
it a
it ies
Ġh ook
Ġh ale
or gan
Ġto ys
Ġg ren
Ġg uts
le ased
ot Ã©
ot te
ot ez
eu e
oi x
ri el
Ġre ach
Ġle quel
Ġle aves
Ġsu e
Ġsu ffe
Ġtr unk
Ġtr ash
Ġj og
ce mment
ce inte
se lle
Ġo ven
Ġo yst
Ġen l
Ġen ergy
Ġen ceinte
Ã¨ que
Ġth ri
il isÃ©
Ġr ot
Ġr Ã¢
Ġbe e
Ġla d
Ġe lev
Ġch ass
Ġli on
ic ent
Ġse lected
im agin
Ġune mploy
Ġall a
ag i
Ġst alling
ac hed
ac cept
Ġas pir
end roit
Ġso ins
Ġare a
and ons
ook ie
Ġri p
Ġav enir
ol ent
ci ente
Ġar mÃ©
Ġex ag
Ġam er
ĠÃ© lu
ĠÃ© lev
ide mment
Ġsur ger
Ġcon ce
ate ful
Ġpart ner
Ġgr ay
Ġgr ateful
Ġplus ieurs
imp ression
ak er
Ġdev ait
Ġdev raient
ĠrÃ© ch
ĠrÃ© cemment
Ġdis e
Ġdis like
if ier
Ġapp uy
Ġapp eared
Ġapp ointment
age ons
ro chÃ©
Ġdi riez
Ġwork er
ab ri
Ġper tur
Ġbl own
Ġma Ã®tre
Ġbr on
Ġbr and
Ġbr ushed
ign ez
Ġoff ens
Ġoff rir
rÃ© p
Ġshould ers
iÃ¨re s
Ġren de
Ġren ted
ĠF BI
Ã´t s
Ġpri ces
Ġsm ooth
Ġpass word
Ġfin icky
aid es
Ġret ire
Ġret irÃ©
Ġsp ace
Ġsp oon
ĠdÃ©t on
Ġporte z
Ġgl iss
Ġsent ent
ĠrÃ©p ar
ĠrÃ©p are
Ġob st
Ġexp rÃ¨s
Åĵ ufs
Ġaid Ã©e
Ġsc ience
ĠdÃ©s ordre
Ġph oned
Ġph ares
Ġjou ets
Ġpos Ã©
ach Ã¨ter
Ar ri
Ar rivez
Ġrep lace
Ġfai bles
Ġfl ic
Ġint ent
Ġint rÃ©p
Ġsurpris ing
Ġcoup le
Ġexc used
Ġtrouv ent
Ġtrouv ais
Ġstart led
Ġpersonne llement
Ġemp ois
Ġins upp
Ġmont ra
Ġmanger ai
Ġmanger ons
Ġpu pp
Ġprom oted
Ġcor rig
Ġcor resp
Ġcle ared
Ġkne es
Ġend s
Ġacc ount
Ġeas ier
Ġemb oute
Ġchange ments
Ġfac ture
Ġcu ire
Ġlis ez
Ġact ion
Ġact eur
Ġmou illÃ©
Ġswim mer
Par les
Par tez
Ġkill ing
Ġhab illÃ©e
Ġprud ence
Un believable
Ġdro gue
Ġcam Ã©ra
Ġut ilisÃ©
Ġtrouver ai
Ġvenu es
ĠÃ©g al
Ġmange ons
Ġbag ue
Am enez
Ġbri dge
Ġhair cut
Ġcass er
ĠrÃ©veill Ã©s
Ġsemb lent
Att endons
Tr ans
Tr ouvez
Ġhit ting
Ġnu mb
Cont r
rou illez
let tes
Ġchauss ure
Ġdri ll
ĠsÃ©ri euses
Ġsenti ments
Ġgen ou
Ġresp irer
aven ir
Ġabs or
Ãīc ar
Ġinter p
Ġinter ven
Ġinter pr
ĠÅĵ uf
ron om
Ġcond ition
Ġ1 4
Ġviend rais
ĠrÃ©s ervÃ©
Ġdeb t
Ġfier tÃ©
Ġwrit es
Ġdiffic ultÃ©
Ġgre edy
orth y
Ġdep ends
Ġdep ressing
Ġimm obile
Ġhorrible ment
ressi f
Ġgri m
Ġoblig Ã©s
Ġtalent ueux
Ġpromis es
Ġeffray Ã©s
ouss Ã©
Ġdel ay
Ġpark ed
Ġobject ifs
Ġtent er
Ġsouff ert
In f
Ġdaught ers
Ġador ait
Ġcre user
af ty
Ġconcent rÃ©
Ġconcent rate
Ġincroy ablement
Dev ine
Ġtravers Ã©
Ġterrif ic
occup e
Ġrac onter
Ġrequ ire
Ġcharg Ã©
Ġsuggest ions
Ġentend us
Ġbot tes
ĠdÃ©test Ã©
ĠdÃ©test ait
ĠprÃ©c is
Ġcand id
Ġignor Ã©
Ġprin cip
Ġcard iaque
Ġasse yez
Ġallum a
Ġallum Ã©e
aig ner
Ġvolont aires
Ġboug ez
ĠgÃ©nÃ© reuse
ĠgÃ©nÃ© ralement
Bien venue
RÃ© veille
Ġdet tes
Ġev il
Ġmath Ã©m
Ġtend ance
Ġimpressionn Ã©e
Ġbord el
Ġflat tered
Ġpoi l
Ġnature l
Ġbour rÃ©
Ġeffe ctive
Ġrig ole
ĠprÃ©occup e
Ġer r
ĠÃ©n ig
Ġoptim istic
Ser vez
Ġgrat uite
aband onner
Ġsurvive d
Ġast h
env ie
Ġracc our
Ġaugment Ã©
Ġresign ed
hor loge
Ġcir cle
Ġnerveuse ment
pris e
Ġpack ing
Ġimpro ving
ĠsÃ©jour nÃ©
Ġach ie
Ġcul ture
Ġneg ative
oblig ez
Ġorgan ized
ĠdÃ©brou iller
Aim erais
Ġgos sip
Ġcrow ded
go ing
Ġbody guard
Ġsuic ide
Ġatta quÃ©
Ġpleas ure
oign ez
Ġdrug s
Ġintrigu ed
rouv Ã©
ĠmÃª mes
Ġdistur bing
Ãītud iez
ĠdÃ©goÃ»t ant
Emm enez
Emm Ã¨ne
Ã®t res
Ġcontag ious
Ġgel Ã©
Ġsoci Ã©tÃ©
Ġhorrif ied
Cal m
off ens
Ġmas ter
Ġunde restim
Ġblank et
ĠdÃ©tend ue
Ġprogram me
Ġobserv ant
Ġcouver ture
Env oie
VÃ©rif ie
Ġtar te
Ġanc ien
Ġdirige ons
ĠvÃ©h icule
Ġirre levant
Ġdece ived
Ġtrac asse
Ġpartici p
Ġbluff ing
Ġfold ed
Ġhypoc rite
Nett oyez
Ġine vitable
ĠmÃ©ch ante
Ġcuill Ã¨re
ĠillÃ©g al
Ġeur os
Ġcroir a
Ġrembours er
Utilis ez
Ġvigil ant
Ġmyst Ã¨re
Tw o
Ġfid Ã¨le
Ġwol f
Ġgout te
Ġlaund ry
ĠSatur day
Ġuncom fortable
ascens eur
Ġresult s
Ġinvinci ble
Ġsamed i
Ġfoir Ã©
Ġsuffe red
Ġoyst ers
Ġelev ator
Ġunemploy ed
Ġsurger y
Ġcorresp ond
ĠmathÃ©m atiques
A d
A band
B us
B ack
C ong
D rive
G are
J ump
K n
L aiss
M ost
M oney
M em
M aman
O b
R el
R am
S k
S l
S il
Y es
a Ã§
a ffe
b ur
c lÃ©
d ent
d le
d ream
f et
f ounded
g ive
h is
h ion
l end
l ook
l Ã©s
n on
n ois
n aque
o lley
r ous
r ud
t our
u a
u ally
u rent
w orthy
x ic
z aine
Ã Ķ
Ġ We
ou est
ou rir
Ġt ab
Ġt ied
Ġt issue
Ġt asted
Ġt idy
re en
re rai
re ak
Ġa isÃ©
Ġs in
Ġs onna
Ġs idÃ©rÃ©
Ġs Ã©vÃ¨re
Ġp are
Ġp ne
Ġp oul
Ġp ique
Ġp omp
Ġp Ã©tÃ©
Ġp itch
Ġp Ã©tr
Ġp acked
Ġp oker
on om
en fu
Ġl oo
Ġl ut
Ġl ugg
Ġm un
Ġm am
Ġm aire
Ã© reux
Ġc y
Ġc ot
Ġc end
Ġc ure
Ġc ier
Ġc urry
er min
om ac
in it
in ing
Ġn it
Ġn ul
Ġn iÃ©
Ġn ails
ai ment
Ġf art
Ġf arm
Ġb Ãªt
Ġb aisse
Ġb aign
Ġb ugging
ous es
Ġw is
Ġw est
Ġw ire
Ġv ies
Ġv ente
Ġv olley
at i
Ġh a
Ġh int
Ġh ib
Ġh ilar
Ġh ockey
ar res
ar ras
or ange
or ies
or ize
ent es
ent rez
Ġg onna
ed ient
le cti
Ġne ither
us hing
Ġun t
Ġun fort
et ent
ri l
ri pt
Ġre leased
Ġle Ã§on
Ġj ure
Ġj alous
Ġo ce
Ã©t ions
Ã©t ude
Ġth ro
Ġr ater
Ġr uth
Ġe qual
Ġch ip
Ġhe in
ch ing
ad Ã©
ad or
ic ted
ic ots
Ġse es
Ġse ason
el Ã©
onn ant
onn ons
ver al
Ġpl ac
Ġpl aire
Ġan g
Ġpar ais
Ġpar ier
ren ant
ĠÃ©t age
ĠÃ©t endu
Ġst ick
Ġcan o
ac les
ur ate
Ġkn it
Ġso ft
ang ers
os se
Ġon line
Ġri dd
app rendre
Ġav isÃ©
Ġav ancer
rai e
ct ant
Ġlo ad
ter y
Ġex it
ong es
Ġup d
Ġsur f
Ġpart iez
Ġgr is
Ġgr ade
od eur
si er
Ġab oyer
Ġdev iner
Ġche ating
Ġche ered
ĠrÃ© d
ĠrÃ© el
ĠrÃ© veille
Ġcr afty
Ġbien venus
Ġapp elez
Ġapp ellerai
Ġsi pped
Ġcomp ren
Ġag acÃ©
Ġag ressif
avai ent
Ġser veur
Ã» tes
Ġper f
ass is
ass urance
Ġbl ast
Ġmal igne
ist ible
Ġbr oss
Ġcar ottes
iss es
ick ing
ud es
uy ez
Ġad vis
Ġres ervation
ris e
Ġvais selle
ĠF rance
Ġcour riel
Ã¢ ge
Ã¢ tre
Ġpass ion
ĠprÃ© venus
ĠprÃ© venues
Ġcou ghed
Ġcou leurs
ĠdÃ©t ermin
Ġple uve
Ġconf idence
En lÃ¨ve
Ġter me
Ġter rib
Ġparler a
Ġpens Ã©es
Ġob edient
Ġdeux iÃ¨me
Ġsc am
Ġmo de
Ġsurp renant
ach ing
Ġsle e
Ar rÃªt
iz ing
Ġfort s
Ġpe in
Ġpe indre
Ġfl unk
acc order
Ġpa quet
Ġpa jamas
Ġexc lu
Ġdou cement
Ġdou zaine
Ġrec yc
Ġca uses
Ġass ur
Ġfau dra
Ġemp lettes
Ġvol ant
Ġsort ons
Ġperdu es
Ġaider a
Ġins uff
Ġaim able
Ġvis ible
Ġvis ited
Ġrem ise
Ġrem ettre
Ġsupp er
Ġfut on
Ġprom esses
Ġenv ious
Ġap er
Ġmus ician
Ġend ur
Ġacc usÃ©
Ġacc urate
Ġsk ip
Ġsk irt
Ġperd ons
Ã©ri c
la Ã§a
Ġtomb a
Does n
Ġhor loge
Ġcal mÃ©
Ġchant es
ok ed
omp agner
Ġamus Ã©es
Ġcontr act
Ġris ing
Ġpoint s
Ġimport ante
Ġaw fully
Ġpret ended
Ġbit ten
Ġfil th
Ġbu ried
Ġpetit es
rÃ©c iez
ath on
Ġeff icient
Ġsn akes
Ġcam ionn
ident itÃ©
Ġtri chÃ©
Ġdoct ors
Ġdeven ues
Ġvoy agÃ©
Ġrapp elles
Ġrapp ellerai
Ġsol itaire
ĠÃ©g ard
arm ed
arm Ã©e
Ġdur s
ĠdÃ©b at
Ġnour ris
Ġreal ize
Ġkiss ing
dic tion
Ġir as
Ġir rit
Ġsac rÃ©
Ġbreak s
Ġpo ck
Ġbiz arres
Ġcorre cte
Tr ad
Ġhum il
Ġbeh aving
Ġinf irmiÃ¨re
Ġann Ã©es
Ġperson ally
Ġgagner a
Ġsurv Ã©cu
Ġfar ine
Ġsus his
Ġfas hion
Ġresp iration
Ġresp lend
Ġjoin ed
ĠintÃ©ress Ã©es
Ġcertain es
ĠcÃ´ te
Ġhon or
Ġinter romp
owe red
ip ed
Ġforc Ã©s
Ġforc Ã©es
ron ique
Ġguess ed
Ġsour nois
Ġfool ing
Ġban ane
Ġ1 3
Ġclean ing
Ġrob ots
Ġrob inet
ict able
Ġdiffic iles
Ġinqui Ã©tez
Ġste pped
Ġtru ite
Ġamou reuses
Ġembarrass ant
Ġsoi e
Ġreconn ais
Ġimpat ience
Ġsold at
Ġsold ier
exp l
Ġgun s
Ġferm Ã©es
ĠCh rist
Ġsun ny
Ġbur ning
Ġtalent ue
ĠboÃ® tes
Ġeffray Ã©es
Ġpick y
ĠlÃ©g Ã¨re
Ġcheck ing
Ġmens onges
Ġcolle cti
In s
Ġval ue
Ġball es
Ġador ons
Ġperm ission
Ġhy bri
ignor ais
Ġind Ã©c
Ġincroy ables
Ġsurviv ra
Ġjet a
Ġdanc er
Ġviol on
Ġviol in
ĠsÃ© lecti
ĠgÃ©ni ale
Ġrac onte
For give
pl ain
Ġprotect ion
Ġcommen Ã§ons
enn ui
Ġhold ing
Ġrespons ible
ĠrÃ©uss ira
Ġattent ive
Ġignor ant
enf ant
Ġsusp ic
Ġmir oir
Ġmir ror
Ġdent ist
Ġdent iste
Ġpower less
Ġallum er
Ġallum ette
Ġdisg usted
Ġrecomm and
Fin issons
Say s
Ġpouss Ã©
ĠprÃ©ci p
exc use
Ġsuspect ed
Ġheav ily
Ġbanan a
Ġadmit ted
Ġeffe ct
Ġmalad roit
Ġchauff age
ĠprÃ©occup Ã©
Ġreconnaiss ante
Ġavert i
Disp oses
ĠobÃ© i
Ġaccomp agner
Ġdoig t
env oyer
Ġdumb founded
Ġpani quÃ©
Asse yons
Ġincor rig
Ġpack age
inf orm
Ġfli es
Ġfli pp
Ġach Ã¨te
Ġdout Ã©
Ã©m or
Ġastu te
Ġastu cieux
Ġadop tÃ©
Ġorgan isÃ©
Ġrejoin drai
Ver rouillez
oz art
Ġhom eless
Ġjume aux
ĠÃ©clat Ã©
Ġstyl os
Ġhar icots
Ġjoy eux
Ġmarch ait
Ġcrimin al
Ġsne aky
DÃ©t ends
Part ons
Ġtrad ition
Ġconscient ious
ĠentraÃ® neur
Ġincomp etent
ĠdÃ©prim ant
ĠAmeric a
Ġabsur d
Ġfain ted
ĠCanad ien
Ġrelig ion
Ġcontrib ut
ĠblÃ¢ mer
Ġwhist ling
Ġterm s
Ġbasket ball
Tour nez
Ġabe ille
Ġmaj or
Ġrentr Ã©e
Ġbatter ie
Ġphotograp h
Ġtat ill
Ġkidn apped
Ġeffectu Ã©
Luck ily
Ġcing lÃ©
Ġsepar ated
utilis er
Ġroul er
Ġassi ette
Ġalent ours
Ġcrain te
Ġcompat is
Ġcloud y
Ġsouc iez
Ġcurios itÃ©
DÃ©pÃª chez
Ġbav ard
ĠdÃ©gu eul
Ġconfir mer
Ġparesse use
Ġinstin ct
Ġmalchance use
Ġlors que
Ġbais er
Ġhu Ã®tres
Ġrelu ctant
Ġextro verted
Ġvertig es
Actu ally
Ġmouve ment
Ġving t
accept able
Ġpertur bÃ©
Ġinsupp ortable
Mem orize
Ġpne us
enfu ir
Ġlugg age
Ġbaign oire
Ġunfort unate
Ġthro at
Ġruth less
Ġplac ard
ArrÃªt ons
Ġfilth y
A ch
A ir
B ird
B aissez
B reak
C or
C ours
C ows
C assez
D ou
F old
H aven
L ay
M ind
M ettons
M Ã©mor
O ccup
P oss
S c
S w
S et
S ort
S erre
S aute
V N
V ivez
Y e
a lle
a rent
c les
c orn
d ans
g ner
g nÃ©e
h ier
i o
k y
k in
l im
l am
l ue
m i
m at
m Ã¨
m ain
m Ãª
n Ã©s
n ole
o ons
r Ã©t
t ers
t rait
u eur
v ons
w rit
y ear
z ed
Ġ V
Ġ That
Ġ oign
ou ffe
Ġt an
Ġt ip
re ter
Ġa mp
Ġs ers
Ġs able
Ġs Ã©d
Ġs cient
Ġs aigner
Ġd ust
Ġd ue
Ġd ame
Ġp Ã©t
Ġp el
Ġp Ãª
Ġp air
Ġp ound
Ġp uits
on y
on se
en ne
en vers
Ġl ing
Ġl ux
Ġl oose
Ġl ouÃ©
Ġl yc
Ġm Ã¢
Ġm ouse
Ã© rit
Ã© bu
Ġc oi
Ġc ave
er ait
er ver
om ne
in se
Ġn ia
Ġn oyÃ©
an ches
Ġf ill
Ġf iez
Ġf leur
Ġf reed
Ġf irm
Ġf urn
Ġf Ã©lic
Ġb asse
Ġb unch
Ġb ombe
Ġw ink
Ġv ant
Ġv il
Ġv Ã´tres
est omac
qu erai
it ue
it ious
Ġh ost
ar able
Ġde ment
Ġde dans
ent rer
Ġto lÃ©
Ġto ler
Ġg on
Ġqu eue
ĠÃ ´
Ġne uve
Ġun able
Ġun amb
ot tÃ©
et ure
our u
our is
our de
id Ã¨re
Ġtr out
Ġtr ouvez
Ġtr Ã©bu
Ġj ette
ant age
au le
Ã¨ mes
Ġr ushed
Ġbe es
Ġla me
Ġla pt
Ġla cks
Ġla vÃ©e
Ġch ir
Ġch Ã¢
Ġch ub
Ġch Ã¨que
ch ent
ment al
al iste
Ġli en
Ġli ps
Ġli ber
ic ke
Ġse au
Ġwas ted
onn ent
Ġte ch
Ġpl antes
Ġpl ates
ir ait
Ġpar aissez
Ġpar alys
ĠI D
Ġcom mer
ĠÃ©t onnÃ©
Ġst ars
Ġst oned
Ġcan on
Ġfor bid
ur t
ur ous
Ġwe b
Ġgo be
am ing
aire d
op Ã©ra
Ġso ap
and ed
Ġpour v
Ġver res
Ġmon te
Ġav enture
Ġsh ared
Ġau dition
ff er
Ġtu e
Ġtu ber
Ġlo an
Ġal ert
Ġfr aÃ®
Ġex ist
Ġex ige
Ġwor n
Ġwor ries
Ġam m
pe lled
che tte
aut or
ue ill
ul se
Ġsur veill
Ġus ing
Ġout do
Ġgr apes
Ġdans eur
Ġche ek
ĠrÃ© ve
ĠrÃ© essayer
Ġcr an
Ġbes ide
if iÃ©
Ġapp et
Ġapp ell
Ġapp ears
Ġcomp tez
Ġtou x
ĠMar ia
mb ered
Ġag i
Ġag itated
Ġag aÃ§
Ġman uel
Ġco ver
use ous
Ã©c rit
Ġbl aming
Ġdr a
der ful
art icle
Ġma Ã®t
Ġbr uis
Ġfaut es
Ġtous s
Ġtous ser
Ġcar ried
Ġcar rots
Ġbon homme
ord s
Ġimp it
Ġimp art
Ġimp Ã´ts
Ġoff ered
Ġad oles
li es
li querai
Ġfri dge
Ġwh iche
Ġenc ourage
Ġarri ves
Ġfer as
Ġcour ait
Ġlong ueur
Ġreg iste
Ġfran k
Ġpass erai
Ġcou dre
Re f
Ġsav on
Ġsp are
ĠdÃ©t our
Ġsens ation
Ġgl anc
En c
En ough
essay ais
ĠrÃ©p arÃ©
Ġpartir ons
Ġexp liquÃ©
vÃ© nement
Ġhand y
Ġhand bag
Ġover sle
Ġover whe
Ġsc rat
Ġsc olded
Be aut
Ġtell s
ĠdÃ©s er
Ġjou ons
Ġop era
ĠmÃ© f
ach Ã©
ĠtÃ© moi
ĠdÃ©c rochÃ©
act ion
Ġpe el
Ġfl aw
Ġroom mate
Ġchance uses
uck led
Ġlaiss es
Ġlaiss Ã©s
Ġlaiss Ã©es
Ġtrouv a
Ġtrouv Ã©s
Ġtrouv Ã©es
ĠprÃªt erai
Ġca user
ious ly
Ġgrand ir
Ġessay e
Ġass ign
Ġass ister
Ġmet hod
Ġsort es
Ġregard ais
Ġins p
Ġache ta
Ġdisp ut
Ġdemand es
quÃ© rir
Ġtravaill ais
Ġrem ains
Ġref und
adore rais
Ġpu bli
Ġprom ettre
Ġgag n
ĠdÃ©p ou
Ġap eur
Ġtrust ing
Ġtrust worthy
Sh ake
ex cell
Ġcons ult
Ġear ned
Ġrun ner
Ġperd is
Ġrencont re
Ġentendu es
Ġconc ours
Ġstr uck
ĠarrÃªt a
Ġcal mer
Ġfac es
Ġwin ner
ail ing
Ġpain ter
Ġaff reuse
Ġbed room
Ġamus ante
Ġkind s
Ġcrois s
Ġdisc ut
Ġdisc ret
Ġreme mbered
Ġmou illÃ©s
Ġswim s
Ġviv ante
Ġhab itude
Ġsn ore
Ġcontent ed
Ġtrouver a
gn ez
Ġsl am
Ġsl apped
Ġvoy ait
gg ed
ĠÃ©g arÃ©
Ġsal aire
Ġbag nole
Am use
Ġturn s
Ġdir a
Ġretour na
Ġvoi es
Ġpuis se
ĠdÃ©r oule
Ġsac rÃ©e
ĠrÃ©veill Ã©es
Tr ace
ĠA si
Ġcap tÃ©
Ġcap tain
Ġcap itaine
entre tenir
Ġru inÃ©
Ġner fs
Ġcop ain
Ġclos et
Ġmen acÃ©
Ãīc out
Ġcertain ly
Ġfeu illes
Ġsong Ã©
Ġsmell ed
Ġmusic ien
Ex plain
Ġassis es
Ġexplain ed
Ġesp Ã¨re
Ġintelligent es
Ġ1 8
ĠS c
Ġtim bres
Ġdeb ts
ict ion
Ġvac ant
Dem andons
ĠapprÃ©ci ent
Ġdispos er
Ġplu mber
ĠrÃ©pond s
ĠcÃ© der
Ã©v iter
Ã©v oque
Ġcas quette
Ġoblig Ã©es
Ġtas k
Ġparfait s
Ġferm eture
Ġembrass Ã©e
Ġembrass Ã©s
Ġbur n
Ġarriv Ã©es
emb Ãªter
Ġna usÃ©e
Ġna useous
ouss es
Ġcommand es
Ġve ine
Ġcade aux
Ġcolle ct
Ġball on
ĠmÃ©rit ent
Ġsang l
Ġsell ing
Ġclass room
Ġpleuv ra
Ġhonn Ãªtes
Ġjournal iste
Ġsurviv ants
Ġdisappoin ting
Ġmod est
Ġterrif iÃ©
occup er
Ġmed al
Ġhid eux
Ġendorm is
Ġchante z
Ġpouvoir s
Ġlang ues
Ġrac ist
Ġrac iste
Ġrequ is
Ġdroit s
Ġentre ten
Ġdos sier
Ġblind ed
Ġentend it
Av ais
ĠdÃ©test ent
ĠprÃ©c aut
Ġmir acles
Ġlim it
Jou ez
lin a
Ġrecomm encer
Ġdivor ce
Ġdivor cÃ©
Fin is
Ġvolont Ã©
Ġvolont iers
Ġplain te
ĠdÃ©l ai
Ġstun g
Ġram ener
Ġharm less
orme z
Ġstore s
Ġfuri ous
Ġvert ige
Ġimpressionn Ã©s
Ġimpressionn Ã©es
Ġextra verti
Ġvolunte ers
Ã©cout es
Ġpost ale
Ġpost card
Ġfig ured
Ġtrait Ã©
Ġtrait or
Ġcharm ant
ĠmÃ©t al
ĠmÃ©t ier
Ġrej oint
Ġapplau di
Ġapplau ded
Ġadv antage
Ġer ron
Ġer ror
ourd ie
Ser rez
Ser iously
Ġvir Ã©e
Ġlift ed
Ġfront iÃ¨re
Ġmalheure use
Ġaccomp any
ĠÃ©chapp er
Ġsout iens
Ġlev Ã©e
Ġmention ed
ĠSunday s
PrÃ© v
RÃ©p onds
Ġing Ã©ni
Ġlarg er
Ġatte mp
Ġalarm ed
Ġattir ant
ĠsÃ©rieuse ment
Ġfout re
Ġimpro ved
ĠÃ©pous a
ĠsincÃ¨re ment
Ġfab ri
pper y
Ġallerg ic
Ġallerg ique
Ġallerg ies
Aim eriez
Ġsim il
Ġneig Ã©
Ġgos ses
Ġspeech less
Ġcigare tte
DÃ©c ampe
Ġgor g
ĠÃ©lect ronique
Ġsli ppery
Ġhar ce
auc un
Rec onn
Rec omm
Ġintrigu Ã©
Ġrespe ctu
Ġrespond ed
Won derful
entraÃ® ne
Ġgym n
ĠdÃ©mÃ©n ager
Allume z
Ġpoursuiv i
Ġtex ting
enseign er
ĠdÃ©prim Ã©e
Ġboi ling
Ġinvest ig
ĠfantÃ´ me
Ġdipl om
Ġpuiss ant
Ġengine er
ouill ard
Ã©ro Ã¯
Ġcrue lle
Ġtremp Ã©
Ġaig uis
Ġabe illes
Ġindign Ã©
ĠnÃ©glig ent
Sm oking
Ġrepe at
Ġdoz en
ĠÃ©cras Ã©
Ġintim id
Ġdrogu Ã©
Ġlangu age
Ġlangu ages
Ġwhe el
Ġstamp s
Ġexcess ive
ĠdÃ©pl acer
Ġembau chÃ©
Ġmoust ache
Ġben ch
Ġshif t
Ġcommit ted
ĠdÃ©tr uit
Ġsecr Ã¨te
Ġnod ded
Ġbuck et
Ġplomb ier
Ġparticul ier
Ġadvent urous
Ġinsul ted
Ġbull et
Ġconduct eur
Ġgreet ed
Ġhabitue llement
Af ter
Ache tez
heart ed
Ġatro ce
Ã©cl air
Ġposit if
Ġbouill ir
Rac onte
Util ise
Vrai ment
Ġjup e
Ġteen ager
Ġparten aire
ĠmÃ©d aille
Ġdescend it
occ asion
Ġthri lled
Ġexag ger
Arri ves
Trans late
Ġinterp reter
Ġinterpr Ã¨te
Ġasth ma
Ġraccour ci
Laiss ons
ĠpÃ©tr in
Ġmun itions
Ġoce an
Ġadvis ed
ĠdÃ©termin Ã©
Ġterrib ly
Ġslee ve
Ġpein tre
Ġcamionn ette
Ġhumil iÃ©
Ġincorrig ible
ĠdÃ©gueul asse
Bird s
mÃª mes
Ġoign ons
Ġling e
Ġlyc Ã©e
Ġfurn iture
Ġdement ed
Ġunamb itious
Ġlapt op
ĠchÃ¢ teau
Ġchub by
Ġliber tÃ©
Ġtuber cul
Ġwhiche ver
Ġregiste red
Ġglanc ed
Ġoversle pt
Ġoverwhe l
Ġscrat ched
A c
A g
A meric
B ad
B oston
C oup
C ache
C over
C rime
H ide
H eure
I dent
J oy
K ill
L avez
M S
M om
M ore
M ine
P re
P ush
R Ã©s
S au
S av
S ouv
S Ã©ri
S igne
T ra
T oute
V ide
W omen
W ords
a vert
b a
c ue
c omed
d r
d s
d es
e us
h uit
i lez
i quette
j out
k a
l or
l ir
m ates
o ot
p Ã¨re
p issez
p abilitÃ©
r ast
r oph
r acked
s ur
t Ã´
t les
t oned
u k
u in
v ard
v iew
Ġ You
Ġ Nous
Ġ Tu
Ġ What
ou Ã©e
ou age
ou bli
Ġt ira
Ġs or
Ġd igne
Ġd rew
Ġp es
Ġp ad
Ġp al
Ġp aire
Ġp ond
Ġp endu
Ġp ity
Ġp Ã©d
Ġp ulse
is a
is Ã©s
is ible
on cer
en e
en u
Ġl eu
Ġl Ã¨
Ġm ud
Ġm assi
Ã© an
Ġc ise
Ġc ents
Ġc Ã©dÃ©
er ly
in Ã©e
Ġn Ã©s
Ġn ation
Ġn oire
Ġn amed
ai dez
an a
as ter
Ġf use
Ġf uit
Ġf Ãªtes
Ġf aint
ll ible
Ġb is
Ġb er
Ġb az
Ġb ache
Ġb anged
Ġb iling
Ġy og
Ġv ive
Ġv Åĵ
Ġv ides
Ġv illage
at Ã©g
at oire
Je tons
qu ence
Ġh ic
Ġh amb
Ġh aute
Ġh udd
ar ais
ar ant
ar ily
ar vard
Ġde le
Ġde ter
or al
Ġg ather
Ġg affe
ais es
ĠÃ ī
Ġne at
Ġun av
Ġun if
ot a
Ġme ter
Ġme mber
et ch
et racked
ri rai
Ġtr aÃ®
Ġtr istes
Ġtr ousses
ant ic
Ġo ve
Ġen chantÃ©
Ġdo y
Ġdo ve
au d
au che
au rez
au ffe
au ras
Ã©t end
Ã©t iquette
Ġr a
Ġr anger
Ġr ound
Ġr ond
Ġr aw
Ġr acket
Ġbe lles
Ġla ct
Ġla bel
Ġch im
Ġch Ã¨re
Ġch ased
Ġch iant
Ġch rÃ©t
Ġhe ight
Ġhe llo
ad y
Ġin offens
Ġse aled
Ġse veral
Ġpr inc
onn ait
ver ing
im ul
ie lle
Ġpl ate
Ġpl ants
Ġpl iÃ©
Ġpl aign
ir ting
Ġan ger
Ġcom fort
Ġall ong
Ġall usion
ĠÃ©t erne
ag het
ill ages
Ġst ro
Ġst ade
Ġst ories
Ġgo als
am ine
end orm
Ġkn ot
What ever
ez ed
os Ã©
os ons
Ġon Ã©reux
ig hed
Ġpour raient
Ġver ify
app Ã©
app ort
app ell
oin s
ci fic
Ġsh aking
Ġsh uff
Don c
ct es
Ġdes ert
Ãª le
ici al
ter ing
Ġal itÃ©
Ġfr ag
Ġfr antic
Ġex cept
Ġex ception
ob s
oy al
ĠÃ© lÃ¨
aut omne
ul tes
Le ar
Le vez
Ġcon te
Ġpart es
Ġpart ager
Ġpart agÃ©
od ka
Ġab rut
Mar che
Ġdev in
Ġdans Ã©
Ġche w
Ġche at
here d
ĠrÃ© du
ĠrÃ© agir
Ġcr ut
Ġcr ash
Ġdis ob
Ġapp lication
Ġcomp ass
Ġcomp renons
Ġdi rent
Ġsais i
ck ing
Ġcl Ã´
Ġcl assi
Ġag rees
Ġman ig
Ġman if
Ġman ners
Ġmar k
Ġmar m
Ġmar ron
Ġmar rante
Ġmar athon
Ġcont est
Ġcont ient
Ġper man
Ã©c outez
Ġbl ock
Ġbl ocked
Ġbl ott
ist ry
Ġjam bon
Ġbr ain
Ġbr ush
Ġbr ouillard
aÃ® nÃ©
Ġatt or
Ġright s
Ġbon dÃ©
iss ors
Ġdem ie
um ed
ud ing
ress er
Ġfais aient
Ġtalk ative
fe re
Ġren ard
Ġfat al
ace book
ĠF acebook
Ġcour us
Ġlong ues
aiss es
Ġdiff er
Ġmu g
Ġpass a
Ġpass age
Ġpass Ã©es
Ġfin it
Ġspe cific
Re j
Ġret ent
Ġret rouver
Ġsav ions
Ġsp ent
Ġsp ir
Ġsp aghet
ĠdÃ©t ail
Ġven ons
Ġid Ã©
Ġconf use
En chantÃ©
Ġpay Ã©s
essay ai
Ġparler ai
Ġpouv iez
Ġday dream
Ġpens Ã©e
Ġob t
ĠÃ©c outez
Ġlet ting
Ġaid erai
Ġsc r
Ġsc issors
Ġmo quez
esp ace
Ġph ys
Ġchien ne
ĠmÃ© n
ĠmÃ© jug
ach es
Ġfo g
Ġspeak er
Ġaut hor
ĠdÃ©c or
ĠdÃ©c ourage
Ġrep aired
enc ont
iste z
Ġment ent
Ġment eurs
Ġfai te
Ġfai lle
Ġgu Ã¨re
Ġgu llible
Ġfl ower
Ġfl irting
Ġint rod
acc ompagner
Ġpa rent
Ġdou ce
Ġtrouv Ã¨rent
Ġcat hol
Ġrec ons
Ġrec over
Ġass ass
Ġass ume
Ġass urÃ©
oc Ã©an
Ġfau c
Ġemp orter
Ġmet tez
Ġsouv enez
Ġsouv iendrai
Ġache tÃ©e
Ġdemand ing
Ch arge
Ġac qu
Ġac quit
Ġmat Ã©ri
Ġrem ote
Ġref res
Ġgar ant
Ġenv oy
Ġenv oya
ĠdÃ©p art
ĠdÃ©p asse
ĠdÃ©p ensÃ©
Ġpol iment
Ġfu el
qui p
qui ers
Ġcher chez
ex t
Ġcons erv
Ġacc ent
Ġacc idents
Ġglad ly
oid able
Ġcol ors
Ġlast ed
Ġcham bres
Ġstr atÃ©g
Ġbou chÃ©e
Ġwar mer
Ġchant a
Ġchant age
Ġquit tez
Ġpain ful
Ġaff reux
Ġdorm ait
Ġsau rons
Ġhun ter
Ġhun ting
Ġgent ly
Ġamus ing
Ġexpl ication
ĠO VN
ĠÃ©p ic
ĠÃ©p Ã©e
Ġport ent
Ġparf um
Ġparf aites
Ġmou nt
Ġmou illÃ©e
Ġappel s
Ġrev ue
Ġrev iendra
ath ol
Ġshe ep
Ġmang es
Ġmang ez
Ġrain s
Par fois
Ġtravailler ons
Ġcomment s
Ġcomment aires
Ġtour na
Ġmag ic
Ġcam ar
Ġcuis ines
Ġtri pped
Ġcook s
Ġcook ie
Ġenjoy s
Ġsil k
Ġvois ine
Ġsol ide
Ġsuff er
Ġfix ing
Ġdur Ã©
Ġnour rir
ark ed
Ġsy mb
Ġord onnÃ©
Ġir resp
Ġbri lli
ĠdÃ©r ob
ĠdÃ©r obÃ©
Ġsac s
Ġpo che
Ġsto ve
Ġvi vez
nis se
Cont ente
Ġaur aient
Ġty pes
Ġgard es
Ġswe ar
emp orte
gl asses
Ġmari Ã©es
Ġaband onn
Ġaband onna
Ġgen uine
Ġnerve uses
ĠbÃ© nisse
ustr oph
Ġtow ard
Ġbat aille
ĠprÃ©s ident
Ġinter fere
Ġcond am
Ġattend ons
Ġattend ue
Ġble us
Ġarm y
Ġsour c
Ġsour de
Ġ1 00
Ġsymp tÃ´
ĠS MS
arrÃªt a
ĠC athol
Ġcourt ois
Ġdeb ate
Ġenseign ants
Ġsnow man
Ġdonn Ã¨rent
Ġpic n
Ġshort ly
Ġfrapp e
Ġfrapp Ã©e
Ġadore s
Ġpen ny
Ġdispos ais
Ġrepos Ã©
Ġ2 5
Ġvoud rait
Ġtromp er
Ġtromp Ã©e
Ġtromp ez
Ġrent res
Ġcalm ed
ĠMonday s
Ġchois is
Ġchem istry
Ġtre mble
Ġsun rise
Ġsun glasses
Ġsecond s
Ġsecond es
emb Ãªte
Ġremar quer
Ġsouci er
Ġcommand er
Ġpick ing
Ret irez
Ġappro ve
Ġgif ts
Ġrais ins
Ġpress Ã©s
Ġbal ance
Ġconcent rÃ©e
Ġignore r
Ġind ice
Ġexcit Ã©e
Ġtravers a
Ġpard onnÃ©
Ġdist rib
Ġmod if
Ġmod este
Ou ais
apprÃ©ci erais
Ġouver tes
Ġcruel s
Ġdeep ly
Ġrum eurs
ĠsÃ© chÃ©
ĠM ozart
Ġvisit ors
Ġvisit eurs
ber ries
pl ace
Ġcomple te
Ġgam ble
Rem ets
Rem ove
ĠÃ©cl aire
Av oid
Ġhabit ent
Ġservi ettes
idi ot
Al most
Ġwel comed
Ġspecial ty
ett rai
Ġsusp ended
Ġnet toie
Ġprin ce
Ġprin ter
Ġcray ons
Jou es
Ġfre quent
ĠÃ©lÃ© phants
Ġsaoul s
Ġsaoul es
Ġrecomm ande
Ġmotiv ation
Ġmout ons
Ġbaiss a
Ġbatt le
Ġbatt us
Ġflu ently
Ġcomplain ts
Ġcow ards
Ġlac et
Ġlac ets
Ġfuri euse
Ġtend it
ĠnÃ©g oci
Ġstri ke
ĠÃ©puis Ã©e
Ġescap ing
Gr and
uer pissez
ĠÃ¢g Ã©e
ĠCanadi ans
Ġdest roy
Ġpoi gn
Ġbour g
Ġcharm ante
ĠcrÃ© atif
Ġfume z
Ġcontrari Ã©s
Ġcontrari Ã©es
ĠmÃ©t h
Ġjud gment
Ġjud icieux
Ġrig ol
Ġrig oler
Ġgasp iller
Ġcer f
Disp arais
Ġbark ed
Ġsauv Ã©e
Ã©chapp e
Ġcaut ion
Comp renez
Ġless ons
Ġgrass ouill
Acc orde
DÃ©g uerpissez
Ġoutr age
Ġoutr ank
Ġressemb lent
Ġdig est
Ġmais ons
Ġcompt eur
Oubl ions
Ignore z
Ġfoi es
Ġfout u
Ġcul pabilitÃ©
Ġastu cieuse
Ġdisag reed
Ġdrown ing
Ġ5 0
Ġenter rÃ©
Ġjume au
Ġeffort s
pr oof
Ġsaut a
Ġvain cu
Ġlap in
Ġtransp irer
Ġghost s
Ġstress Ã©
Ġcanad ienne
Ġdistur bed
Ġpolit ely
Ġpoin te
ĠdÃ©mÃ©n agÃ©
Perm ets
Pro f
Ġni Ã¨ce
Ġdef ense
Ġremp li
Ġpron once
Ġparv ient
Ġintro vert
Ġintro verti
Ġfianc Ã©
Ġremind s
Ġconst itu
Ġcourte ous
Ġhorrif iÃ©
ĠAmeric an
Ġmic roph
Ġquart ier
Ġinfect ed
Ġfaith ful
Ġimpol i
Ġimpuiss ant
Sign ez
Env oyez
Ġterm ine
ĠmÃ©pris e
ĠmÃ©pris ent
Ġpropri Ã©tÃ©
Sp ring
Tour ne
Ġdom icile
entend is
Ġshout ing
ĠvÃ©h icul
Ġbatter y
Ġcustom er
Ġtat ouage
ĠpÃ©ri ode
Ġfle w
Ġhi king
Ġpag aille
Ġmons ieur
Ġnie ce
Ġevent ually
ĠdÃ©cl arÃ©
Ġflin ched
Ġflin ching
Ġinstitut eur
Ġinstitut rice
Ġmaigri ch
Ġdy ed
Ġcla ustroph
Ġblow ing
Recu le
Recu lez
Ġconclus ions
Gri mpe
Ãīloi gnez
Attache z
institut eur
Ġgradu ate
Ġcelebr ating
Ġcult iv
rim ante
Ġdocu ments
Ġstat ue
Ġcaptu red
Ġvein ard
ĠdÃ©cev ant
Boy s
Emp ty
tom s
Ġcast le
Ġintoler able
Ġslight ly
Ġinstruct ions
Ġsages se
Ġreven ge
Ġralent ir
Pours uis
Ġgrog gy
Ġmutu al
ĠouÃ¯ e
Ġsett led
Ġhomes ick
Ġpossibil itÃ©s
Aj oute
Ġsid etracked
Ġrot ten
Ġchass eur
Ġaspir in
ĠÃ©lev Ã©s
Ġconce ited
Ġintent ions
Bus iness
Sil ence
Ġmam m
Ġcot on
Ġwis ely
Ġjalous es
Ġaper Ã§u
Ġfashion able
Ġcollecti onne
ĠindÃ©c is
Ye ah
Ġchir urg
ĠfraÃ® che
Ġoutdo ors
Ġappet ite
ĠagaÃ§ ant
Ġerron Ã©e
Recomm ence
Ġoverwhel med
Coup ez
Ġcise aux
Ġbaz ar
Ġhudd led
Ġunav oidable
Ġlact ose
ĠÃ©terne llement
Ġstro ke
ĠÃ©lÃ¨ ves
Ġcompass ion
Ġspaghet t
Ġirresp ons
Ġbrilli ant
ĠsymptÃ´ mes
Ġmicroph one
Ġclaustroph ob
A b
A yez
A jou
B ite
C ouvrez
E ach
F ant
F umer
G ir
H ug
N ul
P res
P ress
P ortes
R aise
S eul
S upp
T ire
T Ã©lÃ©
T aste
V ote
W ork
b ow
b Ã©s
b ack
b ib
c as
c eur
c ise
c ript
d en
f ish
g est
g le
h ow
h me
h ood
h Ã©s
h ale
h ib
i ans
i pe
i onner
k es
l it
l Ã©c
m n
m ie
m ine
m age
m ade
n et
n mes
n Ã©es
o om
p ot
p ied
r av
r ine
u Ã©e
u ette
u cin
v aisse
w in
w as
x ante
y ond
Ġ L
Ġ Th
Ġ Qui
ou ch
Ġt ut
Ġt ens
Ġt une
Ġt act
Ġt int
Ġa iles
Ġd in
Ġp au
Ġp ace
Ġp elle
Ġp inc
Ġp ork
Ġp owers
Ġp ousse
is p
is ant
is hing
is ier
is ation
en ic
en able
Ġl ous
Ġl ower
Ġl ancÃ©
Ġl ourde
Ġm Ã»
Ã© rir
Ã© chÃ©
Ġc ad
Ġc ord
Ġc Ã´t
Ġc yc
Ġc aisses
er man
om bres
in a
Ġn ou
Ġn aiss
Ġn Åĵ
Ġn ail
Ġn oyer
Ġn oix
ai lles
an oid
as es
as pir
Ġf if
Ġf lÃ¨
Ġf Ã©ri
Ġb ac
Ġb og
Ġb Ã©g
Ġb ale
Ġb omb
Ġy ens
Ġw ound
Ġv ire
Ġv if
Ġv entre
Ġv odka
at tez
at hetic
est s
est im
est ible
ve red
it Ã©e
Ġh iring
Ġh ouses
ar quÃ©
ar mÃ©
Ġde er
Ġde dic
Ġto re
Ġg ained
Ġqu ant
Ġqu al
Ġqu arter
us ions
Ġun imp
Ġun iver
eu res
te ctive
ri ers
ri age
ri mÃ©
Ġre b
Ġre quiers
Ġle mon
Ġsu ivez
our aging
id aire
id ly
Ġtr aÃ®tre
Ġj ack
ant ly
se ment
Ġen qu
me red
au rait
Ã¨ des
Ã©t ang
Ã©t iez
il ateur
Ġr ass
Ġbe yond
Ġla mp
Ġla ck
Ġe p
Ġe ld
Ġe ase
out ant
out enable
ons ieur
ke ys
Ġch ers
Ġch Ã´
Ġch aÃ®
Ġch ande
Ġch uckled
ch ait
ad er
ad orent
tu mn
Ġli ars
Ġli bÃ©rÃ©
He ad
ic ing
oo ze
ain er
st al
im m
im um
Ġpl a
Ġpl ug
Ġpl aint
Ġpl astique
ir ts
Ġan ts
Ġpar aiss
Ġpar ano
Ġpar venue
Ġpar venus
Ġpar mi
Ġpar anoid
Ġcom Ã©d
Ġcom estible
ren tÃ©
ag is
Ġst ab
Ġfor Ãªt
Ġfor tes
Ġfor tement
Ġfor ces
ur s
Ġwe bs
Ġgo Ã»te
am us
op es
all um
ut ation
end ue
ĠdÃ© ment
ĠdÃ© li
ĠdÃ© velo
Do ing
Ġso bre
Ġso aking
os quit
and er
and ing
ook ed
Ã¨re rai
Ġver ts
Ġver rons
Ġri rent
Ġav ouÃ©
ore illes
ol i
Ġsh iver
que mment
ans ion
ter re
Ġar na
Ġar naque
Ġal iment
Ġfr ites
ob tenir
ob tiens
ĠÃ© qu
ĠÃ© lo
ĠÃ© lÃ¨ve
ĠÃ© vÃ©nement
aut Ã©
Ġcon ven
ate gy
Ġout going
Ġpart ent
ap a
ap t
Ġgr o
Ġgr ump
Ġab oient
ĠrÃ© agi
Ġcr o
Ġcr ank
Ġvrai es
Ġdis ais
Ġdis ait
Ġdis li
Ġapp e
Ġapp ear
Ġapp ropri
Ġno stal
ro cher
Ġtou bib
Ġwork ers
Ġsais is
Ġsais on
Ã® nmes
Ġcl ar
Ġcl um
Ġcl asses
Ġcl aque
Ġag ric
ep t
Ġman ual
Ġmar rer
Ġhis toi
Ġco vered
Ã» tÃ©
Ġper ro
Ġper dez
ass ing
Ġbl Ã©
Ġbl ink
Ġbl og
Ġmal Ã©
Ġmal ins
Ġmal trait
Ġbr isÃ©e
Ġent ends
Ġtrain ing
ign es
Ġsou lever
Ġimp ulsive
Ġimp rud
ast hme
Ġoff ensÃ©
Ġher oin
iv ing
Ġback wards
Ġad ultes
Ġfais iez
Ġfri es
Ġfri go
Ġwh ich
Ġmust ache
Ġren if
ner ai
Ġeat er
Ġcour ts
Ã¢ ce
Ġpri me
Ġrest Ã©s
Ġfran ch
Ġfran che
Ġsm ashed
Ġpass Ã©s
ven ons
Ġcou le
Ġcou che
Ġcou chÃ©
Ġspe ll
Ġspe lled
Ġhur lÃ©
Ġret rouvÃ©
hui le
Ġsp illed
ĠdÃ©t ient
ĠdÃ©t ester
Ġprend rais
Ġgl acÃ©e
Ġgl oussÃ©
En levez
Ġter ror
Ġparler ons
ĠrÃ©p and
ĠrÃ©p ug
Ġpens ent
Ġpens ait
ĠÃ©c ris
Ġvoul iez
Ġrend ons
Ġrend rons
Ġhand cu
Ġover c
Ġmo quer
ĠdÃ©s ast
De ath
Ġsw ing
Ġsw all
Ġjou ait
Ġsurp rendre
ĠmÃ© di
ĠtÃ© lÃ©c
Ġplan et
Ġplan Ã¨te
ĠdÃ©c ouv
min ed
Ġrep ose
Ġrep asser
Ġrep rod
Ġor ph
Ġment al
Ġgu arante
Ġbig gest
Ġfl ag
Ġfl ash
att ention
Ġnom s
Ġca us
og rap
og ram
Ãī p
Ġmet al
Ġsort ies
Ġsouv en
Ġinv ite
Ġins ult
Ġins outenable
Ġmanger a
Ġdisp oses
Ch ant
Ġac quÃ©rir
Ġmat iÃ¨re
Ġrem ont
Ġrem ark
Ġref rain
Ġinc re
Ġinc endie
Ġprom otion
Ġenv is
ĠdÃ©p ense
ĠdÃ©p lace
ĠÃ©tud es
ĠÃ©tud ions
ĠÃ©tud ies
Ġcher chÃ©
Ġim b
Sh ame
ex agÃ©
Ġcons pir
Ġcons ciente
Ġear n
Ġear ns
Ġsk ate
Ġperd ant
Ġmis es
Ġmis led
Ġmis Ã©ric
aider a
Ġemb rasse
Ġemb usc
Ġnight m
Ġtomb Ã©s
Ġstr ategy
Ġhor aire
Ġcal cul
Ġbou n
Ġbou cle
Ġquit ta
Ġfac tures
Ġchild ish
Reg ardons
Ġcu ir
Ġbed time
Ġdorm irai
Ġsau rait
Ġhun t
Ġact s
Ġact if
Ġact ions
Ġamus er
Ġamus ez
ĠÃ©p in
Ġport Ã©e
Ġport ail
Ġdisc r
App rends
Ã©p aule
Ġreme mbers
Ġplais ent
Ġcommenc ent
Ġrev ient
Ġrev ienne
ĠgÃ© m
ĠgÃ© rÃ©
Ġbre f
Ġbre aking
Ġtour ist
Ġcam bri
Ġut ilitÃ©
erreur s
Ġvoy iez
Ġsol aire
ĠÃ©g ar
Ġfix e
ĠdÃ©b out
ĠdÃ©b ile
uv re
Ġord ures
Ġvoi ces
Ġir rÃ©
Ã©r Ã©es
Ã©r ateur
Ã©r ature
Ġmin or
Ġmin able
Ġpo Ã¨mes
Ġsemb lÃ©
ĠthÃ© Ã¢tre
ĠdÃ©m arre
Ġbi ased
Cont entez
Ġcap te
Ġagree ment
Ġswe ating
Ġsuiv ant
Ġfit s
ĠbÃ© bÃ©s
Ġmil ieu
Ġinter rup
Ġtouch ing
Ġtouch Ã©e
Ġcorrect ed
Ġattend it
Ġattend ent
Ġpan ique
Ġarm Ã©s
Ġpatient er
Ġesp rit
Ġesp Ã©rons
Ġadm ir
Ġ1 1
ĠS ant
omm ande
Ġviend ras
Ġviend ront
arrÃªt ait
ĠrÃ©s ister
ĠrÃ©s erv
ĠrÃ©s ervation
Ġouv rit
Ġdonn Ã©e
Ġenn uie
Ġste ps
Ġimm ense
Ġimm oral
Ġsoi ent
Ġsoi xante
ĠapprÃ©ci er
Ġtheir s
Ġshort er
amp ez
Ġattrap a
ari Ã©e
Ġgri ppe
lect ric
Ã©v anou
Ġcous ine
attend ait
Ġfus ible
ĠCh ine
Ġchois irai
Ġbur y
Ġbur nt
Ġtemp Ã©rature
ĠdÃ©f ait
ĠdÃ©f ense
ĠdÃ©f aite
Ġride aux
Ġdel uding
Ġz one
Ġz Ã©ro
Ġtent erai
Ġsouff rir
Ret urn
Ġbout ique
Ġform ed
Ġappro ved
Ġset tle
Ġmer de
Ġmer dÃ©
Ġworth less
Ġbas ked
Ġball s
Ġoffer ing
Ġpress Ã©e
Ġhy per
Ġconcent rÃ©s
Ġjournal ist
Ġlist ens
Ġsurviv re
Ġexcit Ã©s
Ġdoll ar
Ġpai era
Ġmod Ã¨le
Ġmod ern
Ġvent ilateur
Ġtrans f
Ġtrans late
Ġrat ionnel
apprÃ©ci es
apprÃ©ci ai
Ġrum ors
Ġem men
Ã©n ique
Ġtravel s
ĠM an
ĠM us
ĠM onsieur
br ainer
Ġexam ens
Ġinnoc ente
Ġborrow ed
rig Ã©rateur
Ġsoul agement
Ġfore st
Ġfore igner
Ġhabit s
Ġhabit ez
Ġpop corn
Ġmour ant
Ġemprun tÃ©
uct ion
Ġsusp endu
Pr ot
Continu ons
Ġpenc ils
Ġlim ites
Jou e
Ġfre aked
Ġcontact ed
Ġobs erve
Ġsignif ier
Ġbring ing
Ġplain tes
embrass a
Ġgau cher
Ġchar me
Ġchar ity
DÃ© f
Ġrel Ã¢
Ġthir teen
Ġmanquer a
ĠtÃ©lÃ©phon erai
Ġpsych olog
Ġpsych iques
Ġens ole
exc us
Ġrece voir
Ġexplos ions
Ġextra vert
Ġvolunte ering
ĠÃ©m u
Ġmalad es
Ġmalad roite
Ġapplau dit
Ġadv ise
Ġgasp illez
ĠR ussi
Ġmois i
Ġras Ã©
Ġrelie f
ĠobÃ© ir
Ġcuisin iÃ¨re
DÃ©p lace
cut ed
Ġsauv Ã©es
Ġennem ies
ĠJapon ais
ĠH arvard
Ġsout h
Ġhop es
tern et
Ġpauv res
Ġless ive
Ġproc Ã¨s
Ġproc rast
Ġpois oned
Ġham mered
Ġcrit ical
Ġphotog enic
Ġphotog Ã©nique
Ġnett oya
ĠsÃ©p arÃ©
Ġarr Ãªtes
Ġtreat ment
Ġcur se
inf lation
Ġfoi rer
ĠÃ©veill Ã©s
Ġgrimp e
Ġdestin Ã©e
ĠrÃ©ussir as
Ġpriv acy
Ġconfess Ã©
rupt ion
DÃ©c ampez
Ġsuic ider
Ġjume lle
Ġexpert s
Ġdot Ã©e
Ġexerc is
Ġexper ien
Ġfail ure
Ġmonth s
Ġ19 5
Cons ider
Ġscept iques
Ġthie ves
Ġkil ogram
Ġanx ieux
ĠrÃ©al iste
Ġaimer ions
Ġcrimin el
Ġtransp ire
Ġpren nes
Ġdish was
Ġpolit ique
DÃ©t endez
Part ageons
Ġincons cient
Ġpersonn alitÃ©
Ġdef init
Ġremp ortÃ©
Ġtex te
Ġcontag ieux
Ġblag uer
Ġintro verted
Ġincomp Ã©tent
Ġtrick y
Ġsuitc ases
ĠsÃ©par Ã©es
Ġocc asion
Ġplant ed
Ãīte ignez
jam a
Ġmid dle
Ġfain Ã©ant
Ġcance l
Ġtaqu iner
ĠpÃ©n ible
ĠrÃ©f lex
ĠrÃ©f rigÃ©rateur
Ġwhist le
Ġcough ing
Ġrecrut Ã©
Ġrecrut Ã©e
hy p
ionne lle
Ġappa rent
Ġappa rence
Bl ack
ĠfrÃ© quent
Ġdrag uer
Ġcherch ent
Ġdrogu Ã©e
ĠÃ©trang ers
DÃ©b arras
Cher che
Cher chez
Sou h
Ġtop ic
Ġjuge ment
ĠpiÃ©g Ã©
ĠingÃ©n ieux
Fr app
Ġmeu bles
Ġnag eur
Ġparl ions
Ġbrag ging
Ġinvent Ã©
Ġinsens ible
Ġinsens itive
Ġincl uded
Ġenthousias te
ĠvÃ©gÃ©tar ienne
Ġpy jama
Ġpige ons
Ġcong Ã©s
Ġbass iste
Ġhall ucin
Ġrabb it
Ãīloi gne
Travai llez
institut rice
Ġconscien cieuse
PrÃ©pare z
Ġnegoti ate
ĠÃ©toi le
ĠÃ©toi les
Ġrican Ã©
Ġinsc rit
Ġtric ote
Ġblackm ailing
ĠÃ©clair ci
reg ist
ĠaÃ® nÃ©
Ġhes itated
Ġunbe arable
Ġunivers ity
ĠarrÃªte z
Ġcomprom ise
abor ate
ĠdÃ©cour agÃ©
Ġearring s
Hors es
Ġindi ffÃ©
ĠdÃ©verrou illÃ©e
Ġcraw ling
Ġpharm ac
Ġorigin al
Ġconsul ter
Ġtemper ature
ĠspÃ©ci ale
ratul ations
ĠpÃ©nÃ©t rer
ĠpropriÃ©t aire
Ġpoussi Ã¨re
Ġed ible
Ġtatt oo
Ġsink ing
Ġsail or
Ġmill ion
Ġnat ation
Ġjog ging
imagin ation
achÃ¨ter ai
ĠintrÃ©p ide
Ġempois onnÃ©
Ġemboute illage
Contr ol
Inf lation
Ġprincip al
ĠÃ©nig me
Ġachie ved
Cong ratulations
Kn ock
Sl ow
look ing
Ġpoul s
Ġfart her
Ġhilar ious
Ġperf ume
Ġtalentue use
Ġsuspic ion
ĠprÃ©cip itÃ©
Ach Ã¨te
Sort ons
ĠsÃ©d uis
ĠtrÃ©bu chÃ©
Ġparalys Ã©
Ġimpart ial
Enc ore
Ġpubli que
Ġaffreuse ment
Ãīcout ons
ĠingÃ©ni eur
Ġgorg Ã©e
Ġharce ler
Ã©roÃ¯ ne
Heure usement
Pre pare
ĠpÃ©d ales
Ġbis ou
Ġyog a
Ġdeter mined
Ġdesert ed
Ġfrag ile
ĠclÃ´ ture
Ġattor ney
Ġfauc et
Ġrefres hing
ĠstratÃ©g ie
ĠCathol ic
Ġfrequent ly
Ġdefense less
Ajou tez
Gir ls
TÃ©lÃ© phone
vaisse lle
Ġlous y
ĠcÃ´t Ã©s
ĠnÅĵ ud
aspir ine
ĠflÃ¨ che
ĠfÃ©ri Ã©
Ġunimp ressed
ĠchÃ´ mage
Ġchande lle
Ġparano Ã¯
Ġwebs ite
Ġgrump y
Ġclum sy
Ġhistoi res
Ġhandcu ff
ĠtÃ©lÃ©c ommande
Ġorph an
Ġconspir acy
ĠmisÃ©ric ord
Ġembusc ade
Ġdishwas her
Ġdefinit ely
DÃ©barras sez
3 9
6 0
A p
A ct
A nd
A ug
B reat
C o
C in
C asse
C ount
D est
D ar
D Ã©tr
E ff
E ither
E mpl
F as
F ear
G ot
H ad
H onte
I N
K ids
L ive
L unch
M ag
N ature
N oue
P h
P ous
P at
P lie
P rÃªte
P ray
P ousse
R ome
R ester
R appelez
R inse
R encont
S ait
S ers
S imp
S ug
S ear
T M
T o
T rÃ¨s
V D
V iv
W ith
b o
b urgers
c l
c ons
c ase
c ente
c ided
e cuted
f r
f are
f ique
f ather
h ip
h anded
i ac
i Ã¨de
i astic
l at
l ure
l met
l oyal
m is
m eur
m iss
m Ã¨ne
n umb
o v
p el
p ire
p arked
r ot
r able
r aison
r olog
t o
t op
t Ã©s
u ez
u ji
v ais
v ite
w ise
x pect
Ġ ot
Ġ Il
Ġ Dis
Ġ essaie
Ġ oil
ou er
ou ez
ou iller
Ġt it
Ġt ons
Ġt endre
Ġt ente
Ġt ache
Ġt iendrai
Ġt aill
Ġt aper
Ġt iÃ¨de
re l
re p
Ġa yons
Ġs en
Ġs ow
Ġs aine
Ġd ic
Ġd ac
Ġd Ã¨s
Ġd ime
Ġd ense
Ġd ys
Ġp oit
is ions
on o
on est
on tez
en ex
Ġl y
Ġl ink
Ġl ue
Ġl oses
Ġl aide
Ġl owered
Ġm all
Ġm and
Ġm ice
Ġm ile
Ġm aux
Ġm irent
Ġm ansion
Ġc ob
Ġc erve
Ġc entre
Ġc irer
Ġc auche
er ies
om mer
in ach
Ġn us
Ġn ut
Ġn Ã©es
an es
as ons
Ġf ret
Ġf oyer
Ġf oudre
Ġf Ã»tes
ll ite
Ġb one
Ġb ul
Ġb ars
Ġb ats
Ġb ores
Ġb aker
Ġy aw
Ġw id
Ġw ob
Ġw icked
Ġw iped
Ġv Ãªtu
at in
at ures
at ifs
est re
it al
it ched
it tery
Ġh ars
ar pe
ar aÃ®tre
un ted
Ġde tte
or ant
or dez
ent er
Ġto xic
Ġg Ã¨le
ed ay
le ure
le enex
Ġqu Ã©rir
us cu
us iastic
Ġun k
Ġun an
Ġun ins
Ġun inte
Ġun armed
eu m
Ġme as
et ter
oi res
ri ci
ri mer
ri ra
Ġthe ft
Ġre se
Ġre ver
Ġre de
Ġre ci
Ġre ap
Ġre pt
Ġre lais
Ġre lÃ¨ve
Ġre levant
Ġre asons
Ġle aned
Ġsu ed
Ġsu eur
id ote
Ġtr aire
Ġtr omb
Ġj oint
Ġj unk
Ġj ittery
Ġo s
Ġen vel
ay ed
Ġdo dge
au jourd
Ã¨ nes
Ã¨ nerai
Ã©t at
il Ã©
il ity
Ġr and
Ġr ase
Ġr accord
Ġr aide
Ġr usse
Ġr uler
Ġr opes
Ġbe ign
Ġla ment
Ġhe lmet
ch ange
ad ap
Ġit ch
ont r
Ġin app
ment e
al t
al ie
al iser
Ġli b
ic ass
Ġse af
el aces
st and
st ick
im ono
ie f
ie mment
Ġpl ot
Ġpl astic
Ġune xpect
Ġk ar
Ġk ite
Ġk ab
Ġk ick
Ġk imono
Ġpar venez
Ġpar venons
Ġnot ified
Ġcom a
ĠÃ©t roit
ĠÃ©t roite
ag Ã¨re
av o
Ġst ren
Ġst ake
Ġst icky
Ġfor k
ac ed
ur ity
Ġwe pt
op Ã©
op ort
all Ã©
all ed
all ait
all onger
ut re
ut toned
ure u
ĠdÃ© si
ĠdÃ© ception
Ġso b
Ġso ber
os ion
Ġsom met
Ġon ze
up er
Ġdon ut
Ġpour rai
Ġpour rie
Ġat h
app ar
app art
app Ã©tit
ard Ã©
res pect
Ġtu b
Ġtu Ã©es
mp ez
Ġlo b
Ġlo ver
Ġar ra
Ġfr ac
Ġex ecuted
Ġam ic
Ġam use
ens able
ĠÃ© du
ĠÃ© mÃ©
ul si
ul ier
ul man
Ġsur s
Ġdu ll
Ġdu mp
ten ez
Pour rions
Ġout l
Ġfe ared
Ġgr Ã¨ve
Ġgr umb
Ġgr otes
Ġgr Ã¢ce
imp rimante
od orant
si zed
Ġab oie
Mar s
Ġdev iennent
ind ows
Ġcr oi
Ġcr Ãª
Ġcr oient
uis e
uis ent
Ġdis lo
Ġdis orient
Ġdis qual
Ġdis aster
Ġdis loyal
Ġdis miss
Ġdis respect
Ġbien venues
Ġsi ren
Ġcomp Ã©t
Ġcomp araÃ®tre
ro gne
ro cha
Ġdi le
Ġdi able
Ġcl ot
Ġcl aires
Ġag ent
ne quin
Ġman nequin
Ġmar in
Ġmar chez
Ġmar chant
Ġmar ks
Ġco che
Ġcont Ã©
Ġcont us
Ġcont ro
Ġcont actÃ©
Ġper cut
ass a
ass omb
Ġbl ushed
Ġbl ushing
Ġbl anches
Ġdr aps
On ce
Ġmal heur
ist ed
Ġpro ceed
Ġpro ced
Ġbr a
Ġbr Ã¨ve
Ġbr osse
Ġent our
Ġent rÃ©e
Ġent rÃ©s
Ġfaut if
Ġcar bur
Ġatt aque
iss on
ick ering
Ġimp ulsi
ge ance
As s
orm Ã©ment
ud ge
Ġback up
li p
Ġliv raison
Ġwh ale
Ġenc ouraged
fe w
Ġren fort
Ġarri ving
ner able
ĠF ord
ĠF uji
Ġcour ons
Ġcomm Ã¨re
Ġcomm une
Ġcomm ets
Ġpri er
Ġpri rent
Ġrest room
Ġfran c
Ġpi an
Ġsm okes
Ġpass es
ĠprÃ© jug
Ġhur lait
Re cess
Ġret irer
Ġret iring
Ġret rouve
Ġconn ait
Ġconn ue
Ġconn eries
Ġsp ont
Ġsp icy
Ġsp oil
Ġsp oiled
Ġoccup erai
Ġple ins
Ġven dez
Ġven geance
Ġdire cte
Ġdire ctement
Ġsens itive
lÃ¨ rent
Ġro ast
Ġsent irez
ty lo
Ġjuste ment
ĠrÃ©p Ã¨te
Ġsec ouÃ©
Ġsec urity
Ġpens ion
Ġexp Ã©rience
Ġexp uls
ĠÃ©c ureu
Ġlet tres
Ġhand les
Ġover do
Ġsc al
Ġmo ld
Ġmo che
Ġmo quÃ©
Ġmo cking
esp Ã©
ĠdÃ©s ign
ĠdÃ©s obÃ©
ĠdÃ©s organ
Ġsw itched
Ġjou ais
ĠdÃ©c Ã©d
asse y
Ġeu e
Ġrep art
Ġrep ouss
Ġrep ulsive
Ġment alement
Ġfai llite
Ġgu id
Ġgu Ã©ri
Ġpre cise
Ġfl att
Ġfl Ã»te
Ġint olÃ©
anc y
ĠB ible
Ġdou ceur
Ġlaiss Ã¨rent
Ġfatig ue
Ġnom me
Ġrec ette
Ġrec ycle
Ġcha leure
og s
Ġass oup
oc re
oc ating
Ġfau chÃ©s
Ġemp ire
Ġemp irÃ©
Ġfi ables
Ġvol ent
Ġregard ons
Ġtrou ille
Ġmont Ã©e
Ġmont agne
Ġtur key
Ġaim ais
Ġaim era
Ġaim erais
Ġpat iner
Ġlun dis
Ġdisp ute
Ġdemand erai
Ġtravaill ait
Ġtravaill eur
Ġmat ins
Ġrem et
Ġrem Ã¨de
Ġrem ett
mÃ© ric
Ġref er
Ġsupp li
Ġbo ite
Ġgar lic
Ġsing es
Ġsho vel
Ġsho elaces
Ġconfi ante
Ġcor ner
ĠdÃ©p endons
ĠdÃ©p assÃ©
ĠdÃ©p oser
Ġpol is
Ġpol ies
Ġder anged
Go ld
Ġim age
Ġbuy s
ex er
Ġmus Ã©e
Ġmus eum
aught er
ins ul
ins iste
Ġperd rai
Ġrencont res
Ġrencont ra
Ġwatch es
la w
Ġtomb Ã©es
Ġstr angers
ĠarrÃªt Ã©s
Ġbless ure
Ġcal end
Ġbou e
Ġbou le
Ġbou chon
Ġquit ting
Ġshow ered
Ġprop h
Ġcu ite
Ġcu cu
Ġdorm it
Ġgreat est
Ġsau te
Ġsau ce
Ġsau mon
Ġgent iment
iend rons
iend ras
Ġsecret ive
ĠÃ©p arg
ĠÃ©p rouv
App rendre
Ess uie
Ġaw oke
Ġmou ches
Ġbit ing
Ġdec l
Ġdec or
Ġfil Ã©
Ġviv ants
Ġviv antes
Ġrev anche
Ġrev iew
Dis cut
Ġrain y
ache t
Ġwhere ver
Ġhab ile
Ġhab illÃ©s
Ġsn ake
Ġsn ob
Ġsn iff
Ġsn icke
Ġsn ickering
Ġel aborate
Un lock
Ġautre ment
Ġautre fois
Ġtour n
Ġtour iste
Ġmeill eures
Ġtrouver ons
gn es
Ġtri che
ĠrÃ©pon dez
Ġlight er
Ġlight ly
Ġdeven ait
Ġsl ap
Ġvoy ages
Stay ing
Ġrapp elÃ©
ĠÃ©g aux
Ġsal ary
Ġsal mon
Ġsal ua
Ġsuff ire
era mental
Ġfix er
ĠÃ¢ me
Am usez
ĠdÃ©b ord
ĠdÃ©b attu
Ġces se
Ġnour r
Ġbor der
Ġreal istic
Ġir res
Ã©r Ã©s
Ã©r oport
Ġperfect ion
ĠdÃ©r oul
Ġyoung est
Ġnorm ally
Ġpo Ã¨te
Ġpo Ãªle
Tr op
inc endie
ĠA TM
Ġsto ck
Ġhum an
Ġhum or
Ġhum ains
ĠdÃ©m ission
Ġinf uri
Ġnu ages
Ġnu ageux
Ġaur ons
Ġcap sized
Ġner ves
Ġgard erai
emp l
emp run
Ġdri ven
Ġcop ies
arrass ons
Ġdream er
Ġfas sions
Ġsuiv is
Ġsuiv rai
Ġresp onse
Ġesc ro
Ġother wise
Ġsong e
Ġtruth ful
Ġattend ed
Ġattend ra
Ġassis tÃ©
Ġnervous ly
Ġpatient e
ĠderniÃ¨re ment
Ġadm ired
Ã©d ure
Ġsymp athetic
Ġtim bre
Ġfum Ã©
Ġdispose z
Ġbill s
Ġviend rait
Ġamb ush
Ġouv r
Ġrob ot
ĠÃ©ch arpe
Ġcalme ment
Ġenseign antes
Ton ight
Ġembarrass Ã©e
ĠapprÃ©ci es
ĠapprÃ©ci ons
Ġmanque rez
Ġreconn ue
Ġinst ru
Ġcoin s
Ġvoud riez
gu le
ĠcÃ© lÃ©
Ġtromp Ã©s
urg ence
Ã©v idence
Ġcas que
roy able
Ġrent ra
Ġcalm ly
Ġrisk ed
Ġgun sh
Ġavoc ats
Ġferm ier
Ġeng agement
Ġembrass a
Ġsun set
Ġsun sc
Ġbur ns
Ġtemp eramental
ĠdÃ©f in
Ġarriv ons
Ġremar que
Ġremar ried
Ġremar iÃ©
ĠgÃ¢teau x
Ġimpatient s
Ġpun ie
Ġpun ched
Ġbel ow
Ġtent ative
In c
ĠdÃ©missi onna
Ġfour chette
Ġappro ach
Ġappro chez
Ġappro ached
ĠrÃªve ur
Ġgif ted
ĠmÃ©rit ons
Ġpou ffer
Ġcompris e
Ġperm it
Ġperm ettrai
ĠD J
ĠD VD
Ġcre pt
Ġnoir s
Ġordin aire
Ġrais ons
Ġpress ure
Ġbal con
Ġbal iver
Ġcompl aint
Ġcompl ained
Ġtoilet te
Ġconcent r
Ġconcent rÃ©es
Ġind Ã©lic
Ġsurviv or
Cl asses
Dev inez
Ġexcit Ã©es
Ġdure ment
Ġdist ances
Ġdist raite
Ġmod erne
Ġtrans cript
apprÃ©ci er
Ġdoub ted
Ġair port
ĠÃ©te inte
ĠÃ©te ignit
Ġrequ ired
Ġremer ci
Ġcharg es
ber g
Ġprotect ing
Ġentre prise
Ġguil t
Ġambit ieuse
Ġlarge ment
arri vent
ĠbrÃ» ler
ĠbrÃ» lant
Ġentend Ã®mes
Ġcho quÃ©s
Ġdesc endre
Ġstuff ed
Ġfascin ated
ĠG erman
Ġservi able
Ġmour rais
Ġcoll ier
Ġcoll Ã¨g
Ġtrip es
Ġabsolu te
ĠdÃ©pourv us
Ġignor ing
Good bye
lev a
ider ate
Ġsuppos Ã©e
Ġsuppos ition
Ġsilent ly
Ġpsy ched
lin ed
Ġfre ak
Ġfre aking
Ġdisg ust
ĠgÃ©nÃ© ral
Ġressemble z
Ġcach a
Ġappar u
Ġrock s
Ġflu te
Ġflu ke
Ġplaisanter ies
RÃ© veillez
Ġpouss a
Ġiv rogne
Ġrel ative
Ġsouri ent
Pard onnez
Ġtend ue
Ġsend ing
Ġfond s
Ġcheer ing
ĠprÃ©ci eux
Ġhide ous
Ġavis Ã©e
Ġcompag non
Ġexplos Ã©
arriver a
Ġsinc Ã¨res
Ġlent illes
Ġflat tÃ©
Ġpoi gnÃ©e
Ġnature lle
ĠcrÃ© ative
Ġperplex es
Ġhero es
ĠprÃ©occup ation
Ġshoot ing
Ġgasp ille
ĠR ed
ĠR ome
Ġoptim ist
Ġvir us
Ġvir gule
Ġunf or
Ġempl oyer
Ġdiscuss ed
ĠP Ã¨re
ĠP IN
ĠP icass
Ġaccomp li
mm y
Ġess ai
Ġess aies
Comp are
inter dis
Ġproc Ã©dure
Ġcoun ter
Ġprisonn iÃ¨res
ĠmÃ©dica ment
Acc roche
Acc idents
RÃ©p are
ĠgÃª nÃ©e
Ġpours uit
Ġpull ing
Ġressemb lait
Ġarr anger
Ġcompt ons
Ġfright en
Ġcur t
Ġcur tain
Ġcur few
aill er
Ġflex ibles
Ġinse ctes
ĠparaÃ®t re
ĠÃ©che c
Ġimpro ve
ĠprÃ©par Ã©s
Ġconvainc us
Ġdestin ation
isse ments
Ġfab ule
ĠdÃ©Ã§ us
ĠdÃ©brou illÃ©
Ġelect ric
Ġgos se
Ġdiet ing
Mange ons
con om
Ġwood s
Ġbruy ante
Cle ar
Ġ19 60
Ġmerc y
ĠprÃ©cipit ation
ĠprÃ©cipit amment
Ġvain qu
ĠrÃ©t icent
Ġkil o
Ġmarch Ã¢mes
Ġtowel s
Br avo
Rep ose
hum our
Ġsne ezed
Ġpren ait
Ġtooth ache
Ġjug Ã©
Ġstress ful
Ġcroy ait
Ġdistur b
Ãītud ie
Ãītud ies
Ġmagaz ines
Ġ9 9
Ġpit oyable
Ġpier res
entraÃ® ner
Ġtrad uire
Enf in
Enf ile
Enf ilez
Ġincons iderate
Ġpoem s
Ġpanne au
Rempl is
Ġremind ed
Ġpolici ers
Ġpersonal ity
Ġcheese burgers
Ġtremb ler
Cal mez
Ġcent ime
Ġdeli ber
Ġuns ure
Ġunde cided
Ġimpuiss ante
Ġtaqu ine
Ġchamp ions
Ġtig ers
Ġsain te
Ġdefe at
Ġrelig ious
ĠblÃ¢ me
ĠÃ©pau le
Ġeffront Ã©
Ġeffront Ã©e
Exp liquez
ĠChin a
Ġtremp Ã©e
VÃ©rif iez
Pass ons
Ġaig re
Ġja unes
Ġsteal ing
ĠÃ©nerv Ã©e
Ġoppos ite
Conduis ez
Fiche z
jud iced
Ġvul gar
ĠfrÃ© quemment
Ġserp ent
Ġkidn appÃ©
Ġsilenc ieuses
ĠÃ©trang Ã¨re
DÃ©b arrassons
Ġeffectu er
Ġchinois e
Ġsaign es
ĠlÃ¢ ches
Ġcoul er
Ġsepar ately
Ġdirig es
Ġdirig ez
Ġopportun istic
Ġmaigri chon
ĠW indows
Ġsarc astic
Ġsarc astique
Ġwhe at
Ġimpli quÃ©e
Ġscar f
ĠbÃ©nÃ© vol
ĠÃ©chou er
Ġcoinc Ã©e
Avance z
Gri mpez
ĠK leenex
Ġrempl acer
Ġrabb its
Ġblond es
Ġcarp et
Ġconscien cieux
Ġemploy e
ĠrÃ©tab li
Ġfalse ly
Ġcelebr ate
Ġsque eze
Ġfol ie
Ġgal ant
Ġdocu ment
ĠanÃ©ant i
ĠÃ©loi gnÃ©
Ġblo quÃ©e
Ġrepris es
Con cent
Voy agez
Ġvom ir
Ġvacc in
Ġhes it
ĠgoÃ» ts
appel ait
Ġcomprom is
Ġdiab et
Ġdiab Ã©tique
Ġinflu ent
Ġcooper ating
Ġvictor ious
.. .
Res pe
Res pect
honn eur
Ġtais ait
ĠbÃ¢ clÃ©
Ġunb uttoned
Ġaud ac
Ġscand ale
Ġrecondu ire
Ġrecondu irai
ĠsupplÃ©ment aire
Ġvitam ins
Ġvitam ines
Ġracont Ã©
Ġsplend id
Ġpessim istic
Gl ad
Ġpill s
ĠmÃ©c ont
Ġdise ase
Ġappuy Ã©
Ġbron z
ĠdÃ©ton ation
Ġpupp y
Ġcorrig Ã©
Ġabsor be
Ãīcar te
Ġinterven ed
Ġerr ors
Ġunderestim ate
ÃĶ tez
Ġsin istre
Ġcend res
Ġcier ges
ĠbÃªt ises
ador ais
Ġflunk ed
Ġvisible ment
laÃ§a ble
Ġpock et
Ġinterromp re
expl osion
ĠlÃ©gÃ¨re ment
Ġeffect ivement
writ er
Ġtip sy
Ġpel ouse
ĠmÃ¢ ch
Ġfreed om
Ġvant er
Ġtoler ate
Ġtech nique
ueill i
ĠrÃ©ve il
Ġdra peau
ĠmaÃ®t resse
Ġbruis ed
Ġimpit oyable
excell entes
Ġconsult ant
PrÃ©v oyez
Ġsimil aire
Ġaiguis Ã©
Ġtubercul ose
Americ a
jout er
uk i
Ġhamb urgers
ĠtraÃ® ner
Ġchim ie
Ġheight s
Ġinoffens if
endorm ir
apport erai
Ġshuff le
obs erve
Lear ning
Ġdisob ey
Ġclassi que
Ġperman ent
ĠmÃ©n age
Ġintrod u
Ġassass inÃ©
Ġsymb ol
Ġsourc ils
ĠÃ©claire r
Ġbourg ade
Ġgrassouill et
Ġmaigrich onne
Pres que
Ġbac on
Ġuniver se
Ġjack pot
ĠchaÃ® ne
Ġstab bed
Ġshiver ing
ĠÃ©qu itable
Ġagric ult
ĠmalÃ© diction
ĠrÃ©pug nant
ĠdÃ©sast re
Ġswall owed
ĠdÃ©place ment
ĠÃ©pin ards
ĠSant a
Ã©vanou ir
ĠMus lim
ĠRussi an
Ġexperien ced
Ġ195 4
ĠparanoÃ¯ aque
Ap rÃ¨s
Breat he
Cin q
Dar win
Eff orce
Fas ten
Ph one
Pous sez
Sug ar
Sear ch
With out
Ġdac tylo
Ġdys lex
Ġpoit rine
Ġmand at
Ġhars h
uscu le
Ġunins ured
Ġuninte rest
rici an
Ġreci pe
Ġrept iles
Ġtromb one
Ġbeign et
Ġinapp ropri
Ġseaf ood
Ġunexpect ed
Ġkab uki
Ġgrotes que
Ġdismiss ed
Ġproced ure
ĠprÃ©jug Ã©s
Ġremett ra
Discut ons
Ġsnicke red
Ġsunsc reen
Ġbaliver nes
ĠPicass o
ĠbÃ©nÃ©vol at
! "
A id
A di
A insi
B as
B uv
B urn
B ox
B oil
B etter
C ar
C ool
C ourage
E v
F ous
F ait
F ort
F ight
F ile
F ish
G ardons
H it
H um
H alf
I mp
J ap
K iss
L eurs
L ike
M ight
M ieux
O w
O bÃ©
P oint
P elez
P Ã¨le
P aper
P apa
R ess
R endons
R entrez
S entez
S udd
T en
T imes
V ers
V ite
V oul
V alent
V idez
W inter
W ipe
a ment
a ah
b ler
b elle
b ra
c id
c oo
c ro
c ation
c ated
d ire
d own
d ated
d rat
f ers
f ident
f oot
g r
g age
g ues
g th
h ave
h aut
h ommes
h Ã©roÃ¯ne
i or
i ait
i able
i ace
i quer
i pper
j u
m or
m ons
m and
m ission
m otional
n u
n ame
n ical
n ox
o pp
o ze
p end
p ack
p ril
p icking
r and
r ants
r aine
s eu
s Åĵur
s ouris
t ier
t iv
t Ã¨rent
u ch
u able
u lly
v a
v Ã©es
w hat
w orm
y ant
y ers
Ġ i
Ġ How
Ġ As
Ġ Ar
Ġ ult
Ġ irez
Ġ Quoi
Ġ icky
ou f
ou ge
Ġt un
Ġt ag
Ġt ends
Ġt ank
Ġt ail
Ġt onnes
Ġt irez
Ġt amb
re ets
Ġa ver
Ġa isÃ©e
Ġa lley
Ġa yant
Ġs ack
Ġs hed
Ġs cell
Ġd au
Ġd ried
Ġd amp
Ġp end
Ġp anc
Ġp Ã©p
Ġp seu
is on
is ode
en de
en ger
en velo
Ġl as
Ġl ud
Ġl aveur
Ġm Ã¨
Ġm ig
Ġm ild
Ġm eure
Ġm osquit
Ã© che
Ã© dez
Ã© quip
Ã© lectric
Ġc i
Ġc art
Ġc ouvre
Ġc ueilli
er o
er al
er mÃ©
in Ã©s
in ating
Ġn or
Ġn uis
Ġn ick
Ġn agÃ©
he lin
he mat
an ing
an ic
an ci
an ni
an icien
an ji
as er
Ġf ad
Ġf rench
Ġf Ã¢che
Ġf Ã®mes
Ġb ait
Ġb ound
Ġb uiss
Ġb aigne
Ġb ooze
Ġy ard
Ġw ig
Ġw imp
Ġw ins
Ġw ished
Ġw ings
Ġw itch
Ġw oken
Ġw agon
Ġv ar
Ġv ins
at isf
at tendez
it t
it Ã´t
Ġh ait
Ġh ant
Ġh au
Ġh umb
Ġh aÃ¯
ar ched
Ġde lic
Ġde vel
Ġto e
Ġg e
Ġg id
Ġg av
Ġqu arante
ais ant
ĠÃ ĩa
us ely
Ġun tr
Ġun turned
Ġun well
Ġun acceptable
ot o
ot ait
ot ball
Ġme re
Ġme ch
Ġme als
et y
et able
te ad
oi gne
Ġre ten
Ġre ine
Ġre venue
Ġre tenir
Ġre ached
Ġle ather
Ġle Ã§ons
our sement
id al
Ġque asy
Ġtr ott
Ġj ar
Ġj au
Ġj ong
Ġj aw
ce l
ce lle
ant ed
Ġen j
Ġen r
Ġen levÃ©
Ġen verrai
ay Ã©
ay ons
Ġdo omed
au ter
Ã¨ les
Ġr ag
Ġr Ã´t
Ġr aking
Ġr ues
Ġr Ã´le
Ġr ookie
Ġbe lly
Ġla quelle
Ġe us
Ġe ast
Ġe igh
Ġch est
Ġch av
Ġch ut
Ġch ame
Ġch Ã¨vre
Ġch illy
Ġch ores
Ġch ann
Ġch aises
Ġch uch
Ġhe al
Ġhe ater
Ġhe aven
ch ai
ch arg
ch ief
Ġin att
Ġin acceptable
tu b
tu red
al ade
al ternative
al ian
Ġli g
Ġli p
ic rous
Ġse arched
Ġpr aise
pp ers
onn iÃ¨re
onn ables
Ġte ased
im age
It alie
Ġpl ong
Ġpl ier
Ġpl ante
Ġpl uv
Ġpl ats
Ġpl ains
Ġpl af
Ġpl acÃ©
Ġpl ugged
Qu ant
Ġk ope
Ġk anji
Ġan ge
Ġan ges
Ġan cient
Ġan aly
Ġpar venir
Ġpar lÃ¨rent
ĠI n
Ġcom ic
ĠÃ©t anche
ĠÃ©t ape
ĠÃ©t ouff
ĠÃ©t onnant
ĠÃ©t ouffe
ag n
ag ent
ag Ã©s
av iez
av enture
ill ons
ill usions
Ġst ret
Ġst adi
Ġst imul
Ġst reets
Ġcan e
Ġcan ne
Ġcan dy
Ġfor ty
Ġfor mÃ©
ac u
ac itÃ©
am uses
Ġce iling
op t
op sy
ut ers
end er
end ance
Ġkn ock
Ġkn ives
ĠdÃ© n
os it
os hed
and a
and s
Ġsom ep
Ġsom eday
ig Ã©
up s
Ġpour ri
Ġver b
Ġver te
Ġver ra
Ġri ent
Ġri pped
app ing
app rend
app uy
app rouve
Ġmon key
Ġav ancÃ©
Ġav ril
ol Ã©s
ci ating
Ġsh r
Ġsh ade
Ġsh ark
Ġsh aved
Ġau rions
rai l
ly ing
Ġtu x
Ġtu ez
Ġtu li
Ne xt
Ãªt ir
Ġdes ire
Ġar row
Ġal er
Ġal oud
Ġal coo
Ġfr ug
Ġfr oze
Ġam Ã¨re
ens er
ĠÃ© l
ouv rit
ouv rage
Ã©s ie
Ġsur veille
Ġus es
Ġdu b
Ġdu mmy
Ġout numb
Ġout dated
Ġpart ant
Ġgr ond
Ġgr asse
Ġgr ogn
Ġgr otte
imp liquer
lp h
Ġab ri
Ġab oy
Ġab used
Ġab hor
Ġcr is
Ġcr ook
Ġcr Ã¢
Ġcr oyons
Ġdis organ
if ully
Ġapp art
Ġapp rÃ©ciez
Ġsi p
Ġsi ed
Ġcomp uters
Ġdi al
Ġdi vert
ck er
Ġhas ty
Ġcl ou
Ġcl ap
Ġcl aim
Ġcl och
Ġcl apping
Ġag es
Ġtoi le
Ġser ra
Ġmar que
Ġmar rants
Ġco chons
ab y
ab oie
Ġcont red
Ġper t
Ġper Ã§
Ġbl ouse
Ġbl onds
Ġdr Ã´
Ġmal ine
Ġquel con
ist ent
Ġpro jection
Ġpro hib
Ġbr ise
Ġbr akes
Ġbr ings
Ġbr aces
Ġent ret
Ġent rance
Ġfaut eu
ient ez
Ġcar act
aÃ® nÃ©e
Ġatt ic
Ġatt ends
Ġatt ained
ign orent
Ġstu t
iss Ã©
Ġsou riez
Ġsou levÃ©
Ġimp rÃ©
Ġimp ress
Ġimp ost
Ġoff ic
Ġoff ense
Ġoff ensive
orm ed
rÃ© d
rÃ© ation
Ġback pack
Ġad venu
Ġsome what
ress Ã©
li ed
li able
Ġfais able
Ġwh ining
Ġenc aiss
St ir
St ick
St rive
St ock
Ġcour bat
elle ment
Ġcomm et
Ġcomm ettre
Ġcomm ettons
Ġpri Ã©
Ġpri erai
Ġpi le
Ġmu mb
Ġsm oker
Ġsm oked
Ġpass ait
ĠprÃ© dit
ĠfranÃ§ais e
Ġcou de
Ġcou rez
Ġcou reur
aid a
Ġhur le
Re ally
Ġsav ing
Ġsp r
Ġsp inach
ĠdÃ©t enu
Ġtom ates
Ġtom atoes
Ġple urent
Ġven ger
Ġgl au
Ġgl issant
Ġsent ences
Ġpay Ã©es
Ġpay erai
Ġter rain
Ġpris es
Ġpouv aient
Ġfun ds
Ġpens ons
Ġob nox
Ġexp rimÃ©
ĠÃ©c onom
red ictable
Ġvoul aient
Ġrend es
Ġrend iez
Ġrend rait
Ġrend ues
Ġover d
Ġover con
Ġaid ait
Ġaid Ã©s
Ġsc ol
Ġsc Ã¨ne
Ġsc ene
Be er
Be ars
Be ef
Ġmo quent
Ġcare d
ĠdÃ©s irez
De vez
Ġsw itch
Ġph ras
Ġaut opsy
Ġplan ning
ĠdÃ©c oll
act ive
Ġrep l
Ġrep ay
Ġrep oses
Ġrep rÃ©s
Ġrep osez
Ġpe ek
Ġor ch
Ġpre v
Ġpre fers
Ġbig ot
Ġfl our
Ġfl am
Ġfl ab
Ġfl irt
Ġint r
Ġcoup a
Ġexc ru
Ġexc usÃ©e
att a
att aque
att rape
All onge
Ġdou cher
Ġlaiss era
Ġtrouv ai
Ġrec ul
Ġmiss es
Ġmiss pelled
Ġcha h
Ġessay es
Ġessay ons
Ġessay Ã¨rent
Ġass ert
Ġass umed
oc at
Ġfi Ã©v
Ġvol a
Ġsouv ient
Ġtrou bl
Ġsleep s
Ġaider ais
Ġins an
Ġins pect
Ġins ensÃ©
Ġins ultÃ©
Ġins tead
Ġmont Ã©s
Ġmont Ã¨rent
Ġmom my
Ġthought s
Ġpat tern
Ġpat iemment
Ġache tÃ©s
Ġac ide
Ġtravaill erai
Ġkid ney
Ġmat er
Ġquest ionnÃ©
Ġrem ets
Ġten aient
Ġref ais
Ġref ill
Ġref riger
Ġinc lus
Ġprom u
Ġprom it
Ġprom ue
Ġstop s
Ġsing e
Ġsing s
Ġenv oyÃ©e
Ġcor iace
ĠdÃ©p Ãª
ĠdÃ©p lais
ĠdÃ©p Ãªche
qui pes
Ġim min
ex iste
ex ige
Ġmus ulman
Ġcons ent
Ġcons cious
Ġcons ommer
Ġacc Ã©lÃ©
Ġacc lam
Ġsk ating
uss es
uss itÃ´t
Ġemb arquÃ©
chool ed
Ġrencont rons
Ġwatch ful
Ġconc ombres
Ġrester as
Ġrester ons
Ġbou cles
Ġbeg ging
Ġbeg ged
Ġpres ident
Ġpain fully
Ġact ress
Ġsit ue
Ġpers p
Ġamus ons
iend ront
Ġrou le
ĠÃ©p aisse
ĠÃ©p oque
vers aire
Ġdisc over
App les
Ġris quer
Ġimport ance
Ġimport ants
Ġpret end
Ġpret tier
Ġsoon er
Ġmind s
Ġbit es
vent h
Ġviv ait
Ġrev iennes
Ġeff arant
Ġshe l
Ġshe ets
Par viens
Ġfon cÃ©
Ġhab ites
Ġhab illÃ©es
Ġel bow
Ġimportant es
ĠgÃ© rant
Ġprof usely
Ġdro pping
Ġbre w
Ġbre ed
Ġmag ique
Ġcam per
Ġut iles
Ġmean ing
Some how
Ġrap idly
Ġtrouver ont
Ġtri es
Ġtri gg
Ġtri ps
Ġlight ning
Ġbeaut ifully
Ġsl oshed
Ġcert itude
Ġfoncti onnent
Ġfast est
Ġparti el
Ġsal ty
Ġbag el
Ġboul anger
cin q
ĠvÃ©rit ables
Ġfix Ã©
ĠÃ¢ ges
Ã¯ que
Ġsatisf y
Ġsatisf aire
Ġsatisf aisant
Ġboulot s
Ġreal ity
Ġkiss er
Ġsy n
Ġir rÃ©s
Ġir oned
Ġown ers
Ġmin imum
Ġnorm aux
ĠsÃ©c ur
Ġpo ches
Ġpo Ã©sie
inc lina
ĠA mÃ©ric
ĠA pril
Ġsto pper
Ġhum id
Ġbeh ave
Ġbeh avi
Ġdess ous
Ġdess inÃ©
Ġbi ologist
Cont ent
let te
Ġcap tiv
Ġru bb
Ġbizarre ment
Ġner d
Ġgard era
Ġregret table
gl ing
ĠintÃ© rÃªt
Ġsurv iendra
Ġmen acÃ©e
Ġmen ottÃ©
Ġmor on
Ġsuiv ante
Ġresp ire
Ġesc ort
Ġjoin s
Ġjoin drai
Ġtick ed
Ġmil es
Ġchaud s
Ġfeu ille
Ġhon ored
Ġstand ards
Ġbat he
ĠprÃ©s ence
Ġinter d
Ġinter dit
Ġinter view
Ġforc er
Ġcount s
alent ed
Ġarm Ã©es
Ġshot s
Ġpatient ly
Ġadm ettre
Ġ1 2
Ġ1 7
Ã©d ie
Ġconse illÃ©
Ġprem iers
Ġsymp toms
ĠS aint
Ġtim ing
Ġtim ides
Ġtim etable
Ġfum eur
Ġaccept a
Ġouv riers
ĠÃ©ch ange
ĠsÃ»re ment
Ġleg work
Ġpizz as
Ġconnaiss aient
30 0
Ġsuper b
Ġsuper f
Ġsuper m
Ġinqui Ã©ter
Ġinqui Ã¨tes
Ġart icul
Ġsix ty
Ġimm un
Ġsoi gnÃ©
ĠÃ©tr anges
Sais issez
Ġdispos ions
euse ment
amp ed
Ġrepos Ã©e
Ġattrap Ã©e
Ġheart b
Ġdisapp oint
Ġteam s
Ġoblig ation
attend ent
exp liquerai
Ġinform Ã©e
Sa fet
Ġcommence ment
head ed
Ġeng ager
Ġchois ie
Ġchem isier
ĠprÃ©fÃ¨re s
Ġpropos Ã©
Ġprofess or
Ġtemp ting
ĠdÃ©f is
Ġarriv Ã¨rent
Ġride au
Ġdifficult Ã©s
Ġimpatient es
Ġimpatient ly
Ġpun ish
Ġz ipper
Ġpark ing
Ġtent ons
Ġbreat her
Ġrelax ing
Ġcolle cts
Ġform ons
Ġrespect s
Ġrespect ful
Ġval uable
Ġprep ar
Ġden ying
Ġcess ent
Ġball istic
Ġexac te
Ġmatin al
Ġpou belle
anche ment
ĠD ad
Ġordin ary
Ġordin ateurs
Ġrais onnables
Ġpleuv ait
Ġpress ion
Ġbal ai
Ġcompl ot
Ġvot ing
Ġind isp
Ġtant inet
Dev ons
Ġtravers er
Ġdure ra
Ġpard onne
Ġtrans l
Ġjet ez
Ġprot Ã¨ge
Ġterrif iant
Ġdange reuse
Ġmed ical
Ġhid den
Ġtranquille ment
apprÃ©ci ais
apprÃ©ci ons
Ġendorm ies
Ġbath tub
Ġair pl
ĠgÃ©ni aux
Ġwarm ing
ĠM other
Ġrequ Ãªte
Ġcourage uses
Ġmagnif icent
Ġennuy Ã©
Ġennuy ant
Ġennuy ez
Ġennuy euse
rig ez
Quit te
Ġtuer ont
Ġgam bler
Ġentend ons
ĠnaÃ¯ fs
Ġcho quÃ©es
Ġcho quant
Ġdesc ends
ĠrÃ©jou it
Ġfascin ante
ĠG ree
Ġ30 0
Ġbot tom
ĠÃ©v anou
Ġhabit ait
Ġrespons ib
Ġcoll er
Ġcouteau x
Ġroad s
Ġflo at
ĠrÃ©uss ite
ĠdÃ©pourv ues
Ġignor a
Ġignor ait
Ġignor Ã©s
Pr atique
Ġtest ify
lev Ã©e
Ã©ter n
Ġumbrell as
Ġbank rupt
Ġallum Ã©s
Ġobs erver
Ġhospital isÃ©
Ġhospital ized
Fin ally
ub bed
Ġboug Ã©
Ġexha usting
Ġba ffe
Ġcheap er
ĠrÃ©c ol
ĠrÃ©c rÃ©ation
Ġdraw n
Ġbatt ent
Ġbatt ons
ric ien
Ġrel atives
Ġsouri ait
Ġsouri rent
Ġdispar aÃ®tre
Ġpsych ologist
Ġpsych ologue
Ġmorte l
ĠnÃ©g ative
Ġcamp agne
Ġbord ers
Ġrece ive
Ġsub way
Ġsub merg
Ġheav ier
Ġconfecti onna
Ġressent ait
Ġextra ordin
Ġextra ordinaire
Ġfan atique
ĠÃ¢g Ã©es
Cr oss
Ġbour rÃ©s
chant Ã©e
Ġclim bed
ĠmÃ©t ro
ĠmÃ©t hod
Ġnage use
Ġshop s
Ġperplex ed
ĠprÃ©occup Ã©e
Ġgasp illage
Ġavert is
Ġavert ie
Ġavert ir
Ġras es
ĠÃ©n ormÃ©ment
ĠobÃ© it
Ġconduis e
Ġconduis ez
Ġhyp not
Ġaveug lÃ©
Ġast rolog
Ġforce z
ram id
Ġess ent
Ġbare foot
Comp rends
Ġthreat en
Ġless on
Ġaugment er
Ġproc Ã©dÃ©
ĠdÃ©go Ã»tÃ©
DÃ©g agez
Ġpois se
Ġfresh man
ĠdÃ©lic at
Ġatte ignit
Ġcrit ic
Ġbright ened
Ġnett oyÃ©
Ġband es
ffic ace
Ġarr ange
Ġarr anged
Ġcompt ais
ĠcÃ©libat aires
Ġtreat ed
und ant
Ġinse cts
ĠÃ©veill Ã©e
azz led
ĠprÃ©par a
ĠprÃ©par Ã©es
ĠsÃ©jour n
Ġdestin y
Ġ8 0
Ġach Ã¨ter
Ġdanse use
assi eds
Ġautor iser
ĠdÃ©brou ill
Ġvict ory
Ġelect rician
Ġfrustr ating
Ġpriv Ã©e
Fo otball
Ġhang ing
arr anger
arr asse
obÃ© ir
ĠÃ©lect ricien
ĠdÃ©barrass Ã©
Ġsli pping
Ġsli ppers
Ġatta quer
Ġexper iment
Ġhumili Ã©e
Ġproduct if
Ġ19 7
Ġsqu ir
Ġsqu are
Ġvain c
Ġanx ieuse
ĠrÃ©al isÃ©
Ġannul er
Ġtransp arent
Br Ã»
Rep osons
Ter min
ĠIt alian
Ġpig s
ĠmÃª le
Ġtooth p
Ġstress ant
Ġsentir as
Ġiron ic
Ġneighbor hood
Ġinut iles
Ġpoursuiv re
Pro ve
Ġpron oncÃ©
Ġpron oun
Ġtex ted
Ġparv iendra
Ġamen er
enseign ant
enseign ante
Rempl ace
Ġconst amment
Ġconst itue
eff raie
Ġland ed
Ġnap kin
Ġleak s
Ġpract icing
Ġgrad es
ĠdÃ©tendu es
Ġdessert s
Ġbisc uit
Ġdeli ver
Ġdeli very
Ġron f
Ġant idote
ney land
Ġenth usiastic
Ġimpol ie
ĠdÃ©tend us
Ġpuiss ante
ĠCanad iens
Ġtig re
Ġtig res
Ġcit ron
Ġremb oursement
Ġpray ed
Ġpray ing
Ġavoid ing
Ġalcohol ic
Ġcompet e
Ġcompet ition
Ġmanqu ait
Ġinsist ed
Ġstrugg le
Ġcreep s
ĠdÃ©licieuse ment
Ġvoleur s
Relax e
Peu vent
Sp iders
ser vice
Ġdom est
Ġdomm ages
Ġanc ienne
Ġshout ed
Ġclient s
Ġrentr Ã©s
Esp Ã¨ce
Ġindign ant
RÃ©flÃ©ch issez
Ġoppos Ã©
Ġtortu es
Ġcustom ers
Ġtires ome
Ġbow l
Ġvul nÃ©
Ġvul nerable
Ġdece ive
rime z
Ġdoz ed
ĠfrÃ© quence
Ġagg rav
Ġcherch ais
Ġdepend able
Ġnotebook s
Ġpardonner a
Sou ff
Ġsaign ait
Ġpus hing
Ġmons ter
Ġcing lÃ©s
Ġunp redictable
utilis ez
appro chez
Ġpartici per
Ġcomplex e
Ġident ify
Ġtroub lÃ©
Ġopportun iste
ĠÃ©mot ive
Nett oyons
Ple ut
Ã©l ue
ĠhÃ©s itÃ©
Ġine fficace
Ġparl iez
Ġgrab bed
ĠrÃ©vÃ© lÃ©
Ġdiam ants
Ġbran chÃ©
Ġbrag uette
Ġimpli quÃ©s
Ġimpli quÃ©es
Ġinvent ed
Ġcuill Ã¨res
Ġgentilles se
Ġdessin Ã©es
Ġcoinc Ã©s
Hab illez
Lance z
Tou che
aÃ¯ ne
Ġpy ramid
Ġcong ratul
Ġmel ting
Ġchi ot
Ġshif ted
Ġalent our
Ġcarp enter
Ġsecr Ã©t
Ġroug i
Ġroug ir
Ġrub bed
Ġcurios ity
DÃ©pÃª chons
Ġponctu el
Ġwitness es
Fe w
Fe ed
Ġpred icted
Ġpred ictable
Ġfol k
Ġpassi onnant
Ġneck lace
Ġtrag ic
Ġtrag Ã©die
ops ie
Ġblo om
Ġprov o
Ãīv idemment
Ġinsc rite
Play ing
Ġmi x
Ã©te ins
Ġbud ge
Ġvom i
Ġvacc ine
Ġunre liable
Ġunbe at
ĠreÃ§ ois
Ġreact ed
ĠgoÃ» tÃ©
Ġloc al
Ġcoc aÃ¯ne
Ġwhis ky
Ġscrew ed
Ġfling ue
Ġintoler ant
Ġmett rai
Ġpersu aded
Ġbiolog iste
ĠsoupÃ§ onne
Ġtempor ary
interromp re
ĠcomprÃ©hens if
Fi x
Ġsonner ie
Ġele phants
ĠdÃ©verrou illÃ©
Ġaud ience
ĠexÃ©c utÃ©
Ġscand al
Ġpharm acy
Ġvieill it
ĠsupplÃ©ment aires
ĠembÃªt ant
Ġpoet ry
Ġgrill Ã©
Ġapplaud ir
Ġsplend ide
ĠdiplÃ´ mÃ©
ĠpropriÃ©t aires
Ġpessim iste
Sn ap
Ġow l
Ġpill ow
ĠmÃ©c anicien
Ġgren ier
ĠrÃ¢ ler
Ġlad der
Ġrip ost
Ġappuy er
Ġgliss er
Ġreplace able
Ġabsor bs
Ãīcar tez
Ġgratuite ment
Ġunderestim ated
Ġloo p
Ġvolley ball
Ġha unted
Ġunt alented
Ġang el
Ġridd le
Ġload s
Ġcompren ait
Ġassur Ã©e
Ġinsuff isant
Trad uis
Trad uisez
ĠChrist ian
ĠChrist ians
Ġhybri d
Ġhybri de
ĠsÃ©lecti onnÃ©
ennui es
Ġrecommand Ã©
inform ation
Ġflipp ant
Ġcontribut ed
Ġcontribut ing
MÃ©mor ise
Occup e
Poss Ã©dez
Ġscient ist
ĠpÃª ches
Ġpound s
Ġlux e
Ã©rit Ã©
Ġcoi ff
Ġvil aine
urt her
Ġamm o
Ġadoles cent
ĠdÃ©tour nÃ©
Beaut iful
ĠdÃ©ser te
ĠdÃ©pou illÃ©
Ġapeur Ã©
Ġslam med
Ġattemp ted
Reconn ais
Ġrespectu eux
Joy eux
Sav ent
Souv iens
SÃ©ri eusement
dr ated
Ġsor ci
Ġpendu le
Ġbache lor
Ġdele te
ĠÃī t
Ġallong Ã©e
Ġabrut i
Ġdevin rent
Ġspir its
ĠidÃ© al
Ġcathol ique
Ġrecover ing
Ġconserv ative
ĠOVN I
Ġcamar ade
Ġabandonn Ã¨rent
Ġcondam nÃ©
ĠmÃ©th ode
Ġrigol o
Ġdigest ion
Ġdin de
Ġcord es
estim Ã©
Ġparaiss ait
ĠdÃ©li bÃ©rÃ©
Ġfranch ise
Ġfranche ment
ĠrÃ©pand ue
Ġflash light
Chant ons
Ġdiscr Ã¨te
Ġinterrup ting
Ġtransf orm
ĠMan on
ĠrelÃ¢ chÃ©
ĠsÃ©parÃ© ment
Ġkilogram s
Ġapparent Ã©s
Souh aitez
Ġpharmac ie
Ġhandcuff ed
Co ffee
Dest roy
Pat ientez
lat an
ĠDis neyland
Ġrese arch
Ġenvel ope
Ġrand onnÃ©e
Ġstren gth
Ġsob bing
appar tement
Ġoutl ive
Ġdisorient ed
Ġpercut Ã©
assomb rit
Ġcarbur ant
Ġimpulsi f
Ġrenfort s
Ġexpuls Ã©
Ġmold y
Ġcalend rier
Ġdecl ared
Ġirres istible
Ġinfuri ating
Ġouvr ages
Ġinstru ment
Inc royable
Ġfabule ux
Ġdiabet ic
ĠmÃ¢ch oire
Aid ons
Adi eu
Buv ons
Car ry
Jap an
Sudd enly
ĠAr ab
Ġtamb our
Ġaver age
Ġdau ph
Ġlud icrous
Ġmig raine
Ã©lectric itÃ©
Ġnick name
hemat ics
anni versaire
Ġhant Ã©e
Ġgid dy
Ġmech anic
Ġjong ler
ĠrÃ´t i
Ġeigh teen
Ġinatt endu
Ġplaf ond
Ġkope ck
Ġstadi um
Ġsomep lace
Ġalcoo lique
Ġoutnumb ered
Ġdisorgan ized
Ġquelcon ques
Ġprohib ited
ĠimprÃ© vis
Ġobnox ious
Ġovercon fident
Ġphras es
Ġexcru ciating
Ġrefriger ator
Ġtrigg er
ĠirrÃ©s istible
Ġbehavi or
Ġrubb ish
Safet y
Ġairpl ane
Ġextraordin ary
% .
, "
1 0
4 5
A w
A ie
A utre
B ar
B ons
B elle
B ats
B ury
B attez
C hat
C ook
C uis
C oc
C ia
C ouvre
D ess
D ry
D iv
D uck
E le
E nd
E asy
F re
F our
F il
F ire
F ood
F aut
F orm
F ishing
G ar
G reat
G Ã©ni
G reen
H ire
I A
I ron
I ras
J up
J oignez
K ick
L i
L end
L Ãł
L ast
M er
M us
M ur
M ust
M aÃ®t
M anges
N our
O r
O il
O be
O uf
P ack
P orte
P riez
P ayez
R ent
R ange
R esp
R oses
R ats
R ip
R alent
R af
R env
R ince
R abb
R oom
S B
S out
S oit
S mell
S ouris
S uper
S lip
T irez
V ise
V endez
V iendra
W ine
W ish
a vering
a Ã©roport
b ell
b ox
b ouffe
c om
c ous
c Ã©e
c Ã©s
c rire
d eux
d ique
f end
f ight
f um
f ree
f ty
g un
g ones
g iving
h Ã©e
h orn
i Ã©es
i ale
i als
i quit
j o
j ust
j ong
k er
l aire
l iv
l uded
m Ã©e
m Ã¨re
m ne
m ia
m oon
m oker
m oved
o al
o lez
o cier
p Ã©
p ent
p oned
p berries
r anc
r oid
r Ã¨rent
r oix
s ant
t an
t ent
t ant
t ies
t arily
u ment
u tez
v iendra
w ash
x es
x te
y au
y eux
y th
y oto
y drated
z he
z esse
z ipped
Ġ om
Ġ The
Ġ Vous
Ġ Pourquoi
Ġ Tout
Ġ ign
Ġ No
Ġ Get
Ġ May
Ġ icy
Ġ Thanks
Ġ Non
ou c
ou rez
ou illez
Ġt ress
Ġt Ã¢
Ġt ales
re au
re uve
re cte
Ġa lle
Ġa jouter
Ġa ussitÃ´t
Ġs hat
Ġs lo
Ġs ache
Ġs Ã©r
Ġs ortez
Ġs ighed
Ġd al
Ġd ated
Ġd read
Ġd ures
Ġd onnes
Ġd ances
Ġd angers
Ġp oo
Ġp ud
Ġp ente
Ġp areil
Ġp Ã©ter
Ġp anda
is co
on ing
on fort
Ġl us
Ġl ately
Ġl ines
Ġl enses
Ġl ancer
Ġc out
Ġc ic
Ġc ac
Ġc ured
Ġc aill
Ġc ensÃ©
Ġc avi
er r
er ont
er ty
om y
in i
in ed
in tes
in ation
in oc
in ted
Ġn aught
Ġn oya
Ġn ana
ai llez
an Ã§
an chÃ©
an Ã§a
an Ã©ment
as p
as un
as ure
as que
as ak
as iÃ©
as co
Ġf eux
Ġf Ãª
Ġf are
Ġf red
Ġf iring
Ġf urther
ll ic
Ġb ore
Ġb Ã»
Ġb ande
Ġb oc
Ġb ail
Ġb aking
Ġb arre
Ġb apt
Ġy awn
Ġw iser
Ġw avering
Ġv rais
Ġv ari
Ġv apes
at ri
at ter
qu ai
qu ons
qu able
qu ier
qu ets
qu ettes
it ait
it ime
it ting
it iÃ©
it ations
it ables
Ġh en
Ġh ay
Ġh ood
Ġh og
Ġh ip
Ġh iver
ar rest
un ition
un isson
Ġde jected
Ġde tective
or ing
or Ã§ons
ent endez
Ġto l
Ġg ang
Ġg um
Ġg este
Ġg omme
Ġg oof
ing ed
us ons
us que
Ġun he
Ġun eth
Ġun mar
Ġun ison
Ġun moved
Ġun zipped
ot ing
eu ble
eu lÃ©
et Ã©
te lles
oi c
ri rent
ri cs
ri dique
Ġis ol
Ġre lent
Ġre vel
Ġre inf
Ġre ception
Ġre verrai
Ġsu d
Ġsu p
Ġsu cker
ow ing
ow led
Ġtr aites
Ġtr aged
Ġj ugg
Ġj ub
Ġj oign
Ġj ury
Ġj oigne
se as
se pt
se vering
Ġo v
Ġo ct
Ġen ne
Ġen lever
Ġen chantÃ©e
me l
ay er
au r
au lt
au drai
Ġth on
Ġth une
il ess
il ton
il ities
Ġr ay
Ġr ur
Ġr ate
Ġr anc
Ġr onde
Ġr amp
Ġr ings
Ġr yth
Ġbe ars
Ġla b
Ġe Ã»mes
ke ep
ke mia
Ġch ol
Ġch ants
Ġch iff
Ġch asser
Ġch acun
Ġch oked
Ġhe ct
ch is
ch iez
ch arge
ch anged
ad is
Ġit al
Ġin ch
Ġin tu
Ġin ten
Ġin her
Ġin eff
Ġin oubli
ment Ã©
al er
al og
al ph
al isation
Ġli mp
Ġli gnes
He at
ic es
ic ated
Ġse iz
Ġse mÃ©
Ġse arch
Ġpr ouve
Ġpr int
Ġpr unes
Ġpr Ã©tend
el ve
el ons
pp y
st es
onn u
onn Ã©s
onn Ã©es
im er
im ming
im bÃ©cile
Ġpl uck
Ġpl onge
Ġpl aies
Tu e
Tu ez
Ġk i
Ġk it
Ġk rat
Ġk etch
Ġan ch
Ġan arch
Ġan alys
Ġan alph
Ġpar ce
Ġpar rot
Ġnot er
Ġnot ion
ĠI nd
Ġall aient
ren ces
ĠÃ©t ab
ag Ã©es
ag ace
ag asak
av y
ill on
ill ai
Ġst ing
Ġst ain
Ġst are
Ġst ate
Ġst able
Ġst ones
Ġcan n
Ġcan ular
de rer
de mment
ac Ã©s
ac Ã©es
ac uer
ur Ã©e
Ġwe ighed
am Ã¨ne
Ġas i
Ġas sieds
all ai
all ure
ut en
ĠdÃ© che
ĠdÃ© rais
Do ct
Ġso ck
Ġso Ã»
Ġso ared
Ġso aked
os is
os te
ig ator
ust rÃ©
Ġat ter
Ġat tendez
Ġver se
Ġri ait
Ġri pe
Ġri ding
app a
app orte
app li
app orter
ess on
ess ion
Ġav ide
ard ed
ore r
ort ed
ol s
ol ice
ci able
ci ves
ci ents
ci ale
Ġsh ore
Ġsh irts
Ġsh ined
Ġtu a
Ġtu erai
Ġtu era
Ġtu yau
Ãªt ons
Ãªt etÃ©
Ġlo que
Ġlo ving
Ġneed ing
ici p
Ġar ist
Ġar th
Ġar cha
Ġar demment
ois es
Ġal tern
Ġal itÃ©e
Ġal to
Ġfr iss
Ġfr oiss
Ġfr amb
Ġfr ottÃ©
Ġfr ustrÃ©
Ġex iste
Ġex ercice
Ġex pelled
Ġex changed
Ġam end
Ġam ateurs
ob jection
ens ion
Ġup side
ouv ris
ul ed
Ġsur venir
ry sant
Ġus ine
Ġdu ck
are mment
Pour rait
Ġout come
Ġfe rez
Ġpart ions
Ġpart aient
Ġany time
ap ric
ite ment
ite cture
Ġgr ain
Ġgr ange
Ġgr ouiller
imp ressi
ak a
Ġab aiss
Ġab att
Ġab usÃ©
Mar chez
Ġdev rai
ĠrÃ© gl
ĠrÃ© Ã©lu
ĠrÃ© vol
ĠrÃ© veillez
Ġcr us
Ġcr Ã©p
Ġcr Ã¨ve
Ġcr ushed
Ġcr oche
Ġcr unch
Ġcr inged
Ġsa ches
Ġsa chiez
uis it
Ġdis belie
ine use
if Ã¨re
if ique
Ġapp rouv
Ġapp riv
Ġapp Ã©tit
Ġapp lies
Ġcomp Ã©tent
ro ches
ro ken
Ġdi Ã¨te
Ġdi agon
Ġgot ta
mb led
Ã´ ne
Ġhapp ier
Ġcl o
Ġcl og
Ġcl ich
Ġcl icked
Ġag ressive
Ġser ment
Ġser ver
Ġser um
Ġser vent
Ġman ette
Ġman aged
Ġman aging
Ġmar quÃ©
Ġmar ques
Ġmar ches
Ġmar riage
Ġco qu
Ġco al
Ġco co
Ġco chon
ab e
Ã» tez
Ġper cept
Ġper ru
Ġper severing
ass ois
Ã©c ut
Ã©c onom
Ã©c rirai
Ġbl ush
Ġbl ames
Ġdit ch
Ġdr ague
Ġmal bouffe
art ender
Ġma h
Ġma x
Ġma Ã¯
Ġbr ushing
Ġcar net
Ġtrop hy
Ġtrop hÃ©e
Ġatt achÃ©
ign on
Ġbon d
Ġbon us
Ġbon bon
iss antes
Ġimp lying
Ġoff end
Ġoff icial
iv ores
Ġad ap
Ġad hÃ©s
Ġres ent
Ġres ched
Ġfais ions
Ġfri me
Ġenc our
fe use
Ġren oncÃ©
Ġfer mes
Ġfer aient
ĠF ranc
Ġcour tes
Ġcomm a
Ġrest ons
Ġrest Ã©es
Ġjus que
Ġreg ister
Ġpi quÃ©e
Ġmu gged
Ġpass ons
Ġpass ive
Ġpass ager
ĠprÃ© ven
Ġfin ira
Ġwr ap
Ġhur la
Re lease
Re jou
Ġthem selves
Ġsp at
Ġsp oi
Ġsp am
Ġsp oons
Ġoccup ied
Ġple ad
Ġple ures
Ġlot tery
Ġven aient
Ġid le
Ġconf ort
Ġconf ortable
Ġconf iture
Ġsens Ã©
Ġsens ed
Ġdown lo
Ġgl uten
En se
En ter
arg ots
ra z
Ġmes mer
Ġfun eral
ĠrÃ©p Ã©t
Ġpens iez
Ġob ese
Ġob liv
ĠvÃ© ridique
Ġexp lo
Ġexp Ã©ri
Ġexp liquerai
ĠÃ©c or
ĠÃ©c riture
Ġvoul ions
Ġrend us
Ġhand ic
Ġhand ker
Ġover seas
Ġwait er
Åĵ uvre
Ġaid a
ond it
Ġsc out
Ġmo ons
Ġmo ques
Ġsure st
ĠdÃ©s espÃ¨re
ĠdÃ©s hab
ĠdÃ©s hy
ĠdÃ©s armÃ©
De fend
Ġsw ept
Ġsw amped
Ġph oning
Ġsurp ass
Ġop er
Ġop Ã©ration
Ġpos a
Ġpos tu
Ġask s
Ġby gones
Ġhope ful
Ġaut o
Ġaut eur
Ġaut opsie
Ġplan che
ĠdÃ©c ide
ĠdÃ©c ontr
row s
Ġfort un
get table
act ice
Ġeu es
Ġrep Ã©rÃ©
Ġrep assÃ©
Ġrep Ã©rÃ©e
Ġrep roches
Ġstud io
Ġpe ar
Ġpe igne
Ġpe pper
Ġpe ignit
Ġor al
Ġor ateur
Ġsimp les
Ġgu ards
Ġpre vent
Ġpre judiced
Ġfl ushed
Ġint ime
Ġint rig
Ġaf in
Ġcoup ez
Ġexc omm
ĠB ach
ĠB raz
Ġtrouv ons
Ġdoor bell
Ġcat alog
Ġrec uler
Ġstart s
Ġpersonne lle
Ġca f
Ġca fet
Ġcha pe
Ġcha usse
Ġgrand it
Ġgrand father
Ġessay ez
Ġass oi
Ġfau chÃ©es
Ġemp owered
Ġfi cher
Ġfi asco
Ġvol Ã©e
Ġsort ed
Ġinv isible
Ġregard s
Ġregard ai
Ġregard erai
Ġtrou bling
Ġfam illes
Ġaider ons
Ġins olent
Ġide al
Ġpet s
Ġmont a
Ġopen ing
Ġmanger ont
Ġlun g
Ġunder gr
Ġac quis
Ġmat hematics
Ġquest ionnaire
Ġrem atch
Ġrem uÃ©
Ġrem ariÃ©e
Ġten ure
Ġten ace
Ġref erai
Ġref resh
Ġref roid
Ġsupp ortÃ©
Ġinc onnu
Ġpu Ã©ri
Ġpu ces
Ġfut ile
Ġchang ez
az ed
Ġenv olÃ©
Ġgag nes
Ġgag nant
Ġconfi ants
Ġcor be
ĠdÃ©p ose
Ġnice ly
ffe ctu
Go Ã»te
Go Ã»tez
Ġfu mes
Ġfu tur
Ġim ag
Ġim agine
Ġconnais sions
aimer a
aimer iez
Ã©g ez
ex emp
Ġcons iste
Ġcons omm
Ġcons Ã©qu
Ġcons idÃ¨re
Ġcons cients
Ġend ing
Ġend omm
Ġgros s
Ġsk im
Ġsk ill
Ġwater ing
ins crire
aider ais
aider ait
Ġrencont rent
Ġcol on
Ġcol ocat
la use
Ġtomb ent
accord Ã¨rent
Ġchange rez
ĠarrÃªt Ã©es
Ġrester a
di ble
Ġhor ror
Ġbless ed
Ġbou chÃ©es
Ġwar rant
Ġchant ent
Ġchant ait
Ġtard er
Ġshow ing
Ġshow ers
Ġquestion ed
Ġwin ced
int rig
Ġprop erly
Ġprop erty
Ġtable aux
Ġsau ves
Ġsau ront
Ġact rice
Ġnuit s
Ġamus ants
Ġexpl oit
Ġchau ves
Ġsecret ary
ĠÃ©p lu
ĠÃ©p oux
Ġport iez
vers Ã©
Ġcontinu ent
Ġdisc ount
Ġdisc ute
Ġdisc ouraging
Ġcontr ad
Ġcontr av
Ġcontr actÃ©
App ly
App renez
App rÃ©ci
App elons
Ġmot o
Ġmot or
Ġmot ion
Ġmot if
Ã©p Ã©e
Ã©p aiss
Ã©p rouve
Ã©p reuve
Ġmou che
Ġmou ise
Ġmou iller
Ġcold s
Ġappel Ã©s
Ġdec lined
Ġbu rent
Ġrev u
Ġrev ol
Ġrev int
Ġrev audrai
Ġboth ers
Ġsoir s
Ġeff ond
Ġshe ll
Ġshe et
cept ible
Ġsn ores
Ġsn oring
Ġanswer ing
Ġprof iter
Ġdro gues
per ing
Ġbre telles
Ġtour istes
Ġmag ie
Ġmag icien
tr as
tr ay
Ġcuis is
Ġcuis inÃ©
Au tumn
Ġrap ides
Ġtri v
Ġtri pe
Ġtri cher
Ġforg ave
Ġcri es
Ġcri ait
Ġcri mine
Ġsl ave
Ġsl ob
Ġsl iced
Ġrapp ro
Ġfoncti onnait
Ġsign er
Ġsign atures
Ġsol idaire
ĠÃ©g lise
Ġsal Ã©e
Ġsal ts
Ġmange ais
Ġmange ait
Ġbag arre
Ġbag gage
Ġsuff ering
Ġsuff ocating
Ġcondu ite
Ġretour nÃ©e
Ġidiot es
ark et
Ġlaugh s
Ġlear ner
Was n
uv ra
Ġput ting
Ġown er
Ġpuis sions
Ġfroid s
Ã©r ant
Ġbri de
Ġbri quet
Ġhair s
Ġdeh ydrated
ĠdÃ©r ang
ĠdÃ©r angez
Ġmin eur
Ġmin eurs
Ġsac rif
Ġsac rific
Ġnorm alement
Ġconv iendra
Ġconv ince
Ġfall en
agit t
Att ack
ume z
inc onvÃ©nient
ĠA f
ĠA ng
ĠA mÃ©rique
Ġwonder ing
Ġvi ole
Ġhum ain
Ġbeh aved
ĠdÃ©m as
Ġhit ch
ĠrÃª v
Ġaur ai
Ġcap tes
Ġcap tez
Ġcap ables
Ġoubli a
Ġoubli Ã©e
Ġru ines
Ġgard a
Ġcop ains
Ġsurv ient
Ġclos ing
Ġmari ju
Ġmen a
Ġmoin e
ĠdÃ©cid Ã©e
Ġsus ceptible
Ġgen cives
Ġsuiv it
Ġsuiv ies
Ġesc argots
lic op
Ġjoin d
Ã¨g erai
pit aux
Ġtow er
Ġupset ting
Ġnormal es
Ġinter fer
Ġinter venir
Ġinter rog
ĠÅĵ uv
Ġtouch a
Ġtouch y
Ġessayer ons
Ġcorrect es
ip s
Ġcond esc
Ġdrunk ard
Ġattend ais
Ġattend ant
Ġattend ions
Ex pect
Ex hale
Ġpan icking
Ġble ues
Ġprod u
ĠgÃ¢ tÃ©
ĠgÃ¢ cher
ĠgÃ¢ chÃ©
hab it
Ġexplain s
Ġban jo
Ġadm is
Ġadm irer
Ġgentil homme
Ġred undant
em ande
em mÃ¨
ĠS an
ĠS agitt
Ġlu cid
Ġfavor ites
Ġviend rez
Ġviend rons
ĠrÃ©s ide
ĠrÃ©s erve
ĠrÃ©s istez
Ġamb ide
Ġamb ition
Ġamb ushed
ĠC P
ĠC ong
ĠC ross
ĠC ookie
ĠC IA
ĠC roix
ĠC apric
Ġouv rez
Ġchanger as
Ġchanger ont
ving t
Ġconnaiss iez
Ġdonn ent
Ġvac ille
Ġsuper mar
Ġutilis ez
Ġinqui Ã©t
Ġinqui Ã©tude
ni ques
Ġart if
Ġste ady
Ġbar n
Ġbar rÃ©
Ġimm une
Ġsoi gne
ĠapprÃ©ci ait
ĠclÃ© ment
Ġreconn us
Ġski pping
Ġtot alitÃ©
Ġshort cut
Sais is
Ġill iter
Ġill ness
Ġdeal s
Ġdeal t
Ġdeal er
Ġrepos ait
Ġlaisser ais
Ġlaisser ons
Ġlaisser ont
Ġsuffis ante
Ġ2 00
ĠcÃ© rÃ©
ari o
ari ans
Ġgri ffÃ©
Ġgri Ã¨vement
lect s
lect ion
Ġdisapp ear
Ġsouh aites
Ġsouh aitez
Ġcas ier
Ġcous ines
Ġcous cous
Ġfa x
Ġfa Ã§ons
Ġfa usses
Ġoblig e
Ġoblig atoire
attend ons
attend ra
exp ri
Ġcalm Ã©e
Ġinform er
cep tez
Ġferm ons
Ġcommence z
Ġnombre use
Ġeng agÃ©e
Ġchois ira
Ġchem ises
ĠimmÃ©di at
Ġprofess ion
Ġprofess eurs
Ġprofess eure
Ġprofess ionnel
Ġtemp late
ĠdÃ©f oncÃ©
Ġboss y
Ġendroit s
emb rasse
Ġremar quable
Ġrencontrer ons
ĠprÃ©sent es
ouss a
Ġsouci ais
Ġz e
Ġve illÃ©
Ġobject ions
Ġserv ante
Ġcolle ague
In sc
In vite
Ret iens
Ret enez
Se c
Se al
Se ize
Ġdress a
Ġform al
Ġrespect er
Ġrespect ed
ĠdÃ©missi onne
Ġfour rÃ©
Ġfour mis
Ġimpressi ons
Ġimpressi onner
Ġmentir ais
Ġavant age
Ġappro chÃ©
Ġappro chons
Ġappro aching
Ġden ies
Ġgolf er
Ġjourn aux
Ġcess a
Ġgif lÃ©
Ġador ables
Ġmatin ale
ps ie
Ġsang uin
Ġpou red
ionn Ã©e
Ġcre w
Ġrais in
Ġclass mates
Ġblack board
Ġassist ante
Ġsweet heart
Ġhy ster
ĠdÃ©g outant
Ġvers ion
Ġminut ieux
Ġignore s
inqui Ã©tais
Ġjeu di
Ġjol is
Ġjol ies
Ġsurviv antes
Ġsurviv rons
Cl ick
oubl ions
Ġannoy s
Ġhonest ly
Ġvent eux
Ġjet ons
Ã©tud iant
Ġprot Ã¨gerai
Ġterrif ying
Ġterrif iÃ©e
Te ach
cie uses
Ġdange reuses
Ġmed it
Ġnai led
Ġnos y
apprÃ©ci a
ĠprÃ©v oyons
ĠprÃ©v isible
Ġdirect eur
Pe aches
cÃ© mie
Ġinn ov
Ġlang age
Ġem ailed
Ġem mÃ¨
Ġchair man
aim iez
ĠÃ©te intes
Ġwarm ly
ĠM ason
Ġrequ in
Ġrom ans
Ġcharg erai
Ġplaisant ait
Ġplaisant ons
br an
Ġexam s
Ġentre p
Ġentre tenir
Ġcommen Ã§
Ġurg ency
Ġdut ies
Ġmord ue
Ġneuf s
idÃ© rez
ili bre
Quit tez
Ġmarrant es
Ġblind s
ĠnaÃ¯ ves
not iser
Ġsoul agÃ©e
Ġmur derer
ĠrÃ©flÃ©ch i
ĠÃ©cout ait
Ġfascin Ã©
ĠG P
Ġfore ign
Ġvend ent
Ġvend ue
ĠÃ©v id
ĠÃ©v idence
ĠÃ©v iter
ĠÃ©v idemment
ĠÃ©v adÃ©
Ġmour ra
Ġmour rons
Ġmour urent
Al ways
Ġrav issante
Ġchou ettes
ĠprÃ©c ises
Ġparap lui
Ġcand or
Ġexh aled
ĠrÃ©uss irez
Ġattent if
So on
Ġfact ory
Ġsusp end
Ġsusp icieux
Pr otect
Pr ati
Pr actice
Ġriv aliser
Ġcard i
Ġlim itÃ©
Ġlim ited
Ġlim its
Ġdisg r
Ġobs c
Ġrecomm ended
Ġmotiv Ã©e
Ġsignif ic
Ġsandwich es
Ġdivor cer
Ġdivor Ã§a
Fin alement
Fin issez
Ġfly ing
Pl aÃ®t
Pl ug
Ġba quet
ĠdÃ©l ire
ĠdÃ©l oy
ĠrÃ©c omp
ĠrÃ©c onfort
Ġappar ue
Ġchar itÃ©
Ġchar bon
Ġchar acter
Ġchar latan
Ġchar pent
Ġvolun tarily
ĠspÃ©cial iste
Che ers
Ġpot able
Ġcow s
Ġram pe
Ġram per
Ġram assa
Ġpromen ades
Ġdet ail
Ġdet ained
ric a
Ġev acu
Ġdispar ut
co at
Ġtend er
ĠnÃ©g ocier
Ġopp ose
ĠÃ©puis Ã©s
Ġcamp ed
Ġcamp us
Ġbeat en
Ġcompag ne
Ġexplos er
Ġressent ez
ĠhÃ´ pitaux
Ġparc ouru
rog ly
Ã©cout ait
Ġsupport ive
Ġpoi v
Ġpoi rier
Ġpost poned
Ġfig ur
Ġtrait er
Ġash tray
ĠcrÃ© dible
ĠvÃ©rifier ai
Ġnons top
Ġnage aient
Ġaccord Ã©s
Ġgasp illes
ĠR ouge
Ġer ase
Ġavert ies
Ġavert issement
Ġras er
Ġras pberries
Retour nons
Ġdoubt ful
Ġholiday s
Ġbark s
Ġvir al
Ġvir Ã©s
Ġvir Ã©es
Ġverrou iller
Ġgrat te
aband onnez
aband onnerai
ĠobÃ© issant
Ġconduis es
ĠÃ©lÃ©g ants
ĠÃ©lÃ©g antes
Ġtien nes
Ġaccomp l
ĠÃ©chapp Ã©s
Ġimmedi ate
Desc endons
Ġess ouff
Ġhop ing
Ġlock er
Ġsembl aient
Ġthreat ening
Ġracc roche
Ġracc rochez
Acc rochez
Acc ordez
Ġham ster
ĠgÃª nant
Ġcell ar
ĠdÃ©lic ate
import ant
Ġattir ants
Ġresign ing
Ġchaude ment
Ġressemb ler
dÃ©jeun Ã©
hor reur
iff rer
Ġdig ital
Ġband it
Ġarr angÃ©
Ġfrais es
Ġexemp laire
Ġcompt oir
Ġcompt able
Ġfright ening
Ġincor recte
Ġtrah is
Ġtrah ies
Ġtir Ã©s
Ġtreat s
Ġcur s
aill ons
Ġfli pped
ĠÃ©che lle
Ġcommun autÃ©
ĠÃ©pous er
Ġdistract ion
Ġ8 39
assi ette
assi rent
ĠdÃ©Ã§ ois
ĠdÃ©Ã§ ues
Ġadop tÃ¨rent
Ġautor isÃ©s
mÃ©n ager
Ġimagin ing
ĠbÃ¢t i
Ġvict im
Ġvict imes
Ġfrustr Ã©e
Ġenter rer
Ġfich u
Ġboute illes
Ġcoop Ã©ration
arr Ãªtes
arr ache
Ġsuic idÃ©
obÃ© is
Ġbruy ants
ĠdÃ©barrass erai
Ġbrief case
Ġsouhait er
Ġsouhait ais
Ġsli p
Ġsli pped
Ġsept iÃ¨me
Ġatta qua
Ġrefus ai
Ġrefus ait
ĠÃ©goÃ¯ stes
Ã©tudier ai
ĠprÃ©cipit ez
Cons idÃ¨re
Ġsqu inted
Ġmass ac
Ġfing er
Ġhar assing
Ġjoy stick
Ġrang Ã©e
Ġmarch and
ĠdÃ©sesp Ã©rÃ©e
Ġintrigu ing
Ġaimer iez
Ġpuzz le
Ġpuzz les
Ġcrimin als
Ġannul Ã©e
Br ush
Rep lace
ĠIt aly
Ġpren ais
Ġpren iez
ĠmÃª lez
Ã©ner ve
Ã©ner ver
Ġjug Ã©e
Ġthr own
Ġcompli quÃ©e
Ġblanc s
Ġiron ique
Ġjaponais es
ĠdÃ©goÃ»t ante
ĠEurope an
Ġpoin ting
Ġpoin ted
Ġpoin ture
Ġnav ig
entraÃ® nement
ĠdÃ©mÃ©n age
Change ons
Ġincons id
Ġincons ciente
Ġshoe horn
Ġpoursuiv it
Ġpoursuiv rai
Pro c
Ġlourd es
Ã©lic opt
Ġdef ine
Ġremp ort
Ġtext o
Ġtext os
Ġcontag ieuse
ĠentraÃ® nÃ©
Ġsir Ã¨nes
Ġboi l
Ġboi led
Ġgel Ã©e
Ġplant Ã©e
Ġsoci able
Ġglo omy
ĠAmeric ans
Ġbarbe cue
Ġtremb lent
ennuy ais
Ġmisunderst anding
Cal me
Ġmas k
Ġmas que
Ġfain Ã©
Ġraff inÃ©
Ġraff inÃ©e
Ġant iques
Ġant iquit
Ġant icip
ĠdÃ©ch arg
ĠdÃ©ch irÃ©
ĠdÃ©ch iffrer
Ġblank ets
Ġsoud ain
Ġimpol ite
Ġimpuiss ants
Ġtaqu in
Ġchamp agne
ĠCanad a
Ġprogram mer
Red emande
Ġtig er
Ġdam aged
Ġpin ch
Ġpin ched
Ġcit iz
Ġreli ed
Ġrelig ieux
Ġabas ourdie
Ġcrue lles
Ġcraint ive
Ġcraint if
Ġmanqu Ã¨rent
Ġcouver tures
attrap erai
Ġshock ing
Exp lique
Ġcrack ing
Ġappa rentÃ©
Ġhist or
Ġmaj ored
emploi e
ĠÃ©nerv ant
ĠÃ©nerv Ã©s
ĠÃ©nerv Ã©es
ĠnÃ©glig ente
Ġtortu ring
Ġsincere ly
Sm ile
ĠY ear
Ġfle as
Ġgig gling
Ġrepe ating
Ġdoz ing
Ġromp re
ĠinÃ©v itables
ĠÃ©cras er
ĠdÃ©sorient Ã©e
Ġintim ider
Ġfamil ies
Ġbarb ar
ĠÃ©trang lÃ©
DÃ©b arrasse
Ġpoison ing
Sou riez
Ġsaign ez
ĠlÃ¢ cher
Ġmons tre
Ġund ress
Ġund ressing
Ġtrac asser
appro cher
Ġnovel s
ĠcomprÃ©h ensive
Ġadult s
Ġident ifier
Ġfold er
Ġbitter ly
ĠJacks ons
ĠÃ©mot if
Ġhypoc rit
ĠingÃ©n ieuse
Ple uvra
ĠW C
Ġsarc as
Ġdy e
Ġpous sez
ennem is
Ġmeu rent
Ġho quet
Ġrad ical
Ġassi ettes
ĠrÃ©vÃ© lation
Ġdiam ant
Ġdiam ond
Ġbran chÃ©e
Ġscar ing
ĠtÃ©moin s
Ġexcess if
Chante z
Ġbuv ais
Ġbuv ait
ĠbÃ©nÃ© v
ĠillÃ©g aux
Ġcoinc Ã©es
Ġenthousias tes
ĠvÃ©gÃ©tar ien
Tou ch
ĠK ore
ĠK yoto
Ġeur opÃ©
Ġmoust iques
Ġbanc ale
Ġmel ted
Ġcrain dre
Ġdiss u
Ġcloud s
Ġprior itÃ©
ĠdÃ©tr uire
restim ate
Ġrub an
Prom Ã¨ne
Ġnegoti able
ĠrÃ©tab l
Ġponctu elle
Ġgradu ated
Fe el
Fl our
Fl ush
Fl owers
War n
Ġcult ive
Ġbol ted
orp ions
Ġpassi onnÃ©
Ġgal erie
Ġgain ing
Ġtrag ique
Ġrout es
Ġstomach ache
Ġcomporte ment
ĠmÃ©l anger
Ġparesse uses
Ãīv ite
Ãīv itez
Ġinsul ting
Ġimit ation
Ġimit ating
Ġimit ations
Ġgreet ings
Ġvein arde
Ġblackm ailed
Ache tons
Light en
Voy ages
Ġmi j
Ġbud get
Ġbud dy
orce ments
ĠreÃ§ oit
Ġsew ing
Ġcomb att
Ġatro cement
Ġloc ation
Ġcoc aine
Ġconfirm ed
Ġsurprend rait
Ġboard ed
Ġconsider ate
Ġaffair Ã©e
Ġbiolog y
Ġbiolog ie
Ġinflu ence
Ġtyp ical
Ġtempor aire
Ġcooper ation
interromp s
Ġvictor ieux
ĠcomprÃ©hens ible
Fi lez
Sens ass
Ġ4 0
Ġ4 5
Ġaffe ction
Ġbid on
ĠbÃ¢ iller
Ġhoney moon
Ġinde mne
Ġsurmen Ã©
Ġsurmen Ã©e
Ġgrin ned
Ġcra quer
Ġdram at
Ġretrait Ã©
ĠembÃªt ante
Ġsett ling
Ġhomes chooled
Ġpossibil ity
ĠdiplÃ´ me
ĠpÃ©nÃ©t rÃ©
ĠUFO s
Gl ass
Tais ez
ĠN agasak
Ġow es
Ã©qu ilibre
Ġnat el
Ġhale t
Ġhale ine
ĠrÃ©ch auffe
Ġoffens Ã©e
Ġsmooth ly
Ġsmooth ies
ĠdÃ©ton ations
Ġobst inÃ©e
ĠintrÃ©p ides
Ġemboute illages
Ġinterven e
Ġcandid at
ĠÃ©nig mes
Ġachie ve
Ġparticip ate
Ġcorrespond ent
Rel isez
ÃĶ te
Ġpare ille
Ġcy nique
Ġcy nical
Ġcend rier
Ġcier ge
Ġnit rogly
Ġha uss
Ġhib oux
Ġchip s
Ġparier ais
Ġcano e
Ġknit ting
Ġupd ated
Ġsurf ing
ĠrÃ©d uit
Ġbross er
Ġrecyc l
Ġrecyc ler
Ġinsuff icient
Ġnourris sez
Ġpock ets
Ġresplend issant
Ġresplend issante
ennui ent
inform ations
Ġphotograph ie
Ġtatill on
Ġtatill onne
Break fast
Cor rect
Dou ble
Dou cement
MÃ©mor isez
Poss Ã¨des
Sw eep
Sw imming
Ġscient ifique
ony me
Ġlux ury
Ġvil ain
Ġhost ile
ĠtolÃ© rant
ĠtolÃ© rerai
Ġgon zesse
ĠÃ´ ter
Ġexist ent
Ġamm unition
Ġsurveill er
Ġsurveill erai
Ġadoles cente
Ref resh
ĠdÃ©tour na
Beaut y
ĠdÃ©ser tes
ĠmÃ©f iant
Ġpeel ed
Ġflaw s
Ġassign Ã©
Ġmethod ical
ĠdÃ©pou illÃ©e
Ġcroiss ant
ĠAsi a
ĠSc orp
Ġsangl ots
ĠprÃ©caut ion
ĠprÃ©caut ions
Ġfabri quÃ©
Reconn aissez
Ġinvestig ating
Ġdiplom atic
Ġintimid ate
hearted ly
Ã©clair c
Ac ceptez
Ident if
Ident ify
avert ir
sur f
Ġleu kemia
Ġleu cÃ©mie
ĠlÃ¨ ves
Ġnation alitÃ©
Ġbiling ue
Ġbiling ual
ĠvÅĵ u
ĠvÅĵ ux
Ġhic c
Ġunif orm
Ġunif orme
Ġove restimate
Ġdoy en
Ġdoy enne
Ġra quette
Ġprinc ess
Ġprinc esse
appell ent
Ġmanig ances
Ġmanif est
Ġmanif este
Ġblock ing
Ġblott irent
Ġdaydream ing
Ġscr ubbed
ĠmÃ©jug Ã©
ĠmÃ©jug Ã©e
Ġrecons ider
Ġacqu ies
Ġacquit tÃ©
Ġacquit ted
ĠmatÃ©ri el
Ġenvoy Ã©s
Ġenvoy Ã©es
ĠÃ©pic Ã©e
Ġmount ain
Ġmount ains
Ġpicn ic
Ġpicn ics
Ġ25 0
Ġmodif ications
Ġmodif iÃ©e
Ġdestroy ed
Ġoutrage ous
Prof ite
Ġconstitu ent
Ġmamm al
Ġmamm ifÃ¨re
Recommence z
Ġspaghett i
Ġspaghett is
Ġirrespons ible
Fant astique
ĠTh urs
Ġpau mÃ©
ĠmÃ» res
Ġnou ba
Ġnaiss ance
Ġfif ty
Ġbale ine
Ġdedic ated
Ġqual ified
Ġrass asiÃ©
Ġeld ers
allum ette
Ġconven ait
Ġgro aned
Ġdisli ked
Ġappe al
Ġappear ance
Ġappropri ate
Ġnostal g
Ġperro quet
Ġblink ed
ĠmÃ©di ocre
Ġguarante e
Ġremont Ã©
Ġremark able
Ġenvis agÃ©
Ġimb att
exagÃ© rer
Ġnightm are
Ġboun ce
Ġesprit s
Prot Ã©gez
Ġensole illÃ©e
Ġextravert ie
DÃ©place z
Ġprocrast inating
Ġexercis ing
ĠrÃ©flex ion
hyp notiser
Frapp ez
ĠindiffÃ© rent
ĠsÃ©duis ante
Aug mente
Ġsen ior
Ġly rics
Ġcob ra
Ġcerve au
Ġbul b
Ġtoxic o
Ġunk ind
Ġmeas ured
Ġitch y
Ġkar a
appart iens
Ġlob by
ĠÃ©mÃ© chÃ©
Ġsurs auter
Ġgrumb ling
Ġsiren s
Ġclot hed
Ġcontro lled
Ġentour Ã©
Ġscal pel
espÃ© rais
ĠdÃ©sorgan isÃ©
assey e
Ġguid ance
Ġflatt Ã©e
Ġrefer ring
exer ce
Ġcucu mbers
Ġdecor ated
achet ai
Ġnourr issent
Ġescro c
ĠcÃ©lÃ© b
Ġgunsh ot
berg asted
ĠcollÃ¨g ue
Ġrelative ment
Ġunfor gettable
Ġcurt ains
Ġvainqu eur
Ġemploye es
ĠmÃ©cont ent
Ġintrodu ce
Ġagricult eur
Ġharsh ly
Ġuninterest ed
Ġinappropri Ã©
Ow ls
cro Ã»te
drat Ã©
ĠAs ie
Ġult ime
Ġtun a
Ġnuis ance
Ġbuiss onniÃ¨re
ĠhaÃ¯ s
Ġuntr ue
Ġreten ue
Ġtrott oir
Ġjau ge
Ġenj eux
Ġchann el
Ġpluv ieux
ĠIn ternet
Ġshr ugged
ĠcrÃ¢ ne
Ġappart iennent
Ġpert inent
ĠdrÃ´ les
Ġmumb ling
Ġoverd ose
Ġflab bergasted
Ġassert ive
Ġinsan ely
ĠdÃ©plais ant
Ġacclam Ã¨rent
ĠsÃ©cur isÃ©
ĠAmÃ©ric ain
Ġsuperf lu
Ġsuperm arket
Ġarticul ate
Ġheartb roken
Ġprepar ing
ĠGree k
ĠrÃ©col te
Ġsubmerg Ã©
Ġhypnot ize
Ġastrolog ique
arranger ai
Ġronf ler
ĠsecrÃ©t aire
Ġprovo quÃ©
Ġunbeat able
Ġsorci Ã¨re
ĠArab ic
Aw esome
Bons oir
Cia o
Four nis
GÃ©ni al
Jup iter
Mus ic
Mur der
Nour ris
Obe y
Rabb its
fum eur
zhe imer
ĠThanks giving
ĠtÃ¢ ches
Ġshat tered
Ġslo ppy
ĠsÃ©r um
Ġdal ton
Ġcout ume
Ġcic atrice
Ġcavi ar
Ġnaught y
Ġhog wash
arrest ation
Ġgoof ed
Ġuneth ical
Ġunmar ried
Ġisol ated
Ġrelent ed
Ġrevel ation
Ġreinf orcements
Ġtraged y
Ġjugg le
Ġenne ig
Ġryth me
Ġhect ic
Ġinten se
Ġinher ited
Ġineff icient
Ġseiz ure
Ġsearch ing
Ġkrat om
Ġketch up
Ġanalph ab
ĠsoÃ» l
Ġarist oc
Ġaltern atives
Ġalto gether
Ġframb oises
Ġcrunch ing
Ġappriv ois
Ġclog ged
Ġclich Ã©s
Ġpercept ive
Ġperru que
ĠadhÃ©s if
Ġresched uled
ĠFranc isco
Ġhandker chief
ĠdÃ©contr actÃ©
Ġexcomm un
Ġundergr ad
Ġcolocat aire
intrig ue
Ġsacrific es
Ġmariju ana
Ġinterfer ing
Ġsupermar chÃ©
Ġsoigne usement
Ġilliter ate
Ġ200 3
Ġhyster ical
Ġparaplui es
Prati quez
Ġcharpent ier
Ġessouff lÃ©
Ġantiquit Ã©s
ĠapparentÃ© es
ĠNagasak i
ĠThurs day
A B
A M
A Q
A in
A Ã¨re
A ff
A ime
B y
B er
B est
B ig
B ook
B read
B ientÃ´t
B ark
B onnes
B aby
C ap
C old
C ash
C onte
C oll
C liquez
C uri
C ourez
D ay
D ig
D ist
D anc
D ream
D ating
D irais
E ux
E xt
E gg
F ie
F ake
F ive
F are
F iez
F ace
F oc
F ash
F umes
F uyez
G rouille
H ist
H ope
H onest
I nd
I rez
J es
J oin
J Ã©s
J ug
J oli
J udge
L un
L ong
L ors
L aughter
L esson
M ed
M Ã¨re
M other
M Ã©f
M Ã©l
N orm
N ote
N ombre
N icke
N ouez
O k
O ut
O ust
P o
P ret
P olice
R is
R ules
R avi
R approchez
S y
S oud
S ize
S pit
S erais
T as
T Ã¢che
T entez
V ais
V oir
V oler
V isez
V otez
W a
a fe
a hi
b out
b ol
b ly
b ies
b ted
b bling
b jection
b rows
c r
c y
c Don
c ade
c iez
c ope
c ra
c tez
c entre
c ano
c ards
d om
d ir
d ro
d rait
e ying
e lected
e ffectu
f i
f l
f it
f ait
f res
f old
g ot
g ulier
h Ã©
h ie
h ique
h ogs
i ar
i ing
i ole
i ased
k le
l ave
l ish
l ande
l aient
l ts
l ayed
l zheimer
m s
m me
m os
m ail
m ars
m atique
m atur
m agne
m aker
n own
n oc
o Ã»t
p a
p at
p ed
p te
p id
p il
p ain
p aw
p sy
p irez
p oli
r ote
r ables
s u
s ister
t it
t or
t out
t ie
t ends
t ied
u ait
u ons
u ble
u Ã©s
u Ã©es
u ffe
u ary
u eless
u Ã¨tes
u Ã©tude
v u
v ance
v ier
v ise
w s
w it
w ar
w alk
w arm
w atch
w illed
w rote
y le
z ing
Ġ E
Ġ Q
Ġ ur
Ġ Le
Ġ Que
Ġ St
Ġ Be
Ġ Go
Ġ Will
Ġ orth
Ġ Vis
Ġ oiled
Ġ omen
ou a
ou ci
ou ette
ou cher
ou illes
Ġt one
Ġt ord
Ġt aux
Ġt resp
Ġt ipt
Ġt Ã®nmes
re mment
re ls
re motional
Ġa in
Ġa ce
Ġa pt
Ġa vers
Ġa ches
Ġs ed
Ġs Ã¨
Ġs ch
Ġs iens
Ġs ank
Ġs ides
Ġs iennes
Ġs avaient
Ġd ai
Ġd us
Ġd ren
Ġd ames
Ġp ais
Ġp ac
Ġp ans
Ġp ink
Ġp ose
Ġp oire
Ġp oiss
Ġp aille
Ġp ampe
Ġp Ã©chÃ©
is ons
is tÃ©
is Ã©es
on Ã§
on ces
on ym
on izing
en Ã©
Ġl id
Ġl il
Ġl ys
Ġl atin
Ġl aughter
Ġm ai
Ġm ac
Ġm ut
Ġm end
Ġm ak
Ġm ult
Ġm Ã¢che
Ġm Ã©tÃ©
Ġm ended
Ġm aill
Ã© b
Ã© rai
Ã© ge
Ã© vÃ©
Ã© lÃ¨ve
Ġc ant
Ġc ue
Ġc iv
Ġc itÃ©
Ġc akes
Ġc uter
Ġc irÃ©
Ġc uts
er ia
er aman
om s
om es
in ate
in ite
in vent
in tures
in noc
Ġn oy
Ġn ive
Ġn ast
Ġn oie
Ġn oyÃ©e
Ġn oun
he m
he cy
an ch
an moin
an uary
an vier
as ant
as ive
as sible
as tered
Ġf oin
Ġf Ã©es
Ġf ies
Ġf oss
Ġf esses
Ġf ancy
ll ing
ll eux
Ġb onn
Ġb Ã©e
Ġb ind
Ġb if
Ġb um
Ġb Ãªtes
Ġb asses
Ġb ains
Ġb und
Ġb Ã»mes
Ġb ummer
Ġb udd
Ġb ailler
Ġb artender
Ġy ach
Ġw il
Ġw iz
Ġw rest
Ġw aff
Ġw ax
Ġv est
Ġv ex
Ġv ary
Ġv ider
Ġv Ãªtir
Ġv Ã©cut
at o
at te
at hered
at mos
est ime
qu ate
qu ine
ve y
ve ux
it i
it is
it ain
it ation
it ches
it aires
it udes
Ġh ont
Ġh ache
Ġh oche
Ġh alt
Ġh Ã©ritÃ©
Ġh Ã©licopt
ar ra
ar ies
ar na
ar naque
un g
un ting
Ġde ar
Ġde odorant
or se
or gue
ent rai
ent ret
Ġpas ta
Ġto ast
Ġto ols
Ġg er
Ġg our
Ġg Ã¨re
Ġg ears
Ġg Ã¨res
Ġg ums
Ġg ander
Ġg athered
ed o
ed ge
ed nes
le ad
le terre
le asant
Ġqu ote
Ġqu Ã©m
Ġne uves
us age
Ġun es
Ġun att
Ġun th
Ġun pl
Ġun imagin
ot y
ot ons
ot ta
eu p
et tÃ©
oi les
oi lÃł
ri ous
ri ght
ri ct
ri ly
ri gg
ri ques
ri pil
Ġis olÃ©
Ġthe ater
Ġre in
Ġre ck
Ġre ass
Ġre ward
Ġre br
Ġre venez
Ġre wrote
Ġle ct
Ġsu l
id ieux
id ables
Ġque en
Ġque lles
Ġque rell
Ġtr aÃ®t
Ġtr ace
Ġtr Ã©p
Ġtr ousse
Ġj un
Ġj ot
Ġj av
Ġj ules
Ġj urÃ©
Ġj oignez
Ġj anvier
se au
se mp
Ġo ses
Ġen quis
Ġen leva
ay e
Ġdo oh
au ff
au ront
au ffer
Ã¨ tre
Ã¨ ves
Ã©t in
Ã©t ie
Ã©t endu
Ã©t aient
Ã©t amine
Ã©t oiles
Ġth umb
il itÃ©s
lle magne
Ġr ow
Ġr all
Ġr ab
Ġr ade
Ġr ise
Ġr ated
Ġr uck
Ġr ail
Ġr ash
Ġr oulÃ©
Ġr ousse
Ġbe ats
Ġe c
Ġe qu
Ġe go
Ġe aves
Ġe conom
Ġe got
out ing
out umÃ©
ons tr
Ġch oo
Ġch ill
Ġch op
Ġch ap
Ġch Ã©ri
Ġch airs
Ġch Ã¢t
Ġch ronom
Ġhe ed
Ġhe dge
Ġhe licop
ch ers
ch onner
ad viendra
Ġit self
Ġin ade
Ġin jection
Ġin excus
We ar
tu e
tu ce
al d
al i
al isÃ©
Ġli rai
Ġli mb
Ġli bÃ©
Ġli gu
He alth
ic ine
ic ist
ic ieuse
ic aces
ic key
Ġse as
Ġse eds
Ġse venth
Ġpr une
Ġpr Ã©tent
Ġpr Ã©tendu
el tering
st r
st age
st Ã©ri
st yle
onn ier
onn iez
onn iste
ver sez
ver rouille
Ġte ar
Ġte lles
Ġte ins
im ous
im ate
im sy
im als
im iter
Ġpl ia
Ġpl ongÃ©
Ġpl ums
Ġpl astered
Qu arante
ir l
ir s
ir as
ir rit
ir ty
ir per
Ġk et
Ġk oal
Ġan ky
Ġan onyme
Ġan kle
Ġan onym
Ġpar ages
Ġpar venues
ien ces
Ġcom ics
Ġall ais
Ġall Ã¨rent
Ġall Ã¢mes
Ġall ouÃ©
Ġall ouÃ©e
ĠÃ©t ourdi
ag nÃ©
ag irai
ag nes
ag issez
ag Ã¨res
av oue
av ancer
Ġst ag
Ġst rive
Ġst akes
Ġst itches
Ġcan ard
Ġcan ards
Ġcan alisation
de ep
ble ed
ac te
Ġgo at
Ġgo gg
am a
am ie
am aged
Ġce intures
op ed
op ol
op Ã©ration
ĠÃªt res
all es
all ows
all umer
ut Ã©e
ut eur
ut ile
ĠdÃ© vis
ĠdÃ© tective
ĠdÃ© odorant
ĠdÃ© semp
Do lph
Ġso llic
ang led
os tez
and es
Ġsom n
Ġon ions
ig me
up ine
Ġpour ra
Ġver tu
Ġver gl
Ġri ez
app e
app rÃªte
app lau
app lique
app rÃ©ciez
ess ible
Ġmon k
Ġmon keys
Ġav en
Ġav id
Ġav alÃ©
Ġav ariÃ©e
ort s
ol a
ol Ã©es
ol ves
ol ks
Ġsh ining
Ġau dit
Ġau tumn
rai ch
Ã¨s es
Ġje an
ct a
onne ment
ly mp
Ne ed
Ġdes igner
mp et
mp toms
mp laÃ§able
Ġlo is
ici el
ici ans
ici lement
Ġar chai
Ġal ter
Ġal ias
Ġal armÃ©
Ġal right
ink able
ink led
Ġfr own
Ġfr ost
Ġfr ying
Ġfr Ã©n
Ġfr ousse
Ġfr azzled
Ġfr otta
Ġex er
Ġex ig
Ġex agÃ©
Ġex celle
Ġex asp
Ġwor s
Ġam Ã©ric
ob jet
ob iles
pe at
oy ables
ĠÃ© vent
ĠÃ© lue
ĠÃ© ba
ĠÃ© quip
ĠÃ© quipes
ĠÃ© bran
ui lle
ue lle
ouv es
ive red
Ã©s or
ul Ã©
Ġsur rend
Ġsur ge
Ġsur fer
Ġsur vey
Ġus Ã©
are ils
are illÃ©es
Ġsee k
Ġsee ks
Ġcon venu
Ġout rÃ©
Ġout law
Ġout fit
Ġpart ied
Ġpart ners
Ġpart agent
ap ers
ap ens
Ġgr Ã©
Ġgr ac
Ġgr am
Ġgr inc
Ġgr ouch
Ġgr anted
Ġgr avy
imp lique
imp ensable
ime ment
od Ã©
od ie
si ght
Ġab rit
Ġab ond
Ġab oya
Ġdev il
Ġdev ice
Ġdev ions
Ġdev ra
Ġdans es
ĠrÃ© ception
ĠrÃ© action
Ġcr ues
Ġcr ush
Ġcr acked
Ġsa b
Ġsa oule
uis ons
Ġdis ques
Ġdis reg
Ġqui bbling
Can cel
Ġbien veill
if rice
if iÃ©e
Ġapp ort
Ġapp ela
Ġapp rends
Ġapp elles
Ġapp Ã¢t
Ġapp alling
Ġapp lied
Ġapp areils
Ġcomp ose
Ġcomp tes
Ġcomp ortÃ©
Ġcomp ortes
ro le
ro que
Ġdi es
Ġdi ce
Ġsais it
Ġsais ir
Ġhapp ily
Ġcl i
Ġcl in
Ġcl ign
Ġcl own
Ġcl oses
Ġcl airs
Ġcl ouÃ©
Ġcl erk
Ġcl ipped
Ġcl ueless
Ġag it
Ġag resser
Ġag itÃ©e
Ġag onizing
ense mble
ne red
Ġser ve
Ġser rÃ©s
Ġman ie
Ġman oir
Ġman iaque
Ġman iac
Ġman uelle
Ġmar Ã©e
Ġmar rÃ©
Ġmar rÃ©e
Ġmar rÃ©s
Ġmar cha
Ġmar sh
Ġco gnÃ©
Ġco gner
ab re
ab ine
ab oyer
ab attez
ab ilitÃ©s
Ġcont ain
Ġcont este
Ġcont ains
Ġper tes
Ġper cer
Ġper fecti
ass Ã©e
ass able
ass ist
Ã©c oul
Ã©c iles
Ã©c rivez
Ã©c late
Ġbl ues
Ġbl amed
Ġbl esse
Ġbl uffe
Ġmain tenir
Ġmain tain
Ġdr u
Ġdr ame
Ġdr ummer
Ġmal aise
Ġmal honn
Ġmal poli
Ġquel s
Ġma qu
Qui et
ist ing
ist ical
ist iques
ist rat
Ġread er
Ġpro vis
Ġbr ake
Ġbr iser
Ġbr aves
Ġbr uns
Ġbr isa
Ġent Ãªt
Ġent rez
Ġent erre
Ġent endez
Ġent rÃ©es
Ġent rÃ¨rent
ient s
Ġcar abine
Ġatt rape
Ġbon es
Ġbon di
Ġstu mbled
iss aire
iss ants
iss eurs
Ġsou levÃ©e
Ġdem eur
um ing
Ġont o
Ġimp asse
Ġimp ert
Ġimp ression
Ġimp assible
cher ai
rit us
ast rop
ast ronom
As sez
rÃ© mÃ©
Ġher self
iv id
iv able
uy ons
Ġback ward
Ġback stage
Ġad min
Ġad ieu
Ġad apt
Ġres olu
Ġres cue
Ġres umed
ris ez
ris onnÃ©
Ġtalk er
Ġfri ed
Ġfri mer
Ġwh ipped
Ġwh irl
ost erous
Ġenc re
Ġenc erc
Ġenc ombre
Ġenc ourir
Ġenc ouraging
Ġmust y
Ġren se
Ġren ards
Ġarri vez
Ġta le
Ġfer ont
ĠF ire
ĠF AQ
Ġcour ais
Ġcour ante
Ġcour Ã»mes
Ã¢ ts
Ġrest r
Ġrest ent
Ġrest ing
Ġrest iez
Ġrest less
Ġreg ular
Ġdiff icilement
Ġpi es
Ġpi eu
Ġpi peau
Ġmu le
bre r
Ġpass ai
Ġpass ade
Ġpass eng
ĠprÃ© te
ĠprÃ© matur
Ġbook keep
Ġfin s
Ġfin is
Ġfin ies
Ġcou rier
Ġcou inent
aid iez
Re peat
Ġret reat
Ġret int
Ġret iendrai
Ġret ali
Ġconn ard
Mon keys
Mon opol
Ġjour ney
Ġsp ill
Ġsp ying
Ġsp onge
Ġsp ider
ĠdÃ©t ax
ĠdÃ©t achÃ©
ĠdÃ©t ritus
Ġoccup e
Ġoccup ons
Ġoccup ation
Ġlot erie
Ġconf ront
Ġconf ondu
ile psie
Ġou blie
Ġdown hearted
Ġprend rait
Ġgl ac
Ġgl ue
Ġgl um
Ġro lled
En tendez
En regist
En tends
Ġsent enc
Ġter res
Ġenf uis
Ġenf ance
Ġenf ermÃ©
ra ordinaire
Ġmes quin
ft ed
Ġnew com
Ġfun Ã©rai
ĠrÃ©p ares
ĠrÃ©p Ã©tez
ĠrÃ©p utation
Ġsec ure
Ġpens ions
Ġob Ã¨se
Ġexp ress
Ġexp enses
Ġexp lique
ĠÃ©c oul
ĠÃ©c rite
ĠÃ©c rivez
ĠÃ©c oles
ĠÃ©c rÃ©mÃ©
Ġlet ters
Ġlet tuce
Ġvoul ut
Ġrend ra
Ġrend Ã®mes
Ġhand ling
Ġhand writ
Ġhand made
Ġhand stand
Ġhand rail
Ġhand cra
Ġover he
Ġover joy
Ġover time
Ġover coat
lo che
Ġaid es
Ġaid Ã©es
ond Ã©es
ond uit
Ġsc ore
Ġsc ape
Ġsc Ã©n
Be have
Ġmo ot
Ġmo ves
Ġmo ches
esp Ã©rez
esp ionner
ĠdÃ©s ert
ĠdÃ©s habiller
ĠdÃ©s olÃ©s
De al
De bout
Ġsw ore
Ġsw oll
Ġsw eltering
Ġph ony
Ġjou a
Ġjou ions
Ġsurp lus
ĠmÃ© dit
ĠmÃ© mor
Ġand ouille
ach a
ĠtÃ© loche
Ġhard est
Ġhard ie
Ar m
Ġdrink er
iz es
Ġaut iste
Ġaut istic
Ġplan ifiÃ©
ĠdÃ©c ouvrir
ĠdÃ©c onse
ĠdÃ©c lina
ĠdÃ©c oncer
ĠdÃ©c isions
asse mble
Ġeu rent
Ġrep rend
Ġrep orter
Ġrep Ã©rÃ©es
Ġrep Ã©rÃ©s
enc Ã©
Ġpe an
Ġpe ars
Ġpe ered
Ġpe cul
Ġsimp lic
Ġment ais
Ġment euses
Ġfai ling
Ġgu et
Ġgu Ã©rit
Ġpre y
Ġpre view
Ġfl an
Ġfl imsy
Ġint act
Ġint ently
Ġint imitÃ©
ert ain
Ġpa rentÃ©
Ġcoup Ã©e
Ġcoup ables
Ġexc Ã¨s
att le
Ġdou ches
Ġdou ze
ug s
ug iÃ©s
Ġlaiss iez
Ġtrouv iez
Ġtrouv Ã¢mes
ĠprÃªt era
Ġcat astrop
Ġnom mÃ©
Ġnom bres
Ġrec alÃ©
Ġfatigu er
Ġca h
Ġca hier
Ġgrand issent
Ġass urer
Ġass Ã©chÃ©
Ġass uÃ©tude
oc s
Ġfau chÃ©e
Ġfau drait
Ġfau lts
Ġemp tied
Ġemp risonnÃ©
Ġfi Ã©
Ġfi el
Ġmet te
Ġmet ers
Ġvol can
Ġvol cano
Ġsouv iendra
Ġinv ain
Ġsleep er
Ġaider ont
Ġins ured
Ġins pir
Ġins ulte
Ġins ouci
Ġins istÃ©
be at
be lles
be cile
Ġopen er
Ġtur tles
Ġaim a
Ġaim ed
Ġaim aient
Ġpat in
Ġpat ates
Ġache tons
Ġlun atique
Ġvis itÃ©
Ġdisp layed
Ġdemand s
Ch ar
Ch ien
Ch angez
Ġunder w
Ġac hat
Ġac te
Ġac rob
Ġtravaill a
Ġtravaill aient
Ġtravaill eurs
Ġrem it
Ġref ait
Ġref uses
Ġref lex
Ġref uge
Ġref erais
Ġref ormed
Ġsupp ly
Ġsupp lier
Ġinc rÃ©d
Ġpu es
Ġpu ent
Ġgar Ã©e
Ġchat ted
Ġchat ouille
Ġinte lle
az e
Ġenv oyez
Ġenv oient
Ġenv ahi
Ġgag nez
Ġcor Ã©
Ġcor vÃ©es
Ġhow ling
ph Ã¨re
ĠdÃ©p enses
ĠdÃ©p areillÃ©es
Ġap te
Ġpol ished
Ġfu ir
ĠÃ©tud iez
Ġcher chons
Ġim becile
Sh ape
Ã©g al
Ġmus cle
Ġcons piration
Ġcons idÃ©rÃ©
Ġend ettÃ©
Ġacc us
Ġacc usÃ©e
Ġacc outumÃ©
Ġsk unk
Ġsk illed
Ġsk irts
Ġsk itt
Ġwater proof
ins ulte
Ġmis pr
Ġmis lead
Ã©ri eur
Ġmoment s
Ġmoment anÃ©ment
Ġemb rou
Ġemb allÃ©
Ġrencont rai
Ġcol is
Ġcol ombe
Ġlast s
la Ã§ons
fÃ© rez
Ġbro ad
Ġconc ur
Ġconc lue
Ġconc ouru
Ġstr angled
ĠarrÃªt ons
di x
Ġhor n
Ġhor ripil
Ġbou c
Ġbou der
Ġbou chÃ©s
Ġwar y
Ġchant aient
Ġquit tes
int imitÃ©
Ġsound ly
Ġprop hecy
Ġcu mbers
omp he
omp agne
Ġdorm is
Ġsau fs
Ġlis ait
Ġhun ted
ĠT B
ĠT erre
Ġact ors
Ġact eurs
Ġsit s
Ġpers pect
Ġpers istent
Ġpers Ã©vÃ©
Ġmess y
Ġmess ager
Ġmess enger
Ġamus antes
ĠO bjection
iend rait
iend rez
Ġrou e
Ġrou illÃ©
Ġkind ness
ĠÃ©p at
ĠÃ©p ais
ĠÃ©p ris
ĠÃ©p onge
ĠÃ©p idÃ©
ĠÃ©p elÃ©
ĠÃ©p isode
Ġtw enty
Ġtw isted
Ġtw elve
Ġtw isting
Ġport a
Ġport ais
Ġcontinu ai
Ġcontinu Ã¨rent
Ġdisc overed
Ġdisc utez
App roche
App uie
App uyez
App arent
App aremment
App lause
Ġmot orc
Ã©p ar
Ã©p end
Ã©p onge
Ã©p endant
Ã©p uise
Ã©p ilepsie
Ġpoint less
Ġeasy going
Ġcommenc erai
Ġcommenc Ã¨rent
ĠachetÃ© es
Ġaw ait
Ġboy ish
Ġappel ait
Ġdec isions
Ġfil es
Ġbu ff
Ġbu mp
Ġbu mped
ĠmÃ¨re s
Ġbest iole
Ġviv rai
Ġrev is
Ġrev iendras
Ġrev oilÃł
Ġnon ante
Ġhat s
Ġeff acer
Ġeff raie
Ġeff orÃ§ons
Ġtermin a
Dis ons
Ġmang ions
Par k
Par venez
Par rots
bl ind
Ġwind surf
Ġkill er
ache tez
Ġsn acks
heure s
Un is
Ġprof il
Ġprof itÃ©
Ġsick ening
Ġtour nÃ©e
Ġtour ists
Ġmag ician
Ġcam eras
Ġcam eraman
tr Ã©e
Ġut ilise
ĠpiÃ¨ tre
Ġtrouver ais
Ġtrouver ions
gn a
Ġtri omphe
Ġenjoy able
Ġsil ver
Ġsl ain
Ġsl im
Ġsl ide
Ġsl ice
Ġsl ope
Ġvoy ant
Ġvoy ons
Ġrapp roche
Ġrapp rocher
Ġsign a
Ġsign es
Ġsign erai
Ġfast ing
Ġfast idieux
Ġsol id
Ġsol uble
ĠÃ©g alent
Ġparti al
Ġparti rent
Ġsal ut
Ġsal ive
Ġsal uer
Ġsal uÃ©
Ġbag uel
Ġfix Ã©e
ĠÃ¢ mes
Ġinto xic
Am usons
Ã¯ e
Ġdur a
Ġdur ing
Ġdur ant
Ġdead ly
ĠdÃ©b ute
ĠdÃ©b order
ĠdÃ©b ran
Ġtra fi
Ġretour n
Ġretour nes
Ġnour rit
Ġbor de
Ġbor nes
Ġforget ting
ĠJ anuary
Ġord onnÃ©e
Ġput s
Ġvoi le
Rest es
Ġown ed
Ġfroid es
Ã©r atif
Ġhair style
ĠdÃ©r outant
Ġmin ors
Ġmin ister
Ġmin eure
Ġmin uscule
Ġbreak down
Ġcass Ã©s
Ġcass Ã©es
Ġconv icted
ĠrÃ©veill a
ĠrÃ©veill ai
Ġpo ing
Ġpo ings
Ġsemb ler
ĠthÃ© iÃ¨re
Att endance
Tr ouves
Ġhead stand
Ġfou illÃ©
ĠA lzheimer
Ġfollow s
bÃ© rez
Ġhum ming
Ġbeh aves
ĠdÃ©m ence
ĠdÃ©m odÃ©
Ġcheve lure
Ġbi b
Ġbi king
Ġbi kes
Ġinf os
ĠcoÃ» ts
Ġnu de
Ġnu mbers
Cont act
let ic
let ale
Ġaur ont
Ġcap ot
entre prise
Ġlaw n
Ġlaw yers
Ġregret ted
Ġswe ated
Ġswe ets
Ġchauss ette
Ġgagner ait
Ġgagner ons
emp ort
Ġdri zz
ĠdiffÃ© remment
Ġmari ole
Ġmari ages
ignore s
Ġmor ons
Ġmor ale
Ġfar ce
Ġaband onnes
Ġaband onnÃ©e
ĠdÃ©cid era
Ġsuiv ait
ĠprÃªte z
Ġresp irait
ĠÃ©tudi a
ĠÃ©tudi ait
lic ity
ĠbÃ© n
Ġtick lish
Ġpleure z
Ã¨g re
Ã¨g es
Ġtow ards
Ġleur rons
Ġnormal itÃ©
Ġvin rent
Ġinter v
Ġinter venu
Ġrentre z
Ġrentre rai
Not ez
ĠÅĵ uvre
Ġattend us
Ġattend iez
Ġattend rons
Ġattend Ã®mes
Ex amine
Ġdinner time
alent ine
Ġguess ing
Ġsuc rÃ©es
ĠgÃ¢ chette
ĠgÃ¢ chis
Ġshot gun
hab illa
Ġbab ies
Ġpatient s
ĠderniÃ¨re s
Ġban ques
Ġban quier
Ġesp Ã©
Ġesp Ã©rer
Ġesp ionne
Ġesp Ã¨ce
Ġpolice men
Ã©d ent
Ã©d ait
Ġred ire
Ġred head
Ġconse ille
Ġconse illez
Ġconse illa
Ġconse quence
Ġcru de
Ġprem ature
Ġsymp as
Mont ons
em mÃ¨ne
em mÃ©nager
Ġlu mber
Ġreste rez
arrÃªt erai
ĠrÃ©s istes
Ġouv rent
ĠÃ©ch angÃ©
ĠÃ©ch oue
Ġfoot ste
Ġchanger ai
Ġsnow s
Ġgre asy
Ġsuper fic
Ġutilis a
Ġutilis es
Ġutilis Ã©e
Ġdep osit
Ġdep orted
Ġradi ateur
Wait er
Ġchev ille
Ġbar rÃ©e
Ġbar ber
Ġbar rage
Ġdemander ais
Ġdemander iez
Ġtru mpet
Ġplein es
Ġreconn ut
Ġreconn aÃ®t
Ġreconn aissez
Ġinst all
Ġinst allÃ©
Ġfrapp Ã©s
Ġadore r
Ġdispos ition
by es
Ġfair y
Ġarriver ai
Ġarriver as
Ġarriver ait
Ġarriver ons
Ġslow er
Ġslow ed
Ġchoc ottes
Ġ2 4
Ġattrap Ã©s
Ġattrap Ã©es
Ġgri lle
Ġgri gn
Ġtromp ait
Ġapolog izing
Ġrent al
Ġsmil es
exp lication
Ġinform Ã©s
Ġfus Ã©
Ġeng ourd
Ġeng agÃ©s
Ġembrass Ã©es
man nered
Ġtre asure
Ġsun sh
Ġsun bur
ason able
Ġtemp t
ĠdÃ©f endre
Ġcommencer ons
Ġboss er
Ġsugg Ã¨res
emb aller
issi ons
Ġremar quÃ©e
Ġremar qua
ĠprÃ©sent able
ĠprÃ©sent erai
Ġpun is
Ġpun ition
Ġna usÃ©
Ġsouci es
Ġsouci ent
Ġcommand erai
Ġz Ã¨
Ġz ero
Ġpick le
Ġve ille
Ġobject ed
Ġtent a
Ġtent ant
Ġtent Ã©e
Ġtent ez
Ġmign onnes
Ġbreat hed
Ġrelax ant
Ġsouff lÃ©
Ġsouff la
Ġsouff lait
In de
In ternet
In utile
Ġveu ve
Ġveu ille
Ġform Ã¨rent
Ġform ules
Ġform alitÃ©
Ġform idables
Ġrespect Ã©
Ġrespect ons
ĠdÃ©missi onnes
ĠdÃ©missi onnons
ĠdÃ©missi onniez
Ġfour ni
Ġfour bu
Ġnois ettes
Ġappro cher
Ġappro chent
Ġopin ions
Ġprep osterous
Ġset back
Ġworth y
ĠEngl and
Ġbas ic
Ġgif la
ĠmÃ©rit ait
DÃ©s ormais
Ġpou belles
aff aires
ĠD AB
Ġcre v
Ġcup ide
Ġcup board
Ġstar ve
Si x
Ġclass Ã©
Ġclass mate
Ġpress ing
Ġbal ding
Ġhy pe
Ġhy stÃ©ri
ĠdÃ©g ain
ĠdÃ©g ourdi
ĠdÃ©g otÃ©
ĠdÃ©g Ã¢ts
ignor ance
Ġminut ieuse
Ġvot erai
Ġind uit
Ġind ique
Ġind ivid
Ġscream s
Ġsurviv ant
Ġsurviv ante
Ġexcit ante
Ġdist ant
Ġvent es
Ġjet ter
Ġrat on
Ġrat ionnelle
Ġprot Ã©ge
Ġterrif ie
Ġterrif ies
ĠnÃ©cess aires
Ou ah
Ġmed i
apprÃ©ci ait
ĠprÃ©v oit
ĠprÃ©v iendrai
ĠprÃ©v oient
ĠdÃ©range ment
nif ique
Ġdeep est
ĠvÃ©rif ie
Ġfootball eur
ĠsÃ© cher
Ġem mer
Ġem otion
Ġem mÃ¨ne
Ã©n avant
Ã©n igme
Ġrac ing
ĠM t
ĠM or
ĠM cDon
Ġrequ ins
Ġrom pt
adm irais
Ġvisit er
Ġvisit or
Ġplaisant ent
Ġennuy ons
pl ant
pl anes
Ġprotect ed
Ġprotect ive
Ġprotect eur
Ġcommen Ã§ais
arri vons
arri vais
Appelle z
Ġsuggest ed
ĠfÃ¢ chÃ©es
Ġgam ins
ĠbrÃ» l
ĠbrÃ» lent
Ġadd it
Rem onte
Ġsoul age
Ġmur s
ĠÃ©cout es
ĠÃ©cout ons
ĠG r
Ġ30 00
Ġmit ts
ane ous
Ġfore se
Ġfore head
Ġbot te
Ġbot tles
Ġvend ons
Ġvend rai
Ġvend eur
ĠÃ©v itÃ©
Ġhabit udes
Ġrespons ables
Ġrespons abilitÃ©
Ġmour ait
Ġmour ons
Ġmour rai
idi ote
Ġcoll ation
Ġcoll aps
Read ing
ĠdÃ©test es
Ġespoir s
Ġwel fare
ĠprÃ©c ise
Ġpur itaine
Ġpur itain
enf ui
enf uit
Ġloup er
Ġfact eur
Ġsusp endue
Good night
Pr ouve
Pr atiques
Ġtest s
Ġtest ament
Ġtight en
Ġtight ly
Ġtight ened
Ġriv age
Ġtire rai
Ġbank er
Ġhalf way
Ġasse y
Ġasse yons
Ġdiscuter ons
Jou er
Ġdent aire
Ġdent ifrice
Ġamaz es
Ġsaoul er
Ġobs er
Ġobs ol
Ġposs Ã¨des
Ġposs Ã©dait
Ġrecomm encÃ©
Ġsignif iait
Ġhospital s
Ġmout on
Ġbaiss Ã©e
Ã©tr ange
Ġeye brows
Pl an
Pl ants
Ġcach es
Ġcach Ã¨rent
ĠnÃ© anmoin
Ġplain ly
Ġappar ition
Ġrock et
ĠgÃ©nial es
Ġdort oir
Ġbatt it
Ġbatt ait
Ġbatt eur
Ġbatt age
Ġbatt ra
Ġgau ge
Ġgau fres
ĠspÃ©cial isÃ©
DÃ© jeun
DÃ© mon
DÃ© verrouille
Per fect
RÃ© f
Ġpot es
Ġpot age
Ġpot ato
Ġpouss ent
Ġpouss Ã©e
Ġnose bleed
Ġram asse
Ġram bling
Ġram assÃ©
Ġram Ã¨nerai
Ġram enÃ©
Ġpromen Ã©
ĠdÃ©pri me
ract ion
Ġfile t
Ġrel ay
Ġev ident
Ġmanquer as
Ġtend us
ĠnÃ©g atifs
Ġopp on
Ġstri cte
exc uses
ĠÃ©puis ant
ĠÃ©puis Ã©es
Ġcamp ing
Ġsucre ries
Ġsub i
Ġsub itement
Ġinvol ve
Ġgrossi ers
Ġgrossi Ã¨res
Ġexplos ives
Ġexplos ifs
Ġescap es
vious ly
Ġfan at
Ġfan Ã©es
Ġfan fare
Ġparc ourir
ĠÃ©m issaire
Ġflat tering
Ġsupport ing
Ġpoi res
Ġpie ces
Ġbour rÃ©e
Ġbour rÃ©es
Ġtrait Ã©e
Ġcomprend rai
Ġclim at
Ġclim ate
Ġpresent able
Ġhabitu er
ĠdÃ©but a
Ġveget arians
ĠmÃ©t icule
Ġnons moker
orn s
Ġtruck er
Ġjud ged
Ġjud icieuse
Ġrig olÃ©
Ġrig oles
Ġrig olez
Ġaccord Ã©
Ġaccord Ã©es
Ġreconnaiss ants
ĠR AM
Ġer aser
isc uit
Ġcin quant
ĠhÃ©r issons
Ġras ant
Ġdistr aught
Ġregrette rez
Ġoptim istes
An imals
Ser ait
Sur veillez
Ġvir tue
Ġweight s
Ġverrou illai
Ġcuisin ez
Ġsympath y
Ġsympath ie
Ġsympath ies
Ġsympath ize
Ġaveug lÃ©e
Spe ed
ĠP G
Ġast ron
Ġsauv age
Ġprouver ai
Ġaccomp lir
ĠÃ©chapp Ã©es
ĠJapon aise
Desc ribe
mm a
Ġess uy
Ġess eul
Ġess eulÃ©
Ġsche me
Ġcig ars
Ġhop ed
Ġlev Ã©s
Comp te
Comp orte
Ġmesure r
Ġconstr uis
Ġconstr uction
ĠpÃ¢ tes
ĠpÃ¢ lit
inter rupt
ĠhÃ¢ lÃ©
Ġracc omp
Ġracc oon
Ġaugment ent
Ġclock s
Ġproc urer
RÃ©p Ã©tez
Ġing en
Ġlarg eur
Ġlarg uer
Ġlarg uÃ©e
Ġcell ulaire
import un
Ġcrit ici
Ġattir Ã©e
Ġattir antes
ĠdÃ©cider ons
Ġnett oyÃ©e
hor aire
Ġcir c
Ġcab in
Ġcab ine
Ġfever ish
Ġferme ment
sc rew
Ġtir ait
Ġtir Ã©e
inf irmiÃ¨re
Ġfli p
Ġvole use
Ġvole uses
Ġjeunes se
Ġmach in
Ġcommun ity
Ġgrimp Ã©
ĠsÃ©jour ner
Ġconvainc re
Ġconvainc ant
Ġconvainc ues
Dans ons
Ġach ing
Ġdout a
Ġdout eux
arrÃªte z
Ġuncle ar
Ġlic ense
Ġallerg ie
Ġautor isÃ©e
ĠdÃ©brou illÃ©s
Ġtor che
Ġvict ime
Ġneig era
Ġunh armed
Ġeight h
Ġeight y
Ġelect ion
Ġfrustr ant
Ġpriv ately
Ġcoop Ã©ratif
DÃ©c ide
DÃ©c idez
go at
Ġwood en
Ġhang over
Ġrecher ches
Ġrecher chons
Ġsuic idaire
Ġsuic idal
Ġjume lles
Ġarrog ante
obÃ© irai
ĠÃ©lect rique
Ġclub s
Ġbruy amment
Ġwhole heartedly
Ġsouhait ons
Ġsouhait erais
Drink s
Austral ia
Ġdot Ã©es
intÃ© ress
intÃ© rÃªt
Ġvan ished
Ġmem or
Ġodd s
Ġatta quÃ©s
Ġatta quÃ©es
Ġrefus Ã©e
Ġhumili ating
Ġmerc redi
Ġmerc iless
Ġmoyen ne
ĠprÃ©cipit a
Cons idÃ©rez
Ġsqu ash
Ġrejet a
Ġrejet Ã©e
Ġlap idÃ©
Ġgold fish
ĠrÃ©al istes
ĠrÃ©al isa
Ġaimer ait
Ġcrimin els
ĠdÃ©mar rÃ©
Ġtransp irÃ©
Br osse
Rep osez
oue ment
Ġsne ezing
Ġpig Ã©
ĠmÃª ler
Ã©ner ves
Ġjug er
Ġjug ez
Ġdish onest
Ġpolit ics
Ã©pous es
Ġiron ing
Ġpopular itÃ©
Ġpopular ity
ĠdÃ©goÃ»t Ã©e
ĠdÃ©goÃ»t ants
par able
Ġ9 0
Ġpoup on
Ġpier ced
entraÃ® neur
Ġtrom be
Ġtrad uction
Ġpeace ful
Ġbouge a
Ġpersonn age
ĠamÃ©lior Ã©e
ĠamÃ©lior Ã©s
ĠamÃ©lior Ã©es
Ste el
Ste ady
ah uÃ¨tes
Ġ7 0
Ġpon du
Ġdef end
Ġremp laÃ§able
Ġore iller
Ġtext book
Ġamen de
ĠentraÃ® ne
Ġincomp Ã©t
Ġconst antly
Ġbattu es
eff ond
eff ray
eff orts
Ġsir otÃ©
Ġcust ody
Ġfuss iez
Ġboi vent
Ġgel Ã©s
Ġsoci ale
Ġglo at
Ġinvest ment
Ġinvest issement
Ġhorrif iÃ©e
Ġtremb led
Ġtremb lait
ennuy ez
Ġsplit ting
off rir
Ġ6 0
Ġdeli rious
Ġthrow ing
Ġraff ut
Ġraff olent
Ġinfect ion
Ġinfect Ã©es
ĠdÃ©v oi
ĠdÃ©v ouement
Ġdesp ises
Ġblank s
Ġimpuiss antes
Ġchamp ion
Ġpuiss ants
Ġcandle light
Ġobserv ateur
Ġobserv atrice
Ġchallen ges
Ġchallen ged
Ġdor Ã©navant
Ġpin ailles
Ġcit oy
Ġavoid ed
ĠrÃ©f ugiÃ©s
Ġcompet ent
Ġmanqu ant
Ġmanqu ants
Ġcontrib uÃ©
Ġwhist led
Ġconfus ing
Ġrecrut Ã©s
Ġrecrut Ã©es
Ġeffront Ã©s
Ġeffront Ã©es
Ġtremp er
Ġfourn issent
Ġprotest ed
VÃ©rif ions
ionne llement
ser y
Ġtar tes
Ġaig u
Ġdom aine
Ġloss es
ann ul
ann once
amÃ©li orent
Ġrenvers er
Ġview s
Ġirre place
Ġirre mplaÃ§able
Ġindign Ã©e
ĠnÃ©glig e
Ġoppos ed
Ġtortu rÃ©
Ġtortu red
Bl ow
Sm oke
ĠpÃ©ri lleux
Ġfle uve
Ġrepe ated
Ġod ieux
Ġdrag u
Ġdispon ibles
ĠstupÃ©f iant
Ġbarb ant
Ġbarb are
Ġbarb ier
Cher ches
ĠlÃ¢ chÃ©
Ġcoul oir
Ġcoul isses
Ġnur sery
Ġund ressed
Ġund amaged
Ġunp re
Ġunp rep
Ġunp leasant
enseigne ment
ĠpiÃ©g Ã©e
ĠpiÃ©g Ã©s
ĠpiÃ©g Ã©es
Ġident ical
Ġident iques
ĠdÃ©cl ar
ĠprÃ©pare z
Ġopportun ity
Fr anchement
Ple ased
Ġ3 3
ĠW ednes
Ġnag ging
Ġho ax
ĠhÃ©s ita
Ġrad in
Ġrad ote
Ġparl ai
Ġweigh s
Ġmyster ies
ĠrÃ©vÃ© ler
ĠrÃ©vÃ© la
Ġsaf ety
Ġdiam onds
Ġcla quÃ©
Ġcla qua
ĠmÃ©ch ants
Ġrepair ing
Ġincl inÃ©
ĠdÃ©pl acÃ©
Ġembau cha
Ġbuv aient
Ġnewsp apers
Ġregretter as
ĠdiffÃ©ren ces
ĠbÃ©nÃ© fique
ĠrÃ©sult at
ĠÃ©chou era
ĠrÃ©cup Ã©rÃ©
ĠdÃ©sespÃ©rÃ© ment
Ġenthousias mÃ©
amÃ©liore r
amÃ©liore ra
ĠvÃ©gÃ©tar iens
Hab ille
Hab itue
Tou chez
Ġpy jamas
Ã©lu de
inv ente
Ġben ef
Ġrempl ir
Ġchi quÃ©
Ġchi ots
Ġstraw berries
opin ion
Ġdiss imul
Ġdiss atisf
Ġcompat ible
Ġsouc is
Ġprior ity
Ġroug is
Travai ll
Travai lles
ĠmÃ©dec ine
Prom is
Prom ise
Prom ets
Ġsubject ive
Ġnegoti ation
ĠrÃ©tab lir
Ġgradu ates
Ġrembours Ã©
Di riez
Di rige
Di rigez
Vis it
Ġnod ding
Ġbav arde
orp helin
Ġpassi onn
Ġrout ine
Ġrout ier
Ġrout iÃ¨re
ĠanÃ©ant is
ĠanÃ©ant ie
Ġstat istiques
Ġmyst Ã¨res
ĠÃ©loi gn
Ġprov ide
Ġprov ided
Ġadvent ure
Ġcommande ment
Ġconfir mÃ©
ĠmÃ©l ange
ĠmÃ©l angÃ©
Ġbull ets
Ġconduct rice
Ġcaptu rÃ©
ĠdÃ©faut s
Ġanxious ly
ĠdÃ©cev rai
Af rique
Con centre
reg istre
ĠaÃ® nÃ©es
esc alade
Ã©te indre
Ã©te ignit
Ġunre al
Ġunre asonable
Ġunivers itÃ©
Ġreact ion
ĠÃ©tern el
Ġloc ated
abor ons
Ġwhis key
Ġwhis pering
ĠdÃ©cour agez
Ġfling ues
Ġrecord s
Ġmett ra
Ġsauve g
Ġsauve t
Ġforgiven ess
Ġtyp os
Ġtyp ist
Ġinstin ctive
Ġinstruct eur
Ġcooper ative
Ġmalchance uses
interromp ez
Ġmeurt rier
But ter
Rac ontez
Util ities
honn ÃªtetÃ©
Ġaffe cte
Ġaffe cts
Ġcraign ent
Ġcraign ez
Ġunb iased
Ġjup es
Ġearth qu
Ġinde bted
Ġparten aires
ĠexÃ©c ution
Pours uivez
Ġgrin che
Ġgrog nÃ©
Ġcra cher
Ġcraw l
Ġdram a
Ġdram atique
Ġmutu ellement
Ġspend ing
Ġconsul ted
Ġgrill er
Ġgrill ing
Ġracont erai
ĠspÃ©ci fique
Ġapplaud issements
ĠdiplÃ´ mÃ©e
ĠrafraÃ®ch i
ĠrafraÃ®ch issant
Emb au
Man on
Ġed u
Ġtatt letale
Ġdup e
Ġdup Ã©
Ġdign itÃ©
Ġdign ity
Ġdign ified
eng ager
Ġmill ionnaire
Ġnational ity
Ġgren ouilles
Ġenl acÃ©
Ġenl acÃ©e
Ġbron ze
Ġoffens a
ĠrÃ©par Ã©e
Ġobst inate
Ġpupp ies
Ġdelay ed
Inf ormez
Ġcandid ature
Ġprincip ale
Ġerr and
abandonner a
Calm ons
offens er
Ad just
Aband onne
Aband onnez
Ob tiens
Ob viously
Ram Ã¨ne
Sk ip
Sk iing
Ġpare ils
Ġpare illes
Ġpomp es
Ġlut tÃ©
Ġnit picking
Ġfarm ers
ĠbÃªt ise
Ġhilar ant
Ġang rily
Ġcano Ã«
Ġupd ate
Ġupd ates
Ġbross a
Ġbross Ã©
Ġremettre z
Ġendur ant
Ġendur ante
Ġirrit ating
Ġhonor Ã©
Ġinterromp u
Ġsournois e
Ġtalentue uses
Ins pire
Ins pirez
ĠsÃ©lecti onnÃ©e
Ġattentive ly
ĠprÃ©cip ite
Ġmajor ing
Air planes
Occup ez
Sc ream
Sc ience
alle mand
ĠV I
ĠV alentine
Ġtan ned
Ġdust y
ĠpÃ©t role
ĠpÃª chÃ©
Ġhost age
Ġtoler ant
ĠÃ´ tÃ©
Ġcommer ce
Ġcommer cial
Ġcommer ciale
Ġpourv u
Ġaventure ux
Ġaventure use
Ġappell erons
Ġdra ft
Ġtouss a
Ġtouss ait
Ġimpit oyables
Ġfrank ly
Ref ais
ĠtÃ©moi gnÃ©
ĠtÃ©moi gner
Ġpeel ing
Ġcauser ait
Ġinsp ired
Ġgagn Ã¨rent
Ġapeur Ã©e
Ġcroiss ent
Ġdiscret s
Trace z
ĠAsi an
ĠcÃ©der a
ĠcÃ©der ai
Ġentreten us
Ġentreten ues
PrÃ©v ois
Ġfabri quer
Ġrespectu euse
Ġgymn ase
Ġinvestig ate
Ġexagger ating
Ġtubercul osis
Joy euse
RÃ©s erve
Sau ve
Sau vez
Souv enez
SÃ©ri eux
Tra verse
Ġsor cier
Ġpal pit
ĠlÃ¨ ver
Ġmassi f
Ġmassi fs
Ġber nÃ©
Ġdele ted
Ġove remotional
Ġra ft
ĠchrÃ©t ien
ĠchrÃ©t iens
Ġplaign ait
Ġcomfort ed
ĠrÃ©du ire
ĠrÃ©du ction
Ġmanig ance
Ġmarm onner
Ġblock s
Rej oignez
Rej oins
Ġretent it
Ġobt int
Ġphys icien
Ġphys icist
ĠdÃ©cor Ã©
ĠdÃ©cor ation
ĠdÃ©courage ant
Ġcathol iques
Ġacqu ired
Ġgarant ie
ext raordinaire
ĠOVN Is
Ġcamar ades
Ġtremble ment
Ġdistrib uÃ©
Ġdistrib uteur
ĠnÃ©goci able
ĠnÃ©goci ation
Ġpoign ard
Ġpoign ardÃ©
Ġjudgment al
Prof itez
Ġrempli rent
ĠvÃ©hicul Ã©
ĠvÃ©hicul Ã©e
Ġcultiv Ã©
Ġchirurg ie
Ġchirurg ien
Ġirrespons able
Ġclaustrophob e
Ġclaustrophob ic
Fant astic
Ġtens ion
Ġtact less
Ġpace maker
Ġpinc Ã©e
Ġcyc ling
Ġnou illes
Ġnaiss ent
Ġbog us
Ġbog gles
ĠbÃ©g aie
Ġbale ines
Ġdedic ation
Ġquant itÃ©
Ġenqu Ãªte
Ġeld erly
Ġpla quer
allum ai
ĠdÃ©ment i
ĠdÃ©velo pper
Ġarna quer
Ġaliment aire
Ġaliment ation
ĠÃ©lo quent
Ġcrank y
Ġdisli kes
Ġappropri Ã©
Ġnostal gie
Ġclar ifier
Ġperro quets
Ġmaltrait Ã©
Ġimprud ent
Ġrenif lÃ©
Ġrenif ler
Ġoverc ast
Ġreprod uire
Ġcaus ing
Ãīp lu
Ġsouven ait
Ġincre ased
Ġincre asing
Ġimb Ã©ciles
exagÃ© rez
Ġnightm ares
Ġboun ced
ĠgÃ©m issait
Ġcambri olÃ©
ĠÃ©gar Ã©s
ĠÃ©gar Ã©es
ĠdÃ©bout onnÃ©
ĠdÃ©bout onna
ĠirrÃ© gulier
ĠrÃ©serv Ã©s
ĠdÃ©fait s
Ġhyper active
Ġemmen Ã©
Prot Ã¨ge
Ġpsycholog y
Ġpsycholog ie
Ġensole illÃ©
Ġsouth paw
Ġprocrast iner
Ġexercis ed
ĠrÃ©flex es
ĠindiffÃ© rente
Ġmillion aire
ĠsÃ©duis ant
ĠmisÃ©ricord ieux
ĠmisÃ©ricord ieuse
DÃ©tr uisez
Mag nez
Mag nifique
Simp licity
Viv re
Ġot age
Ġtaill Ã©
Ġtaill eur
Ġdic te
Ġdic tez
Ġcauche mar
Ġcauche mars
Ġyaw ned
Ġyaw ning
Ġwid ow
Ġwob bling
Ġwob bly
ĠvÃªtu e
Ġunan imous
Ġrever ra
Ġrever rons
Ġlament able
adap te
Ġplot ting
ĠdÃ©si res
Ġath letic
Ġamic aux
Ġamic ale
ĠÃ©du quÃ©
ĠcrÃª pes
Ġdislo quÃ©
Ġdislo cated
Ġdisqual ified
Ġdisrespect ful
ĠcompÃ©t ition
Ġdile mme
Ġdile mma
Ġpian ist
Ġpian iste
Ġspont an
Ġspont aneous
ĠÃ©cureu il
ĠÃ©cureu ils
ĠdÃ©sobÃ© i
ĠdÃ©cÃ©d Ã©es
ĠguÃ©ri ra
ĠintolÃ© rant
Ġchaleure ux
Ġassoup i
Ġremet tras
Ġsuppli a
insul tez
Ġboule versÃ©
Ġproph Ã©tie
ĠÃ©parg ne
ĠdÃ©bord Ã©
Ġperfection ist
ĠdÃ©roul ent
empl ois
emprun ter
Ġbalcon y
Ġconcentr ating
Ġdisgust s
RÃ©pare z
Ġpoursuit es
Ġelectric ity
Clear ly
Ġdeliber ately
Ġinfluent ial
Respe cte
Respe ctez
Ġaudac ieuse
Ġbronz Ã©
Ġdisobey ed
Ġsymbol ise
Ġsymbol izes
Efforce z
Ġdyslex ic
Ġdyslex ique
Ġmandat ory
Ev il
Fort y
ObÃ© issez
Voul ais
Valent in
Ġpseu do
envelo ppe
ĠmÃ¨ nent
Ġmosquit o
Ã©che c
Ã©quip age
anci es
Ġhau ling
Ġdelic ate
Ġmere ly
Ġbelly aching
Ġchav irÃ©
Ġchame aux
Ġplong Ã©e
Ġstret ched
Ġstimul ateur
Ġknock ing
ĠdÃ©n uÃ©
apprend rai
Ġtux edo
Ġtuli pes
Ġdub ious
Ġgrond a
Ġgrogn on
Ġaboy ait
Ġclaim s
Ġcloch ait
ĠperÃ§ ois
Ġfauteu il
Ġcaract Ã¨res
Ġstut ters
Ġoffic ielle
Ġencaiss er
Ġglau que
Ġscol aire
ĠdÃ©coll Ã©
Ġrepl aced
ĠreprÃ©s ente
Ġpeek ed
Ġprev ail
Ġflam mes
Ġchah utÃ©e
ĠfiÃ©v reux
Ġtroubl ant
Ġmater ials
Ġimmin ente
Ġconscious ness
ĠaccÃ©lÃ© rÃ©
Ġpersp icace
Ġshel tered
Ġbrew ed
Ġinterd ite
Ġimmun isÃ©
Ġpunish ment
Ġindisp ensable
Ġresponsib ility
Pratique ment
Ã©tern uer
ĠmÃ©thod ique
Ġessent iel
Ġcritic ism
ĠsÃ©journ ai
ĠdÃ©brouill erai
Ġ197 2
Ġsquir rel
Ġvainc re
BrÃ» le
Termin ons
Ġtoothp aste
Ġpronoun ce
Ġdomest iques
ĠvulnÃ© rables
Ġcongratul ated
Ġripost Ã©
Ġcoiff ure
ĠÃīt ats
ĠdÃ©libÃ©rÃ© ment
Ġdauph ins
ĠimprÃ©vis ible
Dess ine
Ele phants
Form idable
Gar Ã§on
Li bÃ©rez
MaÃ®t risez
Rent rons
Resp ire
Ġign ition
Ġdread ing
Ġpoo ped
Ġcac ahuÃ¨tes
ĠbÃ» cher
Ġbarre aux
Ġtol Ã¨rerai
Ġunhe althy
Ġsup Ã©rieur
Ġjoign ions
Ġov ni
Ġoct og
Ġchiff on
Ġinoubli able
Ġki ffe
ĠInd ia
Ġasi atiques
ĠdÃ©che ts
ĠdÃ©rais onnable
Ġatter ri
appli quent
Ġarcha Ã¯que
Ġabatt us
ĠrÃ©gl Ã©e
ĠcrÃ©p uscule
Ġdisbelie f
Ġmah jong
ĠmaÃ¯ s
Ġspoi ling
Ense ignes
Ġobliv ious
Ġexplo de
ĠexpÃ©ri mentÃ©
ĠÃ©cor chÃ©
ĠdÃ©shy dratÃ©
Ġoper ation
Ġcaf ard
Ġcafet iÃ¨re
Ġchape aux
Ġcorbe au
exemp le
ĠconsÃ©qu ence
Ġcontrav ention
ApprÃ©ci es
Ã©paiss eur
Ġtriv ial
Ġcrimine lle
ĠAf rica
Ġjoind rez
Ġinterrog Ã©
ĠÅĵuv res
ĠCP R
Ġprofession al
Ġformal ity
Ġmedit ating
ĠGP S
Ġdisgr ace
ĠrÃ©comp ense
ĠrÃ©confort ant
Ġpoiv re
ĠfainÃ© ante
Ġanticip ated
ĠdÃ©charg Ã©
Ġcitiz en
Ġbarbar ic
Ġhypocrit es
ĠKore an
Ġdissu adÃ©
ĠrÃ©tabl issement
Ġcombatt rons
Identif iez
ĠhaÃ¯s s
Ġdalton ien
Ġanalphab Ã¨te
Aff aire
Book s
Bark ing
Coll aborons
Dist rib
Danc ing
Egg s
Fare well
Foc us
Honest y
Jes us
JÃ©s us
Lun di
Med icine
MÃ©f iez
Nicke l
Pret end
Sy mptoms
Soud ain
Tas tes
Wa ou
dro pping
ĠVis a
Ġtresp assing
Ġavers ion
Ġdren ched
Ġpampe red
Ġlil ies
Ġmac abre
Ġmak eup
ĠmÃ©tÃ© o
Ġmaill ot
Ġnive au
Ġnast y
Ġbund le
Ġbudd ies
Ġyach t
Ġwil ted
Ġwiz ard
Ġwaff les
atmos phÃ¨re
Ġhont eux
Ġhalt Ã¨res
arna quer
Ġunth inkable
Ġunpl ugged
Ġunimagin ative
Ġdooh ickey
Ġrade au
Ġeaves dropping
Ġegot istical
Ġchoo sy
Ġhelicop ter
Ġinade quate
Ġinexcus able
ĠlibÃ© ra
Ġanky l
Ġanonym ous
Ġgogg les
ĠdÃ©semp arÃ©
Dolph ins
applau dir
Ġarchai c
ĠfrÃ©n Ã©tique
ĠexagÃ© rÃ©
ĠÃ©ba hi
ĠÃ©bran lÃ©
Ġsurrend er
Ġsurge on
Ġdisreg arded
Ġperfecti onniste
Ġmalhonn Ãªte
Ġimpert inent
Ġadmin istrat
Ġresolu te
Ġencerc lÃ©
Ġpasseng ers
Ġsentenc ed
ĠfunÃ©rai lles
Ġhandwrit ing
Ġhandcra fted
Ġoverjoy ed
Ġscape goat
Ġswoll en
ĠdÃ©concer tÃ©
Ġpecul iar
Ġsimplic itÃ©
Ġcatastrop he
Ġreflex es
Ġrefuge es
Ġskitt ish
Ġmispr int
Ġhorripil ant
Ġcumbers ome
ĠÃ©pidÃ© mie
Apparent ly
Ġmotorc ycle
Ġintoxic ated
Ġfootste ps
Ġsuperfic ielle
Ġsunsh ine
Ġsunbur ned
ĠMcDon ald
Ġcollaps ed
ĠnÃ©anmoin s
Ġcinquant aine
Ġesseul Ã©e
interrupt eur
Ġirreplace able
Ġunprep ared
ĠWednes day
Habitue llement
Ġdissatisf ied
1 1
2 3
2 00
4 3
6 5
7 4
9 1
A ur
A ig
A ge
A ler
A nt
A ng
A llemagne
B out
B el
B ande
B iz
B oire
B arre
B ott
C re
C as
C ot
C our
C am
C op
C reuse
C rier
C Ã©lÃ©
C uisez
C ookie
D ad
D am
D ust
D ance
D ep
D anger
D ress
D ors
D ark
D omm
D avantage
D Ã©v
D anse
D onnons
E ight
E lectric
F P
F am
F ather
F reed
F outez
F Ã©lic
F rance
F ouillez
F umez
F uyons
G as
G ay
G am
G row
G rap
H a
H on
H ay
H op
H ome
H uit
H oney
H edge
I r
I ce
J uste
J azz
J acks
K lax
L ad
L ine
L ions
L ond
L inc
L arge
L ib
L ower
M ai
M ist
M anger
M ail
M otion
M agne
M ission
M ozart
M oins
M Ãªle
M osquit
M ama
N ager
N ail
O t
O ld
O ff
O ffre
P i
P es
P ad
P el
P ig
P ers
P ink
P ouv
P ile
P rÃªt
P ets
P aie
P riÃ¨re
P asses
P Ãªcher
P lait
P lais
P endant
P itch
P rice
P ostu
P inoc
R ou
R en
R ing
R av
R acc
R omp
R inc
S A
S M
S u
S qu
S us
S ce
S ust
S ol
S onne
S ound
S erai
S avais
S era
S ale
S onnez
S leep
S antÃ©
S co
S atur
S we
S pare
S celle
T A
T ent
T oo
T el
T im
T ens
T ends
T elles
T oss
T okyo
T irons
T rim
T ext
T aillons
U ran
U SB
V e
V ont
V ol
V eut
V iend
V irez
V enir
V iennent
V oter
V otons
W ood
W ind
W ax
Y olks
Z ip
Z ero
a e
a ed
a oul
a hol
a jouter
b ons
b ain
b one
b ble
b able
b elt
b rons
b bed
b urn
b oiled
b ivores
c ou
c is
c it
c il
c am
c lez
c ole
c omp
c Ã©r
c ues
c oler
c onnect
c liquez
c isses
c ooked
c Ã¨les
d a
d ou
d are
d eur
d age
d rais
d red
d rons
d ras
d ened
d ames
e ves
e min
e usse
f ord
f ils
f ied
f ox
f lies
f iction
f ilÃ©
g on
g Ã©
g in
g ant
g aire
g ez
g ieux
g aine
g rap
g oter
g ular
g ivable
g ae
h h
h ill
h ine
h ame
h ors
h ful
h ras
h umÃ©
h ensive
h room
h aled
h rase
h Ã¨mes
h ouette
i w
i x
i ance
i ante
i onnes
i ums
j ar
j ack
j oint
j uk
k ate
k ies
k ins
l ard
l ers
l if
l ist
l iez
l ors
l arg
l ated
l ted
l ives
l Ã©tique
l feuse
m ot
m ait
m ite
m ist
m other
m ande
m ated
m enez
m arre
m arked
m estre
m allows
n al
n Ã¨re
n ies
n olog
n ature
n uts
n owled
n ivores
o en
o ed
o Ã»
o ast
o quer
o oter
o cta
p i
p in
p he
p le
p Ã©t
p ut
p tÃ©
p oke
p ente
p oint
p renez
p Ã¨rent
p ip
p ower
p helin
p oen
r in
r ui
r um
r ner
r ug
r ouvons
r dy
r amb
r onnent
r tles
r anchement
r onnier
s a
s ay
s ac
s ol
s ling
s ider
s uff
s aka
s kate
t he
t ar
t led
t ances
t Ã¢mes
t iendrai
t ini
u an
u aire
u ate
u bre
u lez
u leur
u iner
v al
v ain
v ille
v oit
v isÃ©
v inc
v itez
w ing
w il
w el
w iss
w ives
w eds
w yers
x ique
x tre
x ford
y l
y si
y ramb
z es
z el
z ine
z els
Ġ ic
Ġ Qu
Ġ Ne
Ġ ome
Ġ Why
Ġ La
Ġ Comment
Ġ âĢ
Ġ On
Ġ Re
Ġ De
Ġ Quelle
Ġ Give
Ġ Ma
Ġ Thank
Ġ Soyez
Ġ Rien
Ġ Pas
Ġ Three
Ġ Esp
Ġ 000
Ġ Doct
Ġ Monopol
ou re
ou che
ou Ã©s
ou Ã©es
ou esse
ou illeux
ou Ã¯e
Ġt ai
Ġt ed
Ġt au
Ġt ac
Ġt onne
Ġt Ãªt
Ġt ide
Ġt oup
Ġt ame
Ġt rent
Ġt ies
Ġt ins
Ġt ents
Ġt ables
Ġt asses
Ġt amed
Ġt apÃ©
Ġt iendra
Ġt ilt
Ġt irent
re ment
re al
re int
re hensive
Ġa ck
Ġa ise
Ġa ft
Ġa Ã©ri
Ġa isse
Ġa verse
Ġa Ã©roport
Ġa aah
Ġa jar
Ġs ot
Ġs onn
Ġs ie
Ġs am
Ġs ci
Ġs ass
Ġs orrow
Ġs unk
Ġs ains
Ġs Ã¨me
Ġs cier
Ġs ash
Ġs aines
Ġs ism
Ġs onnait
es sez
es day
Ġd il
Ġd ive
Ġd ith
Ġd ough
Ġd inÃ©
Ġd ates
Ġd orme
Ġd ashed
Ġd ining
Ġd alle
Ġd ormez
Ġd azzled
Ġd azed
Ġp ir
Ġp oney
Ġp endre
Ġp iste
Ġp aient
Ġp ressed
Ġp unk
Ġp oking
Ġp ages
Ġp omm
Ġp iles
Ġp osez
Ġp Ã¢t
Ġp ince
Ġp Ã©lic
Ġp iling
Ġp outing
is ait
is able
is sible
is lation
on f
on ome
on der
on ible
on ition
on flÃ©
on fu
on uts
on Ã§a
on vinc
en qu
en iv
en laÃ§a
en regist
en iable
Ġl Ã©
Ġl ure
Ġl uis
Ġl ance
Ġl ise
Ġl ents
Ġl Ã¨vre
Ġl assÃ©
Ġl oosen
Ġl ende
Ġl anÃ§a
Ġm ait
Ġm ant
Ġm ard
Ġm Ã©s
Ġm oul
Ġm um
Ġm ish
Ġm ole
Ġm int
Ġm Ã¨che
Ġm Ã¢chez
Ġm ailed
Ġm owing
Ã© me
Ã© ance
Ã© der
Ã© loi
Ã© reuses
Ã© bri
Ã© rerai
Ã© vÃ©nement
Ã© quipes
Ġc act
Ġc ages
Ġc Ã©d
Ġc aille
Ġc reuse
Ġc Ã¨de
Ġc ouvrir
Ġc raie
Ġc attle
er ap
er ally
er rÃ©
er ity
er tur
er nent
er goter
er pi
om a
om ore
om pe
om Ã¨ne
om ane
om ination
in aire
in ct
in Ã©es
in ting
in verse
in juk
Ġn an
Ġn ave
Ġn ood
Ġn iez
Ġn ies
Ġn ages
Ġn ative
Ġn iche
Ġn atif
Ġn inet
Ġn ids
Ġn ests
Ġn aze
Ġn Ã¨gre
ai ler
ai lli
he line
an at
an im
an ne
an cier
an na
an chant
an aly
as k
Ġf el
Ġf ui
Ġf ul
Ġf oul
Ġf ice
Ġf oire
Ġf aking
Ġf Ã»t
Ġf aded
Ġf oulÃ©
Ġf iction
Ġf Ãªtons
ll ition
Ġb ent
Ġb eu
Ġb Ã©t
Ġb os
Ġb ille
Ġb ret
Ġb oud
Ġb amb
Ġb ugged
Ġb aigner
Ġb inoc
ous pÃ©t
Ġw oo
Ġw and
Ġw ate
Ġw ande
Ġw akes
Ġw ester
Ġw ives
Ġw aded
Ġw ailing
Ġw ipe
Ġw ander
Ġw rigg
Ġw anna
Ġv ed
Ġv et
Ġv Ã©t
Ġv ag
Ġv ile
Ġv illes
Ġv amp
Ġv antÃ©
Ġv ouÃ©
Ġv ivement
Ġv illa
Ġv illages
Ġv ault
Ġyou th
at he
at ten
est ra
est imes
est Ã©r
est imez
est isseurs
Ġ? !
qu iez
qu ante
qu Ã¨rent
ve ting
it ant
it eux
it ur
it eur
it Ã©es
it ty
it ely
it ulÃ©
Ġh ust
Ġh ul
Ġh ose
Ġh aine
Ġh az
Ġh aie
Ġh ail
Ġh ush
Ġh anche
Ġh Ã¢t
Ġh Ã©roÃ¯
Ġh Ã©roÃ¯ne
Ġh Ã©b
Ġh inting
ar te
ar se
ar ly
ar che
ar ier
ar ray
ar isÃ©
ar riÃ¨re
ar ized
ar pen
ar aig
ar abe
un te
un ion
Ġde te
Ġde ft
or a
or i
or us
or ch
or Ã©e
or ig
or mes
or ne
or ge
or ious
or rect
ent h
ent ir
ent erre
ent ures
ent endons
ent rique
ent rain
Ġpas sez
Ġto fu
Ġg in
Ġg ai
Ġg est
Ġg oo
Ġg arg
Ġg aie
Ġg aw
Ġg ib
Ġg ains
Ġg oose
Ġg ares
Ġg anged
Ġg ourde
Ġg Ã¨rerai
Ġqu Ãªte
Ġqu arant
Ġqu atri
ais Ã©e
ais iss
ing ue
ing ap
ing Ã©ni
ing enu
Ġne ut
Ġne are
Ġne cess
Ġne utre
Ġne phe
us ive
us Ã©s
us Ã©es
us quÃ©
us tement
hat tan
Ġun w
Ġun st
Ġun app
Ġun ner
Ġun af
Ġun so
Ġun important
ot ch
ot ter
ot ine
ot age
ot ique
ot tez
eu rez
eu pl
Ġme lons
Ġme mbers
et ime
et ched
te e
oi vent
ri a
ri ch
ri min
ri ek
ri ces
ri vis
Ġis land
Ġre che
Ġre lease
Ġre ne
Ġre di
Ġre ek
Ġre run
Ġre venus
Ġre levÃ©
Ġre venues
Ġre quÃ©rir
Ġre change
Ġle an
Ġle vez
Ġle ap
Ġle ase
Ġle ctu
Ġle vel
Ġsu ive
Ġsu ture
our ut
our ne
ow l
ow ling
id ing
id itÃ©
id ument
Ġest ate
Ġtr au
Ġtr ade
Ġtr act
Ġtr anche
Ġtr aps
Ġtr aitez
Ġtr appe
Ġtr Ã©sor
Ġj u
Ġj as
Ġj est
Ġj ig
Ġj ars
Ġj iff
Ġj urez
Ġj ockey
Ġj imm
Ġj adis
ce use
ce voir
Ġo x
Ġo ar
Ġo ath
Ġo cÃ©
Ġo lymp
Ġo lives
Ġen ch
Ġen orm
Ġen iv
Ġen velo
Ġen regist
Ġen levÃ©e
ay ant
Ġdo able
Ġdo orm
Ġdo do
Ġdo cile
Ġdo lph
au de
au cher
au ves
au rions
au cÃ©
au gment
au dit
au ffÃ©
au dra
au reau
au lted
Ã¨ ces
Ã¨ tent
Ã©t re
Ã©t ris
Ã©t ouff
Ã©t agÃ¨re
Ġth ud
Ġth ump
Ġth Ã¨se
Ġth orns
Ġth erap
il os
il ier
il ight
il ts
Ġr ust
Ġr uis
Ġr ack
Ġr ame
Ġr att
Ġr az
Ġr usÃ©
Ġr onge
Ġr Ã®mes
Ġr acheter
Ġr assit
Ġr aill
Ġr angÃ©
Ġr usÃ©e
Ġr osÃ©
Ġr ouspÃ©t
Ġbe ers
Ġbe ak
Ġbe wil
Ġla mb
Ġla ps
out h
out i
ke warm
Ġch ain
Ġch ag
Ġch oir
Ġch ase
Ġch alk
Ġch ich
Ġch Ã©r
Ġch oking
Ġch ron
Ġch rist
Ġch Ã¨res
Ġch aper
Ġch ute
Ġch Ã¨vres
Ġch opÃ©
Ġch rysant
Ġch ignon
Ġch orus
Ġhe x
Ġhe ating
Ġhe als
ch in
ch os
ch air
ch Ã¨rent
ch ron
ch oute
ch Ã¢mes
ch ym
ch ildren
ch io
ch auffe
ch itecture
ad a
ad ent
ad ow
ad oles
Ġit ches
ont ract
Ġin fe
Ġin adm
Ġin hum
Ġin mate
Ġin ept
Ġin iti
Ġin ondÃ©es
Ġin haled
Ġin put
We igh
ment ez
tu rÃ©
tu rez
al a
al te
al able
al if
al ier
al iment
al uÃ©
al ibi
Ġli Ã©
Ġli me
Ġli ons
Ġli cked
Ġli esse
He ed
ic it
ic able
ic ite
ic ally
ic iens
ic ente
ic ale
ic idal
ic Ã´ne
Ġse ct
Ġse ething
Ġse ize
Ġse aw
Ġse ism
Ġse ction
Ġse pte
oo ed
oo gle
Ġpr y
Ġpr ol
Ġpr ouv
Ġpr oie
Ġpr ati
Ġpr ouesse
Ġwas her
pp Ã©
st iens
st orm
onn ais
onn eux
onn Ã¨rent
ver ons
ver ty
Ġte ap
Ġte ase
im i
im eux
im ag
im iste
im ited
im auves
It aly
ie ve
Ġpl um
Ġpl aid
Ġpl aide
Ġpl iers
Ġpl acer
Ġpl onger
Ġpl ugging
Ġpl agi
Ġpl issÃ©
Ġpl ouc
Tu ck
Tu be
Tu rtles
Qu ick
Qu ote
Ġune ven
Ġune motional
ir on
ir ont
ir rÃ©
ir rels
Ġk os
Ġk arm
Ġk lax
Ġk Ã©tamine
Ġan ore
Ġan ne
Ġpar ag
Ġpar ut
Ġpar iÃ©
Ġpar dessus
Ġpar aly
Ġpar ader
Ġpar adis
Ġpar odie
gh ing
Ġcom itÃ©
Ġcom edi
Ġcom edy
Ġall ure
Ġall ions
Ġall ies
Ġall Ã©g
Ġall iÃ©s
Ġall igator
ren eur
ĠÃ©t end
ĠÃ©t endre
ĠÃ©t onnÃ©e
ĠÃ©t ourdie
ĠÃ©t endue
ĠÃ©t asun
ĠÃ©t hique
ag ers
ag rÃ©
ag iste
ag Ã¨rent
ag nez
ag na
ag issons
ag rand
av ouer
av oure
ill s
ill ard
ill um
ill isez
ill Ã©gal
Ġst age
Ġst ream
Ġst ats
Ġst atement
Ġst ern
Ġst agi
Ġst alled
Ġst oic
Ġst ilts
Ġcan in
Ġcan ned
Ġcan cell
Ġfor ment
Ġfor um
Ġfor Ã§a
de v
de ad
ac ing
ac ide
ac ier
ac tes
ac une
ac rÃ©
ac ious
ac nÃ©
ac tez
ac quer
ac quit
ur ing
ur ant
ur Ã©s
ur able
ur age
ur ger
ur bs
ur sions
ur cation
Ġwe alth
Ġgo d
Ġgo ats
Ġgo inf
Ġgo lfeuse
am ar
am ph
am let
am onds
am Ã¨nerai
am itiÃ©
Ġce ase
Ġmy ope
Ġmy th
Ġmy the
op re
op ies
all a
all s
all igator
ut y
ut ch
ut Ã©s
ut ilitÃ©
end ort
Th en
ĠdÃ© coup
ĠdÃ© nom
ĠdÃ© non
ĠdÃ© dire
ez es
Ġso da
ang le
ang Ã¨rent
os a
os ent
os ed
os Ã©e
os itÃ©
os erai
os ity
os uff
and Ã©
and al
and ises
Ġsom etime
Ġon es
Ġon cles
Ġon gle
Ġon Ã©reuses
ig uit
ust er
ust ible
ust omed
Ġknow led
Ġdon key
Ġpour b
Ġat omes
Ġver rez
Ġver ras
Ġri b
Ġri c
Ġri res
Ġri aient
Ġri gged
Ġri mait
Ġri veting
app ela
app rÃªt
app liquer
app Ã¢t
app uie
app rÃ©h
Ġav oids
Ġav ouer
Ġav aler
Ġav oua
Ġav entures
ard es
ard onnable
ore iller
ore sc
ort al
ol n
ol ait
ol ine
ol Ã¨rent
oin dras
ci us
ci el
ci pes
Ġsh ine
Ġsh aving
Ġsh orth
Ġsh iner
Ġsh amp
Ġsh aves
Ġsh riek
Ġsh adow
ers have
ff ins
ff Ã¨rent
ff usion
rai ll
rai lle
rai der
rai rie
Ġje lly
Ġje wel
ct Ã©
ct ed
onne use
ly weds
Ġtu es
Ġtu eur
Ġtu bes
Ġtu bs
Ġtu gged
Ġtu meur
Ġtu mor
Ãªt s
Ġdes ign
Ġdes ired
mp its
Ġlo ge
Ġlo vers
Ġlo dge
Ġlo fty
Ġneed n
Ġneed y
ter nÃ©
ter rest
Ġar k
Ġar ith
Ġar du
Ġar chÃ©
Ġar ched
Ġar ouses
Ġar abe
Ġar pente
Ġar chitecture
Ġar mpits
Ġpeu reux
Ġpeu reuse
Ġpeu ple
Ġal tÃ©
Ġal iens
Ġal tered
Ġal cool
Com ing
Com fort
ink le
Ġes qu
Ġfr y
Ġfr is
Ġfr it
Ġfr aud
Ġfr ogs
Ġfr aude
Ġex tÃ©
Ġex ting
Ġex ists
Ġex change
Ġex aucÃ©
je cture
Ġwor sh
Ġam ends
Ġam ateur
Ġam Ã¨ne
ob ser
ob ilier
pe cte
ens ui
che t
che dule
che ttes
che veux
oy ant
oy ota
ĠÃ© chÃ©
ĠÃ© bl
ĠÃ© veille
ĠÃ© quit
ĠÃ© loge
ĠÃ© bu
ĠÃ© rud
ood ed
Ġup lo
Ġup beat
Ġup hill
aut o
aut eur
ue il
ouv rait
Ã©s il
Ã©s ir
ul itÃ©
ul iÃ¨rement
ul sions
Ġsur rÃ©
Ġsur nom
Ġsur charg
ose ille
Le ad
Le aves
Le vons
Le mons
ry pt
Ġus Ã©e
Ġus hered
Ġdu o
Ġdu et
Ġdu al
Ġdu rent
Ġdu cks
Ġcon vers
Ġcon cept
Ġcon jecture
ten ed
ten ait
Pour tant
Pour vu
Ġout re
Ġout look
Ġout wit
Ġout sider
Ġfe es
Ġfe at
Ġfe ars
Ġpart ly
Ġpart Ã®mes
Ġpart agÃ¨rent
Ġany place
ap o
ap ie
ap acitÃ©
Ġgr ud
Ġgr ace
Ġgr ises
Ġgr aines
Ġgr onder
Ġgr itty
imp Ã´t
imp Ã´ts
lp ip
od a
od s
od el
od iac
Ġab Ã®
Ġab use
Ġab ord
Ġab du
Ġab ated
Ġab err
Ġab ilities
Ġab omination
Mar ry
Mar ia
Mar chons
Mar riage
Ġdev rez
Ġdev ront
Ġdev Ã®nmes
ind iquer
ind fold
Ġdans a
Ġdans ons
Ġdans Ã¢mes
ĠrÃ© act
ĠrÃ© fÃ©
ĠrÃ© Ã©v
ĠrÃ© els
ĠrÃ© cip
ĠrÃ© Ã©crit
Ġcr ave
Ġcr ust
Ġcr ach
Ġcr aque
Ġcr ops
Ġcr isp
Ġcr ooked
Ġcr Ã©tin
Ġcr ocs
Ġsa quÃ©
Ġsa chent
uis hed
Ġdis es
Ġdis que
Ġdis iez
Ġdis ting
Ġdis aient
Ġdis array
Ġdis ingenu
Ġbesoin s
if ication
Ġapp ren
Ġapp elle
Ġapp rÃªt
Ġapp renez
Ġapp orter
Ġapp liquÃ©
Ġapp rouver
Ġapp rouvÃ©
Ġapp alled
Ġsi bl
Ġsi ps
Ġsi Ã¨ges
Ġsi ghing
Ġno ce
Ġno vice
Ġno ctu
Ġcomp ort
Ġcomp rit
Ġcomp orter
Ġcomp oser
Ġcomp Ã©tit
ro ites
ro vis
Ġgood s
Ġgood byes
Ġdi eu
Ġdi ver
Ġdi vers
Ġdi ving
Ġdi riger
Ġdi agn
Ġdi apo
Ġwork ahol
Ġsais issez
La wyers
Ã§ us
Ã§ ue
ĠMar ine
ĠMar oc
ck y
tes se
cc able
Ã´ l
Ã´ lons
Ġhas sle
Ġhas sling
Ġcl ous
Ġcl av
Ġcl oth
Ġcl apped
Ġcl utch
Ġag is
Ġag ace
Ġag ile
Ġag ence
Ġag ency
Ġag acÃ©e
Ġag ony
Ġag ressÃ©
Ġag acÃ©es
rend ous
rend um
Ġton d
Ġton ic
Ġser m
Ġser vez
Ġser ions
Ġser vers
Ġser rÃ©e
Ġman ique
Ġman ches
Ġman ip
Ġman usc
Ġman Åĵuvre
Ġmar ge
Ġmar quez
Ġmar gar
Ġmar rÃ©es
Ġmar vel
Ġmar bles
Ġmar itime
Ġmar mel
Ġmar tini
Ġco que
Ġco ff
Ġco ffe
Ġco ats
Ġco Ã©quip
Ġco hÃ©
Ġco chonner
Ġco voit
Ġco cky
Ãªte z
ab rit
ab att
ab ia
ab sur
ab ility
ab orer
ab stiens
ab uster
Ġcont es
Ġcont inent
Ġper vers
Ġper verse
ass ait
ass ister
Ã©c aire
Ã©c rivis
Ġbl ed
Ġbl and
Ġbl Ãªme
Ġbl urry
Ġbl unt
Ġbl anch
Ġbl essez
Ġjust es
Ġjust esse
Ġjust ified
Ġjust ifiÃ©
Where ver
Ġdr ap
Ġdr um
Ġdr ained
Ġdr ugged
Ġdr apes
Ġdr ums
Ġmal t
Ġmal ignes
orte il
tÃ© ralement
art ment
art if
Ġbus es
oul u
Ġpro ver
Ġpro ven
Ġpro ves
Ġpro cÃ©
Ġpro cess
Ġjam med
Ġbr ac
Ġbr ut
Ġbr ains
Ġbr aked
Ġbr ows
Ġbr unch
Ġbr oiled
Ġbr usque
Ġbr uiner
Ġbr avoure
Ġbr Ã©sil
Ġent rions
Ġent rouver
Ġent icing
Ġent raider
Ġtrain er
Ġtrain ed
Ġtous se
Ġaller gy
Ġcar n
Ġcar av
Ġcar pe
Ġcar riÃ¨re
ouve ler
Ġatt ris
Ġatt ray
Ġatt irer
ign is
ign irent
Ġbon dis
Ġbon bons
ord ome
Ġstu mped
Ġstu bbed
Ġstu rdy
Ġhome made
iss ure
Ġsou levez
Ġsou leva
Ġdem onstr
um ons
um Ã©e
Ġimp ris
Ġimp rÃ©s
Ġimp rat
Ġimp lication
Ġimp rimante
Ġimp rimer
Ġimp ermÃ©
Ġimp assable
Ġimp ertur
Ġimp ardonnable
ge red
ge mite
rit is
rit Ã©
rit ating
As sur
Ġoff usquÃ©
orm Ã©
orm uler
Ġher bes
Ġher oic
Ġher bivores
Ġback f
Ġback ed
Ġback ache
Ġad ieux
Ġad ject
Ġad ded
Ġres urg
Ġres erv
Ġres ources
Ġres usc
Ġres chedule
ris y
ris ie
ris Ã©e
li ps
li eue
Ġfais ant
Ġson ate
Ġson ata
Ġson dage
Ġfri re
Ġfri meur
Ġfri andises
pt ly
pt une
Ġliv rer
Ġenc ombres
Ġenc rypt
fe it
fe ated
Ġren omm
Ġren fer
Ġren aÃ®tre
Ġren gaine
Ġren ouveler
Ġarri Ã¨res
Ġfer ment
Ġfer ry
ner ont
St raight
ĠF ather
ĠF err
Ġcour aient
Ã¢ me
Ġlong e
Ġcomm Ã©r
Ġcomm ises
Ġcomm otion
Ġpri erons
Ġrest ai
Ġrest Ã¨rent
Ġrest Ã¢mes
Ġrest ored
Ġrest rict
Ġreg istre
Ġreg gae
Ġpi qu
Ġpi eux
Ġpi res
Ġpi quer
Ġmu et
Ġmu ffins
Ġwat cher
bre ak
Ġpass ent
Ġpass ing
Ġpass Ã¨rent
Ġpass agÃ¨re
Ġpass enger
Ġpass agers
ĠprÃ© mon
ĠprÃ© diction
ĠprÃ© alable
Ġbook ed
Ġbook worm
Ġbook marked
Ġfin anci
Ġcou d
Ġcou ard
Ġcou rent
Ġcou rions
Ġcou reuse
Ġwr ist
Ġwr inkled
aid ais
aid ait
aid aient
Re v
Re jection
Re levez
Ġret iens
Ġret irai
Ġret ires
Ġret irons
Ġret rie
Ġconn us
Ġsav ings
Ġsp un
Ġsp ends
Ġsp ies
Ġsp ared
Ġsp ilt
Ġsp itting
ĠdÃ©t ente
ĠdÃ©t Ã©ri
ĠdÃ©t resse
ĠdÃ©t ru
Ġoccup ez
Ġple aded
Ġlot ion
Ġven ait
Ġven gÃ©
Ġven imeux
Ġconf is
Ġconf ond
Ġconf isc
ile psy
Ġsens ing
Ġsens ibles
Ġprend riez
Ġprend rons
Ġprend ront
Ġgl aces
Ġgl acÃ©
Ġgl isse
Ġgl auc
Ġro le
Ġro de
En tr
En gl
En terre
Ġsent e
Ġsent ons
Ġsent ions
Ġpay ai
Ġpay ait
Ġpay Ã¨rent
Ġter g
Ġenf lÃ©
Ġenf uit
Ġenf uie
Ġenf lÃ©s
ole te
ole il
este em
Ġlit ter
Ġlit erally
Ġlit tÃ©ralement
arg ne
arg ument
ra le
Ġmes se
Ġmes ures
Ġmes urÃ©
Ġmes urÃ©e
Ġmes quine
ound ing
Ġnew lyweds
essay ons
ank ly
ank erous
Ġparler ont
oth Ã©caire
Ġpris ons
Ġtravail s
ĠrÃ©p Ã©tÃ©
ĠrÃ©p rim
Ġsec s
Ġsec our
Ġsec ourir
Ġsec ouru
Ġsec ouÃ©e
Ġpens ionnÃ©
Ġpens ionnÃ©e
Ġob tiens
ĠvÃ© gan
ĠvÃ© nÃ¨re
Ġexp ression
Ġexp anding
Ġexp ands
ĠÃ©c Åĵur
ĠÃ©c rirai
ĠÃ©c onome
red ited
Ġrend ait
Ġrend rais
Ġrend ras
vÃ© rif
Ġover t
Ġover ly
lo g
lo ges
Ġaid ent
Ġaid ons
Ġaid ez
ond ent
Ġsc or
Ġsc ie
Ġsc ul
Ġsc ored
Ġsc rib
Ġsc ales
Ġsc ores
Ġsc off
Ġsc ript
Ġsc orpions
Ġsc owling
Be es
Be ar
Be gin
Ġmo ck
Ġmo ell
Ġmo quette
Ġmo qua
Ġmo quÃ©s
Ġmo quÃ©es
Ġmo aned
Ġmo quÃ¨rent
esp ionn
Ġcare er
rer ons
inu ent
ĠdÃ©s armÃ©e
ĠdÃ©s olÃ©es
De ad
Ġsw ans
Ġsw ap
Ġsw ell
Ġsw iped
Ġway s
Ġph Ã©n
Ġph ones
Ġph ysi
Ġph ilos
Ġjou te
Ġjou erai
Ġjou aient
Ġsurp eupl
Ġstay s
Ġpos ent
Ġpos ais
ĠtÃ© n
reat ed
Ġhard i
Ġhard work
Ar r
Ar mez
Ġleft over
Ġsaw ing
iz oph
Ġfo gg
Ġaut om
Ġaut rui
Ġaut osuff
Ġplan ifier
ĠdÃ©c ri
ĠdÃ©c onne
ĠdÃ©c omm
ĠdÃ©c ouvre
ĠdÃ©c aps
ĠdÃ©c onnect
ĠdÃ©c rocha
ĠdÃ©c ontract
Ġbad ger
row ded
act if
act ory
Ġrep u
Ġrep asse
Ġrep rends
Ġrep airs
Ġrep ortÃ©
Ġrep oussÃ©
Ġrep utation
Ġrep rocher
Ġrep lied
Ġrep hrase
Ġrep entir
Ġrep assait
Ġlivre ur
oud ra
enc ie
enc ourage
Ġpe as
Ġpe ind
Ġpe ach
Ġpe eves
Ġor age
Ġor phelin
Ġet h
Ġment he
Ġment it
Ġment ait
Ġment aux
ĠtÃ©lÃ© charg
ĠtÃ©lÃ© charge
Ġgu Ã©
Ġgu igne
Ġgu imauves
Ġpre cious
Ġfl ow
Ġfl aire
Ġfl ame
Ġfl own
Ġfl oss
Ġfl uste
Ġfl oue
Ġfl otte
Ġfl ask
Ġfl ooded
Ġint imes
Ġint ended
Ġint rouv
ell era
Ġlik ing
acc u
acc us
acc Ã¨s
acc user
acc orde
acc rocha
ert ation
Ġpa used
Ġpa ws
Ġcoup es
Ġcoup on
Ġcoup erai
anc ent
Ġexc ite
Ġexc lue
Ġexc urs
Ġexc luded
Ġexc ursions
ĠB on
ĠB oy
ĠB rit
ĠB rÃ©s
ĠB iscuit
ĠB iw
ĠB owl
ĠB raille
att o
att ente
att acha
Ġchance lle
All umons
Ġdou Ã©e
Ġdou chez
Ġbelie ver
Ġbelie ving
Ġbelie vable
Ġlaiss ai
Ġhear say
Ġcat ches
Ġcat fight
Ġrec ent
Ġrec all
Ġrec onduis
Ġfatigu es
Ġstart le
Ġca le
Ġca resser
og ique
og ames
Ġgrand isses
Ġgrand mother
Ġgrand children
Ġessay ent
Ġessay Ã©s
Ġessay Ã©es
Ġessay iez
Ġessay Ã¢mes
Ġass ure
Ġass ump
Ġass Ã®mes
Ġass ourd
Ġass oci
Ġass idument
Ġass aulted
oc opies
oc risie
Ġfau con
Ġfau filÃ©
Ġemp a
Ġemp lie
Ġemp ira
Ġemp Ãªche
Ãī change
Ãī larg
Ãī mot
Ġmet h
Ġmet tons
Ġvol s
Ġvol ante
Ġsort iez
Ġsort irez
Ġsouv ins
Ġsouv iendront
Ġinv ul
Ġinv Ã©tÃ©
Ġregard Ã©e
Ġregard aient
Ġregard Ã¢mes
Ġtrou blem
Ġtrou peau
Ġtrou bles
nÃ© go
Ġaider iez
omme z
Ġins ol
Ġins ister
Ġins Ã©rer
Ġins istes
Ġins istez
Ġins Ã©par
Ġins aisiss
Ġins inuent
Ġmont rÃ©e
Ġmont agnes
Ġaim Ã©s
Ġaim ions
Ġaim ante
Ġpat ri
Ġpat Ã¨re
Ġpat rouille
Ġache vÃ©e
Ġlun es
Ġlun atic
Ġvis ibly
Ġdisp utÃ©
Ġdemand ai
Ġdemand ent
Ġdemand ed
Ġdemand ais
Ch ill
Ch amp
Ch anges
Ch rysant
Ġunder age
Ġunder cooked
Ġac res
Ġac ry
Ġac ari
Ġfind s
Ġtravaill iez
Ġmat ait
Ġmat ured
Ġrem Ã©d
Ġrem uÃ©e
Ġaime rez
Ġten ais
Ġten ancier
mÃ© r
Ġref aites
Ġref ilÃ©
Ġref lects
Ġref ormuler
Ġsupp ressed
Ġsupp rimÃ©
Ġinc inÃ©
Ġinc lin
Ġinc ontr
Ġinc lined
Ġinc ondit
Ġinc ertain
Ġinc urable
Ġpu ez
Ġfriends hip
Ġchang Ã©e
Ġchang ions
Ġbo ot
Ġbo de
Ġchat ouilleux
Ġprom Ã¨ne
Ġprom ptly
Ġstop watch
Ġenv ieux
Ġgag neur
Ġconfi antes
Ġcor k
Ġcor n
Ġcor ne
Ġcor nem
Ġcor ruption
ph ant
ph oned
ph oles
ph Ã©m
ĠdÃ©p asses
ĠdÃ©p ortÃ©
ĠdÃ©p endant
ĠdÃ©p ression
ĠdÃ©p laÃ§a
ĠdÃ©p enser
Ġap ron
Ġpol icy
Ġpol itesse
Ġder mat
Ġfu ment
qui ri
Ġcher ry
Ġcame l
Ġcame ls
Ġthing y
Ġim ages
Ġim itated
Ġwalk er
aimer ait
Sh ark
Sh rug
Sh arpen
ex pect
ex ception
Ġmus hroom
Ġcons id
Ġcons ole
Ġcons erve
Ġcons ultÃ©
Ġcons erver
Ġcons istent
Ġcons ternÃ©
Ġcons umÃ©e
Ġend less
Ġend ings
Ġacc ab
Ġacc ueill
Ġacc essible
Ġacc ustomed
Ġrun g
Ġrun ny
Ġsk is
Ġsk it
Ġsk etch
Ġwater mel
ins inu
ins piration
Ġplace bo
Ġperd ais
Ġperd ait
Ġperd ants
Ġperd ante
Ġperd rez
Ġperd ras
Ġperd Ã®mes
Ġmis Ã©r
Ġmis pl
Ã©ri ons
Ġmay o
Ġmay eur
uss ie
Ġmoment arily
aider ons
aider ont
Ġemb r
Ġemb outi
Ġcham ps
la us
Ġtomb ez
fÃ© rer
Ġbro om
Ġconc entre
Ġconc luded
Ġconc octa
Ġchange ait
Ġchange ons
Ġstr ing
Ġstr ay
ĠarrÃªt ions
ĠarrÃªt iez
ĠarrÃªt era
At lant
Ġhor rendous
Ġhor loges
Ġbless ing
Ġbless ures
Ġcal ice
Ġcal amar
Ġbou eux
Ġbou ff
Ġbou chÃ©
Ġbou let
Ġbou quin
Ġchant ing
Ġchant ons
Ġchant Ã¢mes
Ġquit s
Ġquit tÃ©e
Ġquit tent
Ġfac ultÃ©
vert is
Ġtard if
Ġtard ivement
Ġtard ifs
Ġchild hood
ok k
ok Ã©
Reg agnez
Reg ardes
Ġwin es
Ġunderst atement
Ġprop ose
Ġprop oses
Ġprop ane
Ġprop het
omp te
Ġaff r
Ġaff ai
Ġaff olÃ©
Ġaff airs
Ġaff Ã»tÃ©
Ġsau rai
Ġsau tez
Ġsau ras
Ġsau cer
Ġsau cisses
Ġlis p
Ġlis es
Ġlis ais
Ġlis ible
Ġhun k
Ġhun ch
Ġhun ger
Ġhun dred
Ġlau rÃ©
ĠT ime
ĠT imes
ĠT aur
ĠT aureau
ĠT oyota
Ġact ifs
Ġact rices
Ġpers ist
Ġpers Ã©vÃ¨re
Ġmess ing
Ġexpl od
ĠO kin
ĠO saka
ĠO xford
Ġrou x
ĠÃ©p ines
ĠÃ©p rouvÃ©
Ġtw ilight
Ġport ons
Ġport ier
Ġport erai
Ġport atif
vers ons
Ġcrois Ã©
Ġcontinu erai
Ġunderstand able
Ġdisc o
Ġdisc onnect
Ġdisc rep
Ġdisc rimin
Ġdisc redited
Ġcontr aint
Ġcontr arier
App rÃªte
App rochez
App rÃ©ciez
Ġmot ive
Ġmot ifs
Ã©p ic
Ã©p lu
Ã©p eler
Ã©p rouv
Ġris en
Ġris er
Ġris quÃ©e
Ġplais ait
Ess aies
Ġcommenc es
Ġmou rez
Ġmou rions
Ġcold er
Ġappel Ã©es
Ġappel ions
Ġdec ent
Ġfil ed
Ġbu lle
Ġbu zz
Ġbu veur
Ġbu bble
Quelqu es
vent il
Ġviv es
Ġviv ais
Ġviv id
Ġviv ions
Ġviv aient
Ġviv idly
Ġrev iendrons
xt rous
Ġwho ever
Ġhat ch
Ġhat chet
Ġeff icaces
Ġtermin al
Ġtermin Ã©s
Ġphot ocopies
Dis able
Dis cu
Dis connect
Ġshe lf
Ġshe lves
Ġmang o
Ġmang ue
Ġmang eur
Ġmang Ã¨rent
Ġmist reated
Ġrain bow
Par is
Par fait
Ġfon ction
bl in
Ġwind ed
Ġhot tie
Ġkill ers
Ġhab itÃ©
Ġhab iller
Ġhab iles
Ġsn ag
Ġsn ails
Ġsn apped
Ġsn ooze
Ġel usive
Ġkeep ing
ester ol
Un screw
ĠgÃ© ologue
ĠgÃ© rante
Ġprof itable
Ġprof its
Ġsick ness
Ġdro ites
Ġtravailler a
Ġtour te
Ġtour ni
Ġcam Ã©r
rif iÃ©
tr ois
tr uisons
Ġut ter
Ġcuis it
Ġcuis Ã®mes
Ġcontent er
ĠpiÃ¨ ges
Ġtrouver as
Ġtri a
Ġtri chez
Ġtri chent
Ġtri chait
Ġtri angle
Ġsil houette
Ġforg ives
Ġcri erai
Ġdeven ais
Ġdeven ons
Ġsl ump
Ġsl ouch
Ġsl udge
Ġvois ines
Ġvoy ais
Ġvoy ante
Ġrapp el
Ġrapp ellera
ĠdÃ©jeun es
gg ies
Ġsign ing
Ġsign ature
Ġsol ving
Ġsol itaires
olÃ© ances
ĠÃ©g alitÃ©
ĠÃ©g ayÃ©
Ġparti ally
Ġparti ale
Ġsal Ã©
Ġsal ue
Ġsal ace
Ġsal ted
Ġsal ute
Ġsal sa
Ġmange rez
Ġmange Ã¢mes
Ġbag age
Ġbag uette
Ġbag pip
Ġboul es
arm an
Ġsuff ice
Ġsuff ise
Ġsuff ira
Ġsuff icient
ĠvÃ©rit ablement
Ġfix a
Ġfix es
Ġfix ait
Ġfix ez
Ġfix ions
Ġdur ite
Ġsatisf ying
Ġsatisf era
Ġsatisf action
Ġcondu irais
ĠdÃ©b ouch
ĠdÃ©b arquÃ©
ĠdÃ©b oucher
Ġtra fic
Ġdir t
Ġretour nez
Ġretour nons
Ġstupid itÃ©
ĠJ uan
Ġord ure
Ġord onna
dic t
Ġput t
Ġvoi les
Ġir ait
Ġir ont
Ġir ruption
unk s
Ã©r apie
Ġbri m
Ġbri lle
Ġbri bed
Ġbri coler
Ġpap illons
Ġmin us
Ġmin istre
Would n
Ġcass os
Ġwish es
Ġwish ful
Ġconv iendrait
Ġconv ulsions
Ġpo verty
Ġfall s
Ġbut t
Ġbut ler
Ġbut toned
ĠbiÃ¨re s
Tr anqu
Tr ouvons
Ġhead s
Ġhead aches
Ġhead str
lu de
inc tement
inc lin
inc orrect
inc apacitÃ©
Ġfou ineuse
th irty
Ġsto Ã¯que
Ġvi rent
Ġvi br
Ġvi pÃ¨re
Ġhum our
Ġhum ans
Ġhum aine
ĠdÃ©m un
ĠdÃ©m ange
ĠdÃ©m arr
ĠdÃ©m ener
Ġcheve lu
Ġdess ine
Ġdess oÃ»
Ġbi per
Ġbi jou
Ġbi oche
Ġbi och
Ġinf orme
Ġinf aill
Ġinf ini
Cont re
Cont actez
rou illard
Ġmad man
ĠrÃª vÃ©
ĠrÃª vons
Ġann oun
Ġcap s
Ġcap oter
Ġcap itulÃ©
entre rai
Ġquiet ed
Ġty ph
Ġty ran
Ġvas te
Ġru Ã©e
Ġru ins
Ġgard ait
Ġgard ons
Ġregret tÃ©
Ġswe ars
Ġchauss ons
Ġgagner ais
emp ire
emp ois
emp irer
Ġdri vers
Ġdri pped
Ġdri pping
Ġcop il
Ġsurv iennent
Ġclos est
Ġdiffe rences
Ġdream ed
Ġmen Ã©
Ġmen eur
Ġmen euse
Ġmen acer
Ġinterest s
Ġmor flÃ©
Ġmor gue
Ġmor bid
Ġpartie llement
Ġaband on
Ġaband onne
Ġaband onnons
ĠdÃ©cid es
ĠdÃ©cid Ã©s
ĠdÃ©cid erai
Ġsad ly
Ġsuiv ent
Ġsuiv rons
Ġsortir as
Ġesc orte
lic ations
Ġjoin ing
Ġabs ente
Ġtick ing
Ġtick les
Ġtick led
Ġhon ors
Ġstand ard
ĠprÃ©s age
ĠprÃ©s ents
ĠprÃ©s ume
ĠprÃ©s Ã©ance
Ġmarcher ai
Ġinter ne
Ġinter cept
Ġinter dis
Ġinter jection
aw a
Ġsong writer
Ġessayer ont
Ġcorrect ing
Ġcorrect ion
Ġcorrect ly
Ġcorrect ions
Ġcond one
Ġcond olÃ©ances
Ġattend irent
Ġenvie use
Ex er
Ex am
Ex iste
Ex cell
Ex erc
Ġpan ier
Ġpan sement
Ġprod uisent
Ġarm Ã©e
Ġsuc rÃ©e
ĠdÃ® tes
ĠdÃ® ne
Ġfire work
ĠgÃ¢ ter
ĠgÃ¢ chons
ĠgÃ¢ tÃ©e
hab ille
Ġsour ces
Ġfool s
Ġban al
Ġban ale
Ġban lieue
Ġesp aces
Ġesp Ã¨ces
Ġadm iring
Ġadm irons
Ġadm iration
Ġmilk ed
Ġ1 30
Ġred out
Ġconse illes
Ġconse iller
Ġconse illÃ©e
Ġcru rent
Ġprem onition
Ġtype writer
em mer
em men
loi e
ĠS y
ĠS ud
ĠS ox
ĠS uper
ĠS pain
ĠS wiss
ĠS ingap
ĠS oleil
Ġlu mp
Ġlu kewarm
Ġfum ait
Ġexpect antly
Ġaccept ons
Ġcuri euses
Ġfavor i
Ġfavor is
Ġfish y
Ġviend riez
ĠrÃ©s iste
ĠrÃ©s onner
ĠrÃ©s oudra
ĠC E
ĠC oast
ĠC onfu
ĠC alif
ĠC laus
Ġrob ber
ĠÃ©ch asses
Ãīt aient
Ġdeb ated
ĠrÃ¨g ne
Ġfier ai
ĠsÃ»re tÃ©
Ġsnow board
Ġsnow storm
Ġleg it
Ġleg ibly
Ġseat belt
Ġpizz eria
Ġstrong est
ib ral
ib rouillard
Ġdonn Ã¢mes
Ġvac ations
Ġvac ancy
Ġutilis ation
Ġdep artment
Ġradi os
ork ed
Ġpayer ons
Ġart istes
Ġste w
Ġste ward
Ġbar riÃ¨re
Ġbar rÃ©s
Ġbar aka
Ġopt om
Ġsix teen
Ġmenti onna
Ġmenti onnÃ©e
Ġtru quÃ©
ĠcomplÃ¨ te
Ġimm orte
Ġimm onde
Ġimm obiles
Ġimm ortal
ĠapprÃ©ci a
ĠclÃ© mente
Ġcost ly
Ġcost aud
Ġreconn ues
Ġski ant
Ġtot ale
Ġinst allez
Ġfrapp ait
Ġfrapp Ã©es
Ġpen che
Ġpen cha
Ġdispos ed
Ġdispos ait
Ġdispos al
Ġdispos able
Ġill usion
Ġill usions
Ġarriver ont
Ġslow ing
Ġslow poke
amp oule
ĠrÃ©pond is
ĠrÃ©pond ent
Ġrepos a
Ġrepos Ã©s
Ġsuffis ants
ras age
ras sez
Ġ2 3
Ġ2 7
Ġ2 000
Ġ2 23
Ġvoud rez
Ġvoud ras
Ġattrap ait
Une mploy
gu ards
ari us
Ġgri b
Ġgri ff
Ġgri pped
Ġgri pping
Ġtromp ent
Ġtromp ette
Ġtromp ions
Ġheart less
urg ent
Ġdisapp ointment
Ġpasser ait
Ġpasser ont
Ã©v ite
Ã©v ier
Ã©v ites
Ã©v itez
Ã©v acuer
Ã©v adent
Ġcas sez
Ġcous u
Ġcous ue
Ġteam mates
attend ions
attend aient
Ġapolog ies
Ġsold e
Ġsold es
Ġarrive rez
Ġsport if
exp li
exp ert
exp lique
exp rime
exp rimer
exp lications
Ġcalm Ã©es
Ta pe
Ġfus ion
Ġfus illÃ©
Ġfus illÃ©e
Ġfus illÃ©s
Ġfus illÃ©es
Ġvide ogames
Ġeng ourdi
Ġeng agÃ©es
Ġchois irez
ĠrÃ©parer ons
Ġembrass es
Ġpropos a
ctu eux
ctu red
Ġsun tan
Ġsun burn
Ġsoup ir
Ġsoup irer
Ġsoup ira
Ġtemp le
ĠdÃ©f aites
ĠdÃ©f enses
Ġmanteau x
Ġsugg Ã©rer
Ġsugg Ã©rÃ©
Ġsugg Ã©rez
Ġarriv Ã¢mes
Any way
emb arras
emb ranchement
Ġcontre temps
Ġcontre fa
Ġinvit ing
ĠprÃ©sent a
ĠprÃ©sent ent
Ġpun ctured
Ġhigh er
Ġdel usion
Ġdel ivered
Ġsouci ons
Ġsouci iez
Ġz inc
Ġz ip
Ġz oz
Ġz ipped
Ġz odiac
ĠlÃ©g itime
ĠlÃ©g islation
Ġve illez
Ġve iller
Ġve gan
Ġve ggies
Ġobject ives
ĠEn ter
ĠEn trÃ©e
Ġtent es
Ġtent atives
Ġrelax er
Ġserv ant
Ġcolle ction
Ġsouff rant
Ġsouff rira
In ter
In vitez
Se veral
Ġdress er
Ġdress ing
Ġfant as
Ġfant asque
Ġbout te
Ġbout iques
Ġveu f
Ġform ions
Ġform uler
Ġrespect ai
Ġrespect ais
ĠprÃ©fÃ© rons
ĠprÃ©fÃ© rÃ©s
ĠprÃ©fÃ© rÃ©es
flÃ©ch i
iment aire
Ġfour re
Ġval able
Ġval ables
Ġmentir ait
Ġvoyage a
Ġnois es
Ġappro vis
Ġappro val
cer in
Ġset up
Ġmer ger
Ġgolf eur
Ġbegin ners
ĠrÃªve use
fort ably
Ġcess es
Ġcess ions
Ġcess era
Ġbas il
Ġbas eless
Ġball ons
Ġball ots
Ġball oons
Ġgif ler
ĠmÃ©rit ais
Has te
Has arde
Ġsang uine
Ġpou ce
Ġpou pe
Ġpou mon
Ġpou mons
Ġpou ffÃ¨rent
aff reux
hi o
ĠD iable
ĠD ix
Ġcre us
Ġcre vÃ©es
Ġcre mated
Ġcup s
ĠcoÃ»te use
Ġinj ustement
Ġclass ic
Ġclass ical
Ġsweet est
Ġpress Ã©es
Ġbal ade
Ġbal aise
Ġbal ancer
Ġbal my
Ġbal ayÃ©
Ġhonn eurs
Ġhaut es
Ġgiv rÃ©
Ġgiv rÃ©e
Ġgiv rÃ©es
Ġneige ait
ĠdÃ©g ar
ĠdÃ©g oul
ĠdÃ©g oter
ĠdÃ©g ourdie
Ġvers Ã©
Ġcompl ice
Ġcompl ains
ignor a
ignor ait
Ġconcent ra
Ġjournal ism
Ġjournal isme
Ġignore z
inqui Ã¨tent
Ġvot es
Ġvot ent
Ġind Ã©ni
Ġind Ã©pendant
Ġind Ã©sir
Ġpleur n
Ġsurviv ing
Ġsurviv ront
Cl othes
Ġtant rum
reci ated
Ġexcell Ã©
Ġtravers Ã¨rent
Ġpard oned
Ġpard onnÃ©e
Ġridic ul
Ġdist ressed
Ġdist inctement
Ġpai es
Ġtrans fer
Ġtrans pir
Ġtrans lation
Ġtrans mission
Ġjet ables
Ã©tud i
Ġthank ed
Ġrat es
Ġappreci ated
Ġterrif iÃ©s
Ġterrif iÃ©es
Te mps
occup a
occup erai
ĠCan cer
Ġsand als
Ġsand ales
Ġmed ications
apprÃ©ci iez
apprÃ©ci eriez
Ġext ended
Ġext irper
Ġbusiness man
ĠprÃ©v oir
ĠprÃ©v ienne
ĠprÃ©v audra
Ġdirect s
Ġdirect or
Ġdirect rice
Ġendorm Ã®mes
ĠdÃ©range ant
ĠdÃ©range ons
cÃ© en
[...]
