{
  "version": "1.0",
  "truncation": null,
  "padding": null,
  "added_tokens": [
    {
      "id": 0,
      "content": "<|endoftext|>",
      "single_word": false,
      "lstrip": false,
      "rstrip": false,
      "normalized": true,
      "special": true
    },
    {
      "id": 32000,
      "content": "[PAD]",
      "single_word": false,
      "lstrip": false,
      "rstrip": false,
      "normalized": false,
      "special": true
    },
    {
      "id": 32001,
      "content": "[BOS]",
      "single_word": false,
      "lstrip": false,
      "rstrip": false,
      "normalized": false,
      "special": true
    },
    {
      "id": 32002,
      "content": "[EOS]",
      "single_word": false,
      "lstrip": false,
      "rstrip": false,
      "normalized": false,
      "special": true
    }
  ],
  "normalizer": null,
  "pre_tokenizer": {
    "type": "ByteLevel",
    "add_prefix_space": false,
    "trim_offsets": true,
    "use_regex": true
  },
  "post_processor": {
    "type": "ByteLevel",
    "add_prefix_space": true,
    "trim_offsets": false,
    "use_regex": true
  },
  "decoder": {
    "type": "ByteLevel",
    "add_prefix_space": true,
    "trim_offsets": true,
    "use_regex": true
  },
  "model": {
    "type": "BPE",
    "dropout": null,
    "unk_token": null,
    "continuing_subword_prefix": "",
    "end_of_word_suffix": "",
    "fuse_unk": false,
    "byte_fallback": false,
    "vocab": {
      "<|endoftext|>": 0,
      "!": 1,
      "\"": 2,
      "#": 3,
      "$": 4,
      "%": 5,
      "&": 6,
      "'": 7,
      "(": 8,
      ")": 9,
      "*": 10,
      "+": 11,
      ",": 12,
      "-": 13,
      ".": 14,
      "/": 15,
      "0": 16,
      "1": 17,
      "2": 18,
      "3": 19,
      "4": 20,
      "5": 21,
      "6": 22,
      "7": 23,
      "8": 24,
      "9": 25,
      ":": 26,
      ";": 27,
      "<": 28,
      "=": 29,
      ">": 30,
      "?": 31,
      "@": 32,
      "A": 33,
      "B": 34,
      "C": 35,
      "D": 36,
      "E": 37,
      "F": 38,
      "G": 39,
      "H": 40,
      "I": 41,
      "J": 42,
      "K": 43,
      "L": 44,
      "M": 45,
      "N": 46,
      "O": 47,
      "P": 48,
      "Q": 49,
      "R": 50,
      "S": 51,
      "T": 52,
      "U": 53,
      "V": 54,
      "W": 55,
      "X": 56,
      "Y": 57,
      "Z": 58,
      "[": 59,
      "\\": 60,
      "]": 61,
      "^": 62,
      "_": 63,
      "`": 64,
      "a": 65,
      "b": 66,
      "c": 67,
      "d": 68,
      "e": 69,
      "f": 70,
      "g": 71,
      "h": 72,
      "i": 73,
      "j": 74,
      "k": 75,
      "l": 76,
      "m": 77,
      "n": 78,
      "o": 79,
      "p": 80,
      "q": 81,
      "r": 82,
      "s": 83,
      "t": 84,
      "u": 85,
      "v": 86,
      "w": 87,
      "x": 88,
      "y": 89,
      "z": 90,
      "{": 91,
      "|": 92,
      "}": 93,
      "~": 94,
      "¡": 95,
      "¢": 96,
      "£": 97,
      "¤": 98,
      "¥": 99,
      "¦": 100,
      "§": 101,
      "¨": 102,
      "©": 103,
      "ª": 104,
      "«": 105,
      "¬": 106,
      "®": 107,
      "¯": 108,
      "°": 109,
      "±": 110,
      "²": 111,
      "³": 112,
      "´": 113,
      "µ": 114,
      "¶": 115,
      "·": 116,
      "¸": 117,
      "¹": 118,
      "º": 119,
      "»": 120,
      "¼": 121,
      "½": 122,
      "¾": 123,
      "¿": 124,
      "À": 125,
      "Á": 126,
      "Â": 127,
      "Ã": 128,
      "Ä": 129,
      "Å": 130,
      "Æ": 131,
      "Ç": 132,
      "È": 133,
      "É": 134,
      "Ê": 135,
      "Ë": 136,
      "Ì": 137,
      "Í": 138,
      "Î": 139,
      "Ï": 140,
      "Ð": 141,
      "Ñ": 142,
      "Ò": 143,
      "Ó": 144,
      "Ô": 145,
      "Õ": 146,
      "Ö": 147,
      "×": 148,
      "Ø": 149,
      "Ù": 150,
      "Ú": 151,
      "Û": 152,
      "Ü": 153,
      "Ý": 154,
      "Þ": 155,
      "ß": 156,
      "à": 157,
      "á": 158,
      "â": 159,
      "ã": 160,
      "ä": 161,
      "å": 162,
      "æ": 163,
      "ç": 164,
      "è": 165,
      "é": 166,
      "ê": 167,
      "ë": 168,
      "ì": 169,
      "í": 170,
      "î": 171,
      "ï": 172,
      "ð": 173,
      "ñ": 174,
      "ò": 175,
      "ó": 176,
      "ô": 177,
      "õ": 178,
      "ö": 179,
      "÷": 180,
      "ø": 181,
      "ù": 182,
      "ú": 183,
      "û": 184,
      "ü": 185,
      "ý": 186,
      "þ": 187,
      "ÿ": 188,
      "Ā": 189,
      "ā": 190,
      "Ă": 191,
      "ă": 192,
      "Ą": 193,
      "ą": 194,
      "Ć": 195,
      "ć": 196,
      "Ĉ": 197,
      "ĉ": 198,
      "Ċ": 199,
      "ċ": 200,
      "Č": 201,
      "č": 202,
      "Ď": 203,
      "ď": 204,
      "Đ": 205,
      "đ": 206,
      "Ē": 207,
      "ē": 208,
      "Ĕ": 209,
      "ĕ": 210,
      "Ė": 211,
      "ė": 212,
      "Ę": 213,
      "ę": 214,
      "Ě": 215,
      "ě": 216,
      "Ĝ": 217,
      "ĝ": 218,
      "Ğ": 219,
      "ğ": 220,
      "Ġ": 221,
      "ġ": 222,
      "Ģ": 223,
      "ģ": 224,
      "Ĥ": 225,
      "ĥ": 226,
      "Ħ": 227,
      "ħ": 228,
      "Ĩ": 229,
      "ĩ": 230,
      "Ī": 231,
      "ī": 232,
      "Ĭ": 233,
      "ĭ": 234,
      "Į": 235,
      "į": 236,
      "İ": 237,
      "ı": 238,
      "Ĳ": 239,
      "ĳ": 240,
      "Ĵ": 241,
      "ĵ": 242,
      "Ķ": 243,
      "ķ": 244,
      "ĸ": 245,
      "Ĺ": 246,
      "ĺ": 247,
      "Ļ": 248,
      "ļ": 249,
      "Ľ": 250,
      "ľ": 251,
      "Ŀ": 252,
      "ŀ": 253,
      "Ł": 254,
      "ł": 255,
      "Ń": 256,
      "ou": 257,
      "Ġt": 258,
      "re": 259,
      "Ġa": 260,
      "Ġs": 261,
      "es": 262,
      "Ġd": 263,
      "Ġp": 264,
      "is": 265,
      "on": 266,
      "en": 267,
      "Ġl": 268,
      "Ġm": 269,
      "Ã©": 270,
      "Ġc": 271,
      "er": 272,
      "om": 273,
      "in": 274,
      "Ġn": 275,
      "ai": 276,
      "he": 277,
      "an": 278,
      "as": 279,
      "Ġf": 280,
      "ll": 281,
      "Ġb": 282,
      "ous": 283,
      "Ġy": 284,
      "Ġw": 285,
      "Ġv": 286,
      "Tom": 287,
      "Ġyou": 288,
      "at": 289,
      "Je": 290,
      "est": 291,
      "Ġ?": 292,
      "qu": 293,
      "ve": 294,
      "it": 295,
      "Ġh": 296,
      "ar": 297,
      "un": 298,
      "Ġde": 299,
      "or": 300,
      "ent": 301,
      "Ġpas": 302,
      "Ġto": 303,
      "Ġg": 304,
      "ed": 305,
      "le": 306,
      "Ġqu": 307,
      "ais": 308,
      "ĠÃ": 309,
      "ing": 310,
      "Ġne": 311,
      "us": 312,
      "hat": 313,
      "Ġun": 314,
      "ot": 315,
      "eu": 316,
      "'t": 317,
      "Ġme": 318,
      "et": 319,
      "te": 320,
      "oi": 321,
      "ri": 322,
      "Ġis": 323,
      "Ġthe": 324,
      "Ġre": 325,
      "Ġle": 326,
      "'s": 327,
      "Ġsu": 328,
      "ait": 329,
      "our": 330,
      "ow": 331,
      "Il": 332,
      "id": 333,
      "Ġque": 334,
      "Ġest": 335,
      "Ġtr": 336,
      "Ġj": 337,
      "You": 338,
      "ce": 339,
      "ant": 340,
      "se": 341,
      "Ġo": 342,
      "Ġen": 343,
      "me": 344,
      "ay": 345,
      "Ġdo": 346,
      "au": 347,
      "ave": 348,
      "Ã¨": 349,
      "Ã©t": 350,
      "ĠÃł": 351,
      "Ġth": 352,
      "il": 353,
      "lle": 354,
      "Ġr": 355,
      "Ġbe": 356,
      "Ġla": 357,
      "ĠTom": 358,
      "Ġe": 359,
      "out": 360,
      "ons": 361,
      "ke": 362,
      "Ġch": 363,
      "Ġhe": 364,
      "ch": 365,
      "ad": 366,
      "Ġit": 367,
      "'re": 368,
      "ont": 369,
      "'m": 370,
      "The": 371,
      "Ġin": 372,
      "We": 373,
      "ment": 374,
      "tu": 375,
      "al": 376,
      "Ġli": 377,
      "Ġvous": 378,
      "Ġ!": 379,
      "He": 380,
      "Ġsuis": 381,
      "ic": 382,
      "Ġse": 383,
      "oo": 384,
      "ªt": 385,
      "Ġpr": 386,
      "eux": 387,
      "el": 388,
      "Ġwas": 389,
      "ain": 390,
      "Ġthat": 391,
      "pp": 392,
      "st": 393,
      "Nous": 394,
      "vous": 395,
      "onn": 396,
      "ver": 397,
      "Ġte": 398,
      "one": 399,
      "im": 400,
      "It": 401,
      "ie": 402,
      "Ġpl": 403,
      "Tu": 404,
      "Qu": 405,
      "Ġune": 406,
      "ir": 407,
      "Ġk": 408,
      "Ġan": 409,
      "Ġpar": 410,
      "ien": 411,
      "Vous": 412,
      "Ġnot": 413,
      "gh": 414,
      "Ġof": 415,
      "ĠI": 416,
      "Ġhave": 417,
      "Ġyour": 418,
      "Ġcom": 419,
      "Ġall": 420,
      "ren": 421,
      "ld": 422,
      "ĠÃ©t": 423,
      "ag": 424,
      "av": 425,
      "ill": 426,
      "Ġst": 427,
      "Ġcan": 428,
      "Ġfor": 429,
      "de": 430,
      "ble": 431,
      "ac": 432,
      "ur": 433,
      "Ġwe": 434,
      "Ġgo": 435,
      "am": 436,
      "Ġce": 437,
      "Ġas": 438,
      "Ġmy": 439,
      "Ġthis": 440,
      "aire": 441,
      "Ã©e": 442,
      "op": 443,
      "ght": 444,
      "ĠÃªt": 445,
      "all": 446,
      "ut": 447,
      "end": 448,
      "ure": 449,
      "Ġkn": 450,
      "Th": 451,
      "Ġdid": 452,
      "Wh": 453,
      "What": 454,
      "ĠdÃ©": 455,
      "Do": 456,
      "ez": 457,
      "Ġso": 458,
      "Ġare": 459,
      "ang": 460,
      "os": 461,
      "§a": 462,
      "Ġles": 463,
      "They": 464,
      "Ġwant": 465,
      "and": 466,
      "Ġsom": 467,
      "Ġlike": 468,
      "ĠÃ§a": 469,
      "ion": 470,
      "That": 471,
      "Ġon": 472,
      "ig": 473,
      "ust": 474,
      "ook": 475,
      "up": 476,
      "'ll": 477,
      "Ġfait": 478,
      "Ġknow": 479,
      "vez": 480,
      "Ġdon": 481,
      "Ã¨re": 482,
      "Ġpour": 483,
      "Ġat": 484,
      "Ġver": 485,
      "Ġri": 486,
      "app": 487,
      "ess": 488,
      "Ġmon": 489,
      "Ġav": 490,
      "Ġfaire": 491,
      "ard": 492,
      "ore": 493,
      "ort": 494,
      "ould": 495,
      "ol": 496,
      "This": 497,
      "oin": 498,
      "ci": 499,
      "Ġsh": 500,
      "ers": 501,
      "que": 502,
      "Ġau": 503,
      "ff": 504,
      "rai": 505,
      "Ã¨s": 506,
      "oir": 507,
      "Ġje": 508,
      "Don": 509,
      "ct": 510,
      "onne": 511,
      "res": 512,
      "ly": 513,
      "Ġtu": 514,
      "Ne": 515,
      "mes": 516,
      "Ce": 517,
      "ans": 518,
      "Ãªt": 519,
      "Ġsont": 520,
      "Ġdes": 521,
      "Are": 522,
      "ire": 523,
      "Ġvery": 524,
      "mp": 525,
      "Ġnous": 526,
      "Ġtout": 527,
      "ake": 528,
      "She": 529,
      "ĠÃªtes": 530,
      "Ġlo": 531,
      "Ãª": 532,
      "Ġneed": 533,
      "ici": 534,
      "Elle": 535,
      "ter": 536,
      "Ġar": 537,
      "Ġhere": 538,
      "ois": 539,
      "Ġpeu": 540,
      "Ġal": 541,
      "Com": 542,
      "ink": 543,
      "ĠtrÃ¨s": 544,
      "Ġes": 545,
      "Ġfr": 546,
      "Ġex": 547,
      "je": 548,
      "Ġwor": 549,
      "'ve": 550,
      "Ġam": 551,
      "ob": 552,
      "How": 553,
      "pe": 554,
      "ens": 555,
      "ong": 556,
      "lles": 557,
      "che": 558,
      "oy": 559,
      "ĠÃ©": 560,
      "ood": 561,
      "Ãł": 562,
      "hing": 563,
      "ui": 564,
      "ela": 565,
      "Ġup": 566,
      "aut": 567,
      "air": 568,
      "ue": 569,
      "ouv": 570,
      "ive": 571,
      "Ã©s": 572,
      "ide": 573,
      "ul": 574,
      "Ġsur": 575,
      "ose": 576,
      "Le": 577,
      "ry": 578,
      "Ġus": 579,
      "Ils": 580,
      "Ġveux": 581,
      "Ġdu": 582,
      "are": 583,
      "Est": 584,
      "Ġsee": 585,
      "moi": 586,
      "Ġcon": 587,
      "ĩa": 588,
      "Ãĩa": 589,
      "ten": 590,
      "Pour": 591,
      "ate": 592,
      "Ġout": 593,
      "Ġmoi": 594,
      "eur": 595,
      "Is": 596,
      "Ġfe": 597,
      "able": 598,
      "very": 599,
      "Ġpart": 600,
      "Ġlook": 601,
      "Ġany": 602,
      "ith": 603,
      "Ġpeux": 604,
      "ap": 605,
      "ite": 606,
      "Ġgr": 607,
      "Ġplus": 608,
      "quoi": 609,
      "imp": 610,
      "Ġsommes": 611,
      "lp": 612,
      "Ġici": 613,
      "oup": 614,
      "ime": 615,
      "od": 616,
      "si": 617,
      "ak": 618,
      "Ġab": 619,
      "Mar": 620,
      "ux": 621,
      "Ġdev": 622,
      "ind": 623,
      "Ġdans": 624,
      "Ġche": 625,
      "otre": 626,
      "ette": 627,
      "here": 628,
      "ĠrÃ©": 629,
      "ĠÃ©tÃ©": 630,
      "Ġcr": 631,
      "Ġwith": 632,
      "Ġone": 633,
      "Ġvrai": 634,
      "ase": 635,
      "Ġhim": 636,
      "Ġsa": 637,
      "uis": 638,
      "Ġdis": 639,
      "ine": 640,
      "ally": 641,
      "Ġget": 642,
      "Ġbes": 643,
      "Ġhelp": 644,
      "Ġqui": 645,
      "Can": 646,
      "Ġbesoin": 647,
      "her": 648,
      "nd": 649,
      "ille": 650,
      "Ġbien": 651,
      "if": 652,
      "Ġapp": 653,
      "Ġsi": 654,
      "Ġtoo": 655,
      "Let": 656,
      "age": 657,
      "ome": 658,
      "Ġno": 659,
      "Ġcomp": 660,
      "Pourquoi": 661,
      "Ã¹": 662,
      "jour": 663,
      "Why": 664,
      "ro": 665,
      "Ġthink": 666,
      "Ġgood": 667,
      "Ġdi": 668,
      "ance": 669,
      "Ġtou": 670,
      "Ġwork": 671,
      "Ġsais": 672,
      "Ġgot": 673,
      "ĠÃ©tait": 674,
      "ier": 675,
      "vec": 676,
      "Did": 677,
      "Ã®": 678,
      "La": 679,
      "Ã§": 680,
      "ĠMar": 681,
      "ck": 682,
      "tes": 683,
      "cc": 684,
      "mb": 685,
      "Ã´": 686,
      "Ġhas": 687,
      "ersonne": 688,
      "Ġhapp": 689,
      "lease": 690,
      "Ġavec": 691,
      "Ġcl": 692,
      "Ġvotre": 693,
      "Ġag": 694,
      "ense": 695,
      "Ġcela": 696,
      "rend": 697,
      "ne": 698,
      "Ġton": 699,
      "avai": 700,
      "ack": 701,
      "Ġtoi": 702,
      "ep": 703,
      "Ġser": 704,
      "aime": 705,
      "Ġdidn": 706,
      "Ġman": 707,
      "Ġmar": 708,
      "Ġtravai": 709,
      "Ġhis": 710,
      "alk": 711,
      "Ġco": 712,
      "Ãªte": 713,
      "ab": 714,
      "Ã»": 715,
      "use": 716,
      "Ġwere": 717,
      "Que": 718,
      "Ġcont": 719,
      "ĠÃªtre": 720,
      "Ġper": 721,
      "ass": 722,
      "Tout": 723,
      "Elles": 724,
      "Ã©c": 725,
      "Comment": 726,
      "Ġnow": 727,
      "Ġwhat": 728,
      "Ġbl": 729,
      "ade": 730,
      "Who": 731,
      "Les": 732,
      "Ġmain": 733,
      "Ġdit": 734,
      "aison": 735,
      "Ġjust": 736,
      "Ġreally": 737,
      "âĢ": 738,
      "sez": 739,
      "Where": 740,
      "Ġdr": 741,
      "On": 742,
      "Ġmal": 743,
      "Ġvraiment": 744,
      "orte": 745,
      "Ġheure": 746,
      "ight": 747,
      "ody": 748,
      "der": 749,
      "Ã©tait": 750,
      "Ġlove": 751,
      "ame": 752,
      "Ġquel": 753,
      "Ġavons": 754,
      "tÃ©": 755,
      "âĢĻ": 756,
      "Ġavez": 757,
      "Ġgoing": 758,
      "OÃ¹": 759,
      "art": 760,
      "My": 761,
      "Ġbus": 762,
      "Ġma": 763,
      "day": 764,
      "oul": 765,
      "Ġwill": 766,
      "Qui": 767,
      "mps": 768,
      "Ġhad": 769,
      "ist": 770,
      "iens": 771,
      "Ġread": 772,
      "Ġpro": 773,
      "Ġthere": 774,
      "ange": 775,
      "Ġjam": 776,
      "Ġbeau": 777,
      "Ġbr": 778,
      "Ġent": 779,
      "ĠlÃł": 780,
      "Ġfaut": 781,
      "ient": 782,
      "rent": 783,
      "lÃ©": 784,
      "Ġtrain": 785,
      "ice": 786,
      "Ġmonde": 787,
      "Ġabout": 788,
      "ĠMary": 789,
      "Ġtous": 790,
      "Ġaller": 791,
      "Ġcar": 792,
      "Ġtrop": 793,
      "ouve": 794,
      "Ã©es": 795,
      "Ġwon": 796,
      "aÃ®": 797,
      "Ġai": 798,
      "Ġatt": 799,
      "rais": 800,
      "ign": 801,
      "Ġtime": 802,
      "own": 803,
      "Ġright": 804,
      "Ġbon": 805,
      "ord": 806,
      "Ġstu": 807,
      "Ġpense": 808,
      "anger": 809,
      "Ġisn": 810,
      "Ġhome": 811,
      "iss": 812,
      "Ġsou": 813,
      "Ġjamais": 814,
      "ions": 815,
      "Ġdem": 816,
      "Ġva": 817,
      "une": 818,
      "ick": 819,
      "um": 820,
      "Ġont": 821,
      "Ġimp": 822,
      "ge": 823,
      "coup": 824,
      "uit": 825,
      "cher": 826,
      "rit": 827,
      "thing": 828,
      "Ġfeel": 829,
      "ast": 830,
      "Ġseu": 831,
      "Every": 832,
      "Personne": 833,
      "As": 834,
      "Ġtemps": 835,
      "Ġoff": 836,
      "orm": 837,
      "'d": 838,
      "ud": 839,
      "tenant": 840,
      "Quel": 841,
      "Please": 842,
      "oit": 843,
      "rÃ©": 844,
      "Ġbeaucoup": 845,
      "way": 846,
      "Ġher": 847,
      "Ġcome": 848,
      "iv": 849,
      "uy": 850,
      "Ġback": 851,
      "Ġad": 852,
      "Ġres": 853,
      "Ġsome": 854,
      "Ġlui": 855,
      "ris": 856,
      "Ġpeut": 857,
      "Ġshould": 858,
      "ress": 859,
      "iÃ¨re": 860,
      "li": 861,
      "Ġfais": 862,
      "aÃ®t": 863,
      "Ġtalk": 864,
      "Ġson": 865,
      "Ġvais": 866,
      "Ġfri": 867,
      "pt": 868,
      "Ġliv": 869,
      "Ġwh": 870,
      "ost": 871,
      "Ġenc": 872,
      "iez": 873,
      "No": 874,
      "Ġdois": 875,
      "fe": 876,
      "Ġmust": 877,
      "Ġren": 878,
      "les": 879,
      "Ġfat": 880,
      "Ġmaintenant": 881,
      "Ã©tais": 882,
      "Ġarri": 883,
      "Ġta": 884,
      "Ġfer": 885,
      "ler": 886,
      "Es": 887,
      "mer": 888,
      "du": 889,
      "ner": 890,
      "Ġdoes": 891,
      "St": 892,
      "ace": 893,
      "nous": 894,
      "Ġcould": 895,
      "ĠF": 896,
      "Ġeat": 897,
      "Ġcour": 898,
      "Ġevery": 899,
      "Ã¢": 900,
      "Ġmaison": 901,
      "elle": 902,
      "Ġlong": 903,
      "Ġcomm": 904,
      "Ġencore": 905,
      "other": 906,
      "ret": 907,
      "Ã´t": 908,
      "Ġpri": 909,
      "Ġrest": 910,
      "ccup": 911,
      "Ġcette": 912,
      "lf": 913,
      "ought": 914,
      "Ġjus": 915,
      "ends": 916,
      "Ġnever": 917,
      "ils": 918,
      "Ġreg": 919,
      "ique": 920,
      "Ġhappy": 921,
      "aiss": 922,
      "ors": 923,
      "Ġfran": 924,
      "Ġdiff": 925,
      "ation": 926,
      "Ġrien": 927,
      "Ġvoit": 928,
      "Ãªtre": 929,
      "avez": 930,
      "Ġpi": 931,
      "Ġmu": 932,
      "Ġsay": 933,
      "ried": 934,
      "Ġsm": 935,
      "Ġwat": 936,
      "bre": 937,
      "ÃĬ": 938,
      "Ġstill": 939,
      "ÃĬtes": 940,
      "ieux": 941,
      "rench": 942,
      "Ġpass": 943,
      "Ġchose": 944,
      "body": 945,
      "Ġmade": 946,
      "Ã§ais": 947,
      "ĠprÃ©": 948,
      "lement": 949,
      "ĠfranÃ§ais": 950,
      "Ġbook": 951,
      "Have": 952,
      "Ġfin": 953,
      "ired": 954,
      "ven": 955,
      "Ġcou": 956,
      "Ġvoiture": 957,
      "jours": 958,
      "Ġtoujours": 959,
      "Ġwr": 960,
      "Ġspe": 961,
      "mble": 962,
      "ouvez": 963,
      "ree": 964,
      "Ġcall": 965,
      "aid": 966,
      "ĠFrench": 967,
      "Ġnouve": 968,
      "Ġhur": 969,
      "Avez": 970,
      "Re": 971,
      "Ġthem": 972,
      "Ġret": 973,
      "Ġmuch": 974,
      "Ġconn": 975,
      "Mon": 976,
      "Ġsav": 977,
      "Ġvu": 978,
      "Ġke": 979,
      "Ġjour": 980,
      "hui": 981,
      "tre": 982,
      "Ġsp": 983,
      "ĠdÃ©t": 984,
      "Ġquoi": 985,
      "Ġoccup": 986,
      "Ġtom": 987,
      "Ġple": 988,
      "Ġlot": 989,
      "jourd": 990,
      "ise": 991,
      "There": 992,
      "Ġven": 993,
      "Ġvoir": 994,
      "lez": 995,
      "itÃ©": 996,
      "Ġid": 997,
      "Ġtake": 998,
      "Ġconf": 999,
      "ful": 1000,
      "Ġdog": 1001,
      "Ġagain": 1002,
      "Ġdire": 1003,
      "ile": 1004,
      "Ġou": 1005,
      "Ġsens": 1006,
      "Ġporte": 1007,
      "ish": 1008,
      "ool": 1009,
      "Ġdown": 1010,
      "arde": 1011,
      "lÃ¨": 1012,
      "Ġprend": 1013,
      "Ġgl": 1014,
      "Ġro": 1015,
      "En": 1016,
      "Ġthey": 1017,
      "ĠplaÃ®t": 1018,
      "ants": 1019,
      "Ġsent": 1020,
      "Ġpay": 1021,
      "Ġbusy": 1022,
      "Puis": 1023,
      "ty": 1024,
      "Ġter": 1025,
      "Ġenf": 1026,
      "ope": 1027,
      "ole": 1028,
      "Ġcomme": 1029,
      "este": 1030,
      "Ġseem": 1031,
      "Ġlit": 1032,
      "arg": 1033,
      "lie": 1034,
      "ante": 1035,
      "ande": 1036,
      "Ġtoday": 1037,
      "Ġalone": 1038,
      "ra": 1039,
      "Ġmes": 1040,
      "ussi": 1041,
      "ft": 1042,
      "ound": 1043,
      "Ġbet": 1044,
      "Ġnew": 1045,
      "essay": 1046,
      "Ġmake": 1047,
      "ank": 1048,
      "Ġbeen": 1049,
      "toi": 1050,
      "Ġprob": 1051,
      "oney": 1052,
      "Ġparler": 1053,
      "Ãªtes": 1054,
      "Get": 1055,
      "Ġjuste": 1056,
      "oth": 1057,
      "Ġpris": 1058,
      "Ġpouv": 1059,
      "Ġfun": 1060,
      "Ġtravail": 1061,
      "Cela": 1062,
      "Ġceci": 1063,
      "ĠrÃ©p": 1064,
      "Ġsec": 1065,
      "Ġday": 1066,
      "Ġpens": 1067,
      "Ġleave": 1068,
      "Ġob": 1069,
      "Lais": 1070,
      "Ġaujourd": 1071,
      "Ġpartir": 1072,
      "Ġquelque": 1073,
      "ĠvÃ©": 1074,
      "Ġexp": 1075,
      "Ġchez": 1076,
      "ĠÃ©c": 1077,
      "Ġready": 1078,
      "Ġlet": 1079,
      "red": 1080,
      "Ġvoul": 1081,
      "Ġdeux": 1082,
      "Ġrend": 1083,
      "Ġmoney": 1084,
      "ies": 1085,
      "vÃ©": 1086,
      "Ġhand": 1087,
      "Ġwell": 1088,
      "Ġover": 1089,
      "lo": 1090,
      "Ġwait": 1091,
      "Åĵ": 1092,
      "Ġaid": 1093,
      "ond": 1094,
      "ence": 1095,
      "Ġtoutes": 1096,
      "Ġsc": 1097,
      "Be": 1098,
      "Ġmo": 1099,
      "Ġplay": 1100,
      "esp": 1101,
      "Ġtry": 1102,
      "self": 1103,
      "Ġcare": 1104,
      "Ġsure": 1105,
      "Ġjob": 1106,
      "rait": 1107,
      "endu": 1108,
      "rer": 1109,
      "inu": 1110,
      "Ġtell": 1111,
      "ĠdÃ©s": 1112,
      "ves": 1113,
      "De": 1114,
      "Ġsw": 1115,
      "Ġway": 1116,
      "ved": 1117,
      "Ġph": 1118,
      "ting": 1119,
      "eut": 1120,
      "Ġjou": 1121,
      "Ġchien": 1122,
      "endre": 1123,
      "Ġsurp": 1124,
      "Ġwent": 1125,
      "Ġstay": 1126,
      "Ġop": 1127,
      "ese": 1128,
      "ĠmÃ©": 1129,
      "Ġold": 1130,
      "Ġand": 1131,
      "Ġaussi": 1132,
      "Ġpos": 1133,
      "ach": 1134,
      "rÃªte": 1135,
      "Ġsle": 1136,
      "Ġask": 1137,
      "ĠtÃ©": 1138,
      "reat": 1139,
      "Ġhard": 1140,
      "ouse": 1141,
      "ned": 1142,
      "Ar": 1143,
      "ÃĢ": 1144,
      "Ġby": 1145,
      "Ġleft": 1146,
      "Ġsaw": 1147,
      "Ġdrink": 1148,
      "ated": 1149,
      "ething": 1150,
      "iz": 1151,
      "erai": 1152,
      "Ġhope": 1153,
      "Ãªme": 1154,
      "Ġfo": 1155,
      "ĠsÃ»": 1156,
      "Ġspeak": 1157,
      "Ġaut": 1158,
      "onnÃ©": 1159,
      "Ġplan": 1160,
      "ĠdÃ©c": 1161,
      "Ġbad": 1162,
      "Ġseul": 1163,
      "row": 1164,
      "ough": 1165,
      "Ġvie": 1166,
      "min": 1167,
      "Ġfort": 1168,
      "Ġlost": 1169,
      "rÃªt": 1170,
      "auv": 1171,
      "get": 1172,
      "Ġwrong": 1173,
      "asse": 1174,
      "act": 1175,
      "ĠdÃ©j": 1176,
      "Ġeu": 1177,
      "hed": 1178,
      "ĠdÃ©jÃł": 1179,
      "Ġrep": 1180,
      "Ġlivre": 1181,
      "Ġstud": 1182,
      "oud": 1183,
      "enc": 1184,
      "Ġsaid": 1185,
      "Ġpe": 1186,
      "iste": 1187,
      "Ġor": 1188,
      "gry": 1189,
      "Ġet": 1190,
      "Ġsimp": 1191,
      "Ġment": 1192,
      "Ġfai": 1193,
      "Ġhappen": 1194,
      "ĠtÃ©lÃ©": 1195,
      "Ġgu": 1196,
      "Ġpre": 1197,
      "Ġbig": 1198,
      "Ġtired": 1199,
      "Ġfl": 1200,
      "Ġint": 1201,
      "Ġsurpris": 1202,
      "ell": 1203,
      "Ġdoing": 1204,
      "Stop": 1205,
      "Ġroom": 1206,
      "Ġbonne": 1207,
      "Ġlik": 1208,
      "Quelle": 1209,
      "Ġbetter": 1210,
      "Ġchoi": 1211,
      "Ġsemble": 1212,
      "Everyone": 1213,
      "acc": 1214,
      "Ġaf": 1215,
      "ert": 1216,
      "Ġpa": 1217,
      "Ġmore": 1218,
      "ArrÃªte": 1219,
      "Ġcoup": 1220,
      "anc": 1221,
      "Ġexc": 1222,
      "Take": 1223,
      "ĠB": 1224,
      "Ġour": 1225,
      "att": 1226,
      "Ġchance": 1227,
      "All": 1228,
      "Ġdou": 1229,
      "uck": 1230,
      "Ġdone": 1231,
      "Ġbelie": 1232,
      "ug": 1233,
      "Ġlaiss": 1234,
      "Ġfatig": 1235,
      "Cette": 1236,
      "Ġdoesn": 1237,
      "rir": 1238,
      "Ġtrouv": 1239,
      "Ġassez": 1240,
      "Ġpeur": 1241,
      "May": 1242,
      "Ġmieux": 1243,
      "Ġdoor": 1244,
      "Ġhear": 1245,
      "ĠprÃªt": 1246,
      "Ġpouvez": 1247,
      "Ġcat": 1248,
      "Ġnom": 1249,
      "Ġrec": 1250,
      "Ġwould": 1251,
      "Ġfatigu": 1252,
      "Ġmiss": 1253,
      "Ġstart": 1254,
      "Ġanything": 1255,
      "Ġpersonne": 1256,
      "Ġca": 1257,
      "Ġcha": 1258,
      "og": 1259,
      "aient": 1260,
      "Ġhouse": 1261,
      "Ġhurt": 1262,
      "Ġans": 1263,
      "Ġgive": 1264,
      "Ġlooks": 1265,
      "ious": 1266,
      "Ġaway": 1267,
      "Ġavait": 1268,
      "Ġgrand": 1269,
      "Ġessay": 1270,
      "Ġplease": 1271,
      "rive": 1272,
      "Ġass": 1273,
      "oc": 1274,
      "Ġheureux": 1275,
      "Ġfau": 1276,
      "Give": 1277,
      "oke": 1278,
      "Ġemp": 1279,
      "Ġavoir": 1280,
      "Ãī": 1281,
      "Ġfi": 1282,
      "Ġmet": 1283,
      "Ġsomething": 1284,
      "argent": 1285,
      "Ġvol": 1286,
      "ted": 1287,
      "Ġsort": 1288,
      "ente": 1289,
      "Ġenough": 1290,
      "Ġsouv": 1291,
      "llement": 1292,
      "Ġinv": 1293,
      "Ġwasn": 1294,
      "Ġfrom": 1295,
      "Ġregard": 1296,
      "Ġtrou": 1297,
      "Ġsleep": 1298,
      "nÃ©": 1299,
      "Ġfam": 1300,
      "ild": 1301,
      "Ġperdu": 1302,
      "ways": 1303,
      "Ġaider": 1304,
      "omme": 1305,
      "Ġins": 1306,
      "Ġide": 1307,
      "Ġpet": 1308,
      "be": 1309,
      "Ġmont": 1310,
      "orrow": 1311,
      "Ġopen": 1312,
      "Ġtur": 1313,
      "Ġaim": 1314,
      "Ġmom": 1315,
      "Ġthought": 1316,
      "Ġpat": 1317,
      "Ġalways": 1318,
      "Ġquelqu": 1319,
      "Ġache": 1320,
      "Ġmanger": 1321,
      "oston": 1322,
      "Ġlun": 1323,
      "Ġvis": 1324,
      "Ġdisp": 1325,
      "rends": 1326,
      "Ġdemand": 1327,
      "Ch": 1328,
      "quÃ©": 1329,
      "ĠproblÃ¨": 1330,
      "Ġunder": 1331,
      "ny": 1332,
      "Ġac": 1333,
      "Ġfind": 1334,
      "Ġtravaill": 1335,
      "Ġlate": 1336,
      "Ġmauv": 1337,
      "Ġkid": 1338,
      "ning": 1339,
      "rez": 1340,
      "Ġmat": 1341,
      "Ġmauvais": 1342,
      "bien": 1343,
      "Ġquest": 1344,
      "Ġrem": 1345,
      "Ġraison": 1346,
      "When": 1347,
      "espÃ¨re": 1348,
      "ĠBoston": 1349,
      "Ġaime": 1350,
      "tement": 1351,
      "aine": 1352,
      "Ġten": 1353,
      "oyez": 1354,
      "mÃ©": 1355,
      "Ġtes": 1356,
      "ets": 1357,
      "Ġsoit": 1358,
      "Your": 1359,
      "tle": 1360,
      "read": 1361,
      "chÃ©": 1362,
      "Ġtea": 1363,
      "Ġref": 1364,
      "Ġsupp": 1365,
      "Ġinc": 1366,
      "Ġvos": 1367,
      "adore": 1368,
      "riez": 1369,
      "Ġpu": 1370,
      "Come": 1371,
      "Ġfriends": 1372,
      "Ġfut": 1373,
      "Ġyet": 1374,
      "Ġchang": 1375,
      "ared": 1376,
      "ager": 1377,
      "nÃ©e": 1378,
      "oulez": 1379,
      "Ġbo": 1380,
      "Ġgar": 1381,
      "Ġchat": 1382,
      "Ġinte": 1383,
      "Ġlive": 1384,
      "obody": 1385,
      "az": 1386,
      "Ġprom": 1387,
      "Ġstop": 1388,
      "Ġnouveau": 1389,
      "Ġprendre": 1390,
      "Ma": 1391,
      "led": 1392,
      "Ġsat": 1393,
      "Ġsing": 1394,
      "erve": 1395,
      "Ġhate": 1396,
      "Ġenv": 1397,
      "Ġsho": 1398,
      "mber": 1399,
      "Ġgag": 1400,
      "onner": 1401,
      "Ġconfi": 1402,
      "Ġcor": 1403,
      "cle": 1404,
      "Ġname": 1405,
      "Ġhow": 1406,
      "eau": 1407,
      "Ġcle": 1408,
      "ph": 1409,
      "Quand": 1410,
      "ĠdÃ©p": 1411,
      "ĠdÃ©teste": 1412,
      "Ġap": 1413,
      "Ġtold": 1414,
      "Ġfriend": 1415,
      "Ġbelieve": 1416,
      "Ġpol": 1417,
      "Ġnice": 1418,
      "Ġder": 1419,
      "Ġmort": 1420,
      "Ġgave": 1421,
      "uses": 1422,
      "avons": 1423,
      "ffe": 1424,
      "Go": 1425,
      "elles": 1426,
      "erci": 1427,
      "Fais": 1428,
      "Ġfu": 1429,
      "qui": 1430,
      "Ġtrust": 1431,
      "ĠÃ©tud": 1432,
      "Ġcher": 1433,
      "Ġcame": 1434,
      "Ġthing": 1435,
      "Ġim": 1436,
      "Ġwalk": 1437,
      "Ġbuy": 1438,
      "tez": 1439,
      "Ġconnais": 1440,
      "eep": 1441,
      "aimer": 1442,
      "Ġprie": 1443,
      "ĠproblÃ¨me": 1444,
      "Sh": 1445,
      "blem": 1446,
      "Ġkne": 1447,
      "Ġidea": 1448,
      "Ã©g": 1449,
      "oire": 1450,
      "ex": 1451,
      "Ġmus": 1452,
      "Ġcons": 1453,
      "ote": 1454,
      "Ġend": 1455,
      "Ġonly": 1456,
      "Ġgros": 1457,
      "Ġproblem": 1458,
      "Keep": 1459,
      "Ġacc": 1460,
      "llez": 1461,
      "Ġear": 1462,
      "rass": 1463,
      "aught": 1464,
      "Ġrun": 1465,
      "Ġsk": 1466,
      "Ġstup": 1467,
      "Ġwater": 1468,
      "ins": 1469,
      "Ġplace": 1470,
      "pect": 1471,
      "Ġperd": 1472,
      "Ġmis": 1473,
      "Ã©ri": 1474,
      "Ġlittle": 1475,
      "Ġmay": 1476,
      "uss": 1477,
      "Combien": 1478,
      "Ġanyone": 1479,
      "ĠsÃ»r": 1480,
      "Ġmoment": 1481,
      "aider": 1482,
      "Ġglad": 1483,
      "cont": 1484,
      "Ġeas": 1485,
      "Ġemb": 1486,
      "chool": 1487,
      "Ġrencont": 1488,
      "ĠidÃ©e": 1489,
      "Nobody": 1490,
      "Ġmine": 1491,
      "oid": 1492,
      "oint": 1493,
      "Ġdevrais": 1494,
      "iÃ©": 1495,
      "Ġsait": 1496,
      "elt": 1497,
      "Ġwatch": 1498,
      "Ġcol": 1499,
      "Ġconfiance": 1500,
      "Ġlast": 1501,
      "Ġnight": 1502,
      "Ġcham": 1503,
      "aimerais": 1504,
      "la": 1505,
      "Ġfelt": 1506,
      "Ġtellement": 1507,
      "Ġtomb": 1508,
      "accord": 1509,
      "erre": 1510,
      "Does": 1511,
      "Ġentendu": 1512,
      "fÃ©": 1513,
      "Ġbro": 1514,
      "Ġveut": 1515,
      "Ġconc": 1516,
      "Ġchange": 1517,
      "Ġstr": 1518,
      "Ġauc": 1519,
      "ĠarrÃªt": 1520,
      "Ġrester": 1521,
      "At": 1522,
      "di": 1523,
      "Ġhor": 1524,
      "Ġbless": 1525,
      "Ġcal": 1526,
      "Ġbou": 1527,
      "Ġwar": 1528,
      "Ġense": 1529,
      "Ġchant": 1530,
      "ĠoccupÃ©": 1531,
      "Laisse": 1532,
      "sible": 1533,
      "Ġsimplement": 1534,
      "Ġknew": 1535,
      "Ġquit": 1536,
      "Ġalread": 1537,
      "Ġalready": 1538,
      "Ġif": 1539,
      "Ġfac": 1540,
      "teau": 1541,
      "vert": 1542,
      "orry": 1543,
      "Ġguy": 1544,
      "Ġbeg": 1545,
      "illez": 1546,
      "Ġtard": 1547,
      "cti": 1548,
      "Ġpres": 1549,
      "Ġchild": 1550,
      "Ġshow": 1551,
      "ĠMarie": 1552,
      "ok": 1553,
      "Ġthan": 1554,
      "Ġquestion": 1555,
      "aie": 1556,
      "Reg": 1557,
      "Ġwin": 1558,
      "avais": 1559,
      "Thank": 1560,
      "Ġunderst": 1561,
      "int": 1562,
      "Ġsound": 1563,
      "Ġtomorrow": 1564,
      "ision": 1565,
      "Ġtrue": 1566,
      "Ġdemain": 1567,
      "ream": 1568,
      "ail": 1569,
      "ĠoÃ¹": 1570,
      "Ġprop": 1571,
      "Ġparle": 1572,
      "Ġeverything": 1573,
      "Ġseems": 1574,
      "Ġenfants": 1575,
      "Ġpouvons": 1576,
      "Ġtable": 1577,
      "Ġpain": 1578,
      "Ġcu": 1579,
      "omp": 1580,
      "renez": 1581,
      "dez": 1582,
      "ife": 1583,
      "Ġaff": 1584,
      "Ġbed": 1585,
      "leur": 1586,
      "Ġwanted": 1587,
      "Ġfem": 1588,
      "Ġansw": 1589,
      "ible": 1590,
      "Ġdanger": 1591,
      "Ġdorm": 1592,
      "raid": 1593,
      "Ġnotre": 1594,
      "Ġnothing": 1595,
      "Ġafraid": 1596,
      "Regarde": 1597,
      "Ġgir": 1598,
      "Ġgreat": 1599,
      "illes": 1600,
      "Åĵur": 1601,
      "Ġlikes": 1602,
      "Merci": 1603,
      "Ġsau": 1604,
      "Ġlis": 1605,
      "Ġhun": 1606,
      "oses": 1607,
      "ĠpassÃ©": 1608,
      "Ġgent": 1609,
      "Ġschool": 1610,
      "yez": 1611,
      "Ġlau": 1612,
      "Ġfound": 1613,
      "ention": 1614,
      "Ġsois": 1615,
      "ĠT": 1616,
      "Ġact": 1617,
      "ĠpÃ¨re": 1618,
      "Ġnuit": 1619,
      "ars": 1620,
      "Ġpourrait": 1621,
      "Ġsit": 1622,
      "ĠmÃªme": 1623,
      "Ġpensais": 1624,
      "Ġpers": 1625,
      "Ġmess": 1626,
      "ents": 1627,
      "Ġheard": 1628,
      "Ġamus": 1629,
      "Ġexpl": 1630,
      "Ġchambre": 1631,
      "ĠO": 1632,
      "Ġchau": 1633,
      "iend": 1634,
      "Ġaux": 1635,
      "Ġuse": 1636,
      "Ġsecret": 1637,
      "Ġfois": 1638,
      "Ġrou": 1639,
      "Ġkind": 1640,
      "Ġknows": 1641,
      "ĠÃ©p": 1642,
      "Ġtw": 1643,
      "Ġport": 1644,
      "vers": 1645,
      "icile": 1646,
      "Ġcrois": 1647,
      "Ġcontinu": 1648,
      "Ġunderstand": 1649,
      "Ġey": 1650,
      "Ġdisc": 1651,
      "Ġcontr": 1652,
      "App": 1653,
      "Ġmot": 1654,
      "Ã©p": 1655,
      "Ġreme": 1656,
      "Ġris": 1657,
      "Ġbeing": 1658,
      "pped": 1659,
      "Ġparf": 1660,
      "Ã§on": 1661,
      "rents": 1662,
      "most": 1663,
      "Ġpoint": 1664,
      "Ġtook": 1665,
      "Ġeasy": 1666,
      "ying": 1667,
      "Ġaren": 1668,
      "Ġthese": 1669,
      "Ġtried": 1670,
      "Ġluck": 1671,
      "aide": 1672,
      "Ġviens": 1673,
      "Ġmeet": 1674,
      "Ġplais": 1675,
      "Ess": 1676,
      "Ġcommenc": 1677,
      "ĠachetÃ©": 1678,
      "Tell": 1679,
      "Ġimport": 1680,
      "ek": 1681,
      "Ġaw": 1682,
      "Ġpret": 1683,
      "Ġmou": 1684,
      "rible": 1685,
      "jeun": 1686,
      "Ġcold": 1687,
      "Ġdifficile": 1688,
      "joy": 1689,
      "aites": 1690,
      "Ġswim": 1691,
      "ĠtrouvÃ©": 1692,
      "Ġboy": 1693,
      "Ġsoon": 1694,
      "Ġappel": 1695,
      "Ġtoute": 1696,
      "lÃł": 1697,
      "Ġmind": 1698,
      "Ġalmost": 1699,
      "Look": 1700,
      "Ġbit": 1701,
      "Ġdec": 1702,
      "Laissez": 1703,
      "Ġfil": 1704,
      "Ġbu": 1705,
      "ĠmÃ¨re": 1706,
      "Ġdevez": 1707,
      "autre": 1708,
      "Just": 1709,
      "Ġbest": 1710,
      "Ġvite": 1711,
      "Quelqu": 1712,
      "vent": 1713,
      "Ġviv": 1714,
      "Ġrev": 1715,
      "Ġvenir": 1716,
      "Ġpetit": 1717,
      "Ġnon": 1718,
      "xt": 1719,
      "rest": 1720,
      "Ġboth": 1721,
      "ture": 1722,
      "Ġsafe": 1723,
      "Ã©cole": 1724,
      "Ġwho": 1725,
      "Ġremember": 1726,
      "ied": 1727,
      "rÃ©c": 1728,
      "Ġhat": 1729,
      "Ġheures": 1730,
      "Everybody": 1731,
      "Ġfather": 1732,
      "Ġretard": 1733,
      "Ġparents": 1734,
      "Ġsoir": 1735,
      "ath": 1736,
      "aux": 1737,
      "Ġeff": 1738,
      "Ġdevons": 1739,
      "Ġtermin": 1740,
      "Ġphot": 1741,
      "Could": 1742,
      "Dis": 1743,
      "Ġshe": 1744,
      "Ġmang": 1745,
      "Ġmist": 1746,
      "Ġrain": 1747,
      "akes": 1748,
      "Par": 1749,
      "Ġfon": 1750,
      "bl": 1751,
      "ich": 1752,
      "Ġwind": 1753,
      "veill": 1754,
      "Ġhomme": 1755,
      "irst": 1756,
      "Ġcoming": 1757,
      "oss": 1758,
      "Ġfemme": 1759,
      "Ġhot": 1760,
      "euillez": 1761,
      "cept": 1762,
      "Ġkill": 1763,
      "Ġangry": 1764,
      "ache": 1765,
      "Ġidi": 1766,
      "Ġfaim": 1767,
      "Ġpresque": 1768,
      "Veuillez": 1769,
      "Ġwhere": 1770,
      "Ġhab": 1771,
      "Ġtrois": 1772,
      "His": 1773,
      "Ġsn": 1774,
      "aking": 1775,
      "icy": 1776,
      "Ġweek": 1777,
      "ĠtÃ©lÃ©ph": 1778,
      "ĠcolÃ¨re": 1779,
      "Ġanswer": 1780,
      "Peux": 1781,
      "Soyez": 1782,
      "heure": 1783,
      "ory": 1784,
      "Ġtrouve": 1785,
      "Ġel": 1786,
      "Ġseule": 1787,
      "Ġkeep": 1788,
      "Ġvoulais": 1789,
      "Ġhappened": 1790,
      "ĠfatiguÃ©": 1791,
      "Ġimportant": 1792,
      "Ġses": 1793,
      "ester": 1794,
      "Ġprud": 1795,
      "Ġamis": 1796,
      "Un": 1797,
      "Ġfille": 1798,
      "ater": 1799,
      "ĠgÃ©": 1800,
      "Ġfaites": 1801,
      "rÃ©cie": 1802,
      "arrive": 1803,
      "Ġseen": 1804,
      "Ġlooked": 1805,
      "Ġprof": 1806,
      "Ġkey": 1807,
      "ĠjournÃ©e": 1808,
      "Ġpossible": 1809,
      "Ġpretty": 1810,
      "Voi": 1811,
      "Ġsick": 1812,
      "Ġdro": 1813,
      "Ġautre": 1814,
      "Ġsouvent": 1815,
      "Ġtravailler": 1816,
      "per": 1817,
      "rÃ¨s": 1818,
      "Ġsans": 1819,
      "Ġsorry": 1820,
      "ĠdÃ»": 1821,
      "Ġbre": 1822,
      "ition": 1823,
      "Ġcomment": 1824,
      "Ġwants": 1825,
      "ĠarrivÃ©": 1826,
      "Ġtour": 1827,
      "Ġmag": 1828,
      "Ġcam": 1829,
      "rif": 1830,
      "ily": 1831,
      "Ġyours": 1832,
      "aving": 1833,
      "Ġwhy": 1834,
      "tr": 1835,
      "Ġut": 1836,
      "quer": 1837,
      "Ġmean": 1838,
      "imes": 1839,
      "Ġtravaille": 1840,
      "Ġchoix": 1841,
      "enez": 1842,
      "Ġcuis": 1843,
      "ited": 1844,
      "ident": 1845,
      "Ġcontent": 1846,
      "ientÃ´t": 1847,
      "erreur": 1848,
      "Au": 1849,
      "Some": 1850,
      "bli": 1851,
      "Ġil": 1852,
      "ĠtÃªte": 1853,
      "Ġmeill": 1854,
      "Ġrap": 1855,
      "fect": 1856,
      "ĠpiÃ¨": 1857,
      "Ġtrouver": 1858,
      "gn": 1859,
      "Ġtri": 1860,
      "Ġcook": 1861,
      "Ġenjoy": 1862,
      "Ġdoct": 1863,
      "Ġoften": 1864,
      "Ġdied": 1865,
      "ĠrÃ©pon": 1866,
      "Pouvez": 1867,
      "Ġsil": 1868,
      "Ġbought": 1869,
      "Ġbicy": 1870,
      "ĠbientÃ´t": 1871,
      "Ġlight": 1872,
      "Ġyourself": 1873,
      "Ġforg": 1874,
      "Ġmyself": 1875,
      "Ġfunny": 1876,
      "Ġhungry": 1877,
      "Ġbicycle": 1878,
      "Ġcri": 1879,
      "used": 1880,
      "Ġbeaut": 1881,
      "Here": 1882,
      "ird": 1883,
      "eurs": 1884,
      "Ġdeven": 1885,
      "Ġmov": 1886,
      "Ġteacher": 1887,
      "Ġearly": 1888,
      "Ġsl": 1889,
      "Ġvois": 1890,
      "Ġvoy": 1891,
      "Ġgone": 1892,
      "Ġdoit": 1893,
      "ult": 1894,
      "Ġlooking": 1895,
      "ĠOK": 1896,
      "Ġyeux": 1897,
      "Ġami": 1898,
      "Stay": 1899,
      "Ġfini": 1900,
      "Ġvenu": 1901,
      "Ġstarted": 1902,
      "Ġrapp": 1903,
      "ĠdÃ©jeun": 1904,
      "Ġheureuse": 1905,
      "Ġelse": 1906,
      "Faites": 1907,
      "gg": 1908,
      "Ġcert": 1909,
      "Ġever": 1910,
      "Ġfoncti": 1911,
      "Ġsign": 1912,
      "Ġfast": 1913,
      "ites": 1914,
      "Ġsol": 1915,
      "olÃ©": 1916,
      "ĠÃ©g": 1917,
      "Ġparti": 1918,
      "ĠvÃ©lo": 1919,
      "Ġgirl": 1920,
      "Try": 1921,
      "reux": 1922,
      "Ġsal": 1923,
      "isf": 1924,
      "Ġmange": 1925,
      "Ġenfant": 1926,
      "Ġasked": 1927,
      "ĠtÃ´t": 1928,
      "Ġbag": 1929,
      "Ġboul": 1930,
      "arm": 1931,
      "Ġsuff": 1932,
      "Ġsoyez": 1933,
      "Ġsera": 1934,
      "Ġmarried": 1935,
      "Ces": 1936,
      "cin": 1937,
      "era": 1938,
      "ely": 1939,
      "avant": 1940,
      "Ġmalade": 1941,
      "ĠvÃ©rit": 1942,
      "Ġfix": 1943,
      "Ġdern": 1944,
      "Will": 1945,
      "Ġerreur": 1946,
      "ished": 1947,
      "llow": 1948,
      "ĠÃ¢": 1949,
      "rions": 1950,
      "Ã¨rent": 1951,
      "Ġlife": 1952,
      "Ġtalking": 1953,
      "Ġinto": 1954,
      "Ġeyes": 1955,
      "esterday": 1956,
      "Am": 1957,
      "Donne": 1958,
      "Prends": 1959,
      "Ã¯": 1960,
      "Ġhier": 1961,
      "ople": 1962,
      "rÃ©ci": 1963,
      "ĠcafÃ©": 1964,
      "ffee": 1965,
      "Ġdur": 1966,
      "Ġworking": 1967,
      "cked": 1968,
      "Ġsatisf": 1969,
      "Ġbroke": 1970,
      "ĠTV": 1971,
      "Ġrapide": 1972,
      "zz": 1973,
      "Ġdead": 1974,
      "Ġnext": 1975,
      "Ġcondu": 1976,
      "Ġsavais": 1977,
      "Ġquelle": 1978,
      "ĠdÃ©b": 1979,
      "Ġmany": 1980,
      "ressed": 1981,
      "Ġcalled": 1982,
      "Ġfacile": 1983,
      "Ġces": 1984,
      "ary": 1985,
      "aise": 1986,
      "Ġtra": 1987,
      "Ġserai": 1988,
      "Ġturn": 1989,
      "lig": 1990,
      "Ġdir": 1991,
      "Ġmother": 1992,
      "Ġvoulez": 1993,
      "Ġanybody": 1994,
      "Ġcoffee": 1995,
      "Ġretour": 1996,
      "Ġintell": 1997,
      "Ġidiot": 1998,
      "Ġboulot": 1999,
      "alement": 2000,
      "nt": 2001,
      "Ġnour": 2002,
      "Ġbor": 2003,
      "ather": 2004,
      "ques": 2005,
      "ark": 2006,
      "Ġreal": 2007,
      "Ġkiss": 2008,
      "ĠallÃ©": 2009,
      "Ġforget": 2010,
      "Ġgrande": 2011,
      "Ġstupid": 2012,
      "Ġlaugh": 2013,
      "Ġintellig": 2014,
      "Ġsy": 2015,
      "Ġcry": 2016,
      "arre": 2017,
      "rire": 2018,
      "Ġlear": 2019,
      "Ġthree": 2020,
      "Ġchoses": 2021,
      "Ġused": 2022,
      "Was": 2023,
      "ng": 2024,
      "uv": 2025,
      "ĠJ": 2026,
      "Ġord": 2027,
      "ches": 2028,
      "Ġsem": 2029,
      "uritÃ©": 2030,
      "ĠessayÃ©": 2031,
      "dic": 2032,
      "Ġput": 2033,
      "Ġfood": 2034,
      "Ġvoi": 2035,
      "aires": 2036,
      "olog": 2037,
      "Ġword": 2038,
      "Ġkept": 2039,
      "ale": 2040,
      "igh": 2041,
      "Ġir": 2042,
      "unk": 2043,
      "Ġarg": 2044,
      "ject": 2045,
      "Ġcareful": 2046,
      "Rest": 2047,
      "Ġown": 2048,
      "Ġpuis": 2049,
      "ating": 2050,
      "Ġfroid": 2051,
      "Ġcraz": 2052,
      "Ġchoice": 2053,
      "ArrÃªtez": 2054,
      "Ġchanter": 2055,
      "Ġcrazy": 2056,
      "more": 2057,
      "old": 2058,
      "Ã©r": 2059,
      "Ġnager": 2060,
      "Ġbri": 2061,
      "onnez": 2062,
      "ienne": 2063,
      "Ġanymore": 2064,
      "Ġperfect": 2065,
      "jet": 2066,
      "Ġdie": 2067,
      "Ġpap": 2068,
      "Ġyesterday": 2069,
      "Ġhair": 2070,
      "Ġdeh": 2071,
      "Ġlire": 2072,
      "avoir": 2073,
      "ĠdÃ©r": 2074,
      "Ġlunch": 2075,
      "ray": 2076,
      "isÃ©": 2077,
      "Ġmin": 2078,
      "Ġyoung": 2079,
      "Ġpasse": 2080,
      "Ġquite": 2081,
      "Ġcouldn": 2082,
      "Ġbooks": 2083,
      "inute": 2084,
      "ĠdemandÃ©": 2085,
      "Ġlisten": 2086,
      "Prenez": 2087,
      "Ġsac": 2088,
      "Ġminute": 2089,
      "apprÃ©cie": 2090,
      "iful": 2091,
      "Ġbreak": 2092,
      "Would": 2093,
      "ring": 2094,
      "ĠdonnÃ©": 2095,
      "Ġcass": 2096,
      "Ġnorm": 2097,
      "Ġwish": 2098,
      "adi": 2099,
      "Were": 2100,
      "Ġverre": 2101,
      "oiss": 2102,
      "Ġconv": 2103,
      "ĠrÃ©veill": 2104,
      "ĠsÃ©c": 2105,
      "Ġpo": 2106,
      "Ġfall": 2107,
      "Ġbut": 2108,
      "Ġbec": 2109,
      "Ġsemb": 2110,
      "Ġgetting": 2111,
      "Ġdehors": 2112,
      "ues": 2113,
      "vice": 2114,
      "ommes": 2115,
      "Ġbiz": 2116,
      "Ã¨te": 2117,
      "ĠthÃ©": 2118,
      "agit": 2119,
      "Ġsavoir": 2120,
      "Ġcorre": 2121,
      "Ġtwo": 2122,
      "ĠbiÃ¨re": 2123,
      "ity": 2124,
      "Ġscared": 2125,
      "Ġphone": 2126,
      "Att": 2127,
      "Tr": 2128,
      "Ġaide": 2129,
      "Ġhead": 2130,
      "Ġproud": 2131,
      "Ġplut": 2132,
      "ĠtÃ©lÃ©phone": 2133,
      "Ġbeautiful": 2134,
      "Veux": 2135,
      "lu": 2136,
      "rap": 2137,
      "ts": 2138,
      "ume": 2139,
      "Ġcaught": 2140,
      "inc": 2141,
      "Ġfou": 2142,
      "Ġvient": 2143,
      "Ġpourquoi": 2144,
      "ched": 2145,
      "Ġjouer": 2146,
      "th": 2147,
      "uf": 2148,
      "ĠA": 2149,
      "Ġtort": 2150,
      "Ġsto": 2151,
      "arer": 2152,
      "Ġfollow": 2153,
      "ĠsÃ©curitÃ©": 2154,
      "bÃ©": 2155,
      "ĠÃ©taient": 2156,
      "ures": 2157,
      "Ã´le": 2158,
      "Ġwonder": 2159,
      "Ġrendre": 2160,
      "ĠterminÃ©": 2161,
      "inner": 2162,
      "Ġfirst": 2163,
      "Ġvi": 2164,
      "Ġhum": 2165,
      "Ġbeh": 2166,
      "Ġanother": 2167,
      "ĠdÃ©m": 2168,
      "Ġcheve": 2169,
      "Ġmessage": 2170,
      "ĠmangÃ©": 2171,
      "ĠplutÃ´t": 2172,
      "nis": 2173,
      "Ġdess": 2174,
      "Ġbi": 2175,
      "Ġhit": 2176,
      "Ġinf": 2177,
      "Ġloves": 2178,
      "ĠcoÃ»": 2179,
      "Ġdemande": 2180,
      "Ġlivres": 2181,
      "Ġsemaine": 2182,
      "Allez": 2183,
      "ball": 2184,
      "Ġnu": 2185,
      "Ġbeer": 2186,
      "ĠgarÃ§on": 2187,
      "Thanks": 2188,
      "Ġwindow": 2189,
      "Cont": 2190,
      "ces": 2191,
      "rou": 2192,
      "ister": 2193,
      "Ġmad": 2194,
      "let": 2195,
      "ĠrÃª": 2196,
      "Ġann": 2197,
      "Ġphoto": 2198,
      "ĠdÃ©jeuner": 2199,
      "Ġtall": 2200,
      "Ġaur": 2201,
      "Ġcap": 2202,
      "entre": 2203,
      "Ġquick": 2204,
      "Ġlie": 2205,
      "Ġlose": 2206,
      "Ġquiet": 2207,
      "Ġoubli": 2208,
      "Ġfilm": 2209,
      "side": 2210,
      "Ġty": 2211,
      "Ġvas": 2212,
      "Ġru": 2213,
      "Ġonce": 2214,
      "Ġhands": 2215,
      "Ġlucky": 2216,
      "Ġbizarre": 2217,
      "ilis": 2218,
      "uter": 2219,
      "Ġagree": 2220,
      "Ġserious": 2221,
      "Ġnews": 2222,
      "Ġcheveux": 2223,
      "Ġner": 2224,
      "Ġgard": 2225,
      "aisse": 2226,
      "Ġlaw": 2227,
      "Ġregret": 2228,
      "Ġswe": 2229,
      "ĠlaissÃ©": 2230,
      "Ġkids": 2231,
      "Ġperson": 2232,
      "Ġdoctor": 2233,
      "Reste": 2234,
      "Voulez": 2235,
      "dre": 2236,
      "Ġvieux": 2237,
      "ats": 2238,
      "Ġeven": 2239,
      "ments": 2240,
      "Ġchauss": 2241,
      "Ġturned": 2242,
      "Ġgagner": 2243,
      "Sois": 2244,
      "Va": 2245,
      "emp": 2246,
      "gl": 2247,
      "Ġdri": 2248,
      "Ġcop": 2249,
      "Ġwife": 2250,
      "ĠintÃ©": 2251,
      "Ġaround": 2252,
      "Ġsurv": 2253,
      "Ġclos": 2254,
      "Ġattendre": 2255,
      "ĠdiffÃ©": 2256,
      "gether": 2257,
      "Ġstudy": 2258,
      "ĠblessÃ©": 2259,
      "Restez": 2260,
      "ĠsÃ©ri": 2261,
      "Ġvue": 2262,
      "arrass": 2263,
      "Ġran": 2264,
      "Ġoutside": 2265,
      "Ġmari": 2266,
      "ignore": 2267,
      "Ġdiffe": 2268,
      "Ġchanged": 2269,
      "ĠaprÃ¨s": 2270,
      "ĠpiÃ¨ce": 2271,
      "ĠrÃ©ponse": 2272,
      "less": 2273,
      "Ġdream": 2274,
      "Ġmen": 2275,
      "Ġmoin": 2276,
      "onnes": 2277,
      "ĠfrÃ¨re": 2278,
      "Ġinterest": 2279,
      "set": 2280,
      "Ġdrive": 2281,
      "Ġmor": 2282,
      "Ġfar": 2283,
      "Ġnear": 2284,
      "uth": 2285,
      "Which": 2286,
      "Ġpartie": 2287,
      "Ġaband": 2288,
      "Everything": 2289,
      "Ġnouvelle": 2290,
      "Ġsenti": 2291,
      "ĠdÃ©cid": 2292,
      "Ġliked": 2293,
      "oking": 2294,
      "Ġmourir": 2295,
      "Ġsus": 2296,
      "Ġsad": 2297,
      "Ġfen": 2298,
      "Ġfas": 2299,
      "Ġtogether": 2300,
      "Ġgen": 2301,
      "Ġsuiv": 2302,
      "ĠprÃªte": 2303,
      "ĠÃ©tions": 2304,
      "peau": 2305,
      "rendre": 2306,
      "Ġresp": 2307,
      "Ġprix": 2308,
      "ĠoccupÃ©e": 2309,
      "Ġsortir": 2310,
      "Put": 2311,
      "Ġcet": 2312,
      "Ġnerve": 2313,
      "Ġfit": 2314,
      "temps": 2315,
      "irÃ©": 2316,
      "Ġsty": 2317,
      "Ġesc": 2318,
      "Ġsurprised": 2319,
      "Ġquelques": 2320,
      "Ġtennis": 2321,
      "ĠÃ©tudi": 2322,
      "ĠvÃ©ritÃ©": 2323,
      "lent": 2324,
      "lic": 2325,
      "ĠsÅĵur": 2326,
      "Ġfree": 2327,
      "ĠbÃ©": 2328,
      "Ġjoin": 2329,
      "aven": 2330,
      "Ġabs": 2331,
      "Ġclose": 2332,
      "Ġtonight": 2333,
      "Ġarrived": 2334,
      "Ġaucun": 2335,
      "ĠoubliÃ©": 2336,
      "ĠintÃ©ress": 2337,
      "ger": 2338,
      "Ġtick": 2339,
      "Ġtax": 2340,
      "ĠprÃ©p": 2341,
      "Ġpleure": 2342,
      "Ãīc": 2343,
      "Ġchercher": 2344,
      "Ġcertain": 2345,
      "Peut": 2346,
      "Ġmil": 2347,
      "itu": 2348,
      "Ã¨g": 2349,
      "ĠÃ©tais": 2350,
      "ustr": 2351,
      "Ġworry": 2352,
      "Ġaucune": 2353,
      "Ġchaud": 2354,
      "Votre": 2355,
      "Ġother": 2356,
      "Ġmight": 2357,
      "mell": 2358,
      "ĠparlÃ©": 2359,
      "Ġneeds": 2360,
      "Ġchemin": 2361,
      "Ġhurry": 2362,
      "ize": 2363,
      "Ġafter": 2364,
      "Ġensemble": 2365,
      "Ġguys": 2366,
      "ear": 2367,
      "lt": 2368,
      "pit": 2369,
      "Ġate": 2370,
      "onde": 2371,
      "Ġlater": 2372,
      "ĠcÃ´": 2373,
      "aite": 2374,
      "Ġfeu": 2375,
      "Ġhon": 2376,
      "Ġtow": 2377,
      "Ġgens": 2378,
      "irai": 2379,
      "Ġstand": 2380,
      "Ġjeune": 2381,
      "Ġupset": 2382,
      "Ġworks": 2383,
      "riture": 2384,
      "Ġthings": 2385,
      "Voici": 2386,
      "Ġforgot": 2387,
      "Ġconduire": 2388,
      "ling": 2389,
      "Ġleur": 2390,
      "Ġbat": 2391,
      "ĠprÃ©s": 2392,
      "igne": 2393,
      "Ġmarcher": 2394,
      "Ġattention": 2395,
      "Ġnormal": 2396,
      "Ġfils": 2397,
      "Ġvin": 2398,
      "arge": 2399,
      "Ġelle": 2400,
      "Ġinter": 2401,
      "ĠÃ©tiez": 2402,
      "Ġneeded": 2403,
      "Ġrentre": 2404,
      "Ġpeople": 2405,
      "Ġmistake": 2406,
      "Not": 2407,
      "Son": 2408,
      "aw": 2409,
      "ding": 2410,
      "mÃªme": 2411,
      "ĠÅĵ": 2412,
      "Ġsong": 2413,
      "Ġsmell": 2414,
      "owe": 2415,
      "Ġstory": 2416,
      "Ġtouch": 2417,
      "Ġpied": 2418,
      "Ġessayer": 2419,
      "Ġmusic": 2420,
      "Ġcorrect": 2421,
      "ip": 2422,
      "ations": 2423,
      "Ġtruth": 2424,
      "Ġbelle": 2425,
      "Ġforc": 2426,
      "cial": 2427,
      "Ġprison": 2428,
      "Ġfaute": 2429,
      "Ġperdre": 2430,
      "Ġtomber": 2431,
      "rn": 2432,
      "ron": 2433,
      "Ġfine": 2434,
      "ateur": 2435,
      "Ġcond": 2436,
      "Ã§u": 2437,
      "Ġdrunk": 2438,
      "Ġattend": 2439,
      "Ġeveryone": 2440,
      "Ġcount": 2441,
      "Ġchapeau": 2442,
      "Ġenvie": 2443,
      "Ġnourriture": 2444,
      "Donnez": 2445,
      "Ex": 2446,
      "Ġdinner": 2447,
      "Ġpan": 2448,
      "Ġble": 2449,
      "Ġville": 2450,
      "ours": 2451,
      "alent": 2452,
      "Ġprod": 2453,
      "Ġarm": 2454,
      "Mary": 2455,
      "Ġterrible": 2456,
      "Ġguess": 2457,
      "Ġfamille": 2458,
      "ĠaimÃ©": 2459,
      "riÃ¨re": 2460,
      "Ġsuc": 2461,
      "Ġtriste": 2462,
      "ages": 2463,
      "chez": 2464,
      "Ġfell": 2465,
      "Ġfinished": 2466,
      "Ġassis": 2467,
      "Essay": 2468,
      "ĠappelÃ©": 2469,
      "fore": 2470,
      "ĠdÃ®": 2471,
      "Ġfire": 2472,
      "ĠgÃ¢": 2473,
      "Ġbefore": 2474,
      "Ġplait": 2475,
      "ige": 2476,
      "Ġshot": 2477,
      "Ġcompte": 2478,
      "Ġsmart": 2479,
      "Ġbehind": 2480,
      "Ġnervous": 2481,
      "Viens": 2482,
      "hab": 2483,
      "rant": 2484,
      "insi": 2485,
      "Ġvoulons": 2486,
      "ĠmÃ©de": 2487,
      "Ġsurprise": 2488,
      "Ġexplain": 2489,
      "Ġsour": 2490,
      "Ġfool": 2491,
      "Ġbab": 2492,
      "Ġvit": 2493,
      "ettes": 2494,
      "ague": 2495,
      "Ġrire": 2496,
      "toire": 2497,
      "Ġpatient": 2498,
      "ĠderniÃ¨re": 2499,
      "oisson": 2500,
      "ĠcÃ´tÃ©": 2501,
      "Ġban": 2502,
      "ience": 2503,
      "These": 2504,
      "Ġesp": 2505,
      "Ġadm": 2506,
      "Ġjoue": 2507,
      "Ġregarder": 2508,
      "Ġpolice": 2509,
      "Ġgentil": 2510,
      "ĠcommencÃ©": 2511,
      "Ġintelligent": 2512,
      "Ġmilk": 2513,
      "cu": 2514,
      "Ġ1": 2515,
      "Ã©d": 2516,
      "Ġwine": 2517,
      "Ġred": 2518,
      "elui": 2519,
      "Ġconse": 2520,
      "Ġcru": 2521,
      "roit": 2522,
      "ables": 2523,
      "Ġregarde": 2524,
      "Ġtrying": 2525,
      "Ġprem": 2526,
      "Ġmissed": 2527,
      "Ġfamily": 2528,
      "Ġclean": 2529,
      "Ġmusique": 2530,
      "Ġsounds": 2531,
      "Ġsymp": 2532,
      "Ġtype": 2533,
      "Aren": 2534,
      "Mont": 2535,
      "em": 2536,
      "loi": 2537,
      "rite": 2538,
      "ĠS": 2539,
      "Ġtim": 2540,
      "Ġdonner": 2541,
      "Ġlu": 2542,
      "omm": 2543,
      "Ġfav": 2544,
      "Ġfum": 2545,
      "Ġexpect": 2546,
      "airs": 2547,
      "Ġsame": 2548,
      "Ġreste": 2549,
      "Ġjusqu": 2550,
      "Ġwrite": 2551,
      "Ġdispose": 2552,
      "Ġaccept": 2553,
      "Ġmauvaise": 2554,
      "Ġsuppose": 2555,
      "Ġcuri": 2556,
      "Ġdormir": 2557,
      "ĠÃ¢ge": 2558,
      "Ġfavor": 2559,
      "Fer": 2560,
      "Ġainsi": 2561,
      "Ġsister": 2562,
      "Ġmakes": 2563,
      "Ġfish": 2564,
      "Ġbill": 2565,
      "Ġviend": 2566,
      "arrÃªt": 2567,
      "ĠrÃ©s": 2568,
      "Ġamb": 2569,
      "Ġcomprends": 2570,
      "ĠdrÃ´le": 2571,
      "ĠconnaÃ®t": 2572,
      "Ġrapidement": 2573,
      "Ġquickly": 2574,
      "ia": 2575,
      "ĠC": 2576,
      "Ġouv": 2577,
      "Ġrob": 2578,
      "Ġrich": 2579,
      "ĠÃ©ch": 2580,
      "Leave": 2581,
      "Ġentrer": 2582,
      "Ġcourt": 2583,
      "venu": 2584,
      "Ġjours": 2585,
      "Ġfoot": 2586,
      "Ãīt": 2587,
      "ĠarrÃªtÃ©": 2588,
      "Ġchildren": 2589,
      "ĠJap": 2590,
      "Ġdifferent": 2591,
      "Ġdeb": 2592,
      "Ġsuch": 2593,
      "ĠrÃ¨g": 2594,
      "Ġchiens": 2595,
      "Ġchanger": 2596,
      "Ġteach": 2597,
      "Ġallons": 2598,
      "ortez": 2599,
      "tÃ©ri": 2600,
      "Ġouvert": 2601,
      "Ġcalme": 2602,
      "Ġenseign": 2603,
      "Ferme": 2604,
      "Ai": 2605,
      "onque": 2606,
      "Ġfier": 2607,
      "Ġbure": 2608,
      "Ġboire": 2609,
      "Ġwrit": 2610,
      "ict": 2611,
      "Ġferais": 2612,
      "ĠsÃ»re": 2613,
      "Ġfault": 2614,
      "ĠchangÃ©": 2615,
      "ĠderriÃ¨re": 2616,
      "Ġsnow": 2617,
      "Ġmovie": 2618,
      "Ġbaby": 2619,
      "Ġbureau": 2620,
      "ving": 2621,
      "oute": 2622,
      "Ġlait": 2623,
      "lex": 2624,
      "Ġleg": 2625,
      "antes": 2626,
      "Ġrare": 2627,
      "ical": 2628,
      "Ġseat": 2629,
      "Ġdiffic": 2630,
      "Ġpizz": 2631,
      "Ġconnaiss": 2632,
      "Allons": 2633,
      "Ġstrong": 2634,
      "Ġargent": 2635,
      "tÃ©rieur": 2636,
      "30": 2637,
      "ib": 2638,
      "ock": 2639,
      "Ġdonn": 2640,
      "ano": 2641,
      "Ġvac": 2642,
      "Ġgre": 2643,
      "Ġsuper": 2644,
      "orth": 2645,
      "Ġdevriez": 2646,
      "asses": 2647,
      "Ġbrother": 2648,
      "ĠÃ©crit": 2649,
      "Dem": 2650,
      "Ġsimple": 2651,
      "Ġutilis": 2652,
      "avantage": 2653,
      "Mes": 2654,
      "bas": 2655,
      "ĠÂ": 2656,
      "Ġpaid": 2657,
      "Ġdep": 2658,
      "Ġjoke": 2659,
      "Ġenn": 2660,
      "Ġradi": 2661,
      "Ġinqui": 2662,
      "Ãªcher": 2663,
      "Ġpeuvent": 2664,
      "Ġexact": 2665,
      "Ġfeeling": 2666,
      "Ġferai": 2667,
      "Ġsmall": 2668,
      "Ġstopped": 2669,
      "ĠfenÃªtre": 2670,
      "Ġtaxi": 2671,
      "Dites": 2672,
      "Garde": 2673,
      "ered": 2674,
      "fer": 2675,
      "rons": 2676,
      "Ġdavantage": 2677,
      "atch": 2678,
      "ork": 2679,
      "Ġtrave": 2680,
      "agÃ©": 2681,
      "ules": 2682,
      "Ġreading": 2683,
      "Ġpayer": 2684,
      "Ġbox": 2685,
      "Bring": 2686,
      "Wait": 2687,
      "ni": 2688,
      "viens": 2689,
      "Ġsous": 2690,
      "aille": 2691,
      "Ġgame": 2692,
      "Ġwear": 2693,
      "Ġpourrais": 2694,
      "Ġart": 2695,
      "Ġchev": 2696,
      "Ġhistoire": 2697,
      "Ġwaiting": 2698,
      "nes": 2699,
      "Ġste": 2700,
      "Ġpic": 2701,
      "Ġbar": 2702,
      "ush": 2703,
      "Ġopt": 2704,
      "Ġriche": 2705,
      "Ġsix": 2706,
      "Ġcours": 2707,
      "Ġprends": 2708,
      "Ġmenti": 2709,
      "Ġpetite": 2710,
      "Ġmontre": 2711,
      "Ġdemander": 2712,
      "Regardez": 2713,
      "Ton": 2714,
      "Ġface": 2715,
      "Ġfired": 2716,
      "Ġhaven": 2717,
      "Ġtru": 2718,
      "aurais": 2719,
      "amment": 2720,
      "Ġworried": 2721,
      "ĠcomplÃ¨": 2722,
      "Ġmains": 2723,
      "Ġeating": 2724,
      "Maybe": 2725,
      "Show": 2726,
      "Ġmeilleur": 2727,
      "Ġchaussures": 2728,
      "ĠmÃ©decin": 2729,
      "Now": 2730,
      "Tous": 2731,
      "Ġsave": 2732,
      "aissez": 2733,
      "Turn": 2734,
      "Ġamou": 2735,
      "Ã§ons": 2736,
      "ĠdÃ©solÃ©": 2737,
      "Ġshoes": 2738,
      "Ġimm": 2739,
      "Ġembarrass": 2740,
      "Ġprudent": 2741,
      "Ġbecame": 2742,
      "Ġpizza": 2743,
      "Ġradio": 2744,
      "Lis": 2745,
      "Venez": 2746,
      "rÃ©e": 2747,
      "Ġsoi": 2748,
      "iner": 2749,
      "Ġbois": 2750,
      "Ġchans": 2751,
      "ĠÃ©tr": 2752,
      "Ġweird": 2753,
      "oyÃ©": 2754,
      "ĠapprÃ©ci": 2755,
      "ĠclÃ©": 2756,
      "Ġmanque": 2757,
      "Ġcost": 2758,
      "Ġsomeone": 2759,
      "Ġeverybody": 2760,
      "Ġnouvelles": 2761,
      "Ġplein": 2762,
      "Ġhandle": 2763,
      "Ġmove": 2764,
      "Ġreconn": 2765,
      "ĠgagnÃ©": 2766,
      "Ġski": 2767,
      "Ġfonctionne": 2768,
      "ĠcomplÃ¨tement": 2769,
      "tte": 2770,
      "lly": 2771,
      "Ġtot": 2772,
      "Ġtheir": 2773,
      "Ġinst": 2774,
      "ĠprÃ¨s": 2775,
      "irt": 2776,
      "Whose": 2777,
      "ortÃ©": 2778,
      "Ġshort": 2779,
      "Ġfrapp": 2780,
      "Ġamie": 2781,
      "Ġadore": 2782,
      "Ġplaying": 2783,
      "ized": 2784,
      "Sais": 2785,
      "iers": 2786,
      "vision": 2787,
      "yer": 2788,
      "Ġpen": 2789,
      "omas": 2790,
      "anqu": 2791,
      "ĠfÃªte": 2792,
      "Ġwom": 2793,
      "Ġthose": 2794,
      "Thomas": 2795,
      "Ġshut": 2796,
      "Ġdevrait": 2797,
      "Ġdevrions": 2798,
      "ances": 2799,
      "Ġdispos": 2800,
      "by": 2801,
      "euse": 2802,
      "Ġill": 2803,
      "Ġowe": 2804,
      "Ġlum": 2805,
      "Ġcoin": 2806,
      "Ġfair": 2807,
      "eure": 2808,
      "Ġplu": 2809,
      "Ġlives": 2810,
      "Ġarriver": 2811,
      "Ġpiano": 2812,
      "Ġsavons": 2813,
      "Ġdogs": 2814,
      "Ġhorrible": 2815,
      "Ġslow": 2816,
      "Ġrentrer": 2817,
      "where": 2818,
      "ĠcÅĵur": 2819,
      "Ġfont": 2820,
      "Ġfight": 2821,
      "Ġvont": 2822,
      "Ġdeal": 2823,
      "Ġleaving": 2824,
      "Ġchoc": 2825,
      "ains": 2826,
      "amp": 2827,
      "resse": 2828,
      "ressi": 2829,
      "Ġfew": 2830,
      "ĠmarchÃ©": 2831,
      "Ġimpat": 2832,
      "Ġlonger": 2833,
      "Monday": 2834,
      "Ġpouvais": 2835,
      "ĠrÃ©pond": 2836,
      "Ġrepos": 2837,
      "Ġlaisser": 2838,
      "ĠvolÃ©": 2839,
      "Ġtrouble": 2840,
      "Ġwatching": 2841,
      "Ġsuffis": 2842,
      "Ġcrying": 2843,
      "ras": 2844,
      "Ġ2": 2845,
      "Ġlying": 2846,
      "Ġvoud": 2847,
      "Ã¨me": 2848,
      "Ceci": 2849,
      "ettez": 2850,
      "Ġattrap": 2851,
      "Ġseulement": 2852,
      "Ġpeine": 2853,
      "Ġborn": 2854,
      "Ġpleurer": 2855,
      "ĠlumiÃ¨re": 2856,
      "Une": 2857,
      "gu": 2858,
      "Ġdark": 2859,
      "ĠcÃ©": 2860,
      "Ġcool": 2861,
      "ari": 2862,
      "Ġgri": 2863,
      "lect": 2864,
      "Ġsujet": 2865,
      "Ġtromp": 2866,
      "Ġheart": 2867,
      "iconque": 2868,
      "illÃ©": 2869,
      "urg": 2870,
      "ablement": 2871,
      "Ġdisapp": 2872,
      "Ã»t": 2873,
      "Ġsouh": 2874,
      "Ġpasser": 2875,
      "ĠregardÃ©": 2876,
      "ĠbÃ©bÃ©": 2877,
      "Our": 2878,
      "Ã©v": 2879,
      "Ġcas": 2880,
      "Ġcous": 2881,
      "Ġfa": 2882,
      "Help": 2883,
      "Ġteam": 2884,
      "Isn": 2885,
      "Ġoblig": 2886,
      "attend": 2887,
      "Ġapolog": 2888,
      "Ġwalked": 2889,
      "Ġaffaires": 2890,
      "Someone": 2891,
      "ĠdÃ®ner": 2892,
      "lait": 2893,
      "roy": 2894,
      "Ġtas": 2895,
      "Ġsold": 2896,
      "atement": 2897,
      "Ġparty": 2898,
      "Ġdanser": 2899,
      "ormais": 2900,
      "Ġrent": 2901,
      "Ġarrive": 2902,
      "Ġsmil": 2903,
      "Ġsport": 2904,
      "ĠfatiguÃ©e": 2905,
      "mÃ©di": 2906,
      "exp": 2907,
      "Ġrunning": 2908,
      "Ġstupide": 2909,
      "Ġcalm": 2910,
      "Ġdormi": 2911,
      "Ġrisk": 2912,
      "Ġparfait": 2913,
      "Ġkilled": 2914,
      "Ġkeys": 2915,
      "ĠcassÃ©": 2916,
      "Ġinform": 2917,
      "Sa": 2918,
      "Ta": 2919,
      "fÃ¨re": 2920,
      "ĠMonday": 2921,
      "Ġpoisson": 2922,
      "iness": 2923,
      "Ġfus": 2924,
      "Ġwake": 2925,
      "ature": 2926,
      "Ġgun": 2927,
      "cep": 2928,
      "pping": 2929,
      "Ġanim": 2930,
      "Ġavoc": 2931,
      "ards": 2932,
      "olÃ©e": 2933,
      "Ġalive": 2934,
      "Ġloved": 2935,
      "Ġbras": 2936,
      "Ġferm": 2937,
      "Ġcommence": 2938,
      "Ġnombre": 2939,
      "ĠarrÃªter": 2940,
      "Ġroute": 2941,
      "Essaie": 2942,
      "ĠsÃ©rieux": 2943,
      "ustral": 2944,
      "Ġutiliser": 2945,
      "Call": 2946,
      "Me": 2947,
      "dd": 2948,
      "ded": 2949,
      "ĠCh": 2950,
      "Ġloin": 2951,
      "head": 2952,
      "Ġvide": 2953,
      "cell": 2954,
      "Ġeng": 2955,
      "Ã¨ve": 2956,
      "Ġchois": 2957,
      "appelle": 2958,
      "Ġchem": 2959,
      "Ġblague": 2960,
      "umÃ©": 2961,
      "Ġlongtemps": 2962,
      "ĠprÃ©fÃ¨re": 2963,
      "ĠrÃ©parer": 2964,
      "Ġkidding": 2965,
      "Ġclear": 2966,
      "ĠimmÃ©di": 2967,
      "Ġembrass": 2968,
      "Ġpropos": 2969,
      "Ġprofess": 2970,
      "Ġdevenu": 2971,
      "ctu": 2972,
      "flÃ©": 2973,
      "ken": 2974,
      "man": 2975,
      "Ġtre": 2976,
      "Ġsun": 2977,
      "Ġbur": 2978,
      "leep": 2979,
      "idence": 2980,
      "Ġlibre": 2981,
      "stairs": 2982,
      "ensive": 2983,
      "importe": 2984,
      "Ġcroire": 2985,
      "Ġcoat": 2986,
      "ĠdÃ©sormais": 2987,
      "Ġbegan": 2988,
      "ĠÃ©galement": 2989,
      "pital": 2990,
      "ĠrÃ¨gles": 2991,
      "ove": 2992,
      "rÃ©s": 2993,
      "Ġtalent": 2994,
      "Ġsoup": 2995,
      "issez": 2996,
      "ason": 2997,
      "arÃ©": 2998,
      "riend": 2999,
      "antÃ©": 3000,
      "Ġrules": 3001,
      "Ġtemp": 3002,
      "ieuse": 3003,
      "ĠdÃ©f": 3004,
      "Pourrais": 3005,
      "aken": 3006,
      "Ġmanteau": 3007,
      "Ġress": 3008,
      "Ġcourant": 3009,
      "Ġsmoke": 3010,
      "ĠboÃ®": 3011,
      "Ġpromis": 3012,
      "Ġamusant": 3013,
      "Ġcommencer": 3014,
      "Suis": 3015,
      "cs": 3016,
      "Ġallez": 3017,
      "Ġdance": 3018,
      "Ġboss": 3019,
      "usÃ©": 3020,
      "Ġsugg": 3021,
      "ided": 3022,
      "Ġnote": 3023,
      "irer": 3024,
      "ither": 3025,
      "Ġmarche": 3026,
      "Ġdites": 3027,
      "Ġarriv": 3028,
      "Ġsecond": 3029,
      "Ġinvited": 3030,
      "Ġinside": 3031,
      "Ġlundi": 3032,
      "Ġchats": 3033,
      "quipe": 3034,
      "Ġendroit": 3035,
      "lax": 3036,
      "Ġeffray": 3037,
      "Any": 3038,
      "Som": 3039,
      "emb": 3040,
      "Ġtaking": 3041,
      "Ġsavez": 3042,
      "issi": 3043,
      "ative": 3044,
      "alous": 3045,
      "Ġasleep": 3046,
      "Ġride": 3047,
      "ĠtuÃ©": 3048,
      "Ġworked": 3049,
      "Ġcontre": 3050,
      "Ġcarte": 3051,
      "Ġresse": 3052,
      "Ġinvit": 3053,
      "Ġremar": 3054,
      "Ġrencontrer": 3055,
      "ĠprÃ©sent": 3056,
      "ĠgÃ¢teau": 3057,
      "Ġdifficult": 3058,
      "Ġexactly": 3059,
      "Ġimpatient": 3060,
      "ĠimmÃ©diatement": 3061,
      "fu": 3062,
      "Ġpun": 3063,
      "Ġna": 3064,
      "ouss": 3065,
      "Ġhigh": 3066,
      "Ġdel": 3067,
      "Ġbel": 3068,
      "uts": 3069,
      "Ġappris": 3070,
      "Ġsouci": 3071,
      "Ġcommand": 3072,
      "ĠpayÃ©": 3073,
      "ugg": 3074,
      "Ġbroken": 3075,
      "Ġclosed": 3076,
      "Ġchanson": 3077,
      "Rien": 3078,
      "gne": 3079,
      "sy": 3080,
      "Ġz": 3081,
      "Ġpick": 3082,
      "oned": 3083,
      "ĠlÃ©g": 3084,
      "Ġlaisse": 3085,
      "Ġve": 3086,
      "tely": 3087,
      "oose": 3088,
      "Ġpark": 3089,
      "Ġcheck": 3090,
      "Ġobject": 3091,
      "Ġempty": 3092,
      "Ġsouviens": 3093,
      "Ġrouge": 3094,
      "Ġlearn": 3095,
      "Ġtown": 3096,
      "Ġcheval": 3097,
      "Sont": 3098,
      "Watch": 3099,
      "ump": 3100,
      "ĠEn": 3101,
      "Ġtent": 3102,
      "Ġmens": 3103,
      "Ġmign": 3104,
      "Ġcake": 3105,
      "Ġcade": 3106,
      "Ġbreat": 3107,
      "Ġquand": 3108,
      "Ġrelax": 3109,
      "Ġsucc": 3110,
      "Ã¨ne": 3111,
      "rente": 3112,
      "Ġweather": 3113,
      "Ġserv": 3114,
      "ĠmaniÃ¨re": 3115,
      "Ġcolle": 3116,
      "Ġbruit": 3117,
      "Ġsouff": 3118,
      "Ġadvice": 3119,
      "Ġspoke": 3120,
      "Ġactu": 3121,
      "Ġinterested": 3122,
      "anquille": 3123,
      "Aimes": 3124,
      "In": 3125,
      "Ret": 3126,
      "Se": 3127,
      "Ġdress": 3128,
      "Ġfant": 3129,
      "Ġbout": 3130,
      "Ġveu": 3131,
      "Ġhaving": 3132,
      "Ġform": 3133,
      "Ġrespect": 3134,
      "ĠprÃ©fÃ©": 3135,
      "Ġvoulait": 3136,
      "Ġcuisine": 3137,
      "ĠdÃ©missi": 3138,
      "Ġstylo": 3139,
      "flÃ©ch": 3140,
      "iment": 3141,
      "reed": 3142,
      "Ġdont": 3143,
      "inue": 3144,
      "ased": 3145,
      "Ġfour": 3146,
      "Ġval": 3147,
      "Ġsuit": 3148,
      "olu": 3149,
      "oyer": 3150,
      "tendez": 3151,
      "Ġwithout": 3152,
      "Ġhelped": 3153,
      "Ġimpressi": 3154,
      "Ġlettre": 3155,
      "Ġslept": 3156,
      "ĠdÃ©cision": 3157,
      "Ġstudent": 3158,
      "Ġmentir": 3159,
      "Ġfull": 3160,
      "ĠÃ©tudier": 3161,
      "Auc": 3162,
      "Ġvoyage": 3163,
      "Ġlaughing": 3164,
      "Ġwonderful": 3165,
      "Savez": 3166,
      "inÃ©": 3167,
      "Ġnois": 3168,
      "any": 3169,
      "aint": 3170,
      "Ġavant": 3171,
      "Ġappro": 3172,
      "Ġproch": 3173,
      "Ã¢che": 3174,
      "Ġwaited": 3175,
      "Ġopin": 3176,
      "ĠtÃ©lÃ©vision": 3177,
      "Ġprep": 3178,
      "Ġprefer": 3179,
      "Ġmettre": 3180,
      "Ġticket": 3181,
      "Ġfumer": 3182,
      "arrÃªter": 3183,
      "Ġdebout": 3184,
      "cer": 3185,
      "ze": 3186,
      "Ã§a": 3187,
      "Ġset": 3188,
      "Ġden": 3189,
      "Ġmer": 3190,
      "Ġfilles": 3191,
      "Ġworth": 3192,
      "ots": 3193,
      "ĠreÃ§u": 3194,
      "Ã©tÃ©": 3195,
      "Ġgolf": 3196,
      "amour": 3197,
      "ution": 3198,
      "Comme": 3199,
      "ĠclÃ©s": 3200,
      "Ġentendre": 3201,
      "Ã¢mes": 3202,
      "Ġjourn": 3203,
      "others": 3204,
      "ĠpensÃ©": 3205,
      "Ġletter": 3206,
      "Ġaccident": 3207,
      "ĠrencontrÃ©": 3208,
      "Ġconcer": 3209,
      "Ġbegin": 3210,
      "ĠrÃªve": 3211,
      "Ġlawyer": 3212,
      "Ġmoins": 3213,
      "Nothing": 3214,
      "ĠEngl": 3215,
      "fort": 3216,
      "iques": 3217,
      "lais": 3218,
      "Ġtree": 3219,
      "reuse": 3220,
      "Ġahead": 3221,
      "Ġdate": 3222,
      "Ġdaught": 3223,
      "Ġcess": 3224,
      "Ġbas": 3225,
      "Ġball": 3226,
      "Ġgif": 3227,
      "user": 3228,
      "ower": 3229,
      "tur": 3230,
      "dered": 3231,
      "Ġexac": 3232,
      "imez": 3233,
      "Ġdevoir": 3234,
      "Ġador": 3235,
      "Ġseconde": 3236,
      "ĠmÃ©rit": 3237,
      "Ġmatin": 3238,
      "Ġmatter": 3239,
      "Ġstrange": 3240,
      "Ġhorse": 3241,
      "Ġplaisir": 3242,
      "ĠboÃ®te": 3243,
      "DÃ©s": 3244,
      "Has": 3245,
      "Make": 3246,
      "Notre": 3247,
      "dess": 3248,
      "ps": 3249,
      "Ġsang": 3250,
      "Ġpou": 3251,
      "enci": 3252,
      "Ġmerve": 3253,
      "anche": 3254,
      "Ġgas": 3255,
      "eler": 3256,
      "ira": 3257,
      "Ġavais": 3258,
      "Ġcompris": 3259,
      "Ġperm": 3260,
      "Ġcourir": 3261,
      "Ġdrinking": 3262,
      "Ġautres": 3263,
      "Ġdecided": 3264,
      "Des": 3265,
      "aff": 3266,
      "ape": 3267,
      "elez": 3268,
      "ghed": 3269,
      "hi": 3270,
      "ionn": 3271,
      "umb": 3272,
      "ĠD": 3273,
      "Ġmien": 3274,
      "Ġcre": 3275,
      "Ġcup": 3276,
      "Ġnoir": 3277,
      "Ġsell": 3278,
      "Ġstar": 3279,
      "aked": 3280,
      "Ġapple": 3281,
      "Ġbrave": 3282,
      "Ġoffer": 3283,
      "Ġexpensive": 3284,
      "Ġordin": 3285,
      "Ġdessus": 3286,
      "ĠcoÃ»te": 3287,
      "Ġmorning": 3288,
      "Ġpremier": 3289,
      "Ġopinion": 3290,
      "ĠEnglish": 3291,
      "Si": 3292,
      "af": 3293,
      "jou": 3294,
      "Ġcelui": 3295,
      "Ġbonnes": 3296,
      "Ġyear": 3297,
      "entends": 3298,
      "entendre": 3299,
      "ings": 3300,
      "Ġrais": 3301,
      "Ġinj": 3302,
      "aged": 3303,
      "ured": 3304,
      "Ġjealous": 3305,
      "Ġsale": 3306,
      "Ġclass": 3307,
      "Ġblack": 3308,
      "Ġwhen": 3309,
      "Ġpleuv": 3310,
      "Ġassist": 3311,
      "Ġcute": 3312,
      "ĠcontinuÃ©": 3313,
      "Ġbike": 3314,
      "Ġsweet": 3315,
      "Ġnerveux": 3316,
      "ĠJapan": 3317,
      "Ġvoudrais": 3318,
      "Aimez": 3319,
      "blie": 3320,
      "work": 3321,
      "Ġpress": 3322,
      "Ġfis": 3323,
      "Ġbal": 3324,
      "Ġhy": 3325,
      "Ġhonn": 3326,
      "Ġhaut": 3327,
      "Ġgiv": 3328,
      "Ġneige": 3329,
      "Ġthen": 3330,
      "Ġeach": 3331,
      "ĠdÃ©g": 3332,
      "Ġvers": 3333,
      "Ġfruit": 3334,
      "Ġhimself": 3335,
      "Ġcompl": 3336,
      "Ġtoilet": 3337,
      "ĠmanquÃ©": 3338,
      "ably": 3339,
      "ignor": 3340,
      "Ġstayed": 3341,
      "ĠprÃªts": 3342,
      "Ġsinging": 3343,
      "Ġconcent": 3344,
      "Ġminut": 3345,
      "Ġcadeau": 3346,
      "Ġveulent": 3347,
      "Ġjournal": 3348,
      "Pas": 3349,
      "bres": 3350,
      "ule": 3351,
      "Ġignore": 3352,
      "Ġsense": 3353,
      "Ġlist": 3354,
      "Ġcut": 3355,
      "inqui": 3356,
      "aitement": 3357,
      "Ġvot": 3358,
      "Ġsuite": 3359,
      "Ġjeu": 3360,
      "Ġjol": 3361,
      "Ġind": 3362,
      "als": 3363,
      "ĠprÃªtes": 3364,
      "Ġsole": 3365,
      "orter": 3366,
      "Ġarme": 3367,
      "istic": 3368,
      "Ġpleur": 3369,
      "Ġseemed": 3370,
      "Ġscream": 3371,
      "Ġaimes": 3372,
      "Ġincroy": 3373,
      "Ġhates": 3374,
      "Ġsurviv": 3375,
      "Ġchemise": 3376,
      "Something": 3377,
      "Ġexactement": 3378,
      "Cl": 3379,
      "oubl": 3380,
      "Ġtant": 3381,
      "reci": 3382,
      "intÃ©rieur": 3383,
      "Ġyell": 3384,
      "Ġlied": 3385,
      "Ġsoin": 3386,
      "ored": 3387,
      "Ġshirt": 3388,
      "Ġexcell": 3389,
      "Ġprobablement": 3390,
      "ĠdÃ©solÃ©e": 3391,
      "Dev": 3392,
      "Ġvieille": 3393,
      "Ġexcit": 3394,
      "Ġexcuses": 3395,
      "Ġpropre": 3396,
      "Ġsolution": 3397,
      "Ġtravers": 3398,
      "Ġannoy": 3399,
      "Her": 3400,
      "iel": 3401,
      "rist": 3402,
      "Ġdure": 3403,
      "Ġdeath": 3404,
      "Ġdoll": 3405,
      "Ġpard": 3406,
      "iller": 3407,
      "Ġridic": 3408,
      "ouvons": 3409,
      "Ġdist": 3410,
      "Ġrendu": 3411,
      "Should": 3412,
      "Ġmagas": 3413,
      "ĠrÃ©veillÃ©": 3414,
      "Ġhonest": 3415,
      "Ġpicture": 3416,
      "Ġwoman": 3417,
      "Ġdisappoin": 3418,
      "Ġavocat": 3419,
      "Ġsoleil": 3420,
      "Mets": 3421,
      "bed": 3422,
      "ivers": 3423,
      "oux": 3424,
      "Ġpai": 3425,
      "Ġlon": 3426,
      "Ġmod": 3427,
      "Ġmaking": 3428,
      "ĠnÃ©c": 3429,
      "Ġvent": 3430,
      "Ġhors": 3431,
      "Ġreason": 3432,
      "Ġtrans": 3433,
      "Ġjet": 3434,
      "Ġjal": 3435,
      "Ã©tud": 3436,
      "Ġthank": 3437,
      "Ġrat": 3438,
      "alth": 3439,
      "Ġprot": 3440,
      "ained": 3441,
      "Ġparviens": 3442,
      "apon": 3443,
      "Ġappreci": 3444,
      "Ask": 3445,
      "Ġwhile": 3446,
      "Ġterrif": 3447,
      "ounded": 3448,
      "Ġacheter": 3449,
      "Ġwarned": 3450,
      "leurs": 3451,
      "Ġproduit": 3452,
      "Ġrarement": 3453,
      "Ġchocol": 3454,
      "fully": 3455,
      "Ġprepared": 3456,
      "ĠnÃ©cess": 3457,
      "Main": 3458,
      "Ou": 3459,
      "Te": 3460,
      "cie": 3461,
      "come": 3462,
      "occup": 3463,
      "ĠCan": 3464,
      "Ġsand": 3465,
      "Ġdange": 3466,
      "Ġdanc": 3467,
      "Ġpomme": 3468,
      "Ġliste": 3469,
      "Ġmed": 3470,
      "Ġnai": 3471,
      "Ġnos": 3472,
      "Ġhid": 3473,
      "Ġtranquille": 3474,
      "apprÃ©ci": 3475,
      "Ġext": 3476,
      "tenu": 3477,
      "Ġage": 3478,
      "Ġbusiness": 3479,
      "ĠrestÃ©": 3480,
      "ĠprÃ©v": 3481,
      "Ġdirect": 3482,
      "Ġouver": 3483,
      "Ġstudying": 3484,
      "otect": 3485,
      "Ġendorm": 3486,
      "Ġdecision": 3487,
      "Ġvivre": 3488,
      "Ġrevoir": 3489,
      "Ġsatisfait": 3490,
      "ĠdÃ©range": 3491,
      "Attends": 3492,
      "Ġcruel": 3493,
      "Et": 3494,
      "Pe": 3495,
      "cÃ©": 3496,
      "dy": 3497,
      "nif": 3498,
      "run": 3499,
      "Ã«": 3500,
      "ouÃ©": 3501,
      "Ġaup": 3502,
      "Ġbath": 3503,
      "Ġdeep": 3504,
      "owed": 3505,
      "Ġrum": 3506,
      "Ġchante": 3507,
      "Ġinn": 3508,
      "Ġdeserve": 3509,
      "Pourriez": 3510,
      "Ġtough": 3511,
      "Ġtalked": 3512,
      "Ġprobably": 3513,
      "Ġpouvoir": 3514,
      "ĠvÃ©rif": 3515,
      "Ġdoub": 3516,
      "Attendez": 3517,
      "Aujourd": 3518,
      "Ġviol": 3519,
      "ĠdÃ©cidÃ©": 3520,
      "Ġfootball": 3521,
      "Ġwriting": 3522,
      "Demande": 3523,
      "Ġprofesseur": 3524,
      "Ġlonely": 3525,
      "Maintenant": 3526,
      "Pouvons": 3527,
      "mment": 3528,
      "uve": 3529,
      "Ġair": 3530,
      "ĠsÃ©": 3531,
      "esome": 3532,
      "Ġpommes": 3533,
      "Ġlang": 3534,
      "Ġem": 3535,
      "Ġchair": 3536,
      "Ġliar": 3537,
      "aller": 3538,
      "Ġamies": 3539,
      "onge": 3540,
      "Ġhappens": 3541,
      "Ġfermer": 3542,
      "othes": 3543,
      "Ġcatch": 3544,
      "Ġsleeping": 3545,
      "Ġrefuse": 3546,
      "Faisons": 3547,
      "Ġgrosse": 3548,
      "ĠtombÃ©": 3549,
      "Ġdangerous": 3550,
      "ĠgÃ©ni": 3551,
      "Ġdaughter": 3552,
      "Ġappreciate": 3553,
      "ĠnÃ©cessaire": 3554,
      "Hold": 3555,
      "Ouv": 3556,
      "raÃ®": 3557,
      "zy": 3558,
      "Ã©n": 3559,
      "aim": 3560,
      "Ġrac": 3561,
      "iche": 3562,
      "amed": 3563,
      "Ġsomme": 3564,
      "Ġalong": 3565,
      "ĠÃ©te": 3566,
      "Ġdix": 3567,
      "Ġserait": 3568,
      "Ġblame": 3569,
      "Ġdrank": 3570,
      "Ġoffice": 3571,
      "Quelque": 3572,
      "Ġcourse": 3573,
      "Ġsays": 3574,
      "venir": 3575,
      "Ġspeaks": 3576,
      "anceux": 3577,
      "Ġwarm": 3578,
      "Ġlaughed": 3579,
      "VoilÃł": 3580,
      "Ġconvain": 3581,
      "Essayez": 3582,
      "ĠÂ»": 3583,
      "Ġtravel": 3584,
      "Ġminutes": 3585,
      "00": 3586,
      "ieu": 3587,
      "ward": 3588,
      "ĠM": 3589,
      "Ġeux": 3590,
      "ened": 3591,
      "Ġnuts": 3592,
      "Ġbate": 3593,
      "Ġbother": 3594,
      "ettre": 3595,
      "Ġrequ": 3596,
      "Ġremer": 3597,
      "Ġrom": 3598,
      "Ġegg": 3599,
      "Ġcharg": 3600,
      "adm": 3601,
      "irez": 3602,
      "Ġgrave": 3603,
      "Ġcomputer": 3604,
      "ĠmariÃ©": 3605,
      "Ġshouldn": 3606,
      "liquÃ©": 3607,
      "Ġfaisons": 3608,
      "Ġcourage": 3609,
      "Ġwouldn": 3610,
      "Ġlunettes": 3611,
      "Ġvisit": 3612,
      "ails": 3613,
      "Ġmeeting": 3614,
      "Ġplaisant": 3615,
      "Ġdroit": 3616,
      "Ġmagnif": 3617,
      "Ġennuy": 3618,
      "Ġbelong": 3619,
      "dessus": 3620,
      "Ġnaive": 3621,
      "For": 3622,
      "Sorry": 3623,
      "br": 3624,
      "ber": 3625,
      "pl": 3626,
      "uge": 3627,
      "ĠtirÃ©": 3628,
      "inst": 3629,
      "Ġvote": 3630,
      "ics": 3631,
      "Ġprotect": 3632,
      "Ġexam": 3633,
      "Ġgrow": 3634,
      "Ġcomple": 3635,
      "Ġcontente": 3636,
      "Ġentre": 3637,
      "Ġcommen": 3638,
      "Ã´tre": 3639,
      "ĠspÃ©": 3640,
      "ĠoccupÃ©s": 3641,
      "Ġguil": 3642,
      "ĠAustral": 3643,
      "ĠÅĵil": 3644,
      "Ġpieds": 3645,
      "Ġambit": 3646,
      "ĠrÃ©pondre": 3647,
      "Ġinnoc": 3648,
      "Ġbateau": 3649,
      "Ses": 3650,
      "Ġurg": 3651,
      "Ġdut": 3652,
      "endez": 3653,
      "Ġlos": 3654,
      "Ġlarge": 3655,
      "Ġmord": 3656,
      "Ġcoo": 3657,
      "Ġborrow": 3658,
      "arri": 3659,
      "Ġguit": 3660,
      "Ġneuf": 3661,
      "rig": 3662,
      "owers": 3663,
      "idÃ©": 3664,
      "ceed": 3665,
      "ili": 3666,
      "Ġsel": 3667,
      "eless": 3668,
      "Quit": 3669,
      "Quiconque": 3670,
      "Those": 3671,
      "Ġtuer": 3672,
      "Ġusu": 3673,
      "areil": 3674,
      "ĠrÃ©ussi": 3675,
      "Ġdiv": 3676,
      "Ġclothes": 3677,
      "Ġservice": 3678,
      "Ġbrought": 3679,
      "NoÃ«": 3680,
      "Ġsmoking": 3681,
      "ĠÃ©crire": 3682,
      "Ġpatron": 3683,
      "Ġmatch": 3684,
      "Appelle": 3685,
      "ĠapprÃ©ciÃ©": 3686,
      "Ġsuggest": 3687,
      "NoÃ«l": 3688,
      "aque": 3689,
      "ront": 3690,
      "Ġtasse": 3691,
      "Ġpant": 3692,
      "erv": 3693,
      "ĠfiÃ¨re": 3694,
      "ĠfÃ¢": 3695,
      "Ġgam": 3696,
      "Ġjoking": 3697,
      "Ġdos": 3698,
      "Ġrather": 3699,
      "Ġparlez": 3700,
      "mpl": 3701,
      "ĠÃ©quipe": 3702,
      "ĠrÃ©g": 3703,
      "Ġserais": 3704,
      "Ġmarrant": 3705,
      "Ġblind": 3706,
      "ĠbrÃ»": 3707,
      "Ġentend": 3708,
      "Ġadd": 3709,
      "liquer": 3710,
      "venue": 3711,
      "Rem": 3712,
      "ĠÃ©cl": 3713,
      "Ġsemblez": 3714,
      "Ġexcuse": 3715,
      "Ġexcited": 3716,
      "attendre": 3717,
      "Ġdouleur": 3718,
      "Ġcats": 3719,
      "Ġquestions": 3720,
      "Ġawesome": 3721,
      "Ġmeilleure": 3722,
      "Ġviande": 3723,
      "itude": 3724,
      "Exc": 3725,
      "Montre": 3726,
      "ĠÃ©trange": 3727,
      "ĠfaÃ§on": 3728,
      "ĠnaÃ¯": 3729,
      "Ġdisappointed": 3730,
      "Ġsommeil": 3731,
      "ever": 3732,
      "fast": 3733,
      "not": 3734,
      "nie": 3735,
      "Ġsoul": 3736,
      "Ġdressed": 3737,
      "enn": 3738,
      "Ġmur": 3739,
      "arter": 3740,
      "Ġlazy": 3741,
      "Ġcho": 3742,
      "ĠgoÃ»t": 3743,
      "Ġdesc": 3744,
      "Ġupstairs": 3745,
      "ĠrÃ©flÃ©ch": 3746,
      "ĠrÃ©jou": 3747,
      "Ġcompter": 3748,
      "Ġagreed": 3749,
      "Ġattendu": 3750,
      "Ġstuff": 3751,
      "Ġdays": 3752,
      "ĠÃ©cout": 3753,
      "ĠaidÃ©": 3754,
      "asseoir": 3755,
      "ogn": 3756,
      "Ġhurts": 3757,
      "Ġfollowed": 3758,
      "ĠdiffÃ©rent": 3759,
      "Ġfascin": 3760,
      "See": 3761,
      "Ġpleuvoir": 3762,
      "ĠhonnÃªte": 3763,
      "Ġouverte": 3764,
      "Av": 3765,
      "Cet": 3766,
      "Mettez": 3767,
      "ĠG": 3768,
      "Ġ30": 3769,
      "Ġding": 3770,
      "Ġmit": 3771,
      "ane": 3772,
      "Ġfore": 3773,
      "Ġbot": 3774,
      "Ġvend": 3775,
      "atique": 3776,
      "Ġhold": 3777,
      "Ġelles": 3778,
      "Ġchaise": 3779,
      "alf": 3780,
      "onna": 3781,
      "rence": 3782,
      "ossible": 3783,
      "ĠÃ©v": 3784,
      "Ġstudents": 3785,
      "Ġshower": 3786,
      "Ġrisque": 3787,
      "Ġhabit": 3788,
      "Ġrespons": 3789,
      "Ġsuffisamment": 3790,
      "Ġservi": 3791,
      "Ġordinateur": 3792,
      "Ġdangereux": 3793,
      "Sors": 3794,
      "Sortez": 3795,
      "Tod": 3796,
      "bat": 3797,
      "cess": 3798,
      "lves": 3799,
      "oÃ¹": 3800,
      "so": 3801,
      "oupe": 3802,
      "Ġtaille": 3803,
      "rell": 3804,
      "Ġpop": 3805,
      "Ġloud": 3806,
      "Ġmour": 3807,
      "ately": 3808,
      "quez": 3809,
      "Ġmeat": 3810,
      "idi": 3811,
      "Ã¨de": 3812,
      "Ġeither": 3813,
      "oof": 3814,
      "illÃ©e": 3815,
      "usted": 3816,
      "ongÃ©": 3817,
      "nem": 3818,
      "Ġcoll": 3819,
      "Ġfaisait": 3820,
      "ĠfermÃ©": 3821,
      "lfriend": 3822,
      "Ġcouteau": 3823,
      "Read": 3824,
      "ĠdÃ©test": 3825,
      "Ġconfused": 3826,
      "Ġroad": 3827,
      "essayer": 3828,
      "Ġorder": 3829,
      "Ġfaux": 3830,
      "Ġemploi": 3831,
      "Ġemprun": 3832,
      "Ġsorti": 3833,
      "Ġsleepy": 3834,
      "Ġgirlfriend": 3835,
      "Ġcamera": 3836,
      "Ġtrip": 3837,
      "Ġrappelle": 3838,
      "Ġdernier": 3839,
      "Ġboring": 3840,
      "Ġfaster": 3841,
      "Ġabsolu": 3842,
      "Ġcountry": 3843,
      "Ġespoir": 3844,
      "Ġtotally": 3845,
      "Ġnoise": 3846,
      "Ġmagasin": 3847,
      "Ġmagnifique": 3848,
      "Today": 3849,
      "Al": 3850,
      "cte": 3851,
      "homme": 3852,
      "ises": 3853,
      "ines": 3854,
      "Ġflo": 3855,
      "Ġfleurs": 3856,
      "Ġbase": 3857,
      "Ġwel": 3858,
      "Ġwall": 3859,
      "Ġhour": 3860,
      "enty": 3861,
      "ourv": 3862,
      "Ġjump": 3863,
      "Ġrav": 3864,
      "Ġchou": 3865,
      "ĠprÃ©c": 3866,
      "Ġplans": 3867,
      "Ġparap": 3868,
      "Ġparole": 3869,
      "renons": 3870,
      "avait": 3871,
      "Ġcand": 3872,
      "urance": 3873,
      "Ġdesk": 3874,
      "Ġexh": 3875,
      "enses": 3876,
      "Ġfear": 3877,
      "ĠrÃ©uss": 3878,
      "ĠapportÃ©": 3879,
      "Ġago": 3880,
      "Ġattent": 3881,
      "Ġsourire": 3882,
      "Ġprice": 3883,
      "Ġfinally": 3884,
      "Ġspecial": 3885,
      "Ġvenue": 3886,
      "Ġpenses": 3887,
      "Ġguerre": 3888,
      "Ġdouche": 3889,
      "Ġshocked": 3890,
      "ĠdÃ©pourv": 3891,
      "Shut": 3892,
      "oids": 3893,
      "Ġnumber": 3894,
      "ĠÃ©tudiant": 3895,
      "Ġvacances": 3896,
      "Ġsouhaite": 3897,
      "Aucun": 3898,
      "Ġguilty": 3899,
      "Conn": 3900,
      "Dr": 3901,
      "If": 3902,
      "Passe": 3903,
      "So": 3904,
      "mas": 3905,
      "pen": 3906,
      "uct": 3907,
      "Ġignor": 3908,
      "Ġtrente": 3909,
      "Ġdict": 3910,
      "Ġpur": 3911,
      "enf": 3912,
      "Ġloup": 3913,
      "Ġfact": 3914,
      "lled": 3915,
      "Ġbored": 3916,
      "Ġvaut": 3917,
      "quÃ©e": 3918,
      "aravant": 3919,
      "ushed": 3920,
      "ett": 3921,
      "Ġenem": 3922,
      "Ġcomes": 3923,
      "endant": 3924,
      "Ġalso": 3925,
      "ivement": 3926,
      "Toutes": 3927,
      "Ġblue": 3928,
      "Ġimpossible": 3929,
      "ives": 3930,
      "Ġglasses": 3931,
      "Ġterre": 3932,
      "Ġspeaking": 3933,
      "Ġboat": 3934,
      "Ġpromise": 3935,
      "Ġparfaitement": 3936,
      "Ġgirls": 3937,
      "Ġbreakfast": 3938,
      "ufs": 3939,
      "Ġsusp": 3940,
      "Ġbattre": 3941,
      "Ġrobe": 3942,
      "Ġamoureux": 3943,
      "ristmas": 3944,
      "Good": 3945,
      "Pr": 3946,
      "ced": 3947,
      "ef": 3948,
      "ears": 3949,
      "lui": 3950,
      "port": 3951,
      "ys": 3952,
      "Ġumb": 3953,
      "Ġtest": 3954,
      "Ġtight": 3955,
      "Ġlente": 3956,
      "Ġmir": 3957,
      "Ġceux": 3958,
      "itch": 3959,
      "unes": 3960,
      "Ġgarde": 3961,
      "lev": 3962,
      "Ġnet": 3963,
      "ider": 3964,
      "selves": 3965,
      "Ã©ter": 3966,
      "Ġthirst": 3967,
      "Ġprin": 3968,
      "oph": 3969,
      "Ġriv": 3970,
      "ĠrÃ©un": 3971,
      "Ġapprendre": 3972,
      "âĢī": 3973,
      "artient": 3974,
      "Ġprog": 3975,
      "Ġbetray": 3976,
      "Ġobtenu": 3977,
      "Ġseuls": 3978,
      "Ġmontrer": 3979,
      "Ġsuppos": 3980,
      "Ġpolite": 3981,
      "Ġacting": 3982,
      "Ġprofond": 3983,
      "Ġsilent": 3984,
      "Ġdirty": 3985,
      "Ġpapier": 3986,
      "Ġlistening": 3987,
      "Continu": 3988,
      "Ġsaved": 3989,
      "dedans": 3990,
      "Close": 3991,
      "Ġauparavant": 3992,
      "Ġduty": 3993,
      "Ġumbrell": 3994,
      "dÃ©": 3995,
      "Ġtire": 3996,
      "Ġpenc": 3997,
      "Ġpsy": 3998,
      "Ġcard": 3999,
      "Ġbank": 4000,
      "Ġhalf": 4001,
      "Ġnez": 4002,
      "etimes": 4003,
      "rice": 4004,
      "Ġlever": 4005,
      "Ġlim": 4006,
      "Ġpars": 4007,
      "amb": 4008,
      "Ġasse": 4009,
      "Ġcray": 4010,
      "Ġcomprendre": 4011,
      "Ġclasse": 4012,
      "Ġwrote": 4013,
      "Ġhardly": 4014,
      "Ġrecogn": 4015,
      "Ġclever": 4016,
      "Ġdiscuter": 4017,
      "Ġvoyager": 4018,
      "Ġpaper": 4019,
      "Ġgarder": 4020,
      "Ġmoindre": 4021,
      "Ġsucceed": 4022,
      "Ġsympa": 4023,
      "Ġfantast": 4024,
      "Ġinnocent": 4025,
      "Jou": 4026,
      "Life": 4027,
      "Write": 4028,
      "band": 4029,
      "ey": 4030,
      "ges": 4031,
      "lin": 4032,
      "lons": 4033,
      "pir": 4034,
      "til": 4035,
      "vis": 4036,
      "wich": 4037,
      "reet": 4038,
      "Ġdent": 4039,
      "Ġpower": 4040,
      "Ġmienne": 4041,
      "erais": 4042,
      "Ġfre": 4043,
      "Ġbons": 4044,
      "Ġwoke": 4045,
      "Ġhos": 4046,
      "iles": 4047,
      "Ġplenty": 4048,
      "Ġnotes": 4049,
      "ĠallÃ©e": 4050,
      "Ġallum": 4051,
      "urry": 4052,
      "Ġknife": 4053,
      "Ã¨res": 4054,
      "cier": 4055,
      "icious": 4056,
      "Comm": 4057,
      "Ġamaz": 4058,
      "ĠÃ©lÃ©": 4059,
      "Ġsaoul": 4060,
      "Ġdisg": 4061,
      "roche": 4062,
      "Ġcontact": 4063,
      "Ġsaying": 4064,
      "Ġpays": 4065,
      "Ġobs": 4066,
      "Ġposs": 4067,
      "Ġrecomm": 4068,
      "Ġchaque": 4069,
      "Ġaccep": 4070,
      "ĠenvoyÃ©": 4071,
      "Ġtrusted": 4072,
      "Ġshowed": 4073,
      "Ġmotiv": 4074,
      "Ġraining": 4075,
      "Ġprudente": 4076,
      "Ġutile": 4077,
      "Somebody": 4078,
      "Ġsignif": 4079,
      "Ġkissed": 4080,
      "Ġtimide": 4081,
      "Ġouvrir": 4082,
      "Ġgift": 4083,
      "Ġsandwich": 4084,
      "Ġcompletely": 4085,
      "Ġdivor": 4086,
      "Ġthirsty": 4087,
      "Ġhospital": 4088,
      "Avec": 4089,
      "Both": 4090,
      "Fin": 4091,
      "Open": 4092,
      "Pense": 4093,
      "ming": 4094,
      "oche": 4095,
      "ub": 4096,
      "uite": 4097,
      "Ġothers": 4098,
      "ĠsantÃ©": 4099,
      "Ġdoi": 4100,
      "Ġmout": 4101,
      "Ġmoy": 4102,
      "Ã©ch": 4103,
      "Ġcried": 4104,
      "Ġciel": 4105,
      "aig": 4106,
      "Ġfly": 4107,
      "Ġbaiss": 4108,
      "Ġbird": 4109,
      "ates": 4110,
      "quel": 4111,
      "Ġneigh": 4112,
      "Ġmeant": 4113,
      "Ã©tr": 4114,
      "Hey": 4115,
      "Ġstol": 4116,
      "Ġstole": 4117,
      "Ġcancer": 4118,
      "acle": 4119,
      "oyons": 4120,
      "ĠÃ©ner": 4121,
      "Ġbring": 4122,
      "Ġfera": 4123,
      "Ġcoupable": 4124,
      "Ġours": 4125,
      "Ġvolont": 4126,
      "Ġboug": 4127,
      "Ġeye": 4128,
      "ĠgÃ©nÃ©": 4129,
      "Ġsilenci": 4130,
      "Ġvoix": 4131,
      "Ġconvinc": 4132,
      "Ġwearing": 4133,
      "Ġsoif": 4134,
      "Ġtastes": 4135,
      "Ġressemble": 4136,
      "DÃ©solÃ©": 4137,
      "Ġexha": 4138,
      "ĠrÃ©union": 4139,
      "Ġneighb": 4140,
      "Ġstolen": 4141,
      "Ġsilencieux": 4142,
      "Pl": 4143,
      "Say": 4144,
      "nent": 4145,
      "Ġable": 4146,
      "Ġloi": 4147,
      "Ġcach": 4148,
      "ĠnÃ©": 4149,
      "ĠnumÃ©": 4150,
      "ash": 4151,
      "Ġba": 4152,
      "Ġhommes": 4153,
      "tel": 4154,
      "Ġwaste": 4155,
      "Ġplain": 4156,
      "ĠdÃ©l": 4157,
      "apped": 4158,
      "essaie": 4159,
      "Ġavaient": 4160,
      "osez": 4161,
      "Marie": 4162,
      "Ġdevant": 4163,
      "Ġcheap": 4164,
      "ĠrÃ©c": 4165,
      "Ġappar": 4166,
      "Ġdraw": 4167,
      "Ġimpressed": 4168,
      "fecti": 4169,
      "Ġeaten": 4170,
      "Ġsmarter": 4171,
      "ĠoccupÃ©es": 4172,
      "Ġrock": 4173,
      "Ġcarefully": 4174,
      "Ġfamous": 4175,
      "Ġvisite": 4176,
      "Ġaffaire": 4177,
      "iendrai": 4178,
      "Ġportes": 4179,
      "Parlez": 4180,
      "Ġcooking": 4181,
      "luie": 4182,
      "Continue": 4183,
      "Ġdriving": 4184,
      "Montrez": 4185,
      "Ġcurious": 4186,
      "ĠattrapÃ©": 4187,
      "embrass": 4188,
      "ĠcommandÃ©": 4189,
      "ĠJapanese": 4190,
      "ĠgÃ©nial": 4191,
      "Ġparapluie": 4192,
      "Ġlentement": 4193,
      "ĠnumÃ©ro": 4194,
      "gan": 4195,
      "hÃ´": 4196,
      "Ġdort": 4197,
      "Ã©li": 4198,
      "lli": 4199,
      "Ġbatt": 4200,
      "Ġgau": 4201,
      "oie": 4202,
      "Ġring": 4203,
      "Ġchar": 4204,
      "chÃ©e": 4205,
      "alitÃ©": 4206,
      "Ġlieu": 4207,
      "ications": 4208,
      "Ġstun": 4209,
      "Ġforme": 4210,
      "Ġriver": 4211,
      "Ġvraie": 4212,
      "Ġheureuses": 4213,
      "dule": 4214,
      "Ġwatched": 4215,
      "Ġsavait": 4216,
      "Ġglass": 4217,
      "Ġflu": 4218,
      "Ġflowers": 4219,
      "Ġpause": 4220,
      "Ġvolun": 4221,
      "Ġopened": 4222,
      "Ġenjoyed": 4223,
      "Ġfallait": 4224,
      "Ġaurais": 4225,
      "ĠprÃ©parÃ©": 4226,
      "Ġbreath": 4227,
      "Ġactuelle": 4228,
      "Ġcomplain": 4229,
      "Ġincroyable": 4230,
      "Ġeggs": 4231,
      "Ġplaisanter": 4232,
      "ĠspÃ©cial": 4233,
      "Ġumbrella": 4234,
      "Ġconvinced": 4235,
      "Bien": 4236,
      "Che": 4237,
      "DÃ©": 4238,
      "Oh": 4239,
      "Per": 4240,
      "RÃ©": 4241,
      "Tiens": 4242,
      "gar": 4243,
      "oublie": 4244,
      "Ġsigne": 4245,
      "Ġpot": 4246,
      "Ġpouss": 4247,
      "Ġlaissez": 4248,
      "Ġcow": 4249,
      "Ġnose": 4250,
      "aimes": 4251,
      "Ġbain": 4252,
      "Ġwet": 4253,
      "Ġunique": 4254,
      "Ġoise": 4255,
      "Ã¨v": 4256,
      "Ã¨ge": 4257,
      "Ġram": 4258,
      "Ġbeach": 4259,
      "Ġlac": 4260,
      "Ġcharge": 4261,
      "Ġhealth": 4262,
      "Ġplage": 4263,
      "cient": 4264,
      "Ġshy": 4265,
      "Ġpartout": 4266,
      "Didn": 4267,
      "Ãªtements": 4268,
      "Ã¢t": 4269,
      "Ġpouvait": 4270,
      "Ġfolle": 4271,
      "Ġorange": 4272,
      "Ġordered": 4273,
      "Ġcause": 4274,
      "ĠinvitÃ©": 4275,
      "ĠtravaillÃ©": 4276,
      "Ġrefused": 4277,
      "Ġpromen": 4278,
      "ĠdÃ©pri": 4279,
      "Ġconsc": 4280,
      "Ġsitu": 4281,
      "Ġappeler": 4282,
      "Ġhotel": 4283,
      "Ġsilence": 4284,
      "Ġsatisfied": 4285,
      "Ġsembles": 4286,
      "Ġsemblait": 4287,
      "Ġfavorite": 4288,
      "Fermez": 4289,
      "Ġdonna": 4290,
      "Ġprochaine": 4291,
      "Ġexcellent": 4292,
      "People": 4293,
      "Ġusually": 4294,
      "ĠrÃ©jouis": 4295,
      "Ġemprunter": 4296,
      "gment": 4297,
      "ract": 4298,
      "Ġiv": 4299,
      "Ġprenez": 4300,
      "Ġfile": 4301,
      "ĠvÃªtements": 4302,
      "Ġharm": 4303,
      "Ġdet": 4304,
      "orme": 4305,
      "rib": 4306,
      "ric": 4307,
      "Ġrel": 4308,
      "aveur": 4309,
      "Ġthir": 4310,
      "Ġev": 4311,
      "Ġwash": 4312,
      "Ġcombien": 4313,
      "Ġstore": 4314,
      "ended": 4315,
      "Ġextre": 4316,
      "obile": 4317,
      "Ġchef": 4318,
      "Ġcrav": 4319,
      "acked": 4320,
      "Ġmanquer": 4321,
      "Ġsouri": 4322,
      "Ġsoupe": 4323,
      "icked": 4324,
      "iÃ¨rement": 4325,
      "Ġdoute": 4326,
      "Ġideas": 4327,
      "Ġdispar": 4328,
      "Ġmath": 4329,
      "Ġfuri": 4330,
      "Ġawake": 4331,
      "ĠtÃ©lÃ©phon": 4332,
      "Ġbicyclette": 4333,
      "Ġinteresting": 4334,
      "ĠintÃ©ressant": 4335,
      "Ġassistance": 4336,
      "ĠrÃ©flÃ©chir": 4337,
      "Ġchouette": 4338,
      "ĠriviÃ¨re": 4339,
      "Continuez": 4340,
      "Ġpsych": 4341,
      "Ġamazing": 4342,
      "Ġextreme": 4343,
      "Pard": 4344,
      "Tes": 4345,
      "Vas": 4346,
      "co": 4347,
      "lau": 4348,
      "rÃ©es": 4349,
      "ste": 4350,
      "uie": 4351,
      "Ġtend": 4352,
      "Ġsend": 4353,
      "Ġline": 4354,
      "Ġmorte": 4355,
      "ĠnÃ©g": 4356,
      "Ġfond": 4357,
      "quent": 4358,
      "Ġopp": 4359,
      "Ġens": 4360,
      "ĠallÃ©s": 4361,
      "Ġstri": 4362,
      "Ġcannot": 4363,
      "Ġvert": 4364,
      "ulous": 4365,
      "Ġcheer": 4366,
      "ifs": 4367,
      "room": 4368,
      "Ã®mes": 4369,
      "ĠprÃ©ci": 4370,
      "Ġcoucher": 4371,
      "Ġbelieved": 4372,
      "Ġmissing": 4373,
      "ĠgarÃ§ons": 4374,
      "Ġshopping": 4375,
      "exc": 4376,
      "ĠÃ©puis": 4377,
      "Ġdecide": 4378,
      "Ġcamp": 4379,
      "Ġsuffit": 4380,
      "Ġruin": 4381,
      "Ġsuspect": 4382,
      "Ġescape": 4383,
      "Ġsucre": 4384,
      "Ġconseils": 4385,
      "Ġslowly": 4386,
      "Ġcousin": 4387,
      "Ġapologize": 4388,
      "Ġsmiled": 4389,
      "Ġchoisi": 4390,
      "Ġsuccess": 4391,
      "Ġimpressionn": 4392,
      "Ġaddress": 4393,
      "cessary": 4394,
      "Ġfloor": 4395,
      "Ġbetrayed": 4396,
      "Ġpencil": 4397,
      "Ġsituation": 4398,
      "nez": 4399,
      "rat": 4400,
      "ton": 4401,
      "uff": 4402,
      "Ġice": 4403,
      "ĠNoÃ«l": 4404,
      "outez": 4405,
      "Ġtie": 4406,
      "Ġbord": 4407,
      "vel": 4408,
      "itive": 4409,
      "Ġhide": 4410,
      "Ġrece": 4411,
      "Ġsub": 4412,
      "idez": 4413,
      "Ġbeat": 4414,
      "Ġheav": 4415,
      "Ġseld": 4416,
      "Ġprit": 4417,
      "ĠannÃ©e": 4418,
      "Ġavis": 4419,
      "resh": 4420,
      "Never": 4421,
      "Ġworse": 4422,
      "Ġconfecti": 4423,
      "apÃ©": 4424,
      "Ġappareil": 4425,
      "Ġcompag": 4426,
      "Ġprove": 4427,
      "ĠentiÃ¨rement": 4428,
      "Ġhomework": 4429,
      "Ġsoucie": 4430,
      "Ġsentez": 4431,
      "Ġobey": 4432,
      "Ġrends": 4433,
      "ellerai": 4434,
      "Ġinvol": 4435,
      "Ġgrossi": 4436,
      "Ġskin": 4437,
      "Ġcolor": 4438,
      "Ġwarn": 4439,
      "Ġgentille": 4440,
      "Ġexplos": 4441,
      "Ġawful": 4442,
      "Ġcrime": 4443,
      "Ġlearned": 4444,
      "Ġnearly": 4445,
      "Ġescap": 4446,
      "Ġsmells": 4447,
      "Ġbanan": 4448,
      "Ġreposer": 4449,
      "Ġressent": 4450,
      "Ġdevoirs": 4451,
      "Ġjolie": 4452,
      "Ġjaloux": 4453,
      "Ġextra": 4454,
      "ĠcommenÃ§a": 4455,
      "arriver": 4456,
      "Ġbaseball": 4457,
      "Ġcrayon": 4458,
      "Ġexhausted": 4459,
      "Ġvolunte": 4460,
      "Ġseldom": 4461,
      "Gr": 4462,
      "cidence": 4463,
      "uer": 4464,
      "vious": 4465,
      "Ġsinc": 4466,
      "Ġpendant": 4467,
      "Ġlent": 4468,
      "het": 4469,
      "Ġfan": 4470,
      "ĠvÃ´tre": 4471,
      "ĠhÃ´": 4472,
      "rivez": 4473,
      "Well": 4474,
      "iced": 4475,
      "Ġparc": 4476,
      "agin": 4477,
      "Ġstation": 4478,
      "Ġcelle": 4479,
      "Ġavions": 4480,
      "Ġshar": 4481,
      "Ġship": 4482,
      "Ġlog": 4483,
      "ĠÃ©m": 4484,
      "Ġfeet": 4485,
      "Ġhelping": 4486,
      "rog": 4487,
      "Ã©cout": 4488,
      "Ġsmile": 4489,
      "Ġsavent": 4490,
      "Ġconfident": 4491,
      "Åĵil": 4492,
      "Ġflat": 4493,
      "Ġsupport": 4494,
      "Ġplaisante": 4495,
      "Ġcertaine": 4496,
      "Cessez": 4497,
      "ĠÃ¢g": 4498,
      "Ġsuivi": 4499,
      "Ġadmit": 4500,
      "Ġconseil": 4501,
      "Ġinquiet": 4502,
      "Ġsmiling": 4503,
      "ĠremarquÃ©": 4504,
      "inquiÃ¨te": 4505,
      "ĠCanadi": 4506,
      "Ġpantal": 4507,
      "Ġpopul": 4508,
      "Ġwelcome": 4509,
      "Ġcravate": 4510,
      "Cr": 4511,
      "Penses": 4512,
      "lace": 4513,
      "na": 4514,
      "esse": 4515,
      "Ġdest": 4516,
      "Ġdonne": 4517,
      "Ġpoi": 4518,
      "Ġpie": 4519,
      "Ġpire": 4520,
      "Ġpost": 4521,
      "Ã©rer": 4522,
      "Ġnature": 4523,
      "Ġfig": 4524,
      "Ġbour": 4525,
      "veille": 4526,
      "Ġhol": 4527,
      "Ġhired": 4528,
      "ĠlevÃ©": 4529,
      "Ġtrait": 4530,
      "Ġeffe": 4531,
      "Ġcharm": 4532,
      "chant": 4533,
      "Ġallowed": 4534,
      "Ġforte": 4535,
      "Ġash": 4536,
      "Ġrid": 4537,
      "ctob": 4538,
      "tenir": 4539,
      "ĠcrÃ©": 4540,
      "Ġcomprend": 4541,
      "Ġclim": 4542,
      "Ġmalad": 4543,
      "Ġfeels": 4544,
      "Ġseules": 4545,
      "Ġliving": 4546,
      "Ġwhite": 4547,
      "Ġfoc": 4548,
      "Ġfailed": 4549,
      "ĠproblÃ¨mes": 4550,
      "Ġfume": 4551,
      "Ġfurent": 4552,
      "Ġpresent": 4553,
      "Ġchauff": 4554,
      "Ġcontrari": 4555,
      "Ġhabitu": 4556,
      "ĠrÃ©pondu": 4557,
      "Ġmoving": 4558,
      "ĠdÃ©but": 4559,
      "Ġfallu": 4560,
      "Ġrude": 4561,
      "ĠÅĵufs": 4562,
      "ĠÂ«": 4563,
      "Gardez": 4564,
      "Listen": 4565,
      "Ġveget": 4566,
      "ĠdÃ©missionner": 4567,
      "Ġinjured": 4568,
      "ĠvÃ©rifier": 4569,
      "ĠAustralia": 4570,
      "Pensez": 4571,
      "Ġpantalon": 4572,
      "Aide": 4573,
      "Celui": 4574,
      "Eat": 4575,
      "Moi": 4576,
      "One": 4577,
      "fs": 4578,
      "ging": 4579,
      "plex": 4580,
      "Ġside": 4581,
      "Ġpage": 4582,
      "ĠmÃ©t": 4583,
      "Ġnons": 4584,
      "Ġnage": 4585,
      "Ġfaveur": 4586,
      "Ġyes": 4587,
      "iter": 4588,
      "Ġhus": 4589,
      "Ġhuge": 4590,
      "orn": 4591,
      "edi": 4592,
      "Ġunc": 4593,
      "Ġrej": 4594,
      "Ġtruck": 4595,
      "Ġjud": 4596,
      "Ġjapon": 4597,
      "Ġlaver": 4598,
      "Ġchoose": 4599,
      "Ġchanceux": 4600,
      "Ġparles": 4601,
      "illeux": 4602,
      "Ġstood": 4603,
      "Ġweak": 4604,
      "Ġgoes": 4605,
      "anges": 4606,
      "Ġrig": 4607,
      "appeler": 4608,
      "Ġshop": 4609,
      "raite": 4610,
      "Ġextr": 4611,
      "Ġsalle": 4612,
      "Ġapplau": 4613,
      "Ġperplex": 4614,
      "Ġhero": 4615,
      "Ġadv": 4616,
      "Ġrendez": 4617,
      "ĠpassÃ©e": 4618,
      "ĠprÃ©occup": 4619,
      "Ġcouleur": 4620,
      "Ġcalling": 4621,
      "Ġagainst": 4622,
      "Ġoui": 4623,
      "esprit": 4624,
      "Ġposte": 4625,
      "Ġdouble": 4626,
      "Chois": 4627,
      "Ġgars": 4628,
      "Ġshoot": 4629,
      "phone": 4630,
      "Ġaccord": 4631,
      "Ġsky": 4632,
      "Ġconcert": 4633,
      "ĠquittÃ©": 4634,
      "Ġcontinuer": 4635,
      "Ġcontrol": 4636,
      "Ġcuisiner": 4637,
      "Cesse": 4638,
      "ĠmariÃ©e": 4639,
      "ĠabandonnÃ©": 4640,
      "Ġgenre": 4641,
      "Ġexpecting": 4642,
      "Ġviendra": 4643,
      "Ġreconnaiss": 4644,
      "ĠfrappÃ©": 4645,
      "Ġpluie": 4646,
      "Ġmensonge": 4647,
      "Ġgasp": 4648,
      "Ġdancing": 4649,
      "Forget": 4650,
      "Ġdingue": 4651,
      "Ġinvolved": 4652,
      "Ġsharp": 4653,
      "Bon": 4654,
      "ares": 4655,
      "bel": 4656,
      "cul": 4657,
      "ged": 4658,
      "oque": 4659,
      "orent": 4660,
      "ual": 4661,
      "yons": 4662,
      "ĠR": 4663,
      "Ġer": 4664,
      "Ġug": 4665,
      "ouver": 4666,
      "rew": 4667,
      "Ġavert": 4668,
      "Ġdad": 4669,
      "Ġdim": 4670,
      "Ġpoids": 4671,
      "isc": 4672,
      "enir": 4673,
      "Ġmois": 4674,
      "Ġcer": 4675,
      "Ġcin": 4676,
      "Ġcity": 4677,
      "Ġbir": 4678,
      "Ġyears": 4679,
      "Ġhated": 4680,
      "ĠhÃ©r": 4681,
      "otion": 4682,
      "ourd": 4683,
      "iday": 4684,
      "ilitÃ©": 4685,
      "Ġras": 4686,
      "Ġchick": 4687,
      "tures": 4688,
      "ĠcanapÃ©": 4689,
      "aces": 4690,
      "Ġweren": 4691,
      "aman": 4692,
      "Think": 4693,
      "Things": 4694,
      "Dois": 4695,
      "anglais": 4696,
      "Ġsometimes": 4697,
      "Ġavance": 4698,
      "Ġworld": 4699,
      "ĠÃ©n": 4700,
      "Ġdistr": 4701,
      "Ġtouche": 4702,
      "Ġclair": 4703,
      "Ġferiez": 4704,
      "Ġfinish": 4705,
      "Ġlots": 4706,
      "Ġobvious": 4707,
      "ĠmÃ©rite": 4708,
      "attends": 4709,
      "Ġconnaissez": 4710,
      "ĠtombÃ©e": 4711,
      "Ġcontinued": 4712,
      "Ġswimming": 4713,
      "Disp": 4714,
      "Ġmistakes": 4715,
      "acheter": 4716,
      "Ġdropped": 4717,
      "Ġbrill": 4718,
      "ĠcassÃ©e": 4719,
      "Ġpoor": 4720,
      "Ġregrette": 4721,
      "Ġbanque": 4722,
      "Ġenseignant": 4723,
      "Ġoptim": 4724,
      "Retour": 4725,
      "Ġmedic": 4726,
      "Ġdoubt": 4727,
      "Ġromant": 4728,
      "Alors": 4729,
      "ĠpossÃ¨de": 4730,
      "Ġextremely": 4731,
      "Ġholiday": 4732,
      "Ġhusband": 4733,
      "Ġugly": 4734,
      "Ġbirth": 4735,
      "An": 4736,
      "Many": 4737,
      "Ser": 4738,
      "Sit": 4739,
      "Sur": 4740,
      "bes": 4741,
      "dition": 4742,
      "ilement": 4743,
      "nient": 4744,
      "ĠJe": 4745,
      "Ġeut": 4746,
      "Ġave": 4747,
      "Ġsorte": 4748,
      "onvÃ©": 4749,
      "Ġbark": 4750,
      "Ġvir": 4751,
      "Ġunf": 4752,
      "Ġmeans": 4753,
      "Ġrelie": 4754,
      "idÃ©e": 4755,
      "Ġrue": 4756,
      "aded": 4757,
      "irm": 4758,
      "acÃ©": 4759,
      "Ġweight": 4760,
      "amis": 4761,
      "Ġcelles": 4762,
      "Ġsocc": 4763,
      "Ġverrou": 4764,
      "appy": 4765,
      "Ġalors": 4766,
      "Ġgrat": 4767,
      "Ġgets": 4768,
      "Ġthinking": 4769,
      "aband": 4770,
      "ĠobÃ©": 4771,
      "ĠÃ©cole": 4772,
      "Ġplayed": 4773,
      "ĠmÃ©dic": 4774,
      "Ġautant": 4775,
      "Ġempl": 4776,
      "Ġsortie": 4777,
      "Ġincred": 4778,
      "Ġmorts": 4779,
      "iendra": 4780,
      "Ġdiscuss": 4781,
      "Ġmots": 4782,
      "Parle": 4783,
      "Ġcuisin": 4784,
      "Ġlights": 4785,
      "Ġtaller": 4786,
      "Ġcapable": 4787,
      "Ġsurvive": 4788,
      "Ġconduis": 4789,
      "Ġsympath": 4790,
      "ĠCD": 4791,
      "Ãītiez": 4792,
      "Ġgrew": 4793,
      "ĠcÃ©lÃ¨": 4794,
      "Ġmerveilleux": 4795,
      "Ġhyp": 4796,
      "Ġpaix": 4797,
      "instant": 4798,
      "ĠÃ©lÃ©g": 4799,
      "Ġmouth": 4800,
      "Ġballe": 4801,
      "Ġthirty": 4802,
      "Ġaveug": 4803,
      "onvÃ©nient": 4804,
      "Ġsoccer": 4805,
      "DÃ©p": 4806,
      "Eh": 4807,
      "Hurry": 4808,
      "Spe": 4809,
      "Tenez": 4810,
      "cut": 4811,
      "hist": 4812,
      "iÃ¨me": 4813,
      "ket": 4814,
      "oon": 4815,
      "rup": 4816,
      "ĠP": 4817,
      "Ġtien": 4818,
      "reur": 4819,
      "Ġast": 4820,
      "Ġsauv": 4821,
      "Ġdying": 4822,
      "iser": 4823,
      "Ġlou": 4824,
      "Ġmap": 4825,
      "aign": 4826,
      "Ġwise": 4827,
      "atur": 4828,
      "itable": 4829,
      "Ġunl": 4830,
      "Ġuntil": 4831,
      "Ġjard": 4832,
      "Ġennem": 4833,
      "Ġlift": 4834,
      "Ġprouver": 4835,
      "onnable": 4836,
      "Ġforce": 4837,
      "oles": 4838,
      "Ġarbre": 4839,
      "Ġarrest": 4840,
      "Ġfront": 4841,
      "Lequel": 4842,
      "Ġcloche": 4843,
      "Ġmalch": 4844,
      "Ġmalheure": 4845,
      "Ġattract": 4846,
      "Ġpleine": 4847,
      "Ġpenser": 4848,
      "Ġolder": 4849,
      "Ġmenteur": 4850,
      "Ġpreuve": 4851,
      "Ġlaisserai": 4852,
      "Ġvisage": 4853,
      "ĠrefusÃ©": 4854,
      "Ġapart": 4855,
      "Ġcherche": 4856,
      "extÃ©rieur": 4857,
      "Ġaccomp": 4858,
      "ĠrencontrÃ©s": 4859,
      "Ġfacilement": 4860,
      "Ġfemmes": 4861,
      "Ġexplications": 4862,
      "Ġwords": 4863,
      "Ġira": 4864,
      "Ġhonte": 4865,
      "Ġforced": 4866,
      "Ġbleed": 4867,
      "ĠÃ©chapp": 4868,
      "Ãītait": 4869,
      "ĠJapon": 4870,
      "Ġgreen": 4871,
      "Ġimmedi": 4872,
      "Ġnombreux": 4873,
      "Ġpromised": 4874,
      "Ġzoo": 4875,
      "Ġrelaxed": 4876,
      "Desc": 4877,
      "Ġannoying": 4878,
      "Ġdollars": 4879,
      "Ġlosing": 4880,
      "Ġattentivement": 4881,
      "Ġdoig": 4882,
      "Ã©chapp": 4883,
      "embrasser": 4884,
      "Ġivre": 4885,
      "ĠextrÃªme": 4886,
      "ĠcÃ©lÃ¨bre": 4887,
      "Hand": 4888,
      "Run": 4889,
      "Voud": 4890,
      "mm": 4891,
      "over": 4892,
      "ram": 4893,
      "ĠH": 4894,
      "Ġess": 4895,
      "Ġtaught": 4896,
      "Ġtaken": 4897,
      "Ġsout": 4898,
      "Ġsche": 4899,
      "Ġdents": 4900,
      "istes": 4901,
      "env": 4902,
      "enly": 4903,
      "Ġcig": 4904,
      "Ġcaut": 4905,
      "erous": 4906,
      "Ġnobody": 4907,
      "Ġfasse": 4908,
      "Ġbare": 4909,
      "Ġboit": 4910,
      "Ġbread": 4911,
      "Ġhop": 4912,
      "unday": 4913,
      "eds": 4914,
      "rier": 4915,
      "Ġlev": 4916,
      "Ã¨le": 4917,
      "Ġlived": 4918,
      "Ġself": 4919,
      "Ġtele": 4920,
      "iennent": 4921,
      "Ġnotice": 4922,
      "ageux": 4923,
      "angez": 4924,
      "Ġlock": 4925,
      "tern": 4926,
      "Comp": 4927,
      "ĠagrÃ©": 4928,
      "Ġserons": 4929,
      "Ġmarry": 4930,
      "Ġdrop": 4931,
      "issait": 4932,
      "Ġlongue": 4933,
      "Ġspl": 4934,
      "Ġprendrai": 4935,
      "Ġglace": 4936,
      "Entre": 4937,
      "Ġsentis": 4938,
      "Ġmesure": 4939,
      "Ġstaying": 4940,
      "Ġoldest": 4941,
      "Ġplane": 4942,
      "Ġreport": 4943,
      "Ġmention": 4944,
      "Ġfailli": 4945,
      "Ġgagne": 4946,
      "Ġcorde": 4947,
      "Ġfriendly": 4948,
      "Ġconstr": 4949,
      "Ġproblems": 4950,
      "Ġparfois": 4951,
      "Ġreviens": 4952,
      "Ġforgive": 4953,
      "Ġcrier": 4954,
      "Ġerreurs": 4955,
      "Ġretourner": 4956,
      "Ġargu": 4957,
      "Ġsembl": 4958,
      "Ġcloser": 4959,
      "ĠÃ©tudiants": 4960,
      "Ġabsent": 4961,
      "Ġlegs": 4962,
      "Ġembarrassed": 4963,
      "Ġcash": 4964,
      "Ġanimaux": 4965,
      "Ġmignon": 4966,
      "ĠsuccÃ¨s": 4967,
      "Ġcollege": 4968,
      "ĠratÃ©": 4969,
      "Ġremercier": 4970,
      "Excuse": 4971,
      "Check": 4972,
      "ĠhÃ©ros": 4973,
      "Ġjardin": 4974,
      "Bonne": 4975,
      "Ign": 4976,
      "ness": 4977,
      "uÃ©": 4978,
      "Ġdry": 4979,
      "ĠpÃ¢": 4980,
      "Ġpauv": 4981,
      "ĠlÃ¨ve": 4982,
      "omb": 4983,
      "ince": 4984,
      "inter": 4985,
      "anse": 4986,
      "Ġvus": 4987,
      "ĠhÃ¢": 4988,
      "Ġmec": 4989,
      "Ġsugar": 4990,
      "Ġthreat": 4991,
      "Ġracc": 4992,
      "chons": 4993,
      "icle": 4994,
      "Ġseated": 4995,
      "Ġserez": 4996,
      "Ġless": 4997,
      "usting": 4998,
      "Ġfaits": 4999,
      "Ġaviez": 5000,
      "Ġshare": 5001,
      "Ġaugment": 5002,
      "Ġdeser": 5003,
      "Ġlocked": 5004,
      "Ġdumb": 5005,
      "Ġgrass": 5006,
      "Ġcross": 5007,
      "Ġhelpful": 5008,
      "Ġapples": 5009,
      "ĠapprÃ©cie": 5010,
      "ĠcompliquÃ©": 5011,
      "Ġthinks": 5012,
      "ĠtouchÃ©": 5013,
      "Ġclaire": 5014,
      "Ġclock": 5015,
      "Ġproc": 5016,
      "Ġaiment": 5017,
      "resseux": 5018,
      "Ġcoun": 5019,
      "Ġpleut": 5020,
      "Ġpleased": 5021,
      "othÃ¨": 5022,
      "Ġprisonn": 5023,
      "lock": 5024,
      "Ġplays": 5025,
      "Ġrepas": 5026,
      "Ġfaible": 5027,
      "Ġparesseux": 5028,
      "ucky": 5029,
      "Ġmets": 5030,
      "Ġaimez": 5031,
      "Ġtenir": 5032,
      "Ġsinger": 5033,
      "Ġenvir": 5034,
      "ĠdÃ©pÃªcher": 5035,
      "Ġpainting": 5036,
      "ĠamusÃ©": 5037,
      "Ġbuild": 5038,
      "Ġvivent": 5039,
      "Ġmistaken": 5040,
      "Ġdevenir": 5041,
      "Ġsalt": 5042,
      "Ġdirai": 5043,
      "ĠintÃ©ressÃ©": 5044,
      "Ġtickets": 5045,
      "Ãīcoute": 5046,
      "ĠSunday": 5047,
      "Ġennuis": 5048,
      "Ġtruc": 5049,
      "Ġsports": 5050,
      "ĠChristmas": 5051,
      "ugged": 5052,
      "Ġmerveille": 5053,
      "Ġfishing": 5054,
      "ĠdÃ©go": 5055,
      "Ġridicule": 5056,
      "Ġenemy": 5057,
      "Ġstunned": 5058,
      "Ġdisparu": 5059,
      "Ġensuite": 5060,
      "Ġashamed": 5061,
      "Ġchicken": 5062,
      "ĠmÃ©dica": 5063,
      "Ġunlucky": 5064,
      "13": 5065,
      "Acc": 5066,
      "Aidez": 5067,
      "DÃ©g": 5068,
      "PrÃ©": 5069,
      "RÃ©p": 5070,
      "Time": 5071,
      "Voyez": 5072,
      "hol": 5073,
      "mon": 5074,
      "ude": 5075,
      "Ġing": 5076,
      "ouvert": 5077,
      "Ġsors": 5078,
      "Ġpois": 5079,
      "Ġlarg": 5080,
      "Ã©ment": 5081,
      "ĠcongÃ©": 5082,
      "Ġfresh": 5083,
      "itut": 5084,
      "Ġham": 5085,
      "ariÃ©": 5086,
      "ĠgÃª": 5087,
      "Ġgare": 5088,
      "usse": 5089,
      "Ġlead": 5090,
      "Ġsum": 5091,
      "ides": 5092,
      "ilt": 5093,
      "Ġrh": 5094,
      "Ġrope": 5095,
      "Ġbell": 5096,
      "cha": 5097,
      "Ġligne": 5098,
      "Ġpratique": 5099,
      "onnaie": 5100,
      "Ġangl": 5101,
      "avion": 5102,
      "Ġstreet": 5103,
      "Ġforward": 5104,
      "accep": 5105,
      "Ġcell": 5106,
      "ĠdÃ©lic": 5107,
      "ĠdÃ©Ã§u": 5108,
      "Ġpours": 5109,
      "Ġatte": 5110,
      "oler": 5111,
      "ffre": 5112,
      "raign": 5113,
      "icieux": 5114,
      "Ġalarm": 5115,
      "ouvrir": 5116,
      "Ġoutr": 5117,
      "import": 5118,
      "indre": 5119,
      "Ġcrit": 5120,
      "ĠsiÃ¨ge": 5121,
      "Ġtouched": 5122,
      "cks": 5123,
      "acket": 5124,
      "oulÃ©": 5125,
      "Ġjambe": 5126,
      "Ġattir": 5127,
      "Ġstuck": 5128,
      "Ġpensez": 5129,
      "Ġresign": 5130,
      "Ġsomewhere": 5131,
      "Stand": 5132,
      "venez": 5133,
      "ĠjouÃ©": 5134,
      "Ġdrinks": 5135,
      "Ġhappening": 5136,
      "Ġintention": 5137,
      "Ġpatience": 5138,
      "ĠinconvÃ©nient": 5139,
      "Ġpull": 5140,
      "Ġeasily": 5141,
      "ĠblessÃ©e": 5142,
      "Ġsauver": 5143,
      "Ġchaude": 5144,
      "Ġportable": 5145,
      "Apporte": 5146,
      "Ġboys": 5147,
      "Ġphotog": 5148,
      "Ġfonctionner": 5149,
      "ĠvÃ©ritable": 5150,
      "Ġdirais": 5151,
      "Ġintelligente": 5152,
      "Ġbright": 5153,
      "Ġgarden": 5154,
      "Ġcops": 5155,
      "ĠdÃ©cider": 5156,
      "Ġpani": 5157,
      "habite": 5158,
      "Ġstep": 5159,
      "Ġamoureuse": 5160,
      "Ġskiing": 5161,
      "Ġinstant": 5162,
      "ĠeffrayÃ©": 5163,
      "Ġressemb": 5164,
      "Ġdenied": 5165,
      "ĠcessÃ©": 5166,
      "Ġfruits": 5167,
      "Ġchocolat": 5168,
      "Ġwallet": 5169,
      "Ġnett": 5170,
      "dÃ©jeun": 5171,
      "Ġsignifie": 5172,
      "Grab": 5173,
      "ĠCanadian": 5174,
      "Ġbirthday": 5175,
      "histoire": 5176,
      "ĠagrÃ©able": 5177,
      "Eur": 5178,
      "feu": 5179,
      "gy": 5180,
      "hor": 5181,
      "iff": 5182,
      "line": 5183,
      "uire": 5184,
      "vable": 5185,
      "Ġtimes": 5186,
      "ĠsÃ©p": 5187,
      "Ġdig": 5188,
      "Ġpush": 5189,
      "Ġmais": 5190,
      "Ġmerci": 5191,
      "Ġmaig": 5192,
      "Ġcir": 5193,
      "Ġcab": 5194,
      "erc": 5195,
      "inture": 5196,
      "Ġband": 5197,
      "quet": 5198,
      "its": 5199,
      "itions": 5200,
      "Ġhug": 5201,
      "Ġdoors": 5202,
      "aines": 5203,
      "iennes": 5204,
      "ĠallumÃ©": 5205,
      "Ġgoal": 5206,
      "Ġsombre": 5207,
      "Ġpourrions": 5208,
      "ffic": 5209,
      "Ġarr": 5210,
      "Ġfrais": 5211,
      "Ġexemp": 5212,
      "Ġfever": 5213,
      "Ġcompt": 5214,
      "Ġmarre": 5215,
      "assit": 5216,
      "ordin": 5217,
      "uits": 5218,
      "Asse": 5219,
      "Ġaddic": 5220,
      "libat": 5221,
      "Ġfright": 5222,
      "Ġferme": 5223,
      "Ġretraite": 5224,
      "Ġspot": 5225,
      "Ġsentie": 5226,
      "raw": 5227,
      "essaye": 5228,
      "Ġvoulu": 5229,
      "Beau": 5230,
      "ĠdÃ©couvert": 5231,
      "ĠfatiguÃ©s": 5232,
      "Ġgrands": 5233,
      "ĠmontrÃ©": 5234,
      "Ġremained": 5235,
      "Ġincor": 5236,
      "Ġchatte": 5237,
      "Ġpropres": 5238,
      "Ġportait": 5239,
      "Ġidiote": 5240,
      "Ġcamion": 5241,
      "Ġdocteur": 5242,
      "Ġrapport": 5243,
      "ĠfonctionnÃ©": 5244,
      "Ġtrah": 5245,
      "Ġlearning": 5246,
      "ĠrÃ©veillÃ©e": 5247,
      "Ġnulle": 5248,
      "Ġaurait": 5249,
      "Ġdrives": 5250,
      "ĠsÃ©rieuse": 5251,
      "Ġabandonner": 5252,
      "Ġsuivre": 5253,
      "Ġnerveuse": 5254,
      "ĠforcÃ©": 5255,
      "Ġconduit": 5256,
      "Ġadmire": 5257,
      "ĠcÃ©libat": 5258,
      "ĠrentrÃ©": 5259,
      "ĠembrassÃ©": 5260,
      "Ġtalented": 5261,
      "Ġdelicious": 5262,
      "fortable": 5263,
      "ionnaire": 5264,
      "ĠpleurÃ©": 5265,
      "oublier": 5266,
      "ĠprotÃ©g": 5267,
      "Ġchocolate": 5268,
      "Oubl": 5269,
      "Ġendormi": 5270,
      "Ġennuyeux": 5271,
      "Ġbelongs": 5272,
      "ĠacceptÃ©": 5273,
      "Ġactuellement": 5274,
      "Ã¨vre": 5275,
      "Ġnonsense": 5276,
      "Ġdimanche": 5277,
      "Ġimmediately": 5278,
      "Ignore": 5279,
      "Ġanglais": 5280,
      "Europe": 5281,
      "dge": 5282,
      "irent": 5283,
      "pris": 5284,
      "rut": 5285,
      "sc": 5286,
      "ta": 5287,
      "Ġtir": 5288,
      "Ġtreat": 5289,
      "Ġdors": 5290,
      "Ġpack": 5291,
      "Ġpants": 5292,
      "onte": 5293,
      "Ġlar": 5294,
      "Ġleurs": 5295,
      "Ġmobile": 5296,
      "Ġcur": 5297,
      "inf": 5298,
      "aill": 5299,
      "Ġfoi": 5300,
      "Ġfout": 5301,
      "Ġfli": 5302,
      "Ġflex": 5303,
      "Ġvole": 5304,
      "Ġhuit": 5305,
      "und": 5306,
      "Ġquiconque": 5307,
      "Ġnecessary": 5308,
      "uste": 5309,
      "eth": 5310,
      "Ġsudd": 5311,
      "aurai": 5312,
      "aurant": 5313,
      "key": 5314,
      "Ġinse": 5315,
      "ster": 5316,
      "ĠparaÃ®t": 5317,
      "Ġyourselves": 5318,
      "illy": 5319,
      "Ġauriez": 5320,
      "Ġjeunes": 5321,
      "Ãªche": 5322,
      "ĠÃ©che": 5323,
      "ĠÃ©veill": 5324,
      "Ġgroupe": 5325,
      "Ġseriez": 5326,
      "Ã©cu": 5327,
      "Ġwhatever": 5328,
      "Ġmach": 5329,
      "Ġimpro": 5330,
      "Ġadresse": 5331,
      "ressive": 5332,
      "Ġcommis": 5333,
      "Ġcommun": 5334,
      "Ġfinalement": 5335,
      "venus": 5336,
      "Ġflight": 5337,
      "azz": 5338,
      "Ġears": 5339,
      "intention": 5340,
      "Ġafford": 5341,
      "ĠÃ©pous": 5342,
      "ĠcontrariÃ©": 5343,
      "Appelez": 5344,
      "bling": 5345,
      "Ġrappeler": 5346,
      "Ġbecome": 5347,
      "ĠprÃ©par": 5348,
      "Ġcurieux": 5349,
      "Ġoption": 5350,
      "Ġdisposons": 5351,
      "ample": 5352,
      "Ġgrimp": 5353,
      "ĠobligÃ©": 5354,
      "Ġdeny": 5355,
      "Ġadorable": 5356,
      "Ġraisonnable": 5357,
      "Ã©tudie": 5358,
      "ĠsÃ©jour": 5359,
      "Ġlangue": 5360,
      "Ġconvainc": 5361,
      "ĠfÃ¢chÃ©": 5362,
      "Ġresponsable": 5363,
      "Ġasseoir": 5364,
      "Ġgauche": 5365,
      "Ġstrict": 5366,
      "ĠconfectionnÃ©": 5367,
      "Ġcompagnie": 5368,
      "Ġescaped": 5369,
      "ĠsincÃ¨re": 5370,
      "hetic": 5371,
      "Ġdestin": 5372,
      "Ġcinq": 5373,
      "Ġdistract": 5374,
      "Speak": 5375,
      "Ġattractive": 5376,
      "Ġschedule": 5377,
      "Beaucoup": 5378,
      "Du": 5379,
      "Dans": 5380,
      "School": 5381,
      "Sommes": 5382,
      "Vois": 5383,
      "book": 5384,
      "dit": 5385,
      "ror": 5386,
      "sh": 5387,
      "umes": 5388,
      "Ġ8": 5389,
      "rerais": 5390,
      "Ġach": 5391,
      "Ġdout": 5392,
      "Ġdanse": 5393,
      "isse": 5394,
      "Ġmood": 5395,
      "Ã©m": 5396,
      "Ã©rÃ©": 5397,
      "Ġcul": 5398,
      "assi": 5399,
      "Ġfive": 5400,
      "Ġfab": 5401,
      "ĠvirÃ©": 5402,
      "Ġhours": 5403,
      "arrÃªte": 5404,
      "Ġneg": 5405,
      "Ġuncle": 5406,
      "Ġroses": 5407,
      "Ġheld": 5408,
      "Ġlic": 5409,
      "pper": 5410,
      "Quoi": 5411,
      "Ġastu": 5412,
      "endons": 5413,
      "ĠdÃ©Ã§": 5414,
      "osen": 5415,
      "raight": 5416,
      "oblig": 5417,
      "Ġpartis": 5418,
      "aper": 5419,
      "Ġcheated": 5420,
      "Ġdisag": 5421,
      "Ġcomplic": 5422,
      "Ġdrown": 5423,
      "Ġlovely": 5424,
      "Ġprojet": 5425,
      "Ġallerg": 5426,
      "Ġoffre": 5427,
      "Ġadop": 5428,
      "Ġsomebody": 5429,
      "meric": 5430,
      "Ġeverywhere": 5431,
      "Ġrestaurant": 5432,
      "Ġretired": 5433,
      "ĠdÃ©tendre": 5434,
      "ĠidÃ©es": 5435,
      "Ġenfin": 5436,
      "Ġautor": 5437,
      "Ġorgan": 5438,
      "Ġflics": 5439,
      "Ġassise": 5440,
      "Ġmauvaises": 5441,
      "mÃ©n": 5442,
      "Ġcorps": 5443,
      "Ġimagin": 5444,
      "Ġwalking": 5445,
      "ĠsÃ»rs": 5446,
      "Ġbouger": 5447,
      "Ġquitter": 5448,
      "okes": 5449,
      "Ġsauf": 5450,
      "ĠsauvÃ©": 5451,
      "Ġtourner": 5452,
      "Ġmovies": 5453,
      "ĠdÃ©brou": 5454,
      "Ġannivers": 5455,
      "Ġmenu": 5456,
      "Ġjoindre": 5457,
      "Ġbleu": 5458,
      "Ġdepressed": 5459,
      "ĠtrompÃ©": 5460,
      "Ġproposition": 5461,
      "Ġactually": 5462,
      "Ġprochain": 5463,
      "Ġconcern": 5464,
      "Ġtoilettes": 5465,
      "oubliez": 5466,
      "Ġridiculous": 5467,
      "Ġconvaincu": 5468,
      "Ġabsolutely": 5469,
      "ĠrÃ©ussir": 5470,
      "ĠdÃ©pourvu": 5471,
      "ĠloupÃ©": 5472,
      "Ġconscience": 5473,
      "Ġbleeding": 5474,
      "Ġsummer": 5475,
      "Ġrhume": 5476,
      "Ġsuddenly": 5477,
      "Aim": 5478,
      "Cert": 5479,
      "HÃ©": 5480,
      "Pri": 5481,
      "Vos": 5482,
      "ech": 5483,
      "ym": 5484,
      "Ġ5": 5485,
      "Ġtor": 5486,
      "Ġtill": 5487,
      "Ġsim": 5488,
      "ĠpÃªcher": 5489,
      "Ġmidi": 5490,
      "Ġnaked": 5491,
      "Ġfous": 5492,
      "ĠbÃ¢t": 5493,
      "Ġvict": 5494,
      "arme": 5495,
      "ently": 5496,
      "Ġneig": 5497,
      "Ġunh": 5498,
      "rique": 5499,
      "Ġrevenir": 5500,
      "Ã©tage": 5501,
      "Ġeight": 5502,
      "Ġelect": 5503,
      "Ġchosen": 5504,
      "onter": 5505,
      "Ġliqu": 5506,
      "Ġnoticed": 5507,
      "agne": 5508,
      "illed": 5509,
      "Ġgos": 5510,
      "angÃ©": 5511,
      "quelle": 5512,
      "Ġfrustr": 5513,
      "Ġcrow": 5514,
      "Ġhelps": 5515,
      "Ġcompany": 5516,
      "Ġdiet": 5517,
      "Ġseras": 5518,
      "aimez": 5519,
      "Ã»mes": 5520,
      "Quelles": 5521,
      "Ġjambes": 5522,
      "ĠbrisÃ©": 5523,
      "Ġenter": 5524,
      "Ġcourageux": 5525,
      "Ġpriv": 5526,
      "Ġresterai": 5527,
      "Ġfinir": 5528,
      "Ġspeech": 5529,
      "Ġconfess": 5530,
      "rape": 5531,
      "Ġbadly": 5532,
      "Ġfich": 5533,
      "Ġvoler": 5534,
      "Ġpubl": 5535,
      "Ġboute": 5536,
      "Ġtableau": 5537,
      "Ġsauter": 5538,
      "Ġsitting": 5539,
      "Ġporter": 5540,
      "Ġaware": 5541,
      "Ġvivant": 5542,
      "Ġhabite": 5543,
      "Ġdroite": 5544,
      "perate": 5545,
      "ĠpiÃ¨ge": 5546,
      "ĠrÃªver": 5547,
      "Ġgenerous": 5548,
      "Ã©dÃ©": 5549,
      "ĠÃ©chouÃ©": 5550,
      "Ãītais": 5551,
      "Ġvacation": 5552,
      "Ġcourses": 5553,
      "Ġsuffisant": 5554,
      "Ġanimals": 5555,
      "ĠprÃ©fÃ©rerais": 5556,
      "Ġconcerned": 5557,
      "ĠDieu": 5558,
      "Ġyelling": 5559,
      "Devrais": 5560,
      "Ouvre": 5561,
      "Ġcoop": 5562,
      "Ġguitar": 5563,
      "Ġforever": 5564,
      "Ġruined": 5565,
      "Ġrejoin": 5566,
      "belie": 5567,
      "rupt": 5568,
      "ĠextrÃªmement": 5569,
      "Ġcigare": 5570,
      "ĠhÃ¢te": 5571,
      "Ġlarmes": 5572,
      "Ġanniversaire": 5573,
      "013": 5574,
      "DÃ©c": 5575,
      "Fo": 5576,
      "Hier": 5577,
      "Lock": 5578,
      "Mange": 5579,
      "None": 5580,
      "Ver": 5581,
      "bing": 5582,
      "con": 5583,
      "friend": 5584,
      "go": 5585,
      "iant": 5586,
      "ires": 5587,
      "ls": 5588,
      "ma": 5589,
      "oz": 5590,
      "oÃ¯": 5591,
      "ses": 5592,
      "we": 5593,
      "yc": 5594,
      "Ġought": 5595,
      "Ġtiens": 5596,
      "isÃ©e": 5597,
      "Ġmise": 5598,
      "annÃ©e": 5599,
      "Ġfed": 5600,
      "Ġbody": 5601,
      "Ġwood": 5602,
      "Ġveste": 5603,
      "Ġvendre": 5604,
      "quis": 5605,
      "Ġhom": 5606,
      "Ġhang": 5607,
      "arr": 5608,
      "Ġgor": 5609,
      "usez": 5610,
      "Ġrely": 5611,
      "Ġrecher": 5612,
      "Ġsuic": 5613,
      "Ġjume": 5614,
      "ĠrÃ©e": 5615,
      "Ġlady": 5616,
      "ales": 5617,
      "Ġproof": 5618,
      "Ġstraight": 5619,
      "ostu": 5620,
      "Ġarrog": 5621,
      "obÃ©": 5622,
      "ĠÃ©lect": 5623,
      "ouvre": 5624,
      "ulance": 5625,
      "Ġfeed": 5626,
      "Ġdevient": 5627,
      "Ġclub": 5628,
      "Ġcontinue": 5629,
      "Ġmalin": 5630,
      "Ġbruy": 5631,
      "Ġcartes": 5632,
      "Quels": 5633,
      "Ġwhole": 5634,
      "ĠarriÃ¨re": 5635,
      "Ġcommon": 5636,
      "Ġspect": 5637,
      "Ġportefeu": 5638,
      "Ġdownstairs": 5639,
      "Ġsentait": 5640,
      "Ġexpert": 5641,
      "Ġplayer": 5642,
      "Ġvolume": 5643,
      "Ġregarda": 5644,
      "Ġaimons": 5645,
      "Choose": 5646,
      "Ġsingle": 5647,
      "Ã©rience": 5648,
      "Ġchangement": 5649,
      "Ġsecrets": 5650,
      "Ġboyfriend": 5651,
      "Ġbuilt": 5652,
      "ĠterminÃ©e": 5653,
      "Ġprudents": 5654,
      "ĠdÃ©barrass": 5655,
      "Ġdirait": 5656,
      "Ġbrief": 5657,
      "oissons": 5658,
      "Ġfollowing": 5659,
      "Ġabandoned": 5660,
      "ĠprÃ©parer": 5661,
      "Essayons": 5662,
      "habitude": 5663,
      "ĠpremiÃ¨re": 5664,
      "Ġtimid": 5665,
      "Ġbillet": 5666,
      "Ġteaching": 5667,
      "Ġtrucs": 5668,
      "Ġ2013": 5669,
      "Ġsouhait": 5670,
      "Anybody": 5671,
      "Ġbouton": 5672,
      "turned": 5673,
      "Ouvrez": 5674,
      "ĠÃ©teint": 5675,
      "Ġambitious": 5676,
      "ĠÃ©clat": 5677,
      "Ġravi": 5678,
      "Drink": 5679,
      "Ġdisgusting": 5680,
      "Ġappartement": 5681,
      "Ġskinny": 5682,
      "ĠÃ¢gÃ©": 5683,
      "Ġperplexe": 5684,
      "Ġrelieved": 5685,
      "Ġapartment": 5686,
      "ĠmÃ©dicaments": 5687,
      "dÃ©jeuner": 5688,
      "Ġexemple": 5689,
      "Ġportefeuille": 5690,
      "Austral": 5691,
      "Cle": 5692,
      "Cut": 5693,
      "Prenons": 5694,
      "Rends": 5695,
      "bles": 5696,
      "clock": 5697,
      "fle": 5698,
      "ike": 5699,
      "men": 5700,
      "Ġ\"": 5701,
      "Ġsli": 5702,
      "Ġdot": 5703,
      "Ġlow": 5704,
      "Ġmoit": 5705,
      "ern": 5706,
      "intÃ©": 5707,
      "ousse": 5708,
      "Ġvan": 5709,
      "arbre": 5710,
      "Ġmem": 5711,
      "Ġrevenu": 5712,
      "Ġodd": 5713,
      "ayez": 5714,
      "chose": 5715,
      "addition": 5716,
      "icul": 5717,
      "Ġsept": 5718,
      "Ġwasting": 5719,
      "Ġtears": 5720,
      "Ġteeth": 5721,
      "Ġkitch": 5722,
      "aves": 5723,
      "Ġwears": 5724,
      "ames": 5725,
      "ionary": 5726,
      "Ġexerc": 5727,
      "Ġexample": 5728,
      "Ġanywhere": 5729,
      "aps": 5730,
      "Ã©crire": 5731,
      "Ġatta": 5732,
      "issons": 5733,
      "ission": 5734,
      "Ġpassed": 5735,
      "Ġpleas": 5736,
      "lÃ¨ve": 5737,
      "Enjoy": 5738,
      "Ġexper": 5739,
      "Ġmoved": 5740,
      "Ġasking": 5741,
      "Ġautour": 5742,
      "Ġfail": 5743,
      "Ġsurprises": 5744,
      "ĠfatiguÃ©es": 5745,
      "Ġgrandi": 5746,
      "Ġmonth": 5747,
      "Ġrefus": 5748,
      "Ġgarage": 5749,
      "Ġhorreur": 5750,
      "Ġwinning": 5751,
      "Ġanswered": 5752,
      "Ġcontinua": 5753,
      "Apportez": 5754,
      "Ġeffort": 5755,
      "Ġmangent": 5756,
      "Ġcookies": 5757,
      "ĠdÃ©jeunÃ©": 5758,
      "ĠÃ©goÃ¯": 5759,
      "Ġtrahi": 5760,
      "Ġperfectly": 5761,
      "Ġbutton": 5762,
      "Ġheadache": 5763,
      "Ġhumili": 5764,
      "Ġcopine": 5765,
      "Ġstyl": 5766,
      "Ġproduct": 5767,
      "Ġ19": 5768,
      "Ġviendrai": 5769,
      "Ġambulance": 5770,
      "Demain": 5771,
      "Ġtraveling": 5772,
      "Ġwomen": 5773,
      "Ġfighting": 5774,
      "Ġmerc": 5775,
      "Ġpermettre": 5776,
      "Ġstaring": 5777,
      "Ġscreaming": 5778,
      "Ã©tudier": 5779,
      "Ġbothering": 5780,
      "Ġguitare": 5781,
      "ĠnaÃ¯f": 5782,
      "Ġbottle": 5783,
      "Ġmoyen": 5784,
      "ĠÃ©nervÃ©": 5785,
      "ĠprÃ©cipit": 5786,
      "Ġheavy": 5787,
      "Ġaveugle": 5788,
      "Ġpauvre": 5789,
      "ĠcÃ©libataire": 5790,
      "ĠprotÃ©ger": 5791,
      "Ġcomplicated": 5792,
      "Ġliquide": 5793,
      "Ġpublic": 5794,
      "Ġkitchen": 5795,
      "Cons": 5796,
      "Of": 5797,
      "host": 5798,
      "iver": 5799,
      "lus": 5800,
      "lier": 5801,
      "oll": 5802,
      "pr": 5803,
      "sue": 5804,
      "yo": 5805,
      "Ġsqu": 5806,
      "Ġsaut": 5807,
      "Ġscept": 5808,
      "Ġsoph": 5809,
      "Ġpaie": 5810,
      "Ġmeur": 5811,
      "Ġmass": 5812,
      "Ġcostu": 5813,
      "erk": 5814,
      "Ġfing": 5815,
      "Ġwore": 5816,
      "Ġvain": 5817,
      "Ġhar": 5818,
      "Ġpast": 5819,
      "tered": 5820,
      "oign": 5821,
      "ries": 5822,
      "rigu": 5823,
      "Ġrejet": 5824,
      "Ġjoy": 5825,
      "auc": 5826,
      "Ġthie": 5827,
      "ilar": 5828,
      "ĠrÃ©t": 5829,
      "Ġrang": 5830,
      "Ġlap": 5831,
      "Ġlake": 5832,
      "Ġheat": 5833,
      "onnÃ©e": 5834,
      "Ġkil": 5835,
      "Ġanx": 5836,
      "Ġweapon": 5837,
      "Ġgold": 5838,
      "Ġoncle": 5839,
      "appartient": 5840,
      "essence": 5841,
      "Ãªtres": 5842,
      "Ġseeing": 5843,
      "sib": 5844,
      "Ġdevint": 5845,
      "ĠrÃ©al": 5846,
      "uiss": 5847,
      "Ġhasn": 5848,
      "Ġmarch": 5849,
      "Ġtravailles": 5850,
      "Ġblood": 5851,
      "Ġdrug": 5852,
      "ighted": 5853,
      "Ġfaisais": 5854,
      "Ġcalls": 5855,
      "Rec": 5856,
      "Reviens": 5857,
      "espoir": 5858,
      "ĠdÃ©sesp": 5859,
      "Ġpossib": 5860,
      "ĠsÃ»res": 5861,
      "Ġintrigu": 5862,
      "Ġpale": 5863,
      "ildren": 5864,
      "Ġinsurance": 5865,
      "Ġaimer": 5866,
      "Ġtenu": 5867,
      "Ġpuzz": 5868,
      "Ġbouche": 5869,
      "okyo": 5870,
      "Ġpainted": 5871,
      "Ġpersonnes": 5872,
      "ĠcontrÃ´": 5873,
      "ĠcontrÃ´le": 5874,
      "Ġvivons": 5875,
      "Ġcrimin": 5876,
      "Ġfixed": 5877,
      "Ġtraffic": 5878,
      "Ġhumble": 5879,
      "ĠdÃ©mar": 5880,
      "Ġannul": 5881,
      "ĠfrÃ¨res": 5882,
      "ĠfenÃªtres": 5883,
      "Ġtowel": 5884,
      "Ġstanding": 5885,
      "Ġexpected": 5886,
      "Ġrarely": 5887,
      "Ġoptions": 5888,
      "Ġprudentes": 5889,
      "expliquer": 5890,
      "ĠinvitÃ©s": 5891,
      "Ġdelighted": 5892,
      "ĠtentÃ©": 5893,
      "Ġmignonne": 5894,
      "Ġpoulet": 5895,
      "Passez": 5896,
      "isticated": 5897,
      "Ġtransp": 5898,
      "Ġurgent": 5899,
      "Connais": 5900,
      "enfants": 5901,
      "Ġrecognize": 5902,
      "Ã©tranger": 5903,
      "Ġhealthy": 5904,
      "Ġchauffeur": 5905,
      "Ġarrested": 5906,
      "Ġmalheureux": 5907,
      "Ġbarely": 5908,
      "Ġpoursui": 5909,
      "Ġmachine": 5910,
      "Prices": 5911,
      "ĠrÃ©ellement": 5912,
      "Ġspectacle": 5913,
      "Ġcostume": 5914,
      "Br": 5915,
      "OK": 5916,
      "Rep": 5917,
      "Send": 5918,
      "Ter": 5919,
      "hum": 5920,
      "oard": 5921,
      "ocked": 5922,
      "rouv": 5923,
      "ĠIt": 5924,
      "oue": 5925,
      "Ġtienne": 5926,
      "Ġaille": 5927,
      "Ġsne": 5928,
      "Ġsilly": 5929,
      "Ġpren": 5930,
      "Ġpig": 5931,
      "Ġlaid": 5932,
      "ĠlÃ¢che": 5933,
      "ĠmÃª": 5934,
      "Ã©ner": 5935,
      "Ã©quipe": 5936,
      "inte": 5937,
      "asy": 5938,
      "Ġfake": 5939,
      "Ġfiche": 5940,
      "llo": 5941,
      "Ġbite": 5942,
      "Ġboisson": 5943,
      "Ġbaked": 5944,
      "ator": 5945,
      "quit": 5946,
      "quette": 5947,
      "Ġtooth": 5948,
      "Ġghost": 5949,
      "levÃ©": 5950,
      "riger": 5951,
      "Ġissue": 5952,
      "ourage": 5953,
      "Ġjug": 5954,
      "Ġjacket": 5955,
      "Ġok": 5956,
      "Ã©tique": 5957,
      "Ġthr": 5958,
      "Ġrose": 5959,
      "Ġrush": 5960,
      "tud": 5961,
      "Ġprise": 5962,
      "agine": 5963,
      "Ġstress": 5964,
      "Ġcanad": 5965,
      "anged": 5966,
      "Ġverrai": 5967,
      "ĠamÃ©li": 5968,
      "ensÃ©": 5969,
      "ived": 5970,
      "moire": 5971,
      "Ġpartons": 5972,
      "Ġcroy": 5973,
      "Ġcroit": 5974,
      "Ġdish": 5975,
      "Ġdistur": 5976,
      "Ġappartient": 5977,
      "Ġnoon": 5978,
      "Ġcompli": 5979,
      "road": 5980,
      "Ã»te": 5981,
      "Ġblanc": 5982,
      "Ġbrothers": 5983,
      "Ġrespe": 5984,
      "Ġlongs": 5985,
      "ational": 5986,
      "Ġsentais": 5987,
      "Ġsentir": 5988,
      "ĠmÃ©moire": 5989,
      "Ġposer": 5990,
      "Ġharder": 5991,
      "ency": 5992,
      "Ġpeint": 5993,
      "Ãītud": 5994,
      "ĠfiÃ¨vre": 5995,
      "ĠmontÃ©": 5996,
      "Ġmonter": 5997,
      "Ġrefaire": 5998,
      "Ġsupporter": 5999,
      "Ġpolit": 6000,
      "Ġfuture": 6001,
      "ĠÃ©tudie": 6002,
      "Ġruns": 6003,
      "ĠblessÃ©s": 6004,
      "Ã©pous": 6005,
      "Ġrisques": 6006,
      "Ġkeeps": 6007,
      "Ġmagaz": 6008,
      "itesse": 6009,
      "zzy": 6010,
      "Ġvoice": 6011,
      "Ġiron": 6012,
      "Trust": 6013,
      "Ġhumeur": 6014,
      "Ġsweater": 6015,
      "Ġdriver": 6016,
      "Ġdreaming": 6017,
      "Ġrespond": 6018,
      "Ġartist": 6019,
      "Ġreconnu": 6020,
      "attendrai": 6021,
      "Ġnombreuses": 6022,
      "Ġclearly": 6023,
      "Ġburned": 6024,
      "ĠlÃ©ger": 6025,
      "ĠlÃ©gumes": 6026,
      "ĠimpressionnÃ©": 6027,
      "Ġinjuste": 6028,
      "Ġgiven": 6029,
      "Ġignored": 6030,
      "ĠprÃ©vu": 6031,
      "ĠrÃ©gime": 6032,
      "ĠÃ©coutÃ©": 6033,
      "Connaissez": 6034,
      "Ġdictionnaire": 6035,
      "Ġdictionary": 6036,
      "Ġneighbor": 6037,
      "ĠcachÃ©": 6038,
      "Ġfurieux": 6039,
      "Ġpopular": 6040,
      "Ġjaponais": 6041,
      "Ġincredible": 6042,
      "Ġdoigts": 6043,
      "Ġmerveilleuse": 6044,
      "ĠdÃ©goÃ»t": 6045,
      "Ġbouteille": 6046,
      "believable": 6047,
      "ĠmoitiÃ©": 6048,
      ".\"": 6049,
      "DÃ©t": 6050,
      "Fill": 6051,
      "Love": 6052,
      "LÃ¢che": 6053,
      "Mangez": 6054,
      "Nice": 6055,
      "Part": 6056,
      "Won": 6057,
      "late": 6058,
      "lation": 6059,
      "oes": 6060,
      "pes": 6061,
      "par": 6062,
      "pare": 6063,
      "time": 6064,
      "Ġ9": 6065,
      "ĠEurope": 6066,
      "Ġtel": 6067,
      "Ġtient": 6068,
      "rect": 6069,
      "Ġailles": 6070,
      "Ġske": 6071,
      "Ġsaint": 6072,
      "Ġpit": 6073,
      "Ġpoin": 6074,
      "Ġpoup": 6075,
      "Ġpier": 6076,
      "Ġlend": 6077,
      "Ã©ra": 6078,
      "ĠcÃ¢": 6079,
      "Ġnav": 6080,
      "ĠnÃ©e": 6081,
      "aies": 6082,
      "ĠvidÃ©": 6083,
      "atre": 6084,
      "atif": 6085,
      "Ġdeaf": 6086,
      "orient": 6087,
      "entraÃ®": 6088,
      "Ġgarer": 6089,
      "Ġgym": 6090,
      "Ġmecs": 6091,
      "rige": 6092,
      "ourdi": 6093,
      "Ġtrom": 6094,
      "Ġtrad": 6095,
      "Ġjazz": 6096,
      "ĠlavÃ©": 6097,
      "Ġchur": 6098,
      "Ġinut": 6099,
      "Ġparie": 6100,
      "Ġparlent": 6101,
      "Ġparlons": 6102,
      "acer": 6103,
      "urn": 6104,
      "amen": 6105,
      "ĠdÃ©mÃ©n": 6106,
      "Ġlikely": 6107,
      "oya": 6108,
      "ulte": 6109,
      "sieds": 6110,
      "Ġabroad": 6111,
      "ify": 6112,
      "Ġdizzy": 6113,
      "Ġtoucher": 6114,
      "Laquelle": 6115,
      "assÃ©": 6116,
      "Ġblonde": 6117,
      "issant": 6118,
      "lique": 6119,
      "merg": 6120,
      "Ġcouramment": 6121,
      "Ġcouch": 6122,
      "Ġvoitures": 6123,
      "Enf": 6124,
      "Ġexpliquer": 6125,
      "Ġjouez": 6126,
      "Ġpositive": 6127,
      "Ġpeace": 6128,
      "Ġoranges": 6129,
      "Allume": 6130,
      "ĠtrouvÃ©e": 6131,
      "Change": 6132,
      "Children": 6133,
      "Ġincons": 6134,
      "Ġshoe": 6135,
      "ĠÃ©tudiÃ©": 6136,
      "Ġconscient": 6137,
      "Ġskier": 6138,
      "Ġperdue": 6139,
      "Ġbouge": 6140,
      "ĠTokyo": 6141,
      "Ġpersonn": 6142,
      "ĠrÃ©veiller": 6143,
      "Ġpoem": 6144,
      "Attention": 6145,
      "Ġwindows": 6146,
      "emporter": 6147,
      "Ãīcris": 6148,
      "Ġpanne": 6149,
      "Essaye": 6150,
      "Ġacceptable": 6151,
      "Ġrobbed": 6152,
      "Ġarticle": 6153,
      "bye": 6154,
      "attendais": 6155,
      "Ġtaste": 6156,
      "ĠfermÃ©e": 6157,
      "ĠarrivÃ©e": 6158,
      "Ġsouffle": 6159,
      "ĠprÃ©fÃ©rÃ©": 6160,
      "Ġjeter": 6161,
      "Ġrumor": 6162,
      "Demandez": 6163,
      "admire": 6164,
      "ĠGod": 6165,
      "Ġserviette": 6166,
      "Ġfacts": 6167,
      "Ġrecognized": 6168,
      "Ġfantastic": 6169,
      "Ġfantastique": 6170,
      "hÃ´tel": 6171,
      "Perm": 6172,
      "Ġreconnaissant": 6173,
      "Ġcautious": 6174,
      "importance": 6175,
      "Oubliez": 6176,
      "Ġflexible": 6177,
      "Ġlicenci": 6178,
      "Ġunhappy": 6179,
      "Australie": 6180,
      "Ġsophisticated": 6181,
      "Ġpoursuiv": 6182,
      "Ġokay": 6183,
      "ĠamÃ©lior": 6184,
      "Ġskept": 6185,
      "Ġchurch": 6186,
      "Bois": 6187,
      "Emm": 6188,
      "Hang": 6189,
      "Pro": 6190,
      "Rendez": 6191,
      "Ste": 6192,
      "Sal": 6193,
      "ah": 6194,
      "ctement": 6195,
      "do": 6196,
      "eared": 6197,
      "euses": 6198,
      "fa": 6199,
      "romp": 6200,
      "ross": 6201,
      "Ġ7": 6202,
      "Ġtense": 6203,
      "Ġsince": 6204,
      "Ġpon": 6205,
      "Ġlourd": 6206,
      "Ġmaman": 6207,
      "Ã©lic": 6208,
      "Ġni": 6209,
      "ĠbÃªte": 6210,
      "Ġwounded": 6211,
      "Ġvitesse": 6212,
      "unate": 6213,
      "Ġdef": 6214,
      "usual": 6215,
      "Ġunusual": 6216,
      "Ġmeal": 6217,
      "Ġremp": 6218,
      "Ġreturned": 6219,
      "Ġleast": 6220,
      "Ġjokes": 6221,
      "Ġore": 6222,
      "Ġenvers": 6223,
      "aved": 6224,
      "ilise": 6225,
      "Ġpron": 6226,
      "Ġwashed": 6227,
      "Ġtex": 6228,
      "Ġtext": 6229,
      "Ġparv": 6230,
      "ĠallÃ©es": 6231,
      "illÃ©s": 6232,
      "utÃ©": 6233,
      "Ġdonc": 6234,
      "ores": 6235,
      "Celle": 6236,
      "icient": 6237,
      "Ġamen": 6238,
      "Ġuseless": 6239,
      "ĠcrÃ©d": 6240,
      "Ã®t": 6241,
      "enseign": 6242,
      "Ġcontag": 6243,
      "asser": 6244,
      "Ġblag": 6245,
      "Ont": 6246,
      "ĠentraÃ®": 6247,
      "Ġcars": 6248,
      "Ġdemi": 6249,
      "icky": 6250,
      "astic": 6251,
      "Ġadorent": 6252,
      "like": 6253,
      "Ġrenv": 6254,
      "Ġcouru": 6255,
      "ĠprÃ©venu": 6256,
      "Ġhurler": 6257,
      "Rempl": 6258,
      "Ġvues": 6259,
      "Ġtombe": 6260,
      "loge": 6261,
      "ĠmÃ©chant": 6262,
      "Ġstudied": 6263,
      "Ġintro": 6264,
      "ĠprÃªtÃ©": 6265,
      "Ġcares": 6266,
      "Ġcacher": 6267,
      "Ġgrandes": 6268,
      "Ġfianc": 6269,
      "Ġsouvenir": 6270,
      "Ġfamili": 6271,
      "Ġinsane": 6272,
      "Ġtravaillons": 6273,
      "Ġremind": 6274,
      "Ġincomp": 6275,
      "Ġpromesse": 6276,
      "Ġpoli": 6277,
      "Ġpolici": 6278,
      "Ġconst": 6279,
      "ĠchantÃ©": 6280,
      "Ġtwice": 6281,
      "Ġparfaite": 6282,
      "Ġreviendrai": 6283,
      "Ġphotos": 6284,
      "ception": 6285,
      "Ġtrick": 6286,
      "Ġdevenue": 6287,
      "Ġsales": 6288,
      "Ã¯n": 6289,
      "Ã©rons": 6290,
      "Ġbibli": 6291,
      "ĠrÃªves": 6292,
      "Ġpersonal": 6293,
      "Ġsentiment": 6294,
      "Ãīcoutez": 6295,
      "Ġbattu": 6296,
      "Ġsourit": 6297,
      "Ġfoolish": 6298,
      "ĠconnaÃ®tre": 6299,
      "Ġconnaissance": 6300,
      "ibi": 6301,
      "Ġsuitc": 6302,
      "Aucune": 6303,
      "affaire": 6304,
      "Ġjalouse": 6305,
      "Ġambitieux": 6306,
      "Ġurgence": 6307,
      "Ġmordu": 6308,
      "ĠsoulagÃ©": 6309,
      "ĠchoquÃ©": 6310,
      "Ġoiseaux": 6311,
      "ĠdÃ©prim": 6312,
      "Pardon": 6313,
      "ĠÃ©puisÃ©": 6314,
      "Ġpiece": 6315,
      "Ġfocused": 6316,
      "Choisis": 6317,
      "ĠsÃ©par": 6318,
      "ĠÃ©goÃ¯ste": 6319,
      "Buy": 6320,
      "Non": 6321,
      "bon": 6322,
      "eff": 6323,
      "ial": 6324,
      "lise": 6325,
      "med": 6326,
      "ru": 6327,
      "rage": 6328,
      "uves": 6329,
      "ount": 6330,
      "Ġsir": 6331,
      "Ġland": 6332,
      "Ġmiens": 6333,
      "Ġmatt": 6334,
      "Ã©f": 6335,
      "Ġcust": 6336,
      "Ġcred": 6337,
      "Ġnap": 6338,
      "Ġnine": 6339,
      "ashed": 6340,
      "Ġfate": 6341,
      "Ġfuss": 6342,
      "Ġboi": 6343,
      "Ġvint": 6344,
      "attu": 6345,
      "atiques": 6346,
      "under": 6347,
      "orc": 6348,
      "Ġgel": 6349,
      "Ġquatre": 6350,
      "Ġleak": 6351,
      "ows": 6352,
      "Ġjail": 6353,
      "Ġocc": 6354,
      "Ġthird": 6355,
      "Ġraise": 6356,
      "Ġseven": 6357,
      "Ġpract": 6358,
      "imitÃ©": 6359,
      "Ġplant": 6360,
      "Ġallow": 6361,
      "avance": 6362,
      "illage": 6363,
      "Dog": 6364,
      "Ġsoci": 6365,
      "Ġriz": 6366,
      "Ġrice": 6367,
      "appellerai": 6368,
      "cious": 6369,
      "cile": 6370,
      "ctive": 6371,
      "onnect": 6372,
      "resp": 6373,
      "mpe": 6374,
      "Ġamour": 6375,
      "Ġgrad": 6376,
      "Ġcheese": 6377,
      "Ġagir": 6378,
      "acks": 6379,
      "Ġmanage": 6380,
      "Ġmanager": 6381,
      "ĠcoÃ¯n": 6382,
      "Ġnowhere": 6383,
      "Ġferons": 6384,
      "Ġcourte": 6385,
      "Ġprize": 6386,
      "venues": 6387,
      "Ġconnu": 6388,
      "ĠdÃ©tendu": 6389,
      "Ġglo": 6390,
      "Ġrendue": 6391,
      "onds": 6392,
      "Beat": 6393,
      "Ġmoque": 6394,
      "Ġreply": 6395,
      "ences": 6396,
      "Ġguest": 6397,
      "Ġchoices": 6398,
      "ĠcoupÃ©": 6399,
      "ĠlaissÃ©e": 6400,
      "ĠemportÃ©": 6401,
      "Ãīte": 6402,
      "Ġinvest": 6403,
      "Ġpattes": 6404,
      "Ġpathetic": 6405,
      "Shall": 6406,
      "Ġperds": 6407,
      "Ġmisunder": 6408,
      "Ġhorrif": 6409,
      "Ġgentle": 6410,
      "ĠportÃ©": 6411,
      "Ġcontinuait": 6412,
      "Ġdiscours": 6413,
      "jected": 6414,
      "isÃ©ment": 6415,
      "ĠAmeric": 6416,
      "Ġdessert": 6417,
      "ĠcoÃ»ter": 6418,
      "rouille": 6419,
      "Ġhandsome": 6420,
      "ĠdiffÃ©rence": 6421,
      "Ġdifference": 6422,
      "Ġstyle": 6423,
      "Ġescal": 6424,
      "Ġabsur": 6425,
      "ĠforcÃ©e": 6426,
      "Ġaccepted": 6427,
      "Ġenseigner": 6428,
      "Ġconnaissons": 6429,
      "Ġdonnerai": 6430,
      "Ġbarbe": 6431,
      "Ġtotalement": 6432,
      "Ġcousins": 6433,
      "expÃ©rience": 6434,
      "Ġinformation": 6435,
      "Ġtremb": 6436,
      "Ġpunished": 6437,
      "Ġobjectif": 6438,
      "ĠfantÃ´": 6439,
      "Ġcesser": 6440,
      "Ġexciting": 6441,
      "Ġreasonable": 6442,
      "Ġdirection": 6443,
      "Ġrumeur": 6444,
      "ennuy": 6445,
      "ennuie": 6446,
      "Drop": 6447,
      "Ġprintemps": 6448,
      "Ġneighbors": 6449,
      "Ġplaindre": 6450,
      "hÃ´pital": 6451,
      "Ġoiseau": 6452,
      "Ġpromenade": 6453,
      "Ġdetails": 6454,
      "Ġevidence": 6455,
      "cohol": 6456,
      "ĠhÃ´tel": 6457,
      "Ġfigure": 6458,
      "ĠcontrariÃ©e": 6459,
      "Ġvegetables": 6460,
      "otional": 6461,
      "Ġbarking": 6462,
      "Ġcuisinier": 6463,
      "Ġmalchanceux": 6464,
      "Ã©chapper": 6465,
      "Ġsplit": 6466,
      "Ġcounting": 6467,
      "Ġbuilding": 6468,
      "Asseyez": 6469,
      "Ġdistracted": 6470,
      "Follow": 6471,
      "Ġmemory": 6472,
      "Ġmisunderst": 6473,
      "Cal": 6474,
      "Dieu": 6475,
      "God": 6476,
      "Lui": 6477,
      "Nos": 6478,
      "Pars": 6479,
      "Sans": 6480,
      "dis": 6481,
      "ias": 6482,
      "ius": 6483,
      "jam": 6484,
      "neu": 6485,
      "off": 6486,
      "rob": 6487,
      "Â«": 6488,
      "Ġ6": 6489,
      "Ġtap": 6490,
      "Ġtendu": 6491,
      "Ġtirer": 6492,
      "Ġmas": 6493,
      "Ġmid": 6494,
      "Ġmic": 6495,
      "Ġmonnaie": 6496,
      "Ã©ant": 6497,
      "Ġcent": 6498,
      "ering": 6499,
      "Ġfain": 6500,
      "Ġbisc": 6501,
      "Ġvase": 6502,
      "Tomorrow": 6503,
      "unch": 6504,
      "Ġdeli": 6505,
      "Ġquart": 6506,
      "Ġuns": 6507,
      "Ġunde": 6508,
      "oide": 6509,
      "riv": 6510,
      "idable": 6511,
      "Ġjui": 6512,
      "Ġjerk": 6513,
      "Ã¨che": 6514,
      "Ġthrow": 6515,
      "Ġron": 6516,
      "Ġraff": 6517,
      "Ġchall": 6518,
      "Ġchess": 6519,
      "Ġinfect": 6520,
      "Ġlibr": 6521,
      "icace": 6522,
      "Ġsea": 6523,
      "imagine": 6524,
      "Ġant": 6525,
      "Ġparlait": 6526,
      "Ġstone": 6527,
      "Ġcance": 6528,
      "acter": 6529,
      "Ġaside": 6530,
      "allons": 6531,
      "urez": 6532,
      "ĠdÃ©v": 6533,
      "ĠdÃ©ch": 6534,
      "Ġsofa": 6535,
      "Ġfaith": 6536,
      "Ġpourriez": 6537,
      "Ġdesp": 6538,
      "mped": 6539,
      "Ġloy": 6540,
      "Ġfroide": 6541,
      "uivez": 6542,
      "uls": 6543,
      "herbe": 6544,
      "ified": 6545,
      "Ġdipl": 6546,
      "Ġgotten": 6547,
      "ney": 6548,
      "Ġsert": 6549,
      "abord": 6550,
      "Ġblank": 6551,
      "Ġenth": 6552,
      "Ġattack": 6553,
      "ignit": 6554,
      "Ġsoud": 6555,
      "Ġimpol": 6556,
      "Ġimpuiss": 6557,
      "Ġtaqu": 6558,
      "Ã¢chez": 6559,
      "Ã´tres": 6560,
      "Ġpassport": 6561,
      "ĠdÃ©tend": 6562,
      "Ġsensible": 6563,
      "Ġprobable": 6564,
      "ĠdouÃ©": 6565,
      "Ġtrouvait": 6566,
      "Ġfiers": 6567,
      "Ġdemanda": 6568,
      "Ġchanges": 6569,
      "Ġpromets": 6570,
      "Ġmortes": 6571,
      "ercice": 6572,
      "Ġchamp": 6573,
      "Ġwarning": 6574,
      "Ġbegun": 6575,
      "oker": 6576,
      "ĠÃ©pouse": 6577,
      "Ġrained": 6578,
      "ĠgÃ©nie": 6579,
      "rific": 6580,
      "ĠvoilÃł": 6581,
      "jection": 6582,
      "Ġpuiss": 6583,
      "Ġpasseport": 6584,
      "Ġconvient": 6585,
      "ĠcoÃ»t": 6586,
      "ĠcoÃ»tÃ©": 6587,
      "Ġauras": 6588,
      "ĠgardÃ©": 6589,
      "ĠdiffÃ©rente": 6590,
      "Ġgenius": 6591,
      "ĠintÃ©ressÃ©e": 6592,
      "Ãīcrivez": 6593,
      "Ġarmed": 6594,
      "ibles": 6595,
      "Ġsuperbe": 6596,
      "Ġartiste": 6597,
      "Ġpictures": 6598,
      "Lisez": 6599,
      "Ġattraper": 6600,
      "ĠobligÃ©e": 6601,
      "Ġapology": 6602,
      "Ġrisks": 6603,
      "Ġengine": 6604,
      "Ġembrasser": 6605,
      "Ġpermis": 6606,
      "Ġdistrait": 6607,
      "ĠCanad": 6608,
      "admets": 6609,
      "Ġexamen": 6610,
      "ĠnaÃ¯ve": 6611,
      "ĠprÃ©cisÃ©ment": 6612,
      "Ġcandle": 6613,
      "Ġprogram": 6614,
      "Ġlimite": 6615,
      "Jouons": 6616,
      "Commence": 6617,
      "Ġobserv": 6618,
      "Ġmoyens": 6619,
      "ĠdÃ©licieux": 6620,
      "Ġgrossier": 6621,
      "ĠÃ©norme": 6622,
      "Ġunfair": 6623,
      "Ġsympathique": 6624,
      "Ġselfish": 6625,
      "Ġfrightened": 6626,
      "ĠÃ©checs": 6627,
      "Ġdrowned": 6628,
      "Ġarrogant": 6629,
      "Clean": 6630,
      "ĠpoupÃ©e": 6631,
      "Ġtrompe": 6632,
      "Ġskeptical": 6633,
      "ĠbibliothÃ¨": 6634,
      "Ġmatters": 6635,
      "ĠcoÃ¯ncidence": 6636,
      "Ġchallen": 6637,
      "Bu": 6638,
      "Bou": 6639,
      "Coupe": 6640,
      "Red": 6641,
      "Rela": 6642,
      "Sign": 6643,
      "Talk": 6644,
      "Use": 6645,
      "VÃ©ri": 6646,
      "bb": 6647,
      "bum": 6648,
      "cool": 6649,
      "cture": 6650,
      "ode": 6651,
      "tons": 6652,
      "ouill": 6653,
      "Ġtig": 6654,
      "reuses": 6655,
      "Ġsain": 6656,
      "Ġdor": 6657,
      "Ġdam": 6658,
      "Ġdating": 6659,
      "Ġpin": 6660,
      "ĠpÃ©n": 6661,
      "enÃ§ons": 6662,
      "Ġmost": 6663,
      "Ã©ro": 6664,
      "Ġcit": 6665,
      "Ġcase": 6666,
      "Ġcreat": 6667,
      "Ġcards": 6668,
      "Ġnar": 6669,
      "Ġnier": 6670,
      "heur": 6671,
      "Ġvendu": 6672,
      "ĠvÃ©cu": 6673,
      "qua": 6674,
      "itated": 6675,
      "Ġhais": 6676,
      "Ġhers": 6677,
      "univers": 6678,
      "Ġdefe": 6679,
      "usÃ©e": 6680,
      "eul": 6681,
      "Ġremb": 6682,
      "Ġreli": 6683,
      "Ġrelig": 6684,
      "ources": 6685,
      "idÃ©es": 6686,
      "Ġtrapped": 6687,
      "cement": 6688,
      "aute": 6689,
      "Ã¨se": 6690,
      "Ġrace": 6691,
      "Ġchin": 6692,
      "Ġits": 6693,
      "Ġlibres": 6694,
      "Ġpray": 6695,
      "Ġprude": 6696,
      "Ġwashing": 6697,
      "verrai": 6698,
      "ieuses": 6699,
      "Ġplat": 6700,
      "Ġparlais": 6701,
      "Ġcomfortable": 6702,
      "agner": 6703,
      "agissait": 6704,
      "avis": 6705,
      "Ġstink": 6706,
      "acy": 6707,
      "urÃ©": 6708,
      "utilise": 6709,
      "Three": 6710,
      "Ġsore": 6711,
      "Ġriches": 6712,
      "apprends": 6713,
      "Ġavoid": 6714,
      "Ġshall": 6715,
      "ffÃ©": 6716,
      "raient": 6717,
      "Ġloaded": 6718,
      "Ġalcohol": 6719,
      "Ġworst": 6720,
      "autres": 6721,
      "ultÃ©": 6722,
      "Ġsurvenu": 6723,
      "Ġabas": 6724,
      "Ġdevais": 6725,
      "ĠrÃ©f": 6726,
      "Ġcrue": 6727,
      "Ġcraint": 6728,
      "Ġsight": 6729,
      "Ġsiff": 6730,
      "Ġcompet": 6731,
      "Ġdiary": 6732,
      "mbers": 6733,
      "Ġmanqu": 6734,
      "Ġcoffre": 6735,
      "abb": 6736,
      "Ġcontrib": 6737,
      "Ã©cris": 6738,
      "ĠblÃ¢": 6739,
      "Ġbeaux": 6740,
      "Ġattacked": 6741,
      "Ġbonjour": 6742,
      "Assieds": 6743,
      "aÃ®tre": 6744,
      "Ġwhist": 6745,
      "Start": 6746,
      "Ġcouver": 6747,
      "Ġcough": 6748,
      "Monte": 6749,
      "ĠdÃ©tails": 6750,
      "Ġvenus": 6751,
      "Ġvenez": 6752,
      "Ġconfus": 6753,
      "Env": 6754,
      "Ġterm": 6755,
      "toie": 6756,
      "Ġrendit": 6757,
      "Ġrendrai": 6758,
      "Ġhandled": 6759,
      "onduis": 6760,
      "Ġscare": 6761,
      "ĠmÃ©pris": 6762,
      "oudre": 6763,
      "Ġguide": 6764,
      "ancer": 6765,
      "attrap": 6766,
      "Ġtrouves": 6767,
      "Ġrecrut": 6768,
      "Ġinsist": 6769,
      "Ġpath": 6770,
      "Ġshock": 6771,
      "Ġconfiant": 6772,
      "Ġbuying": 6773,
      "examen": 6774,
      "Ġended": 6775,
      "Ġearlier": 6776,
      "Ġstrugg": 6777,
      "ĠblessÃ©es": 6778,
      "Ġpropri": 6779,
      "Ġpaint": 6780,
      "ĠÃ©pau": 6781,
      "Ġeffront": 6782,
      "ĠgÃ©rer": 6783,
      "Ġtourne": 6784,
      "Ġvoisins": 6785,
      "Ġsalade": 6786,
      "Ġbagages": 6787,
      "Ġorders": 6788,
      "Ġordres": 6789,
      "ologist": 6790,
      "Ġfalling": 6791,
      "Attrape": 6792,
      "Ġfilms": 6793,
      "Ġevening": 6794,
      "empÃªcher": 6795,
      "ĠmariÃ©s": 6796,
      "Ġmariage": 6797,
      "ĠÃ©tudiante": 6798,
      "ĠsÅĵurs": 6799,
      "Ġforgotten": 6800,
      "Exp": 6801,
      "Ġsourd": 6802,
      "Ġsouris": 6803,
      "Ġteachers": 6804,
      "Ġsnowing": 6805,
      "Ġcoincidence": 6806,
      "ĠChin": 6807,
      "Ġtremp": 6808,
      "ĠarrivÃ©s": 6809,
      "ĠinvitÃ©e": 6810,
      "Ġpicked": 6811,
      "Ġfourn": 6812,
      "Ġbasket": 6813,
      "ĠmÃ©ritÃ©": 6814,
      "ionnel": 6815,
      "Ġcreep": 6816,
      "Ġbald": 6817,
      "Ġgiving": 6818,
      "ĠvotÃ©": 6819,
      "Ġprotest": 6820,
      "Oublie": 6821,
      "Ġhiding": 6822,
      "Ġviolent": 6823,
      "aimait": 6824,
      "Ġrequest": 6825,
      "Ġgrowing": 6826,
      "Ġloser": 6827,
      "Ġselon": 6828,
      "ĠfÃ¢chÃ©e": 6829,
      "ĠbrÃ»lÃ©": 6830,
      "Excusez": 6831,
      "Ġloudly": 6832,
      "Ġpousser": 6833,
      "excuser": 6834,
      "Ġressenti": 6835,
      "Ã©couter": 6836,
      "ctobre": 6837,
      "ctober": 6838,
      "Ġhopeless": 6839,
      "Entrez": 6840,
      "Ġconstruit": 6841,
      "Ġcrossed": 6842,
      "Ġclairement": 6843,
      "Ġenviron": 6844,
      "ĠdÃ©licieuse": 6845,
      "oublierai": 6846,
      "Ġvoleur": 6847,
      "Ġdisagree": 6848,
      "ĠbÃ¢timent": 6849,
      "ĠcontrÃ´ler": 6850,
      "Ġthrough": 6851,
      "Ġoreilles": 6852,
      "Ġcredit": 6853,
      "Dogs": 6854,
      "Ġjuice": 6855,
      "ĠbibliothÃ¨que": 6856,
      "Relax": 6857,
      "VÃ©rif": 6858,
      "Ah": 6859,
      "Baisse": 6860,
      "Cats": 6861,
      "Find": 6862,
      "Jus": 6863,
      "Peu": 6864,
      "Pass": 6865,
      "Sp": 6866,
      "Tour": 6867,
      "bs": 6868,
      "bri": 6869,
      "drai": 6870,
      "hy": 6871,
      "ionne": 6872,
      "ipt": 6873,
      "moin": 6874,
      "nom": 6875,
      "night": 6876,
      "oh": 6877,
      "oved": 6878,
      "rance": 6879,
      "ser": 6880,
      "ttes": 6881,
      "upp": 6882,
      "wards": 6883,
      "Ġtar": 6884,
      "Ġaig": 6885,
      "Ġaraign": 6886,
      "Ġdom": 6887,
      "Ġdomm": 6888,
      "Ġporc": 6889,
      "Ġpneu": 6890,
      "isez": 6891,
      "Ġlave": 6892,
      "Ġloss": 6893,
      "ann": 6894,
      "Ġbarg": 6895,
      "atoes": 6896,
      "Jette": 6897,
      "quÃ©s": 6898,
      "quÃ©es": 6899,
      "Ġhire": 6900,
      "Ġhob": 6901,
      "entend": 6902,
      "Ġquas": 6903,
      "oient": 6904,
      "ouraged": 6905,
      "iders": 6906,
      "Ġtrap": 6907,
      "Ġja": 6908,
      "Ġoctobre": 6909,
      "Ġrit": 6910,
      "Ġrough": 6911,
      "Ġrats": 6912,
      "Ġemerg": 6913,
      "Ġinhab": 6914,
      "stÃ¨me": 6915,
      "onnerai": 6916,
      "iring": 6917,
      "Ġanc": 6918,
      "acun": 6919,
      "acÃ©e": 6920,
      "amÃ©li": 6921,
      "Ġsoyons": 6922,
      "Ġavail": 6923,
      "ortun": 6924,
      "Ġshout": 6925,
      "New": 6926,
      "Ġloyer": 6927,
      "Ġalbum": 6928,
      "Ġpartit": 6929,
      "Ġparties": 6930,
      "Ġabe": 6931,
      "ĠrÃ©alitÃ©": 6932,
      "Ġcrack": 6933,
      "Ġcrains": 6934,
      "Ġdisent": 6935,
      "Ġappa": 6936,
      "Ġsize": 6937,
      "Ġcomprenez": 6938,
      "Ġdirige": 6939,
      "Ġclient": 6940,
      "Ġhist": 6941,
      "Ġmaj": 6942,
      "Ġwilling": 6943,
      "ĠentrÃ©": 6944,
      "Ġcarry": 6945,
      "ordre": 6946,
      "astique": 6947,
      "rÃ©h": 6948,
      "Ġrenvers": 6949,
      "Ġrentr": 6950,
      "Ġferait": 6951,
      "Esp": 6952,
      "Ġcourut": 6953,
      "ĠrestÃ©e": 6954,
      "Ġnouvel": 6955,
      "Ġoccuper": 6956,
      "ĠvÃ©h": 6957,
      "Ġtelling": 6958,
      "Ġjoueur": 6959,
      "Ġview": 6960,
      "Ġpeinture": 6961,
      "ĠexcitÃ©": 6962,
      "Ġchanceuse": 6963,
      "Chaque": 6964,
      "Ġacross": 6965,
      "Ġpulled": 6966,
      "Ġenseigne": 6967,
      "Ġchanteur": 6968,
      "Ġquitte": 6969,
      "verti": 6970,
      "oken": 6971,
      "Ġunderstood": 6972,
      "Ġgentils": 6973,
      "Ġacted": 6974,
      "ĠOctober": 6975,
      "Ġrouges": 6976,
      "Ġunderstands": 6977,
      "Ã©poque": 6978,
      "Ġweekend": 6979,
      "Ġrealized": 6980,
      "ĠsystÃ¨me": 6981,
      "Wash": 6982,
      "Ġordre": 6983,
      "Ġvoie": 6984,
      "Ġirre": 6985,
      "Ġyounger": 6986,
      "Ġlistened": 6987,
      "Ġchaussettes": 6988,
      "emploi": 6989,
      "Ġmoral": 6990,
      "Ġnearby": 6991,
      "Ġbatter": 6992,
      "Ġpanic": 6993,
      "ĠdÃ®nÃ©": 6994,
      "Ġconnaissais": 6995,
      "Ġdepuis": 6996,
      "Ġsteal": 6997,
      "Ġtruly": 6998,
      "Ġembarrassing": 6999,
      "arian": 7000,
      "Ġfausse": 7001,
      "Ġapologized": 7002,
      "Ġburst": 7003,
      "overed": 7004,
      "Ġressens": 7005,
      "Ġvalise": 7006,
      "Ġvalises": 7007,
      "inquiÃ©ter": 7008,
      "Ġindign": 7009,
      "Ġexcellente": 7010,
      "Ġterrified": 7011,
      "ĠAustralie": 7012,
      "Ġentendue": 7013,
      "Ġfascinating": 7014,
      "Ġjumped": 7015,
      "Ġmiracle": 7016,
      "CommenÃ§ons": 7017,
      "Ġmotivated": 7018,
      "Ġdivorced": 7019,
      "ĠbaissÃ©": 7020,
      "ĠÃ©nerv": 7021,
      "Ġvolontaire": 7022,
      "RÃ©flÃ©ch": 7023,
      "ĠdÃ©primÃ©": 7024,
      "ĠtÃ©lÃ©phonÃ©": 7025,
      "ĠnÃ©glig": 7026,
      "Ġoppos": 7027,
      "ĠhabituÃ©": 7028,
      "Ġromantic": 7029,
      "Ġleader": 7030,
      "Ġpratiquement": 7031,
      "Ġphotograp": 7032,
      "Ġimagination": 7033,
      "Ġtortu": 7034,
      "quisition": 7035,
      "Ġgorge": 7036,
      "Ġexercise": 7037,
      "Ġfingers": 7038,
      "Ġthief": 7039,
      "ĠdÃ©marrer": 7040,
      "Ġmagazine": 7041,
      "ĠcÃ¢lin": 7042,
      "ĠvidÃ©o": 7043,
      "Ġinutile": 7044,
      "Salut": 7045,
      "Ġsincere": 7046,
      "ĠcrÃ©dit": 7047,
      "Ġfamiliar": 7048,
      "Ġcustom": 7049,
      "Jusqu": 7050,
      "ĠaraignÃ©es": 7051,
      "Ġbargain": 7052,
      "Ġemergency": 7053,
      "Ġavailable": 7054,
      "Bl": 7055,
      "Conduis": 7056,
      "Fiche": 7057,
      "Move": 7058,
      "Sm": 7059,
      "Suivez": 7060,
      "Tie": 7061,
      "Voyons": 7062,
      "bu": 7063,
      "can": 7064,
      "iÃ©e": 7065,
      "jud": 7066,
      "ox": 7067,
      "rop": 7068,
      "tain": 7069,
      "ute": 7070,
      "ware": 7071,
      "ĠY": 7072,
      "ĠPar": 7073,
      "oule": 7074,
      "Ġtat": 7075,
      "Ġtong": 7076,
      "Ġtakes": 7077,
      "Ġtires": 7078,
      "Ġsons": 7079,
      "Ġdoul": 7080,
      "ĠpÃ©ri": 7081,
      "ĠnÃ´tre": 7082,
      "asing": 7083,
      "assez": 7084,
      "Ġfle": 7085,
      "Ġfal": 7086,
      "Ġbow": 7087,
      "Ġwit": 7088,
      "Ġvul": 7089,
      "Ġvache": 7090,
      "Ġvirer": 7091,
      "itÃ©s": 7092,
      "Ġhi": 7093,
      "Ġhugged": 7094,
      "arc": 7095,
      "Ġdece": 7096,
      "entez": 7097,
      "Ġgig": 7098,
      "eule": 7099,
      "rime": 7100,
      "ribe": 7101,
      "Ġretu": 7102,
      "Ġrepe": 7103,
      "Ġrejected": 7104,
      "Ġod": 7105,
      "Ġdoz": 7106,
      "Ã¨ce": 7107,
      "Ã¨ter": 7108,
      "Ġromp": 7109,
      "Ġbear": 7110,
      "chon": 7111,
      "Their": 7112,
      "ĠinÃ©v": 7113,
      "aled": 7114,
      "alcool": 7115,
      "Ġlies": 7116,
      "verted": 7117,
      "Ġkicked": 7118,
      "agir": 7119,
      "agez": 7120,
      "Ġstared": 7121,
      "acquisition": 7122,
      "Ġweap": 7123,
      "allais": 7124,
      "ĠdÃ©ce": 7125,
      "Ġsocks": 7126,
      "Ġknown": 7127,
      "Ġarmes": 7128,
      "Ġalike": 7129,
      "Ġalibi": 7130,
      "ĠfrÃ©": 7131,
      "uler": 7132,
      "Ġanyway": 7133,
      "Ġgrown": 7134,
      "sions": 7135,
      "Ġgoodbye": 7136,
      "Ġhasard": 7137,
      "Ġagg": 7138,
      "Ġserp": 7139,
      "Ġseront": 7140,
      "Ġmanquez": 7141,
      "Ġcoach": 7142,
      "Ġcontents": 7143,
      "Ġperte": 7144,
      "Ã©coute": 7145,
      "Ġdrag": 7146,
      "Ġproj": 7147,
      "issent": 7148,
      "ummer": 7149,
      "ression": 7150,
      "Ġeats": 7151,
      "ĠprÃ©venir": 7152,
      "ĠprÃ©venue": 7153,
      "Ġspy": 7154,
      "ĠÃ©coute": 7155,
      "ĠÃ©cras": 7156,
      "Ġcareless": 7157,
      "Ġjobs": 7158,
      "ĠdÃ©sorient": 7159,
      "Ġfolles": 7160,
      "Ġreproche": 7161,
      "Ġmenteuse": 7162,
      "Ġgueule": 7163,
      "Ġpreuves": 7164,
      "Ġbigger": 7165,
      "Ġintim": 7166,
      "Ġcouper": 7167,
      "Ġhearing": 7168,
      "Ġcaused": 7169,
      "Ġfiable": 7170,
      "Ġfamil": 7171,
      "Ġvisa": 7172,
      "Ġdispon": 7173,
      "Ġdisputer": 7174,
      "Christmas": 7175,
      "Ġtravaillent": 7176,
      "Ġkidn": 7177,
      "Ġremain": 7178,
      "Ġremonter": 7179,
      "Ġcorriger": 7180,
      "Ġcherch": 7181,
      "Ã©glise": 7182,
      "ĠstupÃ©f": 7183,
      "Ġsaura": 7184,
      "Ġefficace": 7185,
      "ĠtroisiÃ¨me": 7186,
      "Ġdrogu": 7187,
      "ĠtournÃ©": 7188,
      "Ġsilenc": 7189,
      "Ġsalad": 7190,
      "Ġbags": 7191,
      "Ġsatisfaite": 7192,
      "Ġconduirai": 7193,
      "Ġretourne": 7194,
      "ĠretournÃ©": 7195,
      "Ġvoici": 7196,
      "Ġpapa": 7197,
      "Ġmince": 7198,
      "Ġstopping": 7199,
      "Ġcopy": 7200,
      "ituel": 7201,
      "Ġworrying": 7202,
      "Ġmarchera": 7203,
      "Ġprisoners": 7204,
      "Ġconditions": 7205,
      "Ġblew": 7206,
      "Ġterriblement": 7207,
      "Ġcleaned": 7208,
      "ĠfumÃ©e": 7209,
      "Ġbillets": 7210,
      "ĠrÃ©solu": 7211,
      "ĠrÃ¨gle": 7212,
      "Ġconnaissent": 7213,
      "Ġdepend": 7214,
      "Ġboxes": 7215,
      "Ġbarb": 7216,
      "ĠÃ©trang": 7217,
      "Ġarrivera": 7218,
      "ĠlumiÃ¨res": 7219,
      "Ġanimal": 7220,
      "ĠengagÃ©": 7221,
      "Ġengaged": 7222,
      "ĠtempÃªte": 7223,
      "Ġressources": 7224,
      "Ġnotebook": 7225,
      "Ġobjective": 7226,
      "Ġformidable": 7227,
      "ĠpressÃ©": 7228,
      "Ġconcentrer": 7229,
      "Ġpardonner": 7230,
      "Ġviolence": 7231,
      "Ġlangu": 7232,
      "ĠchargÃ©e": 7233,
      "ervation": 7234,
      "Ġenemies": 7235,
      "piration": 7236,
      "DÃ©b": 7237,
      "Ġcoward": 7238,
      "Ġcheerful": 7239,
      "Ġexplosion": 7240,
      "Crois": 7241,
      "Ġeffectu": 7242,
      "Ġadvance": 7243,
      "Ġcercle": 7244,
      "Disposez": 7245,
      "Ġmedication": 7246,
      "Ġromantique": 7247,
      "ĠÃ©chappÃ©": 7248,
      "Voudriez": 7249,
      "ĠpÃ¢le": 7250,
      "Ġpoison": 7251,
      "accepter": 7252,
      "Ġnettoyer": 7253,
      "Ġincorrect": 7254,
      "oblige": 7255,
      "Ġrecherche": 7256,
      "Ġsceptique": 7257,
      "Ġmassage": 7258,
      "Ġcompliment": 7259,
      "Ã©pouser": 7260,
      "ĠlicenciÃ©": 7261,
      "Ġgentleman": 7262,
      "Ġescaliers": 7263,
      "Ġmisunderstood": 7264,
      "Ġlibrary": 7265,
      "Buvez": 7266,
      "Ġcreative": 7267,
      "Ġnarrow": 7268,
      "Ġchinois": 7269,
      "Ġquasiment": 7270,
      "Ġinhabituel": 7271,
      "Ġdoulou": 7272,
      "Ġreturn": 7273,
      "Ġweapons": 7274,
      "Add": 7275,
      "Cher": 7276,
      "French": 7277,
      "Luck": 7278,
      "Sou": 7279,
      "allez": 7280,
      "cure": 7281,
      "fois": 7282,
      "gÃ©t": 7283,
      "gal": 7284,
      "gie": 7285,
      "gue": 7286,
      "gnÃ©": 7287,
      "ivez": 7288,
      "ks": 7289,
      "king": 7290,
      "lcome": 7291,
      "ns": 7292,
      "ronne": 7293,
      "rate": 7294,
      "rase": 7295,
      "sw": 7296,
      "Ġille": 7297,
      "ĠThomas": 7298,
      "Ġtaire": 7299,
      "Ġsaign": 7300,
      "Ġpus": 7301,
      "Ġpag": 7302,
      "once": 7303,
      "ĠlÃ¢": 7304,
      "Ġmons": 7305,
      "Ã©lÃ©": 7306,
      "Ã©ni": 7307,
      "Ġcing": 7308,
      "Ġcoul": 7309,
      "Ġcream": 7310,
      "inet": 7311,
      "Ġnone": 7312,
      "Ġnie": 7313,
      "Ġnur": 7314,
      "Ġnatur": 7315,
      "aigne": 7316,
      "Ġbeur": 7317,
      "Ġbug": 7318,
      "ousias": 7319,
      "Ġwre": 7320,
      "Ġvends": 7321,
      "Ġvague": 7322,
      "Ġviennent": 7323,
      "Ġtop": 7324,
      "usion": 7325,
      "Ġund": 7326,
      "Ġunp": 7327,
      "ott": 7328,
      "oil": 7329,
      "ource": 7330,
      "Ġtrac": 7331,
      "Ġjuge": 7332,
      "iling": 7333,
      "Ġrug": 7334,
      "Ġevent": 7335,
      "Ġchasse": 7336,
      "Welcome": 7337,
      "Ġsex": 7338,
      "Ġsepar": 7339,
      "oos": 7340,
      "Ġpartez": 7341,
      "avions": 7342,
      "illeurs": 7343,
      "utilis": 7344,
      "Ġknocked": 7345,
      "Throw": 7346,
      "appro": 7347,
      "cieux": 7348,
      "Ġshake": 7349,
      "Ãªtu": 7350,
      "ulaire": 7351,
      "Ġpartici": 7352,
      "Ġpartage": 7353,
      "apes": 7354,
      "Ġgroup": 7355,
      "Ġhelpless": 7356,
      "Ġnovel": 7357,
      "Ġcomplex": 7358,
      "ĠcomprÃ©h": 7359,
      "Ġdirig": 7360,
      "Ġtouchez": 7361,
      "enseigne": 7362,
      "Ġserved": 7363,
      "Ġmarier": 7364,
      "Ġbluff": 7365,
      "Ġentered": 7366,
      "Ġaies": 7367,
      "udd": 7368,
      "Ġadult": 7369,
      "Ġresource": 7370,
      "ressing": 7371,
      "Ġtalks": 7372,
      "Ġferions": 7373,
      "Ġrested": 7374,
      "ĠpiÃ©g": 7375,
      "Ġident": 7376,
      "Ġpaying": 7377,
      "Ġenfre": 7378,
      "ĠrÃ©pÃ©ter": 7379,
      "ĠvÃ©gÃ©t": 7380,
      "ĠÃ©criv": 7381,
      "Ġposition": 7382,
      "Ġfold": 7383,
      "ĠdÃ©cl": 7384,
      "Ġvieil": 7385,
      "Ġguard": 7386,
      "Ġflin": 7387,
      "Ġlaissa": 7388,
      "ĠprÃªter": 7389,
      "Ġstarting": 7390,
      "Ġchaleur": 7391,
      "Ġtroub": 7392,
      "Ġchanging": 7393,
      "Ġnouveaux": 7394,
      "Ġenvy": 7395,
      "Ġtrusts": 7396,
      "exercice": 7397,
      "Ġperdus": 7398,
      "ĠarrÃªtÃ©e": 7399,
      "Ġamused": 7400,
      "ĠamusÃ©e": 7401,
      "Ġbitter": 7402,
      "Ġpetits": 7403,
      "Ġterminer": 7404,
      "Ġcommentaire": 7405,
      "Ġmeilleurs": 7406,
      "ĠcriÃ©": 7407,
      "ĠsignÃ©": 7408,
      "Ġsigned": 7409,
      "Ġmangea": 7410,
      "Ġdeadline": 7411,
      "Ġidiots": 7412,
      "ĠJacks": 7413,
      "Ġowns": 7414,
      "ĠdÃ©rangÃ©": 7415,
      "ĠpoÃ¨me": 7416,
      "Ġcorrectement": 7417,
      "Ġdreams": 7418,
      "ĠprÃ©pare": 7419,
      "ĠprÃ©sente": 7420,
      "Ġbleue": 7421,
      "Ġteaches": 7422,
      "Ġstronger": 7423,
      "ibly": 7424,
      "Ġchevaux": 7425,
      "Ġsteak": 7426,
      "Ġcosts": 7427,
      "Ġinstitut": 7428,
      "guard": 7429,
      "ĠinformÃ©": 7430,
      "Ġvideo": 7431,
      "Ã¨vement": 7432,
      "ctual": 7433,
      "Anyone": 7434,
      "ĠprÃ©senter": 7435,
      "Ġhighly": 7436,
      "Ġsouffre": 7437,
      "Ġbeginning": 7438,
      "Ġpoule": 7439,
      "Ġstarving": 7440,
      "Ġhauteur": 7441,
      "Ġgives": 7442,
      "Ġvoted": 7443,
      "Ġjoli": 7444,
      "Ġscreamed": 7445,
      "Ġexcitant": 7446,
      "Ġpaierai": 7447,
      "ĠvÃ©rifiÃ©": 7448,
      "Ġdoubts": 7449,
      "Ġemotional": 7450,
      "000": 7451,
      "Ġremercie": 7452,
      "Ġcharger": 7453,
      "Remain": 7454,
      "Avons": 7455,
      "Ġabsolument": 7456,
      "Ġcandles": 7457,
      "Ġpurp": 7458,
      "Ġpurse": 7459,
      "ettons": 7460,
      "levant": 7461,
      "ĠsupposÃ©": 7462,
      "Ġsupposed": 7463,
      "ĠprofondÃ©ment": 7464,
      "Ġpowerful": 7465,
      "ĠgÃ©nÃ©reux": 7466,
      "Ġrelated": 7467,
      "Ġopportun": 7468,
      "Ġlogique": 7469,
      "ĠÃ©mot": 7470,
      "Retournez": 7471,
      "Answ": 7472,
      "Ġgratuit": 7473,
      "Ġhypoc": 7474,
      "Voudrais": 7475,
      "Ġtelephone": 7476,
      "ternative": 7477,
      "Ġsemblant": 7478,
      "Ġthreatened": 7479,
      "Ġdeserves": 7480,
      "Ġdeserved": 7481,
      "ĠingÃ©n": 7482,
      "Ġatteint": 7483,
      "Ġfonctionnera": 7484,
      "Ġmaigri": 7485,
      "Ġneiger": 7486,
      "Ġcigarettes": 7487,
      "Ġstylish": 7488,
      "Ġproductive": 7489,
      "Ġpuzzled": 7490,
      "Terrific": 7491,
      "Ġnavire": 7492,
      "ĠrenvoyÃ©": 7493,
      "Ġtongue": 7494,
      "Ġprojets": 7495,
      "Ġillegal": 7496,
      "Ġbeurre": 7497,
      "Ġresourceful": 7498,
      "Answer": 7499,
      "Even": 7500,
      "Fr": 7501,
      "Leur": 7502,
      "LÃ¢chez": 7503,
      "MÃªme": 7504,
      "Nett": 7505,
      "Ple": 7506,
      "Toi": 7507,
      "kward": 7508,
      "mar": 7509,
      "met": 7510,
      "nant": 7511,
      "neur": 7512,
      "nique": 7513,
      "rain": 7514,
      "rod": 7515,
      "rouve": 7516,
      "ximitÃ©": 7517,
      "Ġ3": 7518,
      "ĠW": 7519,
      "Ġils": 7520,
      "Ġait": 7521,
      "Ġaurez": 7522,
      "Ġailleurs": 7523,
      "Ġsonne": 7524,
      "Ġsage": 7525,
      "Ġsist": 7526,
      "ĠsÃ¨che": 7527,
      "Ġsarc": 7528,
      "Ġdy": 7529,
      "Ġpous": 7530,
      "Ġpure": 7531,
      "Ġprenons": 7532,
      "ism": 7533,
      "ondu": 7534,
      "ennem": 7535,
      "Ġlay": 7536,
      "Ġmeu": 7537,
      "Ġmail": 7538,
      "Ã©l": 7539,
      "Ã©tez": 7540,
      "Ġcage": 7541,
      "Ġconnect": 7542,
      "ombre": 7543,
      "Ġnag": 7544,
      "asion": 7545,
      "Ġfought": 7546,
      "ĠbÅĵ": 7547,
      "oust": 7548,
      "Ġwhe": 7549,
      "Ġvoyez": 7550,
      "qual": 7551,
      "itaire": 7552,
      "itez": 7553,
      "Ġho": 7554,
      "ĠhÃ©s": 7555,
      "arch": 7556,
      "Ġtoes": 7557,
      "edding": 7558,
      "Ġunlo": 7559,
      "oti": 7560,
      "oter": 7561,
      "Ġtrous": 7562,
      "Ġtraite": 7563,
      "Ġtraitement": 7564,
      "Ġjeux": 7565,
      "Ġthin": 7566,
      "Ġroi": 7567,
      "Ġrad": 7568,
      "Ġroul": 7569,
      "Ġbeard": 7570,
      "Ġheur": 7571,
      "chantÃ©": 7572,
      "Ġine": 7573,
      "icule": 7574,
      "ppe": 7575,
      "Ġtelle": 7576,
      "Ġpari": 7577,
      "Ġparl": 7578,
      "Ġcombat": 7579,
      "ĠallongÃ©": 7580,
      "Ġstorm": 7581,
      "Ġstamp": 7582,
      "Ġweigh": 7583,
      "Ġcele": 7584,
      "Ġassi": 7585,
      "Ġmyster": 7586,
      "allowe": 7587,
      "appelles": 7588,
      "essai": 7589,
      "Ġshave": 7590,
      "Ġshape": 7591,
      "ction": 7592,
      "Ġarbres": 7593,
      "ouvrez": 7594,
      "Ġgrab": 7595,
      "Ġground": 7596,
      "Ġabattu": 7597,
      "Ġchecked": 7598,
      "ĠrÃ©vÃ©": 7599,
      "Ġsaf": 7600,
      "Ġdiam": 7601,
      "mbre": 7602,
      "Ġcla": 7603,
      "ĠserrÃ©": 7604,
      "Ġmanques": 7605,
      "usement": 7606,
      "Ġblow": 7607,
      "Ġproches": 7608,
      "ĠproximitÃ©": 7609,
      "Ġbran": 7610,
      "Ġbrag": 7611,
      "issue": 7612,
      "Ġimporte": 7613,
      "Ġimpli": 7614,
      "Ġadulte": 7615,
      "Ġrestez": 7616,
      "Ġrescu": 7617,
      "Ġresta": 7618,
      "Ġrestait": 7619,
      "Ġspeed": 7620,
      "Recu": 7621,
      "Revenez": 7622,
      "Montez": 7623,
      "Ġroll": 7624,
      "redi": 7625,
      "Ġscar": 7626,
      "Beware": 7627,
      "ĠmÃ©ch": 7628,
      "ĠtÃ©moin": 7629,
      "ĠdÃ©cÃ©dÃ©": 7630,
      "Ġrepair": 7631,
      "Ġstudies": 7632,
      "ĠtÃ©lÃ©vis": 7633,
      "Ġcoups": 7634,
      "Ġexcess": 7635,
      "Ġourselves": 7636,
      "Ġbelieves": 7637,
      "Ġrecovered": 7638,
      "Ġmission": 7639,
      "Ġassurance": 7640,
      "ĠempÃªcher": 7641,
      "Ġinvent": 7642,
      "Ġfromage": 7643,
      "Ġinsens": 7644,
      "Ġpatronne": 7645,
      "Chante": 7646,
      "Yours": 7647,
      "Ġincl": 7648,
      "Ġbold": 7649,
      "phants": 7650,
      "ĠdÃ©pl": 7651,
      "Ġpolie": 7652,
      "Ġfully": 7653,
      "Ġaccro": 7654,
      "Ġmiser": 7655,
      "aiderai": 7656,
      "Ġembau": 7657,
      "ĠrencontrÃ©e": 7658,
      "ĠrencontrÃ©es": 7659,
      "Ġconclus": 7660,
      "Ġsounded": 7661,
      "Ġcuill": 7662,
      "Ġaffam": 7663,
      "Ġgentilles": 7664,
      "Ġmessed": 7665,
      "Ġchauve": 7666,
      "Ġuseful": 7667,
      "Ġtwin": 7668,
      "Ġplaisantes": 7669,
      "Ġawkward": 7670,
      "ĠappelÃ©e": 7671,
      "Ġbuv": 7672,
      "AmÃ¨ne": 7673,
      "Ġsyste": 7674,
      "Ġargue": 7675,
      "Trois": 7676,
      "Ġheading": 7677,
      "bÃ©cile": 7678,
      "Ġdessin": 7679,
      "Ġaura": 7680,
      "Ġnewsp": 7681,
      "Ġregretter": 7682,
      "ĠdiffÃ©ren": 7683,
      "ignorer": 7684,
      "Ġmenace": 7685,
      "Ġmorce": 7686,
      "ĠbÃ©nÃ©": 7687,
      "Ġclosely": 7688,
      "awn": 7689,
      "Ġpanicked": 7690,
      "Ġproduire": 7691,
      "ĠrÃ©sult": 7692,
      "ĠÃ©chou": 7693,
      "Ġinquiets": 7694,
      "Ġfeelings": 7695,
      "ĠmentionnÃ©": 7696,
      "ĠembarrassÃ©": 7697,
      "Ġfrappa": 7698,
      "Ġdisposent": 7699,
      "ĠillÃ©g": 7700,
      "Ġcoinc": 7701,
      "Ġinformed": 7702,
      "Ġtrees": 7703,
      "Ġarriva": 7704,
      "Ġinvitation": 7705,
      "ĠprÃ©fÃ©rÃ©e": 7706,
      "ĠdÃ©missionnÃ©": 7707,
      "Ġnoisy": 7708,
      "ĠmÃ©rites": 7709,
      "ĠmÃ©ritez": 7710,
      "hiver": 7711,
      "Ġassistant": 7712,
      "Ġvoter": 7713,
      "Ġpleurait": 7714,
      "Ġyellow": 7715,
      "Ġannoyed": 7716,
      "Ġmodel": 7717,
      "Ġsatisfaits": 7718,
      "Ġbathroom": 7719,
      "Ġemail": 7720,
      "idÃ©rÃ©": 7721,
      "Ġsuggestion": 7722,
      "Ġmurder": 7723,
      "Ġdescendu": 7724,
      "Avance": 7725,
      "Ġdingues": 7726,
      "Ġsuspicious": 7727,
      "ĠrÃ©cup": 7728,
      "Ġfluent": 7729,
      "Ġpsychic": 7730,
      "Ġreceipt": 7731,
      "Ġbananes": 7732,
      "Ġbananas": 7733,
      "Ġplaisantez": 7734,
      "Ġcertainement": 7735,
      "Ġfocus": 7736,
      "Choisissez": 7737,
      "Ġbrillant": 7738,
      "Ġoptimiste": 7739,
      "Retourne": 7740,
      "ĠÃ©lÃ©gant": 7741,
      "Descends": 7742,
      "ĠHallowe": 7743,
      "Ġtelevision": 7744,
      "Ġarguing": 7745,
      "Ġargument": 7746,
      "Ġoutraged": 7747,
      "Ġaddict": 7748,
      "Ġaddicted": 7749,
      "ĠÃ©veillÃ©": 7750,
      "ĠÃ©pousÃ©": 7751,
      "Ġgrimper": 7752,
      "Ġsimilar": 7753,
      "Ġfichier": 7754,
      "ozen": 7755,
      "ĠsautÃ©": 7756,
      "ĠrejetÃ©": 7757,
      "ĠdÃ©sespÃ©rÃ©": 7758,
      "Ġrespecte": 7759,
      "Step": 7760,
      "Ġpolicier": 7761,
      "Ġsuitcase": 7762,
      "Ġbiscuits": 7763,
      "Ġloyal": 7764,
      "Ġenthousias": 7765,
      "Ġabasourdi": 7766,
      "Ġhobby": 7767,
      "amÃ©liore": 7768,
      "ĠParis": 7769,
      "Ġdouloureux": 7770,
      "ĠvÃ©gÃ©tar": 7771,
      "Ġsisters": 7772,
      "ĠtÃ©lÃ©viseur": 7773,
      "Ġsystem": 7774,
      "ĠHalloween": 7775,
      "Ceux": 7776,
      "Draw": 7777,
      "Gri": 7778,
      "Hab": 7779,
      "Lance": 7780,
      "Pick": 7781,
      "Portez": 7782,
      "Save": 7783,
      "Stu": 7784,
      "Tou": 7785,
      "Ut": 7786,
      "aÃ¯": 7787,
      "conque": 7788,
      "cieuse": 7789,
      "gles": 7790,
      "gled": 7791,
      "ieur": 7792,
      "mate": 7793,
      "pock": 7794,
      "rounded": 7795,
      "tÃ©e": 7796,
      "ull": 7797,
      "uel": 7798,
      "ĠK": 7799,
      "Ġeur": 7800,
      "Ġpy": 7801,
      "Ġpont": 7802,
      "Ġpue": 7803,
      "Ġpige": 7804,
      "Ġpoissons": 7805,
      "Ġlune": 7806,
      "Ġmoust": 7807,
      "Ã©lu": 7808,
      "Ġcong": 7809,
      "Ġcasse": 7810,
      "Ġcache": 7811,
      "ĠcinÃ©": 7812,
      "erons": 7813,
      "omed": 7814,
      "inv": 7815,
      "Ġnic": 7816,
      "asc": 7817,
      "Ġfence": 7818,
      "Ġben": 7819,
      "Ġbass": 7820,
      "Ġbanc": 7821,
      "Ġwedding": 7822,
      "Ġvig": 7823,
      "ata": 7824,
      "ateurs": 7825,
      "atives": 7826,
      "Jetez": 7827,
      "velo": 7828,
      "Ġhall": 7829,
      "arante": 7830,
      "Ġtoy": 7831,
      "otes": 7832,
      "Ġmel": 7833,
      "teen": 7834,
      "Ġrempl": 7835,
      "idents": 7836,
      "member": 7837,
      "Ã¨tes": 7838,
      "lley": 7839,
      "Ġraf": 7840,
      "Ġrabb": 7841,
      "Ġchi": 7842,
      "Ġchances": 7843,
      "chÃ©s": 7844,
      "aly": 7845,
      "Hello": 7846,
      "irons": 7847,
      "Ġparte": 7848,
      "Ġparla": 7849,
      "Ġallait": 7850,
      "illÃ©es": 7851,
      "Ġstraw": 7852,
      "actÃ©": 7853,
      "opin": 7854,
      "ezing": 7855,
      "Ġavion": 7856,
      "Ġshif": 7857,
      "cts": 7858,
      "ician": 7859,
      "Ġalent": 7860,
      "Ġfrozen": 7861,
      "Ġsurrounded": 7862,
      "Ġdumped": 7863,
      "Ġgrounded": 7864,
      "Ġdeviens": 7865,
      "Ġcrain": 7866,
      "Ġcroir": 7867,
      "Ġdiss": 7868,
      "Ġbienvenue": 7869,
      "Ġcompat": 7870,
      "Ġcloud": 7871,
      "Ġserrer": 7872,
      "Ġmanche": 7873,
      "Ġmarket": 7874,
      "Ġtravaillez": 7875,
      "Ã©cart": 7876,
      "Ġblond": 7877,
      "Ġblanche": 7878,
      "Ġjustice": 7879,
      "Ġquelconque": 7880,
      "arth": 7881,
      "Ġentire": 7882,
      "Ġcarp": 7883,
      "Ġstubb": 7884,
      "Ġsouc": 7885,
      "Ġvaleur": 7886,
      "asted": 7887,
      "Ġresist": 7888,
      "Ġcommit": 7889,
      "Ġprior": 7890,
      "Ġpride": 7891,
      "ĠprÃ©nom": 7892,
      "Remember": 7893,
      "Ġspring": 7894,
      "ĠdÃ©tr": 7895,
      "Ġprendra": 7896,
      "Ġsentence": 7897,
      "Ġsecr": 7898,
      "Ġpartirai": 7899,
      "Ġhanded": 7900,
      "Ġoverre": 7901,
      "Ġoverwork": 7902,
      "Ġscary": 7903,
      "achÃ¨te": 7904,
      "Ġmentez": 7905,
      "Ġdoux": 7906,
      "Ġessaya": 7907,
      "Ãīloi": 7908,
      "Chacun": 7909,
      "Ġremoved": 7910,
      "mÃ©rique": 7911,
      "Ġboots": 7912,
      "Ġclefs": 7913,
      "Ġcherches": 7914,
      "Ġwalks": 7915,
      "Ġaccused": 7916,
      "Ġmayor": 7917,
      "Ġconclu": 7918,
      "Ġcalmes": 7919,
      "Ġwinter": 7920,
      "Ġhung": 7921,
      "Ġroug": 7922,
      "restim": 7923,
      "Parlons": 7924,
      "ĠhabillÃ©": 7925,
      "Ġprofonde": 7926,
      "Ġdrove": 7927,
      "Ġcrie": 7928,
      "Ġnourri": 7929,
      "ĠJoh": 7930,
      "Ġsemaines": 7931,
      "ologue": 7932,
      "Attache": 7933,
      "Travai": 7934,
      "Ġfoule": 7935,
      "Ġdemandez": 7936,
      "Ġrub": 7937,
      "Ġsweat": 7938,
      "ĠdÃ©cida": 7939,
      "Ġsushi": 7940,
      "Ġsongs": 7941,
      "Ġattendait": 7942,
      "ĠsucrÃ©": 7943,
      "ĠmÃ©dec": 7944,
      "Ġ10": 7945,
      "Ġregardez": 7946,
      "Ġcurios": 7947,
      "ĠenseignÃ©": 7948,
      "Ġwriter": 7949,
      "ĠinquiÃ¨te": 7950,
      "Ġchansons": 7951,
      "ĠÃ©tranger": 7952,
      "Ġfrapper": 7953,
      "lected": 7954,
      "Ġsoldats": 7955,
      "Ġsoldiers": 7956,
      "Ġrisky": 7957,
      "Ġinformations": 7958,
      "Ġferma": 7959,
      "ĠfermÃ©s": 7960,
      "ĠdÃ©fi": 7961,
      "ĠsuggÃ¨re": 7962,
      "ĠinvitÃ©es": 7963,
      "ĠprÃ©sentÃ©": 7964,
      "Ġpunctual": 7965,
      "Ġpickpock": 7966,
      "Ġsuits": 7967,
      "ĠadorÃ©": 7968,
      "ĠmatinÃ©e": 7969,
      "Ġyelled": 7970,
      "Devrions": 7971,
      "Ġpardon": 7972,
      "Ġhorses": 7973,
      "ĠjetÃ©": 7974,
      "Ġthanks": 7975,
      "althy": 7976,
      "Ġdanced": 7977,
      "Ġendormie": 7978,
      "aimais": 7979,
      "ĠÃ©teindre": 7980,
      "Ġcourageuse": 7981,
      "institut": 7982,
      "Ġcooperate": 7983,
      "ĠbrÃ»le": 7984,
      "Ġdescribe": 7985,
      "ĠÃ©couter": 7986,
      "ĠÃ©vident": 7987,
      "Ġravie": 7988,
      "Prom": 7989,
      "Ġprogress": 7990,
      "ĠmotivÃ©": 7991,
      "Ġbaisser": 7992,
      "Ġbougies": 7993,
      "Ġcomplaining": 7994,
      "Ġplaisanterie": 7995,
      "Ġconscien": 7996,
      "Ġsubject": 7997,
      "ĠgrossiÃ¨re": 7998,
      "Ġuncons": 7999,
      "Ġmedicine": 8000,
      "ĠverrouillÃ©": 8001,
      "Ġemploy": 8002,
      "DÃ©pÃª": 8003,
      "Ġennemi": 8004,
      "Ġprisonnier": 8005,
      "DÃ©gage": 8006,
      "PrÃ©pare": 8007,
      "ĠgÃªnÃ©": 8008,
      "accepte": 8009,
      "Ġmerciful": 8010,
      "ordinaire": 8011,
      "Ġspotted": 8012,
      "Ġinsecure": 8013,
      "Ġconvaincue": 8014,
      "Ġnegoti": 8015,
      "ĠdÃ©Ã§ue": 8016,
      "Ġadopted": 8017,
      "Certains": 8018,
      "Ġconfessed": 8019,
      "Ġrejoindre": 8020,
      "ĠdÃ©barrasser": 8021,
      "intÃ©resse": 8022,
      "Ġexperience": 8023,
      "Ġhumiliated": 8024,
      "aucune": 8025,
      "ĠrÃ©tab": 8026,
      "Permettez": 8027,
      "Ġponctu": 8028,
      "Ġblagues": 8029,
      "Ġgradu": 8030,
      "Ãīteins": 8031,
      "ĠcoÃ»tent": 8032,
      "Ġrembours": 8033,
      "Ġsiffler": 8034,
      "Ġstruggled": 8035,
      "Ġcreepy": 8036,
      "Ġhistory": 8037,
      "Ġfalse": 8038,
      "Ġwitness": 8039,
      "Ġdisponible": 8040,
      "Ġnatural": 8041,
      "Ġwreck": 8042,
      "Ġsexy": 8043,
      "Ġpurpose": 8044,
      "ĠbÅĵuf": 8045,
      "Ġcelebr": 8046,
      "Utilis": 8047,
      "ĠcinÃ©ma": 8048,
      "Ġvigil": 8049,
      "Ġstubborn": 8050,
      "ĠJohn": 8051,
      "Ġpickpockets": 8052,
      "?\"": 8053,
      "Di": 8054,
      "Fe": 8055,
      "Fl": 8056,
      "Ici": 8057,
      "LÃ¨ve": 8058,
      "Pose": 8059,
      "Posez": 8060,
      "Rentre": 8061,
      "Roll": 8062,
      "Vis": 8063,
      "War": 8064,
      "Yesterday": 8065,
      "cent": 8066,
      "dra": 8067,
      "fic": 8068,
      "hod": 8069,
      "haps": 8070,
      "jug": 8071,
      "ked": 8072,
      "ners": 8073,
      "noon": 8074,
      "rom": 8075,
      "rasse": 8076,
      "ruct": 8077,
      "tion": 8078,
      "town": 8079,
      "ĠU": 8080,
      "ĠNew": 8081,
      "Ġtal": 8082,
      "Ġayez": 8083,
      "Ġsque": 8084,
      "Ġdare": 8085,
      "Ġpred": 8086,
      "Ġpushed": 8087,
      "ĠpÃ¨se": 8088,
      "ondez": 8089,
      "oncÃ©": 8090,
      "ening": 8091,
      "Ġmaid": 8092,
      "Ġcuit": 8093,
      "Ġcult": 8094,
      "erne": 8095,
      "omach": 8096,
      "iny": 8097,
      "Ġnod": 8098,
      "anou": 8099,
      "Ġfie": 8100,
      "Ġfol": 8101,
      "Ġfilled": 8102,
      "Ġbav": 8103,
      "Ġbol": 8104,
      "Ġbuck": 8105,
      "Ġbaff": 8106,
      "Ġvienne": 8107,
      "Ġviennes": 8108,
      "Ġhill": 8109,
      "Ġhole": 8110,
      "unt": 8111,
      "orp": 8112,
      "order": 8113,
      "enture": 8114,
      "Ġpassi": 8115,
      "Ġgal": 8116,
      "Ġgain": 8117,
      "Ġgate": 8118,
      "Ġgants": 8119,
      "edy": 8120,
      "Ġneck": 8121,
      "Ġunbelievable": 8122,
      "ottes": 8123,
      "rim": 8124,
      "riday": 8125,
      "Ġlecture": 8126,
      "Ġtrag": 8127,
      "Ġdocu": 8128,
      "Ã©tent": 8129,
      "Ġthick": 8130,
      "ilient": 8131,
      "Ġrout": 8132,
      "Ġbeef": 8133,
      "onses": 8134,
      "Ġchic": 8135,
      "Ġchand": 8136,
      "choir": 8137,
      "chÃ©es": 8138,
      "adresse": 8139,
      "Ġink": 8140,
      "alys": 8141,
      "els": 8142,
      "verrou": 8143,
      "Ġteint": 8144,
      "iew": 8145,
      "Ġplup": 8146,
      "Ġplair": 8147,
      "ĠplantÃ©": 8148,
      "Ġplaces": 8149,
      "Ġplomb": 8150,
      "Ġking": 8151,
      "ĠanÃ©ant": 8152,
      "ĠÃ©toi": 8153,
      "agÃ©e": 8154,
      "Ġstat": 8155,
      "Ġstomach": 8156,
      "amais": 8157,
      "amies": 8158,
      "amuser": 8159,
      "Ġmyst": 8160,
      "ops": 8161,
      "alling": 8162,
      "ĠdÃ©gu": 8163,
      "Ġsocial": 8164,
      "oser": 8165,
      "Ġrican": 8166,
      "ortable": 8167,
      "Ġjeans": 8168,
      "Ġdesperate": 8169,
      "jeune": 8170,
      "obsc": 8171,
      "oyÃ©e": 8172,
      "ĠÃ©loi": 8173,
      "ouvant": 8174,
      "idered": 8175,
      "Ġparticul": 8176,
      "apez": 8177,
      "apable": 8178,
      "Ġgras": 8179,
      "Ġsieste": 8180,
      "Ġcomporte": 8181,
      "ĠMars": 8182,
      "ĠagitÃ©": 8183,
      "nement": 8184,
      "Ġmanquent": 8185,
      "Ġmarteau": 8186,
      "Ġblo": 8187,
      "ists": 8188,
      "Ġprov": 8189,
      "Ġproche": 8190,
      "Ġbrown": 8191,
      "Ġentra": 8192,
      "Ġvaches": 8193,
      "ĠimpliquÃ©": 8194,
      "Ġimprob": 8195,
      "Ġadvent": 8196,
      "Ġresilient": 8197,
      "ĠFriday": 8198,
      "Ġcommande": 8199,
      "ĠprivÃ©": 8200,
      "ĠpiquÃ©": 8201,
      "Ġfinal": 8202,
      "Ġfinie": 8203,
      "Ġhurting": 8204,
      "Ġspiders": 8205,
      "Ġspoken": 8206,
      "Ġveniez": 8207,
      "Ġconfir": 8208,
      "Ġoubl": 8209,
      "Ġdowntown": 8210,
      "Ġsentit": 8211,
      "Ġpaye": 8212,
      "ĠpayÃ©e": 8213,
      "essayez": 8214,
      "ĠrÃ©ponses": 8215,
      "Ġsecours": 8216,
      "ĠdÃ©sire": 8217,
      "ĠdÃ©saccord": 8218,
      "Ġphrase": 8219,
      "Ġjoues": 8220,
      "ĠmÃ©l": 8221,
      "Ġplanned": 8222,
      "Ġvieilles": 8223,
      "Ġfortune": 8224,
      "Ġrepris": 8225,
      "encre": 8226,
      "Ġparesse": 8227,
      "Ġrecently": 8228,
      "Ãīv": 8229,
      "Ġfirent": 8230,
      "Ġsortis": 8231,
      "Ġinsc": 8232,
      "Ġinsul": 8233,
      "Ġvision": 8234,
      "Ġmature": 8235,
      "Ġremis": 8236,
      "Ġrefuser": 8237,
      "Ġsupporte": 8238,
      "Ġincapable": 8239,
      "ĠdÃ©pend": 8240,
      "Ġfuite": 8241,
      "Ġimit": 8242,
      "Ġperdit": 8243,
      "Attr": 8244,
      "Ġblesser": 8245,
      "Ġbegins": 8246,
      "Ġanswers": 8247,
      "Ġsaurais": 8248,
      "Ġactive": 8249,
      "Ġdiscreet": 8250,
      "ĠdiscutÃ©": 8251,
      "Ġmoteur": 8252,
      "ĠrisquÃ©": 8253,
      "Ġmouchoir": 8254,
      "Ġbull": 8255,
      "Ġbuvez": 8256,
      "Ġcontentes": 8257,
      "Ġtric": 8258,
      "Ġtricked": 8259,
      "Ġcria": 8260,
      "Ġvoisin": 8261,
      "Ġsolved": 8262,
      "Ġeyesight": 8263,
      "Ġsatisfaites": 8264,
      "Ġconduct": 8265,
      "Ġintelligents": 8266,
      "Ġpapers": 8267,
      "Ġpapiers": 8268,
      "ĠdÃ©ranger": 8269,
      "Ġminuit": 8270,
      "ĠthÃ©or": 8271,
      "Trouve": 8272,
      "Tranquille": 8273,
      "Ġheaded": 8274,
      "Ġcaptu": 8275,
      "Ġfarmer": 8276,
      "Ġafternoon": 8277,
      "habiller": 8278,
      "Ġfooled": 8279,
      "iaque": 8280,
      "Ġouvrage": 8281,
      "Ġwritten": 8282,
      "Ġlegal": 8283,
      "Ġgreet": 8284,
      "Ġimmature": 8285,
      "ĠrÃ©pondit": 8286,
      "Ġtrompes": 8287,
      "Ġavocate": 8288,
      "Ġsouper": 8289,
      "ĠdÃ©faut": 8290,
      "Ġeffrayant": 8291,
      "ĠeffrayÃ©e": 8292,
      "Ġimpatiente": 8293,
      "Ġpuni": 8294,
      "Ġvein": 8295,
      "Ġmignons": 8296,
      "Retire": 8297,
      "Ġvalait": 8298,
      "DÃ©solÃ©e": 8299,
      "Ġmiennes": 8300,
      "Ġsells": 8301,
      "Ġraised": 8302,
      "Ġblackm": 8303,
      "Ġwhenever": 8304,
      "Ġpresser": 8305,
      "Ġdistance": 8306,
      "raÃ®ch": 8307,
      "ĠÂ».": 8308,
      "Ġgambling": 8309,
      "Remettez": 8310,
      "ĠÃ©clair": 8311,
      "ĠchoquÃ©e": 8312,
      "Ġhabitue": 8313,
      "Ġprofondeur": 8314,
      "Ġrecommend": 8315,
      "Ġaccepter": 8316,
      "Play": 8317,
      "Ġdrawer": 8318,
      "Perhaps": 8319,
      "Ġpotatoes": 8320,
      "Ġpromener": 8321,
      "Ġimpressionnant": 8322,
      "Ġvolunteer": 8323,
      "Ġcharming": 8324,
      "Ġclimb": 8325,
      "Ġjudge": 8326,
      "Ġjaponaise": 8327,
      "Ġobviously": 8328,
      "Ġbrillante": 8329,
      "abandonne": 8330,
      "Ġaston": 8331,
      "Ġlouer": 8332,
      "Ġsoutien": 8333,
      "Ġleva": 8334,
      "Ġaugmentation": 8335,
      "Ġenvirons": 8336,
      "Ġhammer": 8337,
      "Ġcellphone": 8338,
      "Ġattirante": 8339,
      "Ġtrahie": 8340,
      "Ġtiroir": 8341,
      "Ġcrowd": 8342,
      "ĠcoopÃ©rer": 8343,
      "ĠdotÃ©": 8344,
      "Ġrefusa": 8345,
      "Ġanxious": 8346,
      "ĠannulÃ©": 8347,
      "Ġpierre": 8348,
      "ĠamÃ©liorÃ©": 8349,
      "ĠamenÃ©": 8350,
      "Ġoccur": 8351,
      "Ġgloves": 8352,
      "ĠcoÃ»tera": 8353,
      "ennuyer": 8354,
      "Ġcanceled": 8355,
      "ulsive": 8356,
      "Ġchallenge": 8357,
      "Ġdorment": 8358,
      "universitÃ©": 8359,
      "Ġdefeated": 8360,
      "Ġreliable": 8361,
      "ĠÃ©paules": 8362,
      "Ġdommage": 8363,
      "ĠrenversÃ©": 8364,
      "Ġgorgeous": 8365,
      "ĠYork": 8366,
      "Ġgiggled": 8367,
      "ĠinÃ©vitable": 8368,
      "ĠdÃ©cev": 8369,
      "oosen": 8370,
      "Ġenfreint": 8371,
      "ĠÃ©crivain": 8372,
      "essaierai": 8373,
      "Ġrescued": 8374,
      "Ġmiserable": 8375,
      "Ġmorceau": 8376,
      "Ġunconscious": 8377,
      "Ġchandail": 8378,
      "Ġplupart": 8379,
      "Ġimprobable": 8380,
      "Attrapez": 8381,
      "Af": 8382,
      "Ache": 8383,
      "Boy": 8384,
      "Con": 8385,
      "Catch": 8386,
      "Dinner": 8387,
      "Emp": 8388,
      "Gu": 8389,
      "Happy": 8390,
      "Jamais": 8391,
      "Light": 8392,
      "Mille": 8393,
      "Pull": 8394,
      "Sing": 8395,
      "Soyons": 8396,
      "Tw": 8397,
      "Voy": 8398,
      "Wake": 8399,
      "bage": 8400,
      "board": 8401,
      "ian": 8402,
      "ionnÃ©": 8403,
      "ipped": 8404,
      "ieurs": 8405,
      "lÃ©e": 8406,
      "mind": 8407,
      "oci": 8408,
      "ran": 8409,
      "rure": 8410,
      "rante": 8411,
      "tom": 8412,
      "vol": 8413,
      "Ġorte": 8414,
      "Ġtarg": 8415,
      "ĠtÃ¢che": 8416,
      "reg": 8417,
      "ĠaÃ®": 8418,
      "Ġsien": 8419,
      "esc": 8420,
      "Ġpil": 8421,
      "Ġpist": 8422,
      "Ġmi": 8423,
      "Ġmeurs": 8424,
      "Ã©te": 8425,
      "Ġcast": 8426,
      "erie": 8427,
      "eriez": 8428,
      "inez": 8429,
      "Ġnue": 8430,
      "Ġnames": 8431,
      "heart": 8432,
      "Ġfid": 8433,
      "Ġfasses": 8434,
      "ĠfÃ»mes": 8435,
      "Ġbud": 8436,
      "Ġboissons": 8437,
      "Ġwol": 8438,
      "Ġwide": 8439,
      "Ġvom": 8440,
      "Ġvacc": 8441,
      "atic": 8442,
      "quant": 8443,
      "veur": 8444,
      "veillez": 8445,
      "iture": 8446,
      "Ġhes": 8447,
      "orce": 8448,
      "orough": 8449,
      "Ġgout": 8450,
      "Ġquot": 8451,
      "Ġunre": 8452,
      "Ġunbe": 8453,
      "Ġunivers": 8454,
      "oiled": 8455,
      "rie": 8456,
      "Ġtheory": 8457,
      "ĠreÃ§": 8458,
      "Ġreact": 8459,
      "idienne": 8460,
      "Ġtrack": 8461,
      "Ġtranqu": 8462,
      "Ġjoie": 8463,
      "mez": 8464,
      "aube": 8465,
      "Ġthrew": 8466,
      "Ġthorough": 8467,
      "Ġrage": 8468,
      "Ġroof": 8469,
      "Ġrational": 8470,
      "Ġbelt": 8471,
      "Ġlaund": 8472,
      "Ġlampe": 8473,
      "Ġeager": 8474,
      "champ": 8475,
      "ades": 8476,
      "ication": 8477,
      "Ġsew": 8478,
      "verse": 8479,
      "Ġteasing": 8480,
      "iration": 8481,
      "Ġcomb": 8482,
      "Ġalliez": 8483,
      "rendered": 8484,
      "ĠÃ©tern": 8485,
      "agon": 8486,
      "illa": 8487,
      "Ġstairs": 8488,
      "Ġstiff": 8489,
      "acting": 8490,
      "ury": 8491,
      "ĠgoÃ»": 8492,
      "ampe": 8493,
      "amuse": 8494,
      "Ġceinture": 8495,
      "endie": 8496,
      "igin": 8497,
      "Ġatro": 8498,
      "Ġrifle": 8499,
      "appel": 8500,
      "appelez": 8501,
      "approche": 8502,
      "esses": 8503,
      "cip": 8504,
      "Ġshame": 8505,
      "Ġshaken": 8506,
      "Ãªter": 8507,
      "Ġloc": 8508,
      "ĠarrÃªte": 8509,
      "Ġamong": 8510,
      "Ġamical": 8511,
      "ĠÃ©levÃ©": 8512,
      "Ġsurrendered": 8513,
      "sip": 8514,
      "Ġdevast": 8515,
      "ĠdevinÃ©": 8516,
      "Ġcrise": 8517,
      "Ġcroyez": 8518,
      "ĠcrÃ¨me": 8519,
      "Ġbienvenu": 8520,
      "Ġapply": 8521,
      "Ġapprend": 8522,
      "agement": 8523,
      "Ġcomplet": 8524,
      "Ġcomprom": 8525,
      "roite": 8526,
      "Ġdiab": 8527,
      "Ã®tre": 8528,
      "Ġclue": 8529,
      "Ġcoc": 8530,
      "abor": 8531,
      "abilitÃ©": 8532,
      "Ġcontacter": 8533,
      "assiez": 8534,
      "Ã©cl": 8535,
      "Ġhadn": 8536,
      "istre": 8537,
      "Ġreads": 8538,
      "Ġproject": 8539,
      "Ġentier": 8540,
      "lÃ©ment": 8541,
      "Ġtrains": 8542,
      "Ġattitude": 8543,
      "Ġbonheur": 8544,
      "issante": 8545,
      "ums": 8546,
      "Ġimpressive": 8547,
      "Ġoffert": 8548,
      "Ġoffended": 8549,
      "iven": 8550,
      "Ġreser": 8551,
      "Ġshoulder": 8552,
      "Ġwhis": 8553,
      "Ġcourrier": 8554,
      "Ġpipe": 8555,
      "Ġpassera": 8556,
      "Ġcouvert": 8557,
      "Ġhurried": 8558,
      "Ġretira": 8559,
      "Ġconfirm": 8560,
      "Ġenfui": 8561,
      "ralement": 8562,
      "ĠÃ©coulÃ©": 8563,
      "Ġoverwe": 8564,
      "Ġscares": 8565,
      "Ġscrew": 8566,
      "Ġmoon": 8567,
      "Ġsword": 8568,
      "Ġjouent": 8569,
      "Ġjouet": 8570,
      "Ġsurprend": 8571,
      "Ġsurpoids": 8572,
      "Ġposit": 8573,
      "ĠdÃ©cour": 8574,
      "ĠdÃ©crire": 8575,
      "Ġfortunate": 8576,
      "Ġpeau": 8577,
      "Ġsimply": 8578,
      "Ġpregn": 8579,
      "Ġfling": 8580,
      "Ġintend": 8581,
      "Ġintoler": 8582,
      "Ġrooms": 8583,
      "ancÃ©": 8584,
      "ĠexcusÃ©": 8585,
      "Ġrecord": 8586,
      "ĠcausÃ©": 8587,
      "Ġmett": 8588,
      "Ġsortit": 8589,
      "Ġregardes": 8590,
      "Ġinspiration": 8591,
      "Ġturning": 8592,
      "Ġaimait": 8593,
      "ĠaimÃ©e": 8594,
      "ainement": 8595,
      "Ġtenait": 8596,
      "Ġtenez": 8597,
      "Ġtenue": 8598,
      "Ġboard": 8599,
      "Ġgarbage": 8600,
      "Ġenvoyer": 8601,
      "Ġknee": 8602,
      "Ġconsider": 8603,
      "Ġearring": 8604,
      "ointment": 8605,
      "Ġchangea": 8606,
      "Ġstranger": 8607,
      "Ġbouill": 8608,
      "Ġaffair": 8609,
      "Ġsauve": 8610,
      "Ġactor": 8611,
      "Ġpersu": 8612,
      "ĠamusÃ©s": 8613,
      "ĠÃ©pouvant": 8614,
      "Ġunderstanding": 8615,
      "Ġdiscouraged": 8616,
      "Ġcontrat": 8617,
      "ĠsoirÃ©e": 8618,
      "Ġwindy": 8619,
      "Ġsnack": 8620,
      "Ġweeks": 8621,
      "ĠpiÃ¨ces": 8622,
      "Ġcooked": 8623,
      "Ġenjoying": 8624,
      "Ġforgiven": 8625,
      "ĠbeautÃ©": 8626,
      "Ġslight": 8627,
      "Ġsolve": 8628,
      "Ġforgetful": 8629,
      "Ġstupides": 8630,
      "Ġirons": 8631,
      "Restons": 8632,
      "Ã©rÃ©e": 8633,
      "ĠbriÃ¨vement": 8634,
      "ĠdÃ©roulÃ©": 8635,
      "Ġfallut": 8636,
      "Ġdessiner": 8637,
      "Ġbiolog": 8638,
      "Ġinflu": 8639,
      "rouver": 8640,
      "Ġtyp": 8641,
      "Ġregrets": 8642,
      "ĠdiffÃ©rents": 8643,
      "Ġgenoux": 8644,
      "lication": 8645,
      "Ġtaxes": 8646,
      "Ġcertains": 8647,
      "Ġinterrupt": 8648,
      "Ġprisoner": 8649,
      "Ġvitre": 8650,
      "Ġpoliceman": 8651,
      "ĠSatur": 8652,
      "Ġcurieuse": 8653,
      "ĠrÃ©soudre": 8654,
      "Ġouvre": 8655,
      "Ġchangera": 8656,
      "Ġouverts": 8657,
      "Ġenseignante": 8658,
      "Ġsmaller": 8659,
      "Ġmontrerai": 8660,
      "Ġskipped": 8661,
      "Ġinstin": 8662,
      "Ġinstruct": 8663,
      "ĠcoincÃ©": 8664,
      "Ġfairly": 8665,
      "Meet": 8666,
      "Ġchoisir": 8667,
      "Ġtreize": 8668,
      "ĠsoupÃ§": 8669,
      "Ġtempor": 8670,
      "Ġtempted": 8671,
      "ĠlÃ©gal": 8672,
      "ĠmaniÃ¨res": 8673,
      "Ġapproche": 8674,
      "Ġconcerne": 8675,
      "ĠDay": 8676,
      "ĠcrevÃ©": 8677,
      "Ġstarved": 8678,
      "Ġpleura": 8679,
      "Ġsurvivors": 8680,
      "Ġpardonnerai": 8681,
      "apprÃ©cient": 8682,
      "ĠprÃ©vois": 8683,
      "Peel": 8684,
      "Ġroman": 8685,
      "Ġcooper": 8686,
      "Ġusual": 8687,
      "Ġgames": 8688,
      "mploy": 8689,
      "Ġfascinant": 8690,
      "Ġvendredi": 8691,
      "Ġcolline": 8692,
      "ĠdÃ©testais": 8693,
      "Ġfearless": 8694,
      "ĠprogrÃ¨s": 8695,
      "Ġbirds": 8696,
      "ĠspÃ©cialitÃ©": 8697,
      "Ã¨vres": 8698,
      "Pardonne": 8699,
      "Ġsuccessful": 8700,
      "Ġobeyed": 8701,
      "ĠhÃ´pital": 8702,
      "Ġlogical": 8703,
      "Croyez": 8704,
      "ĠcrÃ©dule": 8705,
      "Ġvegetarian": 8706,
      "Ġuncom": 8707,
      "Bonjour": 8708,
      "culation": 8709,
      "irmiÃ¨re": 8710,
      "Ġdiscussion": 8711,
      "ĠCDs": 8712,
      "ĠsauvÃ©s": 8713,
      "Ġlouder": 8714,
      "Ġmalchance": 8715,
      "Descendez": 8716,
      "interromp": 8717,
      "othÃ¨se": 8718,
      "Ġprisonniers": 8719,
      "RÃ©pondez": 8720,
      "ĠlarguÃ©": 8721,
      "Ġcritique": 8722,
      "Ġpaniquer": 8723,
      "Ġmaigre": 8724,
      "ĠprÃ©parÃ©e": 8725,
      "ĠautorisÃ©": 8726,
      "Ġvictor": 8727,
      "Ġelected": 8728,
      "Ġfrustrated": 8729,
      "Ġprivate": 8730,
      "ween": 8731,
      "Ġbruyant": 8732,
      "Ġbriefly": 8733,
      "Ġpleasant": 8734,
      "Ġmercis": 8735,
      "Ġmeurt": 8736,
      "Ġmeurtre": 8737,
      "humeur": 8738,
      "Ã©nergie": 8739,
      "Ġcanadien": 8740,
      "Ġpersonnel": 8741,
      "Ġpractice": 8742,
      "Ġguests": 8743,
      "ĠfantÃ´mes": 8744,
      "jamas": 8745,
      "Ġmidnight": 8746,
      "Ġmicro": 8747,
      "Ġdespise": 8748,
      "Commencez": 8749,
      "Bouge": 8750,
      "Ġprudemment": 8751,
      "attraper": 8752,
      "ĠChinese": 8753,
      "Ġfournir": 8754,
      "Ġjaune": 8755,
      "RÃ©flÃ©chis": 8756,
      "ropri": 8757,
      "Ġaggressive": 8758,
      "ĠstupÃ©fait": 8759,
      "Ġnurse": 8760,
      "Ġrugby": 8761,
      "ĠcomprÃ©hens": 8762,
      "ĠJackson": 8763,
      "Ġunlocked": 8764,
      "Ġtrousers": 8765,
      "ĠheurtÃ©": 8766,
      "Ġmystery": 8767,
      "Ġsafely": 8768,
      "Ġnewspaper": 8769,
      "ĠrÃ©sultats": 8770,
      "ĠrÃ©cupÃ©rer": 8771,
      "Ġnicer": 8772,
      "ascens": 8773,
      "Ġentirely": 8774,
      "Ġoverreacting": 8775,
      "Ġoverworked": 8776,
      "obscuritÃ©": 8777,
      "Ġoublier": 8778,
      "ĠthÃ©orie": 8779,
      "minded": 8780,
      "Ġtarget": 8781,
      "Ġpistole": 8782,
      "Ġquotidienne": 8783,
      "Ġtranquilles": 8784,
      "Ġoverweight": 8785,
      "Ġpregnant": 8786,
      "ĠÃ©pouvantable": 8787,
      "Ġquotidiennement": 8788,
      "..": 8789,
      "But": 8790,
      "Deux": 8791,
      "FO": 8792,
      "Fi": 8793,
      "Hi": 8794,
      "Hors": 8795,
      "Lie": 8796,
      "Loosen": 8797,
      "Net": 8798,
      "Res": 8799,
      "Rac": 8800,
      "Rappelle": 8801,
      "Sens": 8802,
      "Summer": 8803,
      "Util": 8804,
      "Vrai": 8805,
      "Water": 8806,
      "ax": 8807,
      "ause": 8808,
      "honn": 8809,
      "iÃ©s": 8810,
      "land": 8811,
      "light": 8812,
      "midi": 8813,
      "monnaie": 8814,
      "ooth": 8815,
      "rots": 8816,
      "tiens": 8817,
      "vÃ©e": 8818,
      "word": 8819,
      "ycle": 8820,
      "Ġ$": 8821,
      "Ġ4": 8822,
      "ouille": 8823,
      "Ġtais": 8824,
      "Ġtiny": 8825,
      "Ġaffe": 8826,
      "ĠsonnÃ©": 8827,
      "Ġsonner": 8828,
      "Ġsages": 8829,
      "Ġdonnez": 8830,
      "Ġdawn": 8831,
      "Ġdata": 8832,
      "Ġpess": 8833,
      "Ġpool": 8834,
      "Ġpisc": 8835,
      "ĠpÃªche": 8836,
      "isme": 8837,
      "ones": 8838,
      "ener": 8839,
      "Ġlors": 8840,
      "Ġcraign": 8841,
      "ervÃ©": 8842,
      "ombe": 8843,
      "inent": 8844,
      "inci": 8845,
      "ĠnÃ´tres": 8846,
      "ailed": 8847,
      "aned": 8848,
      "anation": 8849,
      "Ġfassiez": 8850,
      "Ġbais": 8851,
      "Ġbid": 8852,
      "ĠbÃ¢": 8853,
      "Ġbowed": 8854,
      "Ġwild": 8855,
      "Ġwaved": 8856,
      "Ġvic": 8857,
      "quin": 8858,
      "itaine": 8859,
      "Ġhu": 8860,
      "Ġhoney": 8861,
      "uns": 8862,
      "orde": 8863,
      "entrÃ©e": 8864,
      "Ġtoit": 8865,
      "Ġgaz": 8866,
      "Ġgear": 8867,
      "lever": 8868,
      "levez": 8869,
      "usc": 8870,
      "Ġunb": 8871,
      "Ġunne": 8872,
      "Ġunlike": 8873,
      "oted": 8874,
      "Ġmembre": 8875,
      "Ġreven": 8876,
      "Ġrelu": 8877,
      "Ġretenu": 8878,
      "ids": 8879,
      "idy": 8880,
      "Ġjup": 8881,
      "Ġdope": 8882,
      "Ã©tit": 8883,
      "Ġralent": 8884,
      "Ġbeans": 8885,
      "Ġele": 8886,
      "Ġeau": 8887,
      "Ġearth": 8888,
      "Ġinde": 8889,
      "Ġindi": 8890,
      "alÃ©": 8891,
      "alarme": 8892,
      "icien": 8893,
      "Ġseats": 8894,
      "Ġpros": 8895,
      "Ġteen": 8896,
      "Ġuneasy": 8897,
      "irais": 8898,
      "Ġparten": 8899,
      "Ġparvenu": 8900,
      "Ġparoles": 8901,
      "ĠÃ©tat": 8902,
      "aging": 8903,
      "avi": 8904,
      "Ġstressed": 8905,
      "Ġwealthy": 8906,
      "ami": 8907,
      "urer": 8908,
      "ĠdÃ©verrou": 8909,
      "ĠdÃ©jeune": 8910,
      "eze": 8911,
      "Ġongles": 8912,
      "appareil": 8913,
      "ardons": 8914,
      "oreille": 8915,
      "ortes": 8916,
      "Ġshook": 8917,
      "Ġaud": 8918,
      "ĠtuÃ©s": 8919,
      "Neither": 8920,
      "Celles": 8921,
      "oiseau": 8922,
      "Ġalternative": 8923,
      "ĠexÃ©c": 8924,
      "onger": 8925,
      "oyable": 8926,
      "ular": 8927,
      "Ġsurmen": 8928,
      "Ġusage": 8929,
      "Pours": 8930,
      "Ġgrin": 8931,
      "Ġgrog": 8932,
      "aky": 8933,
      "Ġabove": 8934,
      "Ġaboard": 8935,
      "Ġcra": 8936,
      "Ġcraw": 8937,
      "Ġcrashed": 8938,
      "Ġsafer": 8939,
      "uisez": 8940,
      "rochez": 8941,
      "Ġhappiness": 8942,
      "Ġserves": 8943,
      "Ġserrure": 8944,
      "Ġcode": 8945,
      "Ġdram": 8946,
      "Only": 8947,
      "igner": 8948,
      "Ġdemeure": 8949,
      "umer": 8950,
      "uded": 8951,
      "Ġresult": 8952,
      "liquez": 8953,
      "Ġfric": 8954,
      "Ġarrivent": 8955,
      "Ġtape": 8956,
      "Ġrestes": 8957,
      "Ġmutu": 8958,
      "Ġfined": 8959,
      "Ġcoupe": 8960,
      "Ġcallous": 8961,
      "Ġretrait": 8962,
      "Ġsaviez": 8963,
      "Ġspend": 8964,
      "Ġspread": 8965,
      "ĠouÃ¯": 8966,
      "Ġbetween": 8967,
      "essayerai": 8968,
      "Ġpouvions": 8969,
      "Ġobtenir": 8970,
      "Ġvouloir": 8971,
      "Ġrendent": 8972,
      "Ġscand": 8973,
      "ĠdÃ©sir": 8974,
      "Ġswam": 8975,
      "Ġpharm": 8976,
      "ĠmÃ©d": 8977,
      "Ġfox": 8978,
      "Ġvieill": 8979,
      "encer": 8980,
      "Ġorigin": 8981,
      "Ġmentally": 8982,
      "accident": 8983,
      "Allow": 8984,
      "Ġrecondu": 8985,
      "ockey": 8986,
      "ĠfauchÃ©": 8987,
      "Ġinvinci": 8988,
      "Ġregardent": 8989,
      "Ġregardait": 8990,
      "Ġsupplie": 8991,
      "ĠsupplÃ©ment": 8992,
      "Ġchangent": 8993,
      "ĠgarÃ©": 8994,
      "Ġclef": 8995,
      "ĠimbÃ©cile": 8996,
      "Ġconsul": 8997,
      "Ġconsidered": 8998,
      "Ġgrosses": 8999,
      "Ġmisjud": 9000,
      "ĠembÃªt": 9001,
      "Ġbeginner": 9002,
      "Ġmessages": 9003,
      "Ġexplanation": 9004,
      "Ġtwins": 9005,
      "Ġcontraire": 9006,
      "Ġeffet": 9007,
      "Ġfondu": 9008,
      "Ġbeauty": 9009,
      "Ġdevenus": 9010,
      "Ġrappelez": 9011,
      "olded": 9012,
      "Ã©ration": 9013,
      "Ġnormale": 9014,
      "Ġpoet": 9015,
      "Ġbutter": 9016,
      "Ġbecause": 9017,
      "bÃ©rÃ©": 9018,
      "Ġhumide": 9019,
      "Ġquietly": 9020,
      "Ġrule": 9021,
      "Ġseriously": 9022,
      "Ġcopie": 9023,
      "Ġsuivie": 9024,
      "ĠÃ©tudiantes": 9025,
      "ĠintÃ©ressÃ©s": 9026,
      "Ġafterwards": 9027,
      "Ġarms": 9028,
      "Ġvitam": 9029,
      "Ġespion": 9030,
      "Ġsnowed": 9031,
      "Ġconnaissait": 9032,
      "ĠdonnÃ©es": 9033,
      "Ġtraveled": 9034,
      "Ġtotal": 9035,
      "ĠdisposÃ©": 9036,
      "Ġgrill": 9037,
      "urgers": 9038,
      "Ġdisappeared": 9039,
      "Ã©vÃ¨re": 9040,
      "Ġfusil": 9041,
      "ĠChopin": 9042,
      "Ġproposal": 9043,
      "Ġtemper": 9044,
      "Anything": 9045,
      "Sometimes": 9046,
      "ugging": 9047,
      "Ġobjection": 9048,
      "Ġbreathe": 9049,
      "Ġbreathing": 9050,
      "Ġservir": 9051,
      "Ġformulaire": 9052,
      "Ġsett": 9053,
      "dessous": 9054,
      "Ġdurer": 9055,
      "Shouldn": 9056,
      "Ġmagasins": 9057,
      "Ġextro": 9058,
      "ĠauprÃ¨s": 9059,
      "Ġchanteuse": 9060,
      "aimons": 9061,
      "Ġracont": 9062,
      "Ġgravement": 9063,
      "Ġcourageous": 9064,
      "ĠspÃ©ci": 9065,
      "Ġmordre": 9066,
      "Ġpanting": 9067,
      "ĠfiÃ¨res": 9068,
      "Ġgamin": 9069,
      "ĠrÃ©glÃ©": 9070,
      "ĠrÃ©gler": 9071,
      "Ġmurdered": 9072,
      "Ġdescend": 9073,
      "Ġmourut": 9074,
      "ĠdÃ©pourvue": 9075,
      "ambition": 9076,
      "Ġsucceeded": 9077,
      "Ġfreezing": 9078,
      "Finish": 9079,
      "Ġdoivent": 9080,
      "Ġbougie": 9081,
      "Plus": 9082,
      "Ġdrawing": 9083,
      "Ġringing": 9084,
      "Ġmaths": 9085,
      "ĠtÃ©lÃ©phoner": 9086,
      "Ġvertig": 9087,
      "ratul": 9088,
      "Ġreceived": 9089,
      "Ġvolunteered": 9090,
      "Ġpopulaire": 9091,
      "Ġclimbing": 9092,
      "Ġmaladie": 9093,
      "ĠhabituÃ©e": 9094,
      "ĠdÃ©butant": 9095,
      "Ġapplaud": 9096,
      "Surveille": 9097,
      "ĠverrouillÃ©e": 9098,
      "ĠemployÃ©": 9099,
      "Ġincredibly": 9100,
      "ĠhypothÃ¨se": 9101,
      "ĠÃ©lÃ©gante": 9102,
      "DÃ©pÃªche": 9103,
      "Ġennemis": 9104,
      "Ġsplend": 9105,
      "Ġsemblables": 9106,
      "Ġressembles": 9107,
      "Ġdigging": 9108,
      "Ġcirculation": 9109,
      "ordinateur": 9110,
      "shirt": 9111,
      "Ġdoutes": 9112,
      "issement": 9113,
      "Ġfabulous": 9114,
      "Certaines": 9115,
      "Verrouille": 9116,
      "Ġhomes": 9117,
      "ĠÃ©clata": 9118,
      "Ġlapins": 9119,
      "Ġkilos": 9120,
      "Ġpossibil": 9121,
      "ĠpossibilitÃ©": 9122,
      "Ġcroyais": 9123,
      "Ġdishes": 9124,
      "ĠpitiÃ©": 9125,
      "Remplissez": 9126,
      "ĠfiancÃ©e": 9127,
      "ĠsÃ©parÃ©s": 9128,
      "Ġfussy": 9129,
      "Ġabsurde": 9130,
      "Ġtapis": 9131,
      "Ġronfle": 9132,
      "ĠdiplÃ´": 9133,
      "Ġsoudainement": 9134,
      "Ġdamage": 9135,
      "ĠpÃ©nÃ©t": 9136,
      "Ġstinks": 9137,
      "ĠpathÃ©tique": 9138,
      "ĠpropriÃ©t": 9139,
      "EspÃ©rons": 9140,
      "Ġbowling": 9141,
      "Ġodeur": 9142,
      "Ġrompu": 9143,
      "Ġserpents": 9144,
      "ĠdÃ©sorientÃ©": 9145,
      "Ġfamilier": 9146,
      "Ġsilencieuse": 9147,
      "Ġtroubled": 9148,
      "Ġpoussi": 9149,
      "ennemi": 9150,
      "Ġconnected": 9151,
      "ĠaffamÃ©": 9152,
      "ĠdiffÃ©rentes": 9153,
      "Study": 9154,
      "ĠrafraÃ®ch": 9155,
      "ĠmÃ©decins": 9156,
      "ĠUFO": 9157,
      "Ġtalents": 9158,
      "Ġbaffled": 9159,
      "Ġplaira": 9160,
      "Ġastonished": 9161,
      "Guess": 9162,
      "Ġorteils": 9163,
      "Ġdevastated": 9164,
      "Ġreserved": 9165,
      "Ġpistolet": 9166,
      "Nettoie": 9167,
      "Ġpessim": 9168,
      "Ġpiscine": 9169,
      "Ġvictoire": 9170,
      "Ġunnecessary": 9171,
      "Ġunlikely": 9172,
      "Ġmisjudged": 9173,
      "Aj": 9174,
      "Actu": 9175,
      "AmÃ©rique": 9176,
      "BI": 9177,
      "Emb": 9178,
      "Faire": 9179,
      "Gl": 9180,
      "Lave": 9181,
      "Men": 9182,
      "Man": 9183,
      "Mais": 9184,
[...]
